. 23933368
, 22288737
và 8191651
của 8176512
&quot; 7663355
có 7185447
một 7151373
là 7037475
không 6486343
tôi 6098256
- 6068802
người 5147731
trong 4681882
những 4673878
được 4390243
đã 4250094
ta 4181344
cho 3980283
chúng 3583760
các 3561136
với 3528134
sự 3259444
đó 3238155
thể 2856810
: 2822776
ra 2818607
anh 2765076
như 2720619
khi 2635798
? 2620186
ông 2559657
làm 2522080
đến 2512247
phải 2508704
để 2502395
này 2501988
về 2479417
nói 2439797
lại 2436235
sẽ 2374852
ở 2213878
chúa 2169258
họ 2071037
vào 2069667
con 2066243
mà 1996538
điều 1989497
nhưng 1975227
thế 1931524
mình 1893359
gì 1819110
cô 1816404
việc 1800557
nó 1789841
đi 1789228
bạn 1705104
cũng 1665142
từ 1642656
công 1618356
biết 1557599
nào 1557135
thì 1547287
đức 1544668
thấy 1541533
đầu 1531801
chỉ 1513095
cả 1502991
vì 1492344
rằng 1483569
trên 1401635
nhà 1347887
đang 1334283
theo 1333907
bị 1332759
định 1297306
cái 1293143
cách 1285938
thành 1274993
ấy 1264486
quan 1248743
khác 1244580
sau 1239797
trời 1235772
còn 1213608
chính 1199065
) 1198573
hơn 1198186
ngài 1196854
đây 1181479
lên 1134625
rồi 1127762
( 1124804
năm 1072426
nhiều 1070129
tin 1059162
; 1058117
trước 1049898
tại 1048241
nhận 1047552
nhân 1031258
vậy 1029225
eos 1023758
hai 1021253
nếu 1013371
! 1013365
lời 1006428
ngày 996470
giờ 996031
thánh 990596
hiện 985127
thực 969108
động 968051
ý 962725
muốn 956132
sống 950395
số 940182
em 935974
học 929622
nhất 927191
cùng 902288
cơ 898810
... 894021
rất 880501
sao 872100
kinh 869656
qua 862894
nên 850218
thời 849387
hay 848955
lý 845361
bằng 843277
thật 842326
hội 838896
bà 838007
tự 837636
đối 836732
nhìn 836456
hành 819413
thứ 816832
nghĩ 797386
mọi 788121
nước 779177
nữa 754351
chuyện 749595
mặt 749341
tay 743077
cần 740430
do 733330
cảm 732913
hợp 722444
hàng 714095
trở 708340
đồng 706020
bản 695480
bộ 695138
gia 690294
lúc 687884
cuộc 687020
1 679335
hình 675432
hoặc 671772
ai 669699
câu 669196
mới 668466
cậu 667805
đề 662510
thông 645092
tất 644538
bao 642286
dụng 639476
vẫn 635216
vị 635171
tới 626457
chẳng 621366
hỏi 621324
vụ 621194
tiếp 610444
bắt 605959
đời 605320
hãy 603262
giáo 602361
phần 601110
bảo 596763
nhiên 594774
cầu 587290
tình 581790
yêu 581189
dân 580480
trường 578012
tìm 572634
thường 572002
tâm 568821
bên 564516
toàn 563412
tư 562411
tiếng 561350
bất 559517
nhau 553940
nơi 551317
nghe 550564
đều 546680
quyền 545005
lần 543313
cứu 537000
gian 534635
kết 533129
phát 532324
quá 528699
lớn 528289
giải 525108
trình 521969
bởi 521363
viên 520251
giá 515182
pháp 515034
sinh 513179
nghĩa 512039
chức 511843
tính 511323
lòng 508890
phòng 508369
năng 505894
đường 502302
hết 500579
quy 495043
chủ 494878
cứ 493526
ba 493350
sử 489850
chưa 487399
quyết 486772
thích 484785
trọng 483208
xem 482345
thức 482150
2 475027
hiểu 475002
điểm 474561
đại 473824
đúng 472434
chết 472274
chiếc 469490
sách 469263
hắn 469037
tiên 466856
ngay 466666
mẹ 462303
giới 461757
ăn 458404
giê 457116
xuống 456415
liên 455500
kẻ 453771
trung 453676
ngoài 452955
ban 452659
chứng 452224
tốt 451584
đồ 449762
khỏi 448427
đâu 448291
sáng 447525
tài 446921
lấy 443451
thay 438833
tội 434219
gọi 433554
thân 431369
thuộc 429191
tạo 429148
mắt 427840
hoàn 425438
tế 424912
vật 422246
đưa 420683
tiền 418105
xuất 415559
quả 415433
đổi 411117
vấn 409419
linh 409049
tên 407056
hệ 406609
cao 406199
cấp 405867
thương 405719
luật 405053
bỏ 402474
nàng 402417
cửa 402385
rõ 399121
đất 398624
mục 398071
kỳ 393314
từng 392750
– 392406
3 392108
đạo 391344
lẽ 390574
trả 390435
sản 390072
lập 389931
cố 388801
báo 387525
thôi 385514
giữa 384413
chắc 383898
độ 381877
tháng 380579
giúp 378944
cha 377171
lực 376578
nghiệp 372209
tưởng 371947
trị 371917
tổ 371613
thần 371167
bình 369959
dẫn 368054
tác 367637
phương 366905
phục 366263
quốc 362476
giống 359937
xác 359799
nay 358993
cảnh 358420
xe 356572
cuối 354490
vừa 352478
luôn 351678
biệt 350000
phía 349406
chiến 346837
mỗi 345562
đấy 345555
bố 345079
vô 344875
xin 344808
dù 344483
gần 343639
dùng 341684
/ 340999
đấng 339453
loại 338628
chịu 338002
mất 337842
bước 330563
nhỏ 327645
văn 326974
tập 326286
dự 326134
gặp 324209
đứng 324144
chân 324019
vẻ 322825
dưới 322631
bài 321699
nhiệm 321248
đặt 320363
sát 320176
hướng 317964
thiết 316503
tối 316114
đánh 315953
y 314700
mạnh 313687
truyền 312369
tiêu 311877
a 311652
thống 310848
phép 310248
đầy 309790
kể 308652
bàn 307344
tượng 306953
đáng 304960
tín 304024
máy 303136
hiệu 302389
tục 301806
chất 301671
giao 301387
giả 300783
trí 299634
đủ 299458
lỗi 299288
đặc 298884
chỗ 298532
khiến 298056
hóa 297968
chi 297963
4 297355
thêm 294671
ảnh 294598
giữ 294075
sức 293952
trẻ 292504
chàng 292329
phụ 290456
sĩ 290115
chuyển 289799
đơn 289738
vài 289452
chị 289394
viết 288710
doanh 288524
phân 287858
sở 287325
hoạt 286365
kế 286353
liệu 285244
mang 284174
kia 284035
khó 283912
nguyên 283617
mặc 283209
chú 282404
tương 281737
tiến 280887
mở 280732
5 280197
xảy 278537
cười 278118
phạm 277918
địa 277719
cá 276482
xa 275612
án 275201
bé 274456
chứ 274096
&apos; 273793
điện 273615
nhớ 273536
dựng 272192
ngồi 271823
thu 271483
kiểm 271199
lượng 269507
an 269306
trưởng 265697
quản 265504
biến 264996
dịch 264396
vi 263768
quay 263697
nữ 262178
đôi 261594
thái 261144
hạn 259300
hữu 256768
dạy 256209
ứng 255190
thiên 254588
ít 254502
chí 254049
thanh 252019
đốc 250122
xu 249474
sơ 249356
christ 248455
thi 247847
thư 247834
nầy 247763
ước 247753
triển 246693
vui 246627
cổ 246622
đàn 246390
đình 246166
nghiệm 245474
nhóm 245368
xét 245299
ngươi 244765
khách 240949
ký 240588
tra 240079
bệnh 239947
vọng 239684
sợ 239111
chọn 237514
dài 237376
tranh 237163
luận 236980
diện 236883
cây 236196
quý 236124
phẩm 235619
trái 235293
danh 234761
chương 234173
nam 233492
xây 233434
thủ 233303
đọc 230405
minh 230038
trách 229350
bây 228555
căn 228408
sa 228386
nghị 227702
chế 225556
càng 225212
lãnh 224953
phố 224835
thuật 224069
gái 223792
áo 223273
mức 222852
quân 222321
kiện 221171
tức 220370
đoạn 220258
suy 219588
khu 219510
lợi 219174
6 218854
lâu 218649
lệ 218008
nổi 217476
thị 216925
lễ 216405
diễn 216391
áp 215254
hôm 214071
thờ 213901
sai 213237
tuy 213184
khả 212712
xã 212324
hồ 212095
trang 212075
nguyện 210871
10 210678
ty 209987
bán 209556
chạy 209445
sư 209013
tuổi 208446
tử 208107
tỏ 208011
yếu 207805
khoản 207717
hầu 207230
xử 206295
cáo 206044
bác 205455
đứa 204823
khoảng 204558
đáp 204365
kiến 202663
tham 201804
mấy 201729
ơn 201644
mối 201048
quanh 200706
riêng 200548
duy 200002
đừng 199352
vực 197191
bọn 196887
phản 196813
cháu 196745
sứ 196620
vốn 196312
phủ 195813
la 194680
đẹp 194471
trông 194210
màu 193029
đau 192972
lô 192683
dễ 192161
vua 192073
nhập 191990
phi 191881
nằm 190180
ma 190127
lành 189823
tinh 189557
giấy 189199
trò 188709
đông 188288
chút 188283
mua 187756
âm 187197
tớ 186936
mô 186919
lịch 186433
à 186318
trai 185465
tăng 185351
đa 184881
lo 184545
bức 184175
ghi 183527
hoạch 183194
nhanh 182855
lạ 182555
gây 182553
tuyệt 182507
nội 182285
tổng 181678
chuẩn 181384
chung 180937
thầy 180141
giảng 179874
7 178106
chắn 177834
lắm 177834
ràng 177707
toán 177705
dành 177132
buổi 176801
sang 176612
hưởng 176565
vệ 176501
hồi 176443
chấp 176237
thuyết 175538
đêm 175409
b 175347
va 175192
12 174679
nỗi 174010
cánh 173541
chơi 173370
vợ 173323
thú 171599
phá 171471
khai 171217
ánh 170662
bóng 170525
môi 169079
8 168987
ngoại 168931
khí 168639
tôn 168322
hy 168141
cụ 168097
hô 167840
bay 167692
nghiên 166993
cung 166752
giết 166653
môn 166239
kiếm 165006
cạnh 165000
lao 164288
tích 164226
kỷ 164100
đội 163657
gã 162563
đóng 162462
phán 161904
đem 161123
biểu 160865
tàu 160544
ngủ 160518
đích 160330
phí 159679
hề 159571
giác 158425
độc 158136
gồm 157824
hơi 157366
đảm 157215
hoa 156768
bày 156518
sẵn 156423
vùng 156208
thử 155716
giọng 155608
nguồn 155554
chống 154912
kỹ 154799
ngôi 154337
9 153978
thẩm 153826
suốt 153720
sâu 153710
ca 153510
thượng 152972
đợi 152913
đá 152844
_ 152479
thiếu 152241
tấm 151571
loài 151358
tiết 151139
mạng 150738
trợ 150706
lưu 150678
mười 150648
vòng 150365
mày 150229
c 149911
hiểm 149845
hoàng 149336
tuần 149172
trạng 148930
dung 148896
kéo 148631
11 148607
phao 148186
vâng 147990
đoán 147862
cộng 147560
chia 147510
dấu 147452
ích 147327
hôn 146805
mỹ 146438
viện 146396
thuốc 146233
rộng 146063
chồng 145938
thúc 145212
thậm 145212
đám 145071
khoa 144716
phúc 144512
ngữ 144284
— 144177
vai 143613
tri 143507
nhờ 143323
khẩu 142507
sắp 142446
đạt 141331
chữ 141258
chờ 141182
thẳng 141064
biển 140919
% 140336
lão 139892
hộ 139172
kính 139110
thuế 138716
dụ 137902
cuốn 137886
đen 137752
tả 137654
ngân 137469
trực 137385
dục 136927
bốn 136156
hẳn 136093
giám 135746
to 135223
cập 135048
nghệ 134799
kêu 134779
15 134494
buộc 134212
lạc 133992
chuyên 133476
nghi 133355
thất 131513
gắng 131446
phút 131092
nhắc 130761
đấu 130554
da 130540
tỉnh 130235
trừ 129922
đế 129818
vận 128800
khổ 128471
cực 128107
lắng 128039
cơn 127984
ên 127770
mong 127447
hại 126677
20 126249
tai 126073
so 126060
hạ 125892
xúc 125498
dòng 124872
dữ 124864
ân 124358
việt 124337
khăn 124117
nền 123791
niềm 123614
vàng 122788
quen 122763
e 122711
mươi 122276
rời 121412
lặng 121220
vũ 120708
thoại 119508
dường 119505
dậy 118633
phù 118576
dầu 117942
hứa 117575
coi 117410
mẫu 117385
thưa 116986
tắc 116558
khá 116002
thù 115954
hạnh 115594
13 115586
14 115529
ngờ 115498
phê 115022
di 114480
gửi 114434
đô 113786
buồn 113782
mật 113626
phạt 112976
hậu 112597
ê 112594
cầm 112560
yên 112221
đổ 112117
trải 112053
phong 111924
uống 111896
d 111877
tận 111873
thắng 111740
vượt 111507
lớp 111156
sửa 111026
lệnh 111021
đoàn 110932
tha 110677
lối 110638
ác 110169
nạn 110067
lai 110024
kiểu 109454
chào 109448
hòa 109140
quần 108953
đỡ 108698
sắc 108364
niên 108196
16 107638
xấu 107581
tố 106522
chăm 106397
giản 106377
niệm 106288
sổ 105634
hồn 105532
tây 105518
trắng 105410
ngạc 105352
tòa 105203
lộ 105032
sàng 104952
tường 104931
tránh 104823
tờ 104605
chữa 104439
lựa 104419
ấn 104352
thằng 104294
&#91; 104177
nhật 103810
lẫn 103731
&#93; 103498
đăng 103414
ô 103244
lửa 102741
giảm 101838
nặng 101775
tuyên 101348
thuận 101152
nắm 101121
nguy 101074
giận 100924
tái 100914
jêsus 100805
khắp 100453
bí 100316
triệu 100244
thở 100198
ví 100150
miệng 99902
mã 99813
tộc 99760
lầm 99735
ngành 99638
trận 99523
thoát 99513
chiều 99148
mừng 98927
bánh 98926
nhạc 98826
cải 98317
tóc 98190
quên 97993
ạ 97870
bại 97673
dừng 97550
rối 97524
thập 97223
đẩy 97131
cư 97040
nhu 96741
tồn 96617
bổ 96524
đột 96253
nghiêm 95955
băng 95850
dỗ 95774
ghế 95645
mời 95599
cũ 95543
000 95468
tiện 95336
harry 95255
ngăn 95165
thịt 94597
hải 94570
chặt 94543
tao 94391
đỏ 94375
dần 94050
bạc 93895
soát 93706
mê 93563
17 93257
xong 93128
mùa 92711
ngôn 92670
may 92638
18 92598
rượu 92594
tấn 92536
xếp 92403
khắc 92336
điển 92296
tệ 92135
mái 91993
tầm 91980
vinh 91970
dựa 91696
đòi 91612
dây 91595
máu 91591
the 91302
trăm 91217
ngược 90827
già 90744
lạnh 90706
lá 90659
xuyên 90646
sáu 90334
ngựa 90323
xứ 90102
thăm 89873
châu 89504
nhiêu 89461
nghỉ 89310
hiệp 89284
xanh 89231
thiện 89181
nửa 89101
mãi 88683
thảo 88656
nhẹ 88641
đảo 88598
tan 88585
thừa 88070
19 86675
song 86656
mơ 86496
hát 86492
-- 86328
khôn 86242
dạng 86064
tạm 85397
đào 85255
món 85246
nghề 84984
khủng 84873
thủy 84785
im 84422
núi 84163
cậy 84143
thỏa 83843
trì 83626
khích 83613
xung 83511
dàng 83259
ngang 83217
cử 83141
cục 82854
gương 82540
tù 82514
nông 82390
khởi 82260
cắt 82189
lưng 81762
sung 81714
ngoan 81528
giai 81487
lĩnh 81238
tân 80759
ngắn 80612
hiển 80585
chiếu 80505
rơi 80422
lương 80075
sân 80047
luyện 80025
thận 79887
phiếu 79629
trọn 79624
phóng 79597
phim 79580
nhằm 79476
dĩ 79435
bắc 79329
bảy 79181
bữa 79153
phận 79122
chừng 79092
thấp 79042
thuê 79012
ổn 78784
súng 78641
rút 78637
khám 78545
dâng 78418
mắc 78345
tầng 78207
kích 78158
i 77998
tim 77988
đương 77589
rừng 77534
sớm 77474
nuôi 77385
phối 77248
ro 77205
trụ 76730
phái 76563
bật 76498
thang 76254
sạch 76189
khóa 76165
dối 75875
đền 75555
rỗi 75369
ủy 75310
giường 75227
in 74997
chối 74967
đuổi 74880
thí 74708
30 74471
ngừng 74211
sông 73957
giàu 73868
tô 73868
túi 73836
ngã 73747
cất 73733
ẩn 73695
biện 73635
vết 73577
họa 73566
khải 73455
hủy 73444
thơ 73328
phước 73212
đèn 73184
nhảy 73161
chậm 72999
nóng 72998
21 72872
khuôn 72846
rơ 72544
tướng 72204
chuyến 72154
binh 71940
bầu 71821
lính 71763
điên 71665
vời 71631
kim 71382
tiểu 71318
si 71142
24 71092
giăng 70916
tạp 70742
hỗ 70622
cấu 70585
gốc 70564
mai 70530
ga 70190
che 70006
dõi 69948
nhé 69491
hãi 69159
22 69128
su 69073
đựng 69025
vương 68893
chỉnh 68890
nộp 68836
vững 68462
tắt 68424
điệp 68329
lái 68177
cám 68147
biên 68103
mi 68001
du 67754
phượng 67671
gió 67577
ưu 67508
25 67494
s 67429
họp 67372
lục 67218
khuyên 67215
bắn 67202
ri 67185
ly 67073
tàn 67042
nối 66938
cẩn 66840
ngón 66838
hút 66801
phó 66794
lan 66769
na 66665
hoá 66296
nợ 66137
hả 65887
trao 65881
quyển 65634
cận 65633
chóng 65583
ơi 65575
tĩnh 65574
liền 65393
khóc 65309
chăng 65174
chiếm 65134
huy 64808
chép 64713
thưởng 64707
thầm 64675
cựu 64297
chứa 64082
kê 64035
dứt 63864
khỏe 63839
23 63713
sóc 63492
thách 63426
hài 63335
bảng 63049
tỷ 63008
ôi 62931
loạn 62879
ngọn 62861
mẽ 62797
ghét 62497
cặp 62443
tải 62199
nêu 62004
quán 61888
quỹ 61819
mùi 61796
bối 61725
tước 61719
xưa 61414
bờ 61321
nhấn 61242
hạt 61226
xưng 61205
giây 61111
nổ 61063
bang 60929
thác 60925
chó 60896
góp 60847
sẻ 60768
mũi 60747
trại 60548
phổ 60339
đập 60215
trần 60203
ru 60096
new 60079
mại 59953
can 59836
dám 59516
nâng 59423
chạm 59351
quảng 59216
gắn 59195
màn 59145
trốn 58975
cong 58970
thuyền 58954
nhiệt 58924
vỡ 58695
liệt 58557
lu 58402
giấc 58367
bậc 58289
gi 58285
đài 57298
quỷ 57218
diệt 57212
ngàn 57133
cớ 57040
dương 56979
vĩ 56849
trống 56739
cứng 56588
âu 56462
nhỉ 56316
góc 56294
hoang 56127
đằng 56116
ư 55959
chớ 55916
lang 55888
cân 55870
chim 55814
cà 55720
ám 55707
vẹn 55236
hằng 55179
cai 55175
li 55103
miễn 55030
chuộc 55006
mỉm 54789
ngợi 54762
cháy 54727
nghèo 54704
kèm 54623
se 54522
kém 54442
mến 54425
tu 54362
pha 54022
hộp 53784
vẽ 53780
lát 53751
mat 53720
kín 53616
vít 53545
căng 53526
hư 53516
vườn 53446
nghịch 53445
tách 53431
vang 53394
tịch 53330
vội 53315
mãn 53265
tá 53239
giấu 53101
gật 52727
não 52502
cỏ 52255
chấm 52243
huấn 52196
u 52149
nô 52133
tảng 52133
ồ 52032
jesus 51938
truy 51923
khát 51780
of 51778
ngại 51577
kịp 51444
giô 51419
đón 51417
tứ 51404
khen 51375
dưỡng 51374
tán 51278
mảnh 51228
28 51068
quái 51027
ðức 50872
hồng 50856
lược 50825
lê 50586
trưng 50368
tốc 50350
khiếp 50245
bạo 50200
26 50116
chảy 50085
hấp 50015
sanh 49969
* 49874
kiên 49859
kho 49816
rao 49719
suất 49707
lũ 49624
nhẫn 49623
tiệc 49583
đớn 49517
phu 49504
vay 49462
trích 49385
miền 49355
bò 49330
mệt 49320
tám 49185
bãi 49089
lùng 49051
lắc 48950
thiệu 48908
tùy 48907
nỗ 48650
thảm 48579
sánh 48502
khốn 48476
tròn 48441
gỗ 48224
bào 48180
bè 48105
lừa 48076
ti 48006
cam 47887
ống 47767
bận 47687
gợi 47598
siêu 47580
es 47532
# 47407
tóm 47397
27 47301
xứng 47248
thói 47217
sót 47153
chúc 47120
lâm 47094
đàng 47021
john 46690
chăn 46647
sàn 46610
hàm 46481
khối 46442
nụ 46311
trúc 46253
óc 46251
phaolô 46200
sóng 46143
kịch 46105
tuyến 46035
de 45936
dị 45913
khảo 45864
duyệt 45804
dáng 45660
hào 45581
ham 45575
mưa 45533
lỗ 45531
tổn 45497
mộ 45405
ủng 45383
hảo 45348
dọc 45270
ấm 45248
bếp 45202
phiên 45195
thả 45019
hoảng 45006
khiển 44957
ôm 44943
than 44862
say 44824
tuân 44672
chiên 44567
hứng 44552
đống 44539
triết 44531
ni 44505
bề 44467
hạng 44466
giêxu 44416
cưới 44387
ném 44325
hương 44322
mệnh 44288
phức 44208
lạy 44194
trấn 44161
tràn 43880
bỗng 43818
đói 43683
mờ 43595
khứ 43592
làng 43565
giu 43547
mụ 43483
xương 43453
run 43430
săn 43302
nét 43274
giỏi 43263
quí 43179
chín 43124
lem 43013
cờ 42969
cãi 42958
huyết 42913
ngu 42889
nga 42636
điệu 42595
thầu 42507
sắt 42496
quang 42480
mềm 42451
ngực 42424
khẳng 42370
khuyến 42330
hiến 42268
tiếc 42243
huống 42140
cúi 42136
gấp 42125
mạch 42050
thợ 42039
ngũ 41927
lôi 41924
giày 41823
phiền 41811
bụi 41675
xoay 41485
lông 41461
50 41440
hẹn 41416
đe 41414
31 41392
hổ 41245
.... 41212
chán 41202
bội 41120
đo 40936
chìa 40849
hùng 40722
răng 40694
sốt 40663
co 40581
vắng 40545
cấm 40543
chằm 40519
mù 40376
hi 40292
thụ 40281
đỉnh 40171
tung 40083
bấy 40048
bồi 40001
lơ 39977
hà 39947
vả 39874
báp 39862
t 39754
dao 39731
bụng 39730
hối 39650
rắc 39649
uy 39624
nhục 39617
trôi 39579
nhắm 39567
dịu 39560
hét 39526
nha 39486
canh 39442
khái 39414
kì 39414
đeo 39284
trào 39272
khung 39227
trồng 39176
thoảng 39114
viễn 39045
bèn 38986
dọa 38952
29 38886
tuyết 38885
khổng 38866
thảy 38808
mũ 38777
năn 38766
khúc 38700
lạp 38700
khoán 38662
40 38612
treo 38588
lặp 38524
đùa 38412
100 38401
ninh 38317
cổng 38267
hầm 38190
thổ 38123
tồi 38034
khô 38026
ương 37890
bi 37872
sợi 37816
giáng 37771
ép 37727
lộn 37659
thoải 37558
bá 37521
tặng 37509
lưỡi 37492
tắm 37444
cướp 37441
lồ 37422
loạt 37399
giật 37347
york 37123
ả 37087
hè 37026
tà 37009
vỗ 37006
ii 36950
chánh 36930
ừ 36879
nan 36861
cản 36848
ghê 36848
ngập 36823
gác 36761
miếng 36734
thỉnh 36719
tụi 36633
• 36520
mắn 36351
đạn 36318
chụp 36254
nát 36250
o 36150
nhiễm 36036
01 36003
tuyển 35931
mỏi 35745
sạn 35680
gối 35513
nhánh 35500
diệu 35495
hỡi 35442
dọn 35404
tươi 35397
mưu 35238
xót 35153
đồi 35043
lí 34944
trầm 34937
rẽ 34811
huyền 34790
khiết 34746
tựa 34715
đĩa 34693
ngon 34581
cp 34569
dính 34568
đệ 34549
rốt 34404
xâm 34346
mực 34345
ngốc 34299
hê 34272
trú 34255
quà 34100
rắn 34027
cảng 34024
địch 33939
rửa 33875
quát 33859
cú 33771
đốt 33691
dắt 33687
thiêng 33581
leo 33474
ngục 33459
rãi 33418
trưa 33406
cột 33335
vải 33321
tánh 33314
dày 33302
bê 33298
chặn 33276
cương 33252
muộn 33166
trữ 33163
lò 33123
thuần 33089
phỏng 33072
tật 33017
lui 32872
cường 32843
thải 32795
trật 32779
phấn 32769
tỉ 32758
chợt 32753
+ 32736
đãi 32717
gánh 32648
trùng 32633
triều 32617
hiếm 32561
dại 32501
giơ 32434
á 32405
khoác 32356
bông 32355
túc 32351
ico 32335
ưa 32260
đảng 32225
má 32187
x 32183
tháp 32176
thao 32168
thiệt 32140
giành 32126
chìm 32077
chủng 32003
sướng 31998
gỡ 31982
móc 31958
ủi 31958
mát 31947
man 31839
khẽ 31831
chai 31790
chở 31751
ron 31737
lưới 31662
m 31620
dò 31593
nhàng 31431
bám 31358
rủi 31335
dặm 31287
trừng 31255
tiềm 31248
san 31244
bực 31204
^ 31181
thoáng 31119
nhuận 31115
buôn 31076
gọn 31061
ngưỡng 31047
đam 31032
.. 30973
ngắm 30946
tạ 30937
ái 30838
n 30743
g 30727
xinh 30704
ngự 30665
mạc 30628
nọ 30568
dư 30546
đâm 30523
tăm 30510
liếc 30476
đắn 30363
lãng 30362
ha 30312
giam 30256
lượt 30247
kháng 30179
kiêu 30175
lăm 30131
and 29981
đ 29956
trộm 29828
hoại 29807
gói 29755
thai 29743
làn 29731
mồ 29673
liêng 29643
quê 29583
ức 29564
ảo 29557
ôn 29554
hỏng 29545
tủ 29495
32 29490
trăng 29487
quỉ 29420
mét 29347
châm 29335
nđ 29333
tụ 29215
kìa 29105
thề 29083
dịp 28955
gà 28894
mò 28841
nghìn 28787
he 28776
rào 28768
mì 28742
vĩnh 28692
đẳng 28688
bão 28683
thiểu 28679
nảy 28667
buông 28648
cuồng 28553
xô 28548
soạn 28514
hung 28503
tốn 28458
ko 28411
khinh 28400
trương 28356
lấp 28354
mạo 28343
nở 28339
hòn 28247
đinh 28225
đuối 28193
cốt 28162
bầy 28158
cõi 28146
nhạt 28101
chu 28081
bó 28037
lùi 27984
khẩn 27964
khao 27901
dạ 27884
mây 27872
cởi 27763
bồ 27660
đồn 27635
đáo 27597
s@@ 27568
xám 27568
ơ 27517
khía 27482
thèm 27460
nắng 27372
thăng 27357
đậu 27351
nho 27305
thùng 27253
cốc 27249
soi 27156
dâm 27145
thẻ 27123
ch 27019
t@@ 26975
tí 26900
thôn 26846
sụp 26814
thổi 26723
tia 26720
luân 26691
ung 26689
nhường 26650
cưỡng 26615
cụm 26594
cỡ 26533
chuông 26530
thiệp 26483
cát 26478
thắc 26471
nề 26415
khoan 26372
trượt 26360
h 26341
hẹp 26316
toà 26302
hỏa 26256
33 26105
cán 26055
bền 26039
rác 26037
chuột 26029
rô 25997
nhở 25877
gõ 25872
thô 25828
chôn 25826
n@@ 25814
dãy 25803
khiêm 25780
thốt 25707
hãng 25674
david 25601
nhắn 25568
i@@ 25542
trà 25530
35 25494
l 25489
o@@ 25435
thua 25417
vây 25386
bớt 25354
nhịp 25304
mèo 25303
lánh 25261
e@@ 25256
táo 25241
khói 25204
chả 25202
gạt 25172
k 25068
mary 25027
mau 24997
sê 24912
bát 24891
c@@ 24881
đua 24837
bẩn 24836
lướt 24752
cuộn 24745
v 24682
d@@ 24635
lờ 24626
lăn 24561
thước 24492
hôi 24424
chinh 24406
bơ 24401
nhầm 24332
tít 24326
hỗn 24323
ngầm 24305
lãi 24275
thấu 24273
eph 24269
f 24235
m@@ 24194
tàng 24184
sơn 24183
muôn 24178
ngẫu 24176
rủa 24132
khoảnh 24064
= 24052
ngọt 24019
sô 24012
thuẫn 23952
lắp 23926
kh 23873
quận 23832
thê 23785
dì 23707
khuynh 23703
0 23673
hít 23640
dạo 23630
bia 23626
ngột 23591
tháo 23539
p 23506
hermione 23468
rê 23417
nghiêng 23379
lẻ 23368
khéo 23364
chuỗi 23305
a@@ 23252
ướt 23236
phú 23226
dẫy 23220
bút 23202
xóa 23184
ysơraên 23168
bốc 23139
by 23134
34 23125
trạm 23121
răn 23115
rực 23095
bọc 23043
đạp 23033
bom 23027
thám 23024
nộ 22952
k@@ 22929
ngạo 22901
chà 22888
trùm 22823
tuệ 22811
paul 22763
đai 22700
mac 22692
rũ 22684
vỏ 22674
bù 22610
đê 22484
ngụ 22451
phật 22396
nếp 22353
khấu 22329
vã 22310
mộng 22285
le 22257
chục 22212
nhặt 22193
cắp 22184
hoài 22172
on 22161
nhượng 22132
van 22132
nhã 22131
rỡ 22091
pháo 22066
lật 22061
sữa 22033
há 21970
thắt 21951
đuôi 21940
sam 21935
tê 21888
đụng 21834
choàng 21788
2015 21777
mọc 21777
tang 21777
dốc 21771
bì 21764
trán 21760
liều 21663
vân 21648
hoà 21611
am 21601
chốc 21586
web 21561
chớp 21554
khoái 21501
henry 21496
trứng 21487
kiếp 21448
dội 21442
36 21416
vuốt 21413
2010 21371
qui 21366
rung 21365
ao 21352
khiếu 21337
váy 21336
george 21330
xạ 21320
b@@ 21314
têm 21295
đếm 21295
g@@ 21283
mẻ 21247
kiệt 21203
trục 21162
phẫu 21152
thịnh 21118
uỷ 21114
p@@ 21072
rinh 21067
ve 21048
xích 20990
đắc 20949
chốt 20930
al 20899
truyện 20889
peter 20858
bẩm 20854
paris 20824
lau 20798
vở 20754
tỏa 20749
cay 20743
dược 20703
nhăn 20695
hệt 20693
buồng 20659
quãng 20618
nút 20579
phe 20567
lọc 20523
mỏ 20507
hoạn 20464
bơi 20463
tom 20447
bùng 20440
langdon 20425
&amp; 20414
ngắt 20408
x@@ 20408
60 20384
james 20381
hoan 20372
lệch 20333
tò 20305
đặng 20285
lưỡng 20274
ruột 20272
long 20264
len 20220
37 20211
thâm 20113
vạch 20091
jack 20049
rỗng 20011
ốm 19994
xé 19990
thụy 19982
h@@ 19921
nấu 19904
michael 19855
xê 19849
re@@ 19825
gián 19808
ma@@ 19806
tiệm 19789
nâu 19745
nê 19680
2013 19675
sôi 19675
thạch 19667
tt 19650
cắn 19638
giọt 19605
u@@ 19600
gào 19589
cạn 19568
lều 19554
tống 19540
nuốt 19517
huyện 19515
45 19470
nhạy 19456
chợ 19434
l@@ 19423
thét 19422
khe 19404
móng 19329
nhóc 19308
mỏng 19281
dồn 19267
sếp 19203
xuân 19203
túng 19202
nản 19185
hang 19180
khuất 19152
2011 19141
gởi 19112
38 19103
đáy 19047
mác 19034
thản 19022
dán 19003
báu 19001
khán 19001
hận 18981
tể 18981
non 18975
ngơi 18946
mòn 18945
chọc 18935
đàm 18893
thomas 18845
lôn 18832
túy 18812
bắp 18805
edward 18801
la@@ 18793
rộn 18775
london 18761
robert 18759
nhãn 18748
thoả 18704
nhủ 18683
kiệm 18661
sắm 18659
thiêu 18640
oh 18629
súc 18623
tiệt 18616
lúa 18609
rachel 18593
ổ 18505
đoan 18502
trúng 18494
bạch 18487
bill 18483
nại 18396
ch@@ 18385
râu 18370
thình 18357
alice 18347
tùng 18328
gớm 18313
ar@@ 18295
ngước 18287
2008 18267
hở 18266
men 18234
israel 18175
80 18150
manh 18149
trộn 18142
ghen 18117
hái 18117
giục 18108
lồng 18088
mẩu 18074
bồn 18065
rẻ 18053
gươm 18051
mâu 18036
mượn 18025
nhọc 18008
cốp 17993
cự 17992
trễ 17977
video 17950
mạn 17939
quầy 17937
bách 17928
li@@ 17911
v@@ 17898
dũng 17815
cỗ 17792
rồng 17781
viếng 17732
ghé 17705
lường 17695
bớ 17685
nhún 17675
nương 17674
thuỷ 17662
ong 17644
dã 17622
ồn 17610
khăng 17606
r@@ 17589
bến 17573
mông 17573
lót 17571
tởm 17555
nhấc 17553
eragon 17544
2012 17529
bẫy 17517
vươn 17497
nãy 17494
huynh 17481
vé 17480
rập 17454
tụng 17451
39 17403
70 17402
ti@@ 17372
ranh 17353
quyến 17329
bổn 17320
tẩy 17315
ra@@ 17305
miêu 17304
gieo 17282
chê 17280
êm 17277
gìn 17265
đan 17257
dàn 17251
đỗ 17238
kênh 17234
giáp 17224
internet 17221
gũi 17216
gầm 17207
nàn 17204
ngộ 17198
đắng 17178
2007 17156
sa@@ 17103
2014 17102
le@@ 17078
vạn 17057
sương 17011
xăng 16995
chấn 16983
vẫy 16923
quỳ 16920
lìa 16891
charles 16834
lỏng 16829
vờ 16824
de@@ 16814
sờ 16792
gãy 16776
trá 16761
cừu 16727
căm 16726
đà 16724
ào 16723
hèn 16718
khiêu 16699
vách 16676
kiêng 16663
kỵ 16653
gen 16641
xóm 16631
ngọc 16625
bưu 16580
chốn 16560
luồng 16542
hàn 16524
ho 16507
di@@ 16503
2006 16439
500 16426
nghiện 16422
xà 16398
đạc 16374
hễ 16370
gan 16362
tiễn 16361
họng 16338
2009 16264
khuyết 16255
sưởi 16241
dan 16195
củng 16177
si@@ 16174
đấm 16139
khôi 16138
gai 16131
tơ 16131
rít 16123
rồ 16100
hò 16088
sảnh 16081
iico 16080
no 16066
đòn 16066
cắm 16054
đứt 16049
hưng 16042
r 16037
đẻ 16037
mồi 16032
satan 16023
to@@ 16014
rưỡi 15974
gạch 15962
sườn 15955
úy 15921
chén 15917
đôn 15917
♪ 15887
iii 15867
quét 15858
mãnh 15820
đoạt 15813
dập 15798
giêhôva 15785
gióp 15765
02 15764
nguyền 15764
đắm 15763
ầm 15755
ghép 15745
thung 15740
thép 15732
sép 15716
rẩy 15696
nhơn 15666
42 15659
hiền 15657
trắc 15642
vong 15636
nôn 15613
xoa 15609
khoáng 15592
90 15557
al@@ 15553
màng 15550
đày 15535
muối 15520
dẹp 15519
khơi 15514
2000 15509
artagnan 15508
lũng 15498
rỉ 15471
nồng 15455
đợt 15449
a. 15413
khỉ 15404
elizabeth 15399
en@@ 15391
kẹt 15336
ngây 15335
mi@@ 15302
hoãn 15295
khoát 15278
dinh 15275
mép 15219
dumbledore 15205
nhét 15199
thính 15199
bóp 15178
đắt 15170
os 15164
xi 15155
200 15153
xơ 15143
béo 15133
ng@@ 15121
ri@@ 15112
xức 15083
cành 15080
bừng 15075
đành 15060
in@@ 15049
th@@ 15048
trinh 15043
nài 15033
gậy 15030
khoe 15029
lẩm 15027
nhát 15020
hố 15011
đũa 14938
rên 14936
ki 14932
nướng 14904
lân 14890
ván 14860
william 14826
lam 14809
thơm 14803
ngẫm 14801
st 14800
lăng 14798
2016 14774
do@@ 14773
el 14768
nhạo 14768
ổng 14755
rễ 14753
dẫu 14734
tông 14708
vứt 14684
v.v 14665
trèo 14630
khớp 14626
lỡ 14622
co@@ 14619
bột 14592
dở 14574
ngả 14556
hưu 14553
lo@@ 14527
tuôn 14514
chui 14484
trói 14460
ngó 14445
sói 14443
gi@@ 14439
f@@ 14409
nhựa 14405
phô 14399
gặt 14391
chước 14386
napoleon 14376
y@@ 14367
dâu 14360
rách 14360
xưởng 14360
an@@ 14359
z@@ 14339
mớ 14323
nấy 14316
lặn 14289
điền 14265
dặn 14245
reo 14227
uế 14227
đẽ 14223
chói 14218
41 14210
c. 14185
03 14183
thiếp 14183
kĩ 14157
ẩm 14152
anna 14113
ngưng 14082
suối 14082
tam 14066
martin 14057
gie 14055
khoang 14054
se@@ 14042
thà 14042
xíu 14002
bỏng 13996
sophie 13979
chẽ 13968
suýt 13968
nhứt 13943
ne 13942
nhi 13938
bô 13927
thọ 13904
ni@@ 13868
nhịn 13852
ffff 13817
láng 13814
bộc 13802
băn 13786
quấy 13775
vuông 13769
lợn 13745
khoăn 13738
vớ 13671
nén 13653
washington 13642
44 13627
đè 13588
trân 13559
khoẻ 13532
jean 13499
ờ 13484
en 13475
đực 13461
lạm 13458
phụng 13413
xen 13410
b. 13408
đ@@ 13408
bỉ 13401
gắt 13400
vặn 13394
nhị 13383
điềm 13377
05 13329
bẻ 13320
đăm 13316
hăng 13312
sỹ 13311
đúc 13288
tem 13278
hiếu 13205
cáu 13204
2005 13190
điếu 13190
cống 13174
nick 13156
gục 13133
43 13118
phierơ 13115
ngoái 13094
lu@@ 13089
iphi 13076
cài 13069
mar@@ 13067
vặt 13065
nốt 13057
rèn 13050
vi@@ 13039
ng 13022
khoá 13015
hãnh 13013
ok 12982
ed 12944
duyên 12943
mo@@ 12934
nh@@ 12886
chuồng 12880
frank 12870
ro@@ 12850
tráng 12838
ngào 12824
chen 12810
dải 12803
ớt 12771
ngẩn 12755
simon 12742
cóc 12728
kỉ 12716
bùn 12710
ấu 12710
46 12699
môise 12665
nom 12642
5@@ 12606
léo 12602
thấm 12599
cau 12594
toa 12577
quấn 12572
ne@@ 12538
giãn 12531
gay 12529
igi 12520
vụn 12513
mồm 12486
cối 12484
ts 12470
cơm 12463
vú 12446
tị 12441
nến 12427
kệ 12424
ngẩng 12390
rầu 12383
kiềm 12381
thẳm 12373
sưu 12366
hạch 12360
khép 12344
48 12339
{ 12333
bã 12319
2001 12309
đầm 12308
côn 12305
daniel 12300
california 12294
son 12294
mike 12290
mu 12284
hoạ 12277
w@@ 12273
nắp 12264
lề 12252
lột 12245
lình 12230
sắng 12220
emma 12214
díp 12213
rạng 12208
lọt 12169
.@@ 12165
er 12165
mập 12157
huỷ 12132
xì 12132
gầy 12127
nhì 12122
choáng 12121
ho@@ 12060
2020 12044
xông 12006
xao 12002
kh@@ 11980
mổ 11973
xách 11968
khước 11967
rải 11962
vấp 11929
bể 11913
phác 11913
đắp 11905
cưng 11902
thoái 11902
thối 11894
bệ 11885
tr@@ 11873
ngô 11861
qđ 11854
mu@@ 11850
so@@ 11844
đậy 11834
chật 11819
51 11798
rùng 11790
xẻ 11782
kẹp 11772
suê 11762
sốc 11753
ốc 11752
thẹn 11749
ngớ 11746
nhấp 11742
ápraham 11741
ph@@ 11725
no@@ 11698
dạn 11696
su@@ 11685
me 11682
lũy 11653
kem 11650
lõi 11637
na@@ 11623
will 11622
xuôi 11616
át 11610
hông 11597
lượn 11595
đậm 11594
lách 11578
voi 11557
chiêm 11547
louis 11540
lịnh 11540
ruộng 11532
ted 11507
du@@ 11498
mark 11494
phơi 11484
tiêm 11447
vất 11435
cưỡi 11407
sùng 11407
er@@ 11399
phẳng 11386
hãm 11378
quăng 11377
vẩn 11370
thoạt 11362
ngần 11357
đặn 11342
đavít 11332
ba@@ 11331
bo@@ 11301
múa 11298
hiếp 11289
vướng 11283
tu@@ 11281
niêm 11270
phàn 11269
2003 11260
is 11238
lay 11228
maria 11228
2002 11227
vịnh 11209
ray 11206
phun 11204
sững 11202
holmes 11185
lùn 11169
dời 11155
ngủi 11150
sả 11147
gót 11138
thạnh 11136
km 11127
vác 11127
xá 11124
bar 11123
lầu 11117
ta@@ 11115
bấm 11111
vọt 11105
mầu 11080
xí 11061
siết 11060
đính 11055
xua 11054
bành 11020
nhào 11016
phổi 11014
độn 11004
ngửi 10991
quở 10990
rạp 10942
khoanh 10923
hốc 10911
47 10909
buýt 10909
bu@@ 10900
ru@@ 10887
bìa 10886
sét 10865
me@@ 10860
kate 10856
nháy 10856
ko@@ 10845
kí 10845
hân 10833
rệt 10814
christian 10803
mốt 10785
gấu 10784
49 10765
lúng 10750
rhyme 10737
cọ 10728
nhọn 10728
tím 10708
richard 10700
triệt 10690
be@@ 10661
te 10657
6@@ 10631
hòm 10624
lanh 10608
chua 10606
chuyền 10595
gẫm 10595
cược 10592
ách 10579
chì 10568
roi 10565
sừng 10563
sáp 10548
bén 10545
giếng 10544
líp 10542
tc 10541
1999 10526
trọ 10519
300 10515
báng 10512
tần 10509
nếm 10506
ah 10503
rau 10490
gò 10488
kẹo 10474
kề 10470
hất 10466
chồn 10459
cạo 10446
đạm 10445
trút 10442
dê 10439
câm 10410
2004 10377
rét 10368
ừm 10364
vung 10362
tựu 10347
ngai 10328
um 10320
cằm 10317
iti 10304
tr 10291
xế 10285
yeah 10271
tro 10250
thiền 10248
chạp 10233
anne 10221
eve 10216
eo 10213
nghiền 10209
vu 10208
bênh 10206
z 10190
uốn 10186
don 10183
xôi 10177
văng 10164
as 10160
thâu 10157
car@@ 10150
đẫm 10143
ben 10141
joe 10138
55 10127
nghiệt 10124
vòm 10119
laura 10114
ca@@ 10096
2017 10092
chóc 10082
lung 10082
jobs 10071
đố 10058
ấp 10052
as@@ 10040
el@@ 10040
lén 10028
nín 10019
dật 10007
vượng 9994
ngất 9982
7@@ 9981
túm 9969
bi@@ 9953
nhốt 9936
noi 9933
nứt 9929
que 9929
ven 9923
đùi 9913
rà 9902
ka 9890
rót 9875
thỉu 9869
sửng 9866
1998 9851
hốt 9847
4@@ 9834
chicago 9817
bầm 9807
lee 9805
9@@ 9798
hé 9796
j@@ 9785
nhõm 9777
kìm 9769
sỉ 9764
nhược 9756
nạp 9742
né 9739
mảng 9730
th 9728
phiêu 9712
thào 9704
tuỳ 9691
khuẩn 9690
album 9684
bọt 9676
giễu 9671
hiên 9658
nhích 9656
exe 9650
nhĩ 9639
đãng 9621
jacob 9616
vầy 9616
go@@ 9608
52 9590
be 9585
phẫn 9577
8@@ 9557
ngừa 9554
lụa 9548
lây 9546
cào 9520
j 9501
ha@@ 9489
ắt 9477
te@@ 9437
trơn 9422
giêrusalem 9411
vụt 9404
giặt 9401
$ 9399
phiến 9386
bịnh 9381
dưng 9381
xộn 9372
pin 9368
sachs 9352
hao 9343
sập 9342
nhức 9340
catherine 9339
dấy 9330
vạt 9323
cửu 9315
kèn 9310
bu 9309
es@@ 9304
toan 9296
53 9289
lửng 9286
or@@ 9285
rã 9264
canada 9262
los 9262
cợt 9258
mỡ 9258
thò 9255
parker 9248
pa@@ 9246
quặc 9242
phồng 9230
tọa 9225
mộc 9224
bùa 9213
rậm 9205
huệ 9198
miên 9190
phàm 9169
trơ 9140
heo 9127
at 9113
us 9108
hước 9091
ia 9078
xướng 9069
tản 9062
for 9045
úc 9043
emily 9024
pi@@ 9023
1@@ 9018
email 9016
smith 9000
ite 8973
vắt 8968
giang 8964
khan 8937
lầy 8929
thắn 8921
lãm 8919
nheo 8919
alex 8914
lụt 8911
po@@ 8904
charlie 8880
− 8876
đôla 8873
bob 8870
cu@@ 8860
nhổ 8860
ab@@ 8843
bóc 8838
« 8827
vành 8821
đu 8817
ngửa 8803
dấn 8791
bàng 8786
khoai 8774
sáo 8770
nạ 8749
nhô 8739
rầm 8721
gt 8720
ka@@ 8716
scott 8704
giuđa 8702
vãn 8701
iv 8686
lẽo 8683
liễu 8682
go 8676
hu@@ 8672
cúng 8665
chênh 8661
nấm 8661
jim 8657
nè 8657
pe@@ 8655
mách 8648
hổn 8647
chửi 8643
pho 8640
khùng 8639
sầu 8627
ria 8625
75 8620
steve 8607
vùi 8603
nhợt 8602
giềng 8598
góa 8596
con@@ 8578
đệm 8576
lẫy 8561
lộng 8559
btc 8552
ngâm 8546
đục 8528
et 8521
lẩn 8519
okay 8515
út 8511
com 8507
găng 8500
võ 8499
hạm 8498
lọ 8489
dệt 8480
levin 8478
der 8477
then 8470
ku@@ 8460
ròng 8459
06 8452
re 8444
1990 8441
jane 8435
váng 8431
xoáy 8415
trêu 8414
gom 8412
kẽ 8408
bổng 8395
am@@ 8393
luther 8392
mexico 8392
vòi 8392
chẩn 8382
bar@@ 8381
cẩm 8368
lóc 8364
buffett 8363
josh 8359
man@@ 8355
ram 8351
búa 8344
dance 8343
is@@ 8341
65 8331
bịt 8326
dè 8326
qu@@ 8313
gán 8308
16@@ 8292
om 8289
chải 8285
phì 8276
os@@ 8269
chiêu 8259
bọ 8256
ngõ 8256
it 8251
nghiến 8250
dỡ 8243
tess 8237
iiti 8227
hển 8225
sẫm 8221
khuya 8202
sác 8197
hụt 8192
thự 8190
ford 8183
đanh 8180
\ 8154
marie 8142
chầm 8130
thừng 8124
rành 8120
2018 8109
giop 8100
bết 8098
sy 8080
fbi 8072
sen 8072
world 8069
gô 8066
tengo 8060
lấn 8057
oán 8054
luca 8051
sầm 8046
méo 8043
lứa 8040
lự 8036
điếm 8030
buồm 8023
hi@@ 8019
cằn 8010
thỏ 8007
nhện 8005
xăm 7999
gray 7997
khuấy 7992
luke 7991
còi 7990
ngượng 7988
mốc 7987
loan 7986
sủa 7986
thạo 7983
ki@@ 7979
đọng 7964
náo 7962
vò 7959
ráp 7956
1980 7955
chĩa 7947
nết 7938
xả 7933
bế 7932
tràng 7925
hey 7907
bong 7894
phớt 7891
hoi 7880
nhung 7879
lận 7871
dột 7868
adam 7866
he@@ 7861
khâu 7858
alexander 7856
hans 7836
chi@@ 7833
phế 7832
58 7812
trump 7812
logic 7806
mắng 7800
rầy 7800
mỉa 7799
400 7797
google 7797
neo 7796
at@@ 7789
banh 7772
sấm 7772
tony 7771
chổi 7766
d. 7756
mĩ 7750
ivan 7744
thuở 7741
da@@ 7737
0@@ 7733
sọ 7732
ber@@ 7730
tẻ 7727
đờ 7721
lon 7720
sh@@ 7719
gáy 7714
cáp 7705
náu 7697
game 7694
rôn 7684
2@@ 7680
virus 7679
w 7679
chơn 7678
taxi 7677
đỗi 7668
ver@@ 7665
scarlett 7644
hắc 7638
gu@@ 7637
dơ 7630
ađam 7615
lóe 7615
vụng 7613
billy 7612
saint 7609
ốt 7604
trội 7598
au@@ 7595
vũng 7595
fred 7592
mầm 7589
carl 7580
johnson 7571
snape 7570
ủ 7568
♫ 7563
ton 7561
palestine 7555
sỏi 7550
tuột 7542
sẹo 7540
j. 7528
ac@@ 7519
1970 7504
taran 7492
per@@ 7478
lữ 7477
jennifer 7455
thốn 7452
đới 7446
chém 7436
thắp 7423
king 7401
rớt 7398
củi 7392
isa 7389
helen 7384
miệt 7382
vỉa 7382
ya 7375
ci@@ 7373
54 7364
nhúc 7361
trù 7360
tột 7358
rôma 7357
10@@ 7356
04 7351
rơm 7347
ana 7342
peeta 7338
xỉ 7337
xảo 7333
sưa 7327
ke@@ 7321
hâm 7317
tv 7311
loa 7304
hằn 7291
nóc 7283
hẻm 7275
150 7272
chót 7270
i. 7269
nức 7269
nhậm 7263
ruồi 7263
yết 7255
hagrid 7254
les 7249
thủng 7239
xiết 7233
xoắn 7232
nhồi 7228
măng 7220
15@@ 7218
danny 7218
khốc 7212
hitler 7199
ngơ 7193
quật 7191
par@@ 7183
ưng 7183
radio 7176
57 7169
rèm 7167
strike 7163
khiếm 7154
nhai 7137
jordan 7135
ngặt 7122
nấp 7112
nai 7106
oliver 7105
ganh 7103
gạo 7098
ngạt 7098
dang 7077
56 7066
ỏi 7066
1997 7060
marketing 7057
ap@@ 7055
biếng 7055
phím 7054
ngụy 7049
vệt 7049
mài 7045
00 7044
robin 7040
yếm 7040
sarah 7028
tui 7024
ge@@ 7012
rể 7010
sục 7009
nh 7005
chướng 7002
háo 7000
nhũng 7000
cụt 6999
chậu 6992
ngụm 6992
rọi 6990
nỉ 6988
nghẹn 6974
ttg 6974
saphira 6970
toát 6969
rìa 6940
tát 6934
66 6929
07 6917
ga@@ 6916
tấp 6914
tokyo 6911
chao 6906
angeles 6896
dồi 6893
hắt 6893
on@@ 6889
andrew 6884
mor@@ 6883
ken 6874
pa 6874
lượm 6866
» 6866
ivua 6863
té 6861
lucy 6860
chộp 6857
củ 6854
rome 6853
thềm 6852
chuộng 6847
har@@ 6845
chùm 6840
hăm 6834
lười 6832
ke 6827
ngư 6826
carrie 6819
lội 6819
cày 6817
1960 6816
chèo 6813
3@@ 6809
susan 6805
nash 6804
tạng 6792
doạ 6784
95 6783
bục 6781
huân 6778
q@@ 6759
nate 6757
vóc 6757
grand 6751
day 6746
cước 6744
rụt 6740
athos 6735
vầng 6733
xuẩn 6727
dai 6726
chéo 6722
bẩy 6718
quẩn 6712
bôi 6685
chùi 6683
khàn 6681
đốm 6678
sút 6673
thêu 6671
gập 6668
lố 6660
gabriel 6659
59 6641
bừa 6635
donald 6629
hức 6620
xáo 6616
giở 6612
vơ 6612
han 6610
hoán 6609
điêu 6604
chập 6600
usd 6598
st@@ 6597
trỏ 6595
líu 6593
ĩ 6585
hêbơrơ 6554
you 6536
ter@@ 6534
bịch 6532
cia 6528
} 6527
uh 6525
tivi 6523
saulơ 6519
ian 6513
63 6512
mải 6511
wall 6504
nồi 6497
chặng 6493
muội 6488
colin 6486
loáng 6484
bạt 6480
đả 6472
khống 6464
k. 6460
boston 6459
nhàu 6457
mạ 6452
17@@ 6446
giỏ 6445
e. 6440
mc@@ 6439
nhiễu 6438
nghẹt 6437
annabelle 6432
aomame 6430
apple 6416
nhan 6416
virginia 6416
mỉ 6411
tú 6399
rú 6394
hổng 6389
xắn 6384
trụi 6383
khuỷu 6379
bơm 6370
texas 6370
rảnh 6369
quyên 6364
ðấng 6359
q 6356
ad@@ 6353
phường 6347
tạc 6340
city 6337
đần 6336
eddie 6328
&#124; 6314
két 6297
búp 6286
phung 6282
weasley 6264
quàng 6257
potter 6248
trừu 6248
jefferson 6233
harvard 6231
mo 6225
arthur 6224
dốt 6223
iraq 6223
cò 6214
64 6210
kỉnh 6210
bón 6198
ju@@ 6198
lậu 6198
von 6197
howard 6194
cúc 6187
giã 6173
cọc 6165
joseph 6162
sộ 6161
francisco 6160
vịt 6155
claire 6153
kelly 6129
et@@ 6126
vần 6125
đùng 6111
nón 6095
tợn 6095
ag@@ 6094
ngỡ 6088
it@@ 6075
côrinhtô 6069
14@@ 6064
gượng 6064
pro@@ 6061
gtgt 6058
giôsép 6053
13@@ 6052
ngậm 6049
tỉa 6039
côi 6034
bướm 6024
stephen 6020
oda 6016
press 6008
ten 6001
un@@ 5999
rủ 5998
giacốp 5989
nơ 5972
lẳng 5964
oai 5961
ter 5960
iivua 5957
lốc 5955
dằn 5954
feet 5953
rình 5949
times 5946
pu@@ 5919
jo@@ 5910
calvin 5897
lamã 5892
cỏi 5889
porthos 5886
sưng 5881
robot 5876
séc 5875
quất 5872
diêm 5868
jones 5864
1995 5857
râm 5850
chày 5846
des 5841
bella 5840
luồn 5840
tri@@ 5840
nhẹn 5830
vớt 5829
arkady 5825
liếm 5825
min 5823
vét 5823
viền 5821
diễu 5804
hiv 5804
ct 5803
ngỏ 5803
kiều 5797
xít 5797
táng 5783
1996 5779
kennedy 5779
che@@ 5772
61 5771
khay 5767
ot@@ 5756
dào 5753
đờn 5749
rợn 5743
scotland 5741
tụy 5735
viêm 5734
ê@@ 5721
tì 5720
men@@ 5719
ley 5716
nhúng 5704
god 5698
bịa 5688
max 5684
quáng 5679
roran 5677
ngóng 5676
ds 5675
72 5665
lincoln 5662
duỗi 5660
đơ 5657
teddy 5652
báptêm 5642
ráo 5638
sặc 5633
iiphi 5625
gh@@ 5624
vút 5622
xoá 5622
gừ 5619
1.@@ 5612
berlin 5607
malfoy 5605
mịt 5600
đốn 5600
1994 5594
khóe 5594
winston 5594
nghênh 5592
62 5589
dẫm 5585
1950 5583
sc 5569
xịt 5568
ập 5568
cúp 5567
lít 5565
iisu 5560
sải 5559
12@@ 5549
nắn 5530
mênh 5526
nhác 5526
rock 5524
aramis 5518
iran 5512
1992 5511
fi@@ 5511
ghiếc 5502
08 5500
meg 5498
dượng 5493
99 5491
gàng 5490
h. 5490
cấy 5489
truồng 5486
taylor 5485
đôm 5482
cuống 5478
mm 5478
f. 5476
moody 5466
bell 5464
vo 5454
mẫn 5449
piotr 5448
rè 5447
land 5442
nguội 5442
mia 5434
120 5433
chồm 5431
cu 5428
rĩ 5428
bới 5425
amazon 5422
tụt 5419
xui 5417
park 5412
well 5379
chay 5377
house 5376
600 5375
xuồng 5372
ove 5369
c.@@ 5366
nòng 5362
quạ 5362
sara 5356
lin 5355
ảm 5351
sấp 5350
hoành 5348
lảng 5347
cồn 5345
t.c 5339
ða 5338
morgan 5333
one 5330
xiềng 5330
lẻn 5324
trợn 5323
bạ 5302
cat 5298
thục 5298
gra@@ 5295
ers 5294
□ 5293
bin 5292
cẳng 5290
jackson 5288
lì 5273
ngạch 5262
ai@@ 5259
tẩu 5258
bần 5257
choạng 5251
1993 5250
nể 5240
úp 5235
ner 5234
nu@@ 5229
walter 5223
fu@@ 5216
lằn 5215
rước 5213
xay 5211
blomkvist 5204
ireland 5203
nhảm 5201
mão 5196
cưa 5193
hờ 5193
nạt 5192
85 5191
ani 5189
mathiơ 5187
stone 5187
graham 5185
olivia 5185
eric 5181
vá 5180
119 5177
68 5162
tôm 5161
dẻ 5158
quạt 5155
gene 5148
timôthê 5143
mấu 5137
ran 5137
boong 5135
bồng 5126
trướng 5122
lư 5121
vắn 5121
matt 5119
singapore 5116
250 5113
nguyệt 5112
rosie 5106
ck 5103
greta 5103
mó 5099
nhiếp 5099
tua 5098
luyến 5094
for@@ 5091
iisa 5081
johnny 5080
ceo 5076
sồi 5076
ngấm 5075
nhíu 5068
nhói 5062
nao 5061
my 5057
tưới 5052
patrick 5042
va@@ 5039
einstein 5038
êli 5035
nện 5034
can@@ 5033
ngán 5033
francis 5031
toranaga 5025
rì 5023
đút 5020
xở 5002
êsai 5002
tanh 4997
lia 4993
lim 4993
phả 4985
wa@@ 4985
ja@@ 4983
mon@@ 4981
ô@@ 4981
nhuộm 4979
tết 4977
é@@ 4975
nhấm 4968
09 4967
salander 4965
m. 4961
khỏa 4954
lộc 4954
camera 4952
caroline 4951
lara 4946
tit 4939
mail 4936
nung 4935
cớm 4933
vun 4931
toang 4923
bự 4921
sụt 4916
cặn 4914
miện 4910
san@@ 4909
phanh 4907
cút 4906
den@@ 4905
cội 4902
nham 4901
dna 4899
sus 4895
il 4892
larry 4892
nhí 4891
rợ 4890
hu 4879
mer@@ 4878
buốt 4876
bướng 4867
rong 4860
au 4859
ste@@ 4857
cẩu 4852
wi@@ 4850
cho@@ 4849
guiliano 4847
cm 4840
chọi 4838
ar 4831
còng 4830
nhàn 4829
sòng 4828
1991 4826
eu@@ 4824
sir 4818
cộ 4816
khử 4813
vronxki 4810
den 4808
kevin 4799
rạch 4798
sủng 4793
kiêm 4792
69 4790
nít 4784
cộc 4780
phắt 4777
wilson 4777
thán 4774
black 4771
rụng 4770
kar@@ 4767
warren 4763
loạng 4762
we@@ 4762
67 4748
ender 4744
frodo 4744
xổ 4743
s. 4737
chuồn 4731
244 4726
nhàm 4726
tạt 4724
stan 4723
ngời 4720
victoria 4720
ursula 4715
all 4712
gios 4709
dãi 4708
nghếch 4704
kg 4700
ló 4691
ngoặt 4690
mịn 4685
voldemort 4685
dép 4683
ly@@ 4678
nd 4674
clay 4671
rứt 4670
bặt 4664
78 4662
giầy 4662
cua 4661
ler 4659
lewis 4657
hột 4652
nực 4651
thong 4650
ce 4643
astrid 4642
nicholas 4640
bốt 4639
mầy 4637
xỏ 4637
hán 4636
ngùng 4635
lòa 4632
giỡn 4630
rãnh 4626
gân 4625
or 4623
rebecca 4613
brazil 4611
hon 4610
xài 4606
young 4605
em@@ 4603
nia 4602
ry 4601
bruce 4600
xấp 4597
kin 4595
chuck 4593
protein 4592
ngoạn 4591
tcn 4590
rìu 4589
1000 4588
ya@@ 4585
láo 4583
khiêng 4582
facebook 4581
nới 4581
thinh 4578
tk 4578
bích 4577
sirius 4571
° 4570
chiết 4569
lừng 4568
xù 4565
keo 4564
quai 4561
website 4557
roger 4552
cac 4550
fa@@ 4546
dean 4542
ngỗng 4539
ten@@ 4538
rền 4532
dana 4528
red 4528
babylôn 4527
phất 4526
t. 4525
dưa 4524
tro@@ 4522
mal@@ 4521
xát 4521
trìu 4520
gen@@ 4519
fe@@ 4517
héo 4517
trũng 4513
elsa 4512
huýt 4511
lút 4510
ếch 4510
gài 4509
dẻo 4504
vãi 4503
ms 4500
84 4498
katie 4497
khiên 4484
lọi 4484
ss 4484
nệm 4481
800 4479
cor@@ 4479
êphêsô 4476
yo@@ 4472
hylạp 4467
sài 4466
jo 4464
pre@@ 4464
bal@@ 4462
rương 4461
ling 4460
ve@@ 4458
thịch 4454
cesare 4451
vo@@ 4448
r. 4447
mạt 4446
grace 4445
bịp 4444
bái 4441
hời 4441
rổ 4439
sch@@ 4435
nhơ 4421
nháp 4420
vàn 4419
dặt 4416
óng 4415
hừm 4410
lisa 4407
bả 4405
darwin 4405
rặng 4403
gặm 4401
jamie 4398
bible 4396
nhằn 4395
je@@ 4388
mặn 4385
cal@@ 4380
albert 4376
fo@@ 4375
vạ 4370
thây 4365
nã 4362
jimmy 4358
quyệt 4356
harvath 4355
tan@@ 4355
lóng 4351
baker 4350
khâm 4346
charlotte 4345
gar@@ 4345
ex@@ 4343
ngh@@ 4343
xi@@ 4341
khờ 4335
rống 4332
nặc 4325
nhộn 4321
han@@ 4320
phiếm 4318
toét 4318
ð@@ 4317
oải 4312
bri@@ 4309
sệt 4309
nasa 4308
nhè 4307
phông 4305
giẫm 4303
phai 4301
bel@@ 4296
2.@@ 4290
kẻo 4288
giương 4286
microsoft 4278
quẳng 4277
73 4276
val@@ 4274
afghanistan 4269
ge 4269
tầu 4263
phào 4262
ngà 4261
w. 4260
ben@@ 4252
jason 4248
pen@@ 4245
ráng 4245
điếc 4245
ngoảnh 4243
west 4243
mướn 4242
đuốc 4240
ren@@ 4238
nguôi 4233
sky 4233
lili 4229
il@@ 4226
lan@@ 4223
bít 4222
96 4219
biếm 4217
tracy 4216
oxford 4215
brown 4214
hắng 4212
ửng 4209
shi@@ 4208
ros@@ 4204
zi@@ 4200
moskva 4196
rose 4194
ren 4192
trổ 4190
augustine 4189
ji@@ 4188
91 4187
chu@@ 4187
tre 4187
ì 4185
her@@ 4182
gregory 4181
tơi 4180
hem 4179
rich 4176
moi 4173
nấc 4170
bra@@ 4169
chan 4169
crawford 4167
1945 4165
yu@@ 4164
bo 4161
chát 4161
êdíptô 4160
chris 4158
cn 4157
sal@@ 4156
philip 4151
xỉn 4151
hòng 4146
chần 4145
marcus 4139
ngòi 4139
bưng 4138
pri@@ 4137
lảo 4136
trĩu 4136
inch 4135
florida 4134
nhếch 4129
rưởi 4126
der@@ 4116
gốm 4116
sc@@ 4116
nhút 4115
far@@ 4114
273 4112
rapids 4111
sp@@ 4110
american 4108
máng 4106
nhoáng 4106
bứt 4104
trườn 4104
reilly 4101
mọn 4100
gordon 4099
ginny 4096
gù 4095
hoả 4093
ny 4093
uý 4093
mìn 4087
ville 4085
dave 4084
wood 4081
71 4080
bur@@ 4078
kép 4072
lẹ 4072
league 4070
khánh 4066
s.c. 4062
nhướng 4059
katherine 4058
mal 4051
time 4050
char@@ 4044
ger@@ 4043
ting 4043
bời 4042
louise 4041
khịt 4037
háp 4034
gãi 4033
field 4030
ic@@ 4029
martha 4024
càu 4023
huyên 4023
mánh 4018
1989 4017
jessica 4015
julia 4015
kong 4015
m3 4015
rát 4014
tar@@ 4014
blog 4013
găm 4011
luống 4001
nhòm 3999
clare 3996
quậy 3996
aids 3989
beth 3989
dee 3989
las 3989
224 3983
brian 3979
110 3978
khom 3978
thọc 3977
ralph 3974
tic 3973
toả 3971
pan@@ 3969
jeff 3963
golf 3961
ùa 3961
big 3956
jake 3956
chảo 3955
giàn 3947
98 3945
89 3944
cecilia 3942
matthew 3942
bói 3940
hót 3934
ngoãn 3934
freud 3932
mảy 3932
chè 3926
rêu 3923
ff 3919
kitô 3919
sảo 3919
tuý 3919
vén 3919
fanny 3918
sofa 3918
tịnh 3918
tus 3914
xào 3912
đun 3911
sin 3908
edmond 3904
guinea 3904
ruth 3904
ce@@ 3903
ali 3900
za@@ 3886
đoái 3885
chưng 3880
chang 3879
81 3878
trọt 3876
trặc 3875
1,@@ 3871
thẫm 3871
86 3870
alecxei 3866
nhặn 3865
sti@@ 3865
dick 3859
sâm 3859
with 3852
súp 3849
street 3846
a.@@ 3844
vẹo 3844
20@@ 3838
trỗi 3836
nẩy 3830
ố 3828
hogwarts 3826
hươu 3824
1985 3823
nhẵn 3823
nhỡ 3822
jem 3816
ine 3810
cooper 3809
neil 3809
manhattan 3801
siêng 3798
the@@ 3798
quỵ 3793
life 3791
allen 3789
lupin 3789
victor 3789
lác 3788
lùa 3784
santa 3779
einar 3778
ster 3778
trượng 3777
ker 3773
gal@@ 3772
nhe 3769
&gt; 3768
ắp 3768
92 3766
kitty 3760
rảo 3759
ướp 3759
fermín 3757
lucas 3757
amy 3756
hỉ 3756
3.@@ 3753
chanh 3753
sảng 3753
1987 3750
kha 3750
rúc 3750
ser@@ 3750
sar@@ 3744
1984 3742
giêrêmi 3742
tyler 3740
ad 3737
latin 3736
virgin 3736
77 3735
alan 3735
fax 3735
sọc 3735
1986 3734
nua 3731
piano 3729
watson 3728
oxy 3727
bor@@ 3722
tommy 3721
thuyên 3716
79 3710
aliosa 3709
bre@@ 3701
hớn 3701
karl 3700
93 3699
quì 3699
1988 3698
jace 3698
khắt 3695
mẹo 3694
ellen 3693
g. 3692
connor 3691
bẹp 3690
ross 3686
lủng 3685
l. 3679
chực 3669
mac@@ 3668
newton 3659
hill 3657
nekhliudov 3656
tròng 3649
cựa 3644
cha@@ 3642
andy 3641
chắp 3641
indonesia 3641
74 3640
argentina 3640
88 3637
gộp 3637
bậy 3635
ff@@ 3632
mượt 3631
hí 3627
lâng 3627
trổi 3627
1930 3626
què 3626
sy@@ 3625
berg 3624
dạt 3620
phil 3620
lỏi 3618
chùng 3617
sen@@ 3616
book 3615
kè 3615
blue 3614
luce 3606
vắc 3605
uể 3603
ent 3600
mé 3598
giằng 3596
hollywood 3593
cóng 3589
trau 3588
muỗi 3586
pharisi 3586
davis 3579
ngáy 3577
diều 3574
pierre 3573
mím 3572
barry 3571
geneva 3570
trọc 3567
vôi 3566
ngàng 3564
dẳng 3560
dĩa 3556
bềnh 3555
linda 3554
ashley 3551
nhó 3547
roy 3545
rùa 3544
1975 3543
nghía 3541
dong 3539
ck@@ 3538
sực 3537
ol@@ 3535
nes 3534
net 3532
mel 3531
thu@@ 3530
anderson 3528
hacker 3527
adn 3525
bập 3524
trịnh 3523
v. 3522
sha@@ 3521
léc 3516
isabelle 3515
mêsia 3515
del 3514
tho@@ 3513
tru@@ 3513
buột 3511
ven@@ 3508
jonathan 3507
700 3506
phỉ 3504
chóp 3503
isabel 3503
ji 3503
toạc 3502
giùm 3500
mann 3498
bặm 3497
97 3496
tion 3495
2019 3493
dìu 3489
giẻ 3489
gri@@ 3488
salômôn 3486
83 3481
blackthorne 3481
grant 3480
87 3479
hú 3479
bernard 3478
gates 3477
ban@@ 3476
marshall 3473
nẻo 3473
nhả 3465
min@@ 3464
and@@ 3462
rin 3461
vẩy 3461
augustus 3459
rán 3459
margaret 3457
castorp 3456
star 3449
rạn 3446
tâu 3443
ate 3442
cal 3442
samuên 3442
stanford 3441
rúm 3438
đao 3438
tod 3434
philadelphia 3433
vatican 3428
hững 3426
ali@@ 3423
sành 3423
bỉnh 3420
gandalf 3416
đaniên 3416
pizza 3415
vựng 3415
ngáp 3410
ty@@ 3407
rạc 3406
lấm 3403
mết 3401
win@@ 3401
đung 3401
neville 3399
mường 3395
1940 3393
82 3393
mb@@ 3391
1968 3390
bét 3389
vincent 3389
tóe 3388
julián 3387
sôn 3387
white 3387
britt 3385
mút 3384
syria 3384
xéo 3384
ans 3383
ghim 3383
lào 3383
lả 3383
pakistan 3383
tấu 3380
tra@@ 3379
ối 3377
joel 3376
hy@@ 3375
mitia 3375
jê 3374
lở 3374
thiếc 3374
cứt 3373
dan@@ 3372
rắm 3372
tor 3372
nhoài 3368
tt@@ 3367
miller 3363
ed@@ 3362
williams 3352
ze@@ 3351
gờ 3348
chích 3347
sta@@ 3346
lar@@ 3341
cọt 3336
phôi 3335
cừ 3334
nor@@ 3334
jerry 3330
percy 3327
1982 3322
arya 3322
1973 3321
dà 3320
ano 3319
ibm 3318
giông 3317
tre@@ 3317
quế 3316
76 3313
tru 3313
cre@@ 3312
jerusalem 3312
lọn 3312
zo@@ 3308
ghì 3307
yến 3306
núp 3304
xúi 3302
pearl 3298
uất 3298
ryrie 3296
capitol 3295
nép 3294
níu 3294
bệch 3292
hờn 3292
callie 3291
jessie 3290
sỡ 3290
gien 3288
gary 3287
túp 3286
vẳng 3286
jersey 3283
windows 3282
dửng 3279
kay 3279
p. 3278
atticus 3277
chửng 3277
toe 3277
uyên 3277
carlisle 3276
1.000 3275
tặc 3274
chư 3271
clary 3268
bú 3267
mít 3266
australia 3263
đít 3263
chừ 3262
mả 3260
abraham 3259
1983 3256
chừa 3252
hal@@ 3252
chằng 3249
hói 3248
russell 3248
ngớt 3246
allan 3238
chuối 3236
ken@@ 3235
international 3234
5.@@ 3233
myron 3231
á@@ 3231
bush 3230
phết 3230
from 3228
4.@@ 3227
thiển 3223
plato 3220
za 3218
columbia 3215
oan 3212
nat 3210
po 3210
rẫy 3210
1979 3207
rộ 3203
des@@ 3201
adams 3200
vồ 3200
cd 3199
henri 3198
nathan 3197
ney 3196
bon 3195
tành 3194
wo@@ 3193
ks 3192
mer 3192
lù 3191
mariko 3189
ann 3184
nella 3183
gáp 3182
sho@@ 3179
sh 3178
loanh 3177
die 3176
hall 3176
triền 3175
cuốc 3174
ep@@ 3173
103 3171
meggie 3169
natasa 3167
phiện 3167
clark 3164
phách 3161
war@@ 3161
eva 3158
ina 3157
nuối 3157
ur@@ 3154
giacơ 3153
kan@@ 3152
nhẩm 3152
monk 3149
toái 3146
lốp 3145
giếm 3144
rờ 3144
milady 3143
ard 3142
douglas 3142
lún 3142
nancy 3141
wow 3139
vest 3138
giêng 3137
ỉ 3137
gợn 3136
leon 3136
ó 3134
1971 3133
1969 3131
kiệu 3131
travis 3130
isu 3128
2,@@ 3127
dorothy 3126
tủy 3126
nang 3122
pp 3122
ir@@ 3120
é 3120
94 3118
disney 3117
1974 3116
ps 3116
line 3115
mị 3115
1965 3110
por@@ 3109
amelia 3108
ns 3108
ger 3106
mack 3104
ham@@ 3103
ft 3100
chip 3099
bung 3097
dể 3097
united 3097
ing 3094
green 3093
iite 3090
wesley 3090
canaan 3087
thìa 3087
ker@@ 3086
đóa 3086
gỉ 3085
lin@@ 3084
samuel 3084
roarke 3082
sũng 3082
m2 3081
var@@ 3081
1981 3080
cù 3080
wil@@ 3080
www.@@ 3080
becca 3078
pin@@ 3078
florence 3076
xước 3075
í 3075
ari@@ 3074
caleb 3073
jasper 3072
morris 3071
núm 3070
trệ 3070
gio 3069
nhối 3068
nịnh 3068
10.000 3067
franklin 3067
lôm 3067
rúng 3067
vegas 3067
nặn 3066
lawrence 3064
thon 3063
mao 3062
ss@@ 3062
ă 3062
agape 3060
moore 3057
― 3055
sin@@ 3053
stephanie 3051
wa 3051
id 3050
marius 3049
nhổm 3049
mari 3040
pop 3040
pi 3038
nấng 3037
cambridge 3036
n.@@ 3033
gả 3032
~ 3032
ph 3030
dơi 3029
chận 3028
rữa 3027
thắm 3027
chờn 3025
chuốt 3022
i.@@ 3022
cuba 3021
ky 3021
daphne 3019
hugo 3019
tía 3018
pal@@ 3017
rưới 3016
ay@@ 3013
mel@@ 3013
per 3013
rúp 3013
suông 3013
.com 3012
journal 3011
maggie 3008
rò 3008
caesar 3005
way 3005
lord 3004
nhoi 3003
khít 3001
lily 3000
xó 2999
dí 2998
ella 2998
bhxh 2997
ei@@ 2996
lpg 2995
philíp 2994
galati 2993
gôn 2993
liêm 2993
hobbit 2990
hannah 2988
national 2988
nanh 2987
1972 2983
huyệt 2983
lẻo 2983
lét 2981
xia 2981
pra@@ 2980
cùi 2978
kent 2978
church 2977
bus 2976
ryan 2976
1976 2975
cat@@ 2974
stalin 2971
víu 2971
del@@ 2969
chường 2964
phẩy 2963
t.@@ 2963
juan 2961
mui 2961
trâu 2961
ắng 2961
vali 2960
zu@@ 2959
6.@@ 2958
nhúm 2955
clinton 2954
sis 2954
grigori 2953
cup 2952
old 2952
quầng 2951
tes 2951
howl 2949
ie 2947
napoléon 2947
yossarian 2946
nhót 2944
fal@@ 2943
salomon 2942
sevro 2942
ze 2942
holly 2941
1967 2940
gdp 2939
elle 2935
· 2934
wal@@ 2932
cỡi 2930
suôn 2930
pe 2929
ù 2928
hóc 2926
my@@ 2925
top 2925
ushikawa 2925
thi@@ 2924
shakespeare 2923
n. 2921
rén 2920
ny@@ 2919
ran@@ 2918
tuồng 2917
chèn 2915
dothái 2915
post 2912
rick 2911
samari 2911
j.@@ 2910
nhẽ 2910
phịch 2910
ăng 2907
gor@@ 2905
robinson 2905
nguyễn 2904
haymitch 2903
history 2903
ớn 2901
hong 2900
brooklyn 2898
1920 2897
cas@@ 2895
đái 2895
liêu 2893
news 2893
bit 2891
camille 2891
òa 2891
táp 2890
blake 2889
fin@@ 2889
mit 2888
rón 2888
solomon 2887
bru@@ 2885
nôi 2885
phăng 2883
dar@@ 2882
bon@@ 2880
bro@@ 2880
hmm 2879
lạch 2877
chệch 2876
lillian 2876
ngứa 2875
@ 2873
105 2871
bảnh 2870
hol@@ 2870
carolina 2868
blood 2867
julie 2866
fogg 2864
isaac 2862
benjamin 2861
chòm 2860
gale 2860
lồi 2858
pla@@ 2858
university 2857
chùa 2855
dale 2855
perry 2855
ak@@ 2854
1978 2853
file 2848
cap@@ 2843
phỉnh 2843
nọc 2842
lởm 2841
nobel 2841
ls 2840
love 2839
ngách 2837
nhá 2837
roark 2837
tráo 2836
annie 2834
justin 2834
xỉa 2834
fer@@ 2832
testament 2832
ou@@ 2831
cri@@ 2830
http 2830
í@@ 2829
cáng 2828
ned 2828
anthony 2827
kihôtê 2826
nhại 2826
hoe 2825
mon 2823
ngoặc 2823
bai 2819
otto 2817
duệ 2816
tề 2816
chòi 2815
alec 2814
col@@ 2814
olympic 2813
tòi 2812
samurai 2806
dallas 2804
sel@@ 2804
rích 2803
us@@ 2803
din 2801
gòn 2801
hợt 2799
lẫm 2799
soạt 2798
cy@@ 2795
phích 2794
lõm 2792
1944 2786
lạt 2786
ja 2782
monica 2782
lựu 2780
ys 2780
ix 2779
up 2778
tỵ 2776
harper 2774
thụt 2774
tor@@ 2774
beck 2770
ll 2769
mccaleb 2768
craig 2765
kat 2764
andrey 2763
hawaii 2763
dầm 2760
phập 2760
vii 2760
xiên 2759
eleanor 2758
kusanagi 2757
hẻo 2755
thé 2755
philippines 2754
p.@@ 2753
kant 2752
finch 2751
cúm 2750
tuận 2750
xẻng 2749
kíp 2748
south 2748
carter 2745
north 2744
130 2743
phủi 2742
phà 2741
chởm 2739
4,@@ 2738
genesis 2738
raymond 2738
đọa 2737
ngấu 2736
nikolai 2736
pete 2736
giôna 2732
vẹt 2732
tưng 2731
sean 2730
name 2729
nhũ 2729
xược 2728
hãn 2727
kông 2726
ston 2726
nhnn 2725
stein 2725
ando 2724
180 2723
sharon 2723
hun 2721
more 2721
ang@@ 2719
lòe 2719
len@@ 2716
mền 2715
van@@ 2713
nán 2712
đẫn 2712
xiếc 2710
alexandria 2708
jesse 2708
lụi 2707
aristotle 2706
lốt 2706
ō 2706
inter@@ 2704
mp@@ 2701
khuếch 2699
3,@@ 2698
vịn 2698
trề 2695
walker 2695
un 2694
age 2692
sam@@ 2691
art 2690
town 2690
làu 2689
raoul 2689
pennsylvania 2688
sicily 2688
lết 2687
ding 2685
lus 2684
khuy 2683
thệ 2683
bilbo 2681
sto@@ 2680
đát 2679
ngác 2671
pablo 2671
str@@ 2671
greg 2669
phơ 2667
quây 2665
terry 2665
theology 2664
eli@@ 2662
yi 2661
xòe 2658
arkwright 2656
ale@@ 2655
betty 2654
mơn 2653
alexandra 2652
xâu 2650
ani@@ 2649
nách 2647
thòng 2647
ang 2646
mcgonagall 2646
1914 2645
lặt 2644
ye@@ 2644
1964 2643
xén 2643
hớp 2642
sylvie 2642
frederick 2641
kor@@ 2641
athens 2638
joan 2638
latinh 2638
alaska 2637
đĩ 2636
2.000 2635
ada 2635
vù 2635
pat 2632
vin@@ 2629
rio 2628
dudley 2627
gở 2626
1962 2623
ac 2619
cam@@ 2618
tour 2618
khuây 2617
xx 2617
chúi 2616
tuông 2616
gu 2615
yabu 2615
julian 2613
uyển 2613
cra@@ 2611
vế 2610
avery 2609
show 2609
cỗi 2608
ysác 2608
1977 2607
dụi 2607
bank 2605
banks 2605
kat@@ 2604
chuốc 2603
xới 2603
ó@@ 2603
covid 2602
nhím 2600
general 2599
trent 2598
ạt 2598
christopher 2597
núng 2596
galbatorix 2595
tenney 2595
vấy 2593
coca 2591
josé 2591
anti 2589
carbon 2589
vittoria 2588
bishop 2587
ak 2583
cháo 2583
gre@@ 2583
kov 2582
hoyt 2581
jan 2580
ubnd 2580
music 2579
nghẽn 2578
trụy 2574
socrates 2573
ơ@@ 2573
electron 2571
mõm 2571
dầy 2567
daisy 2566
first 2566
af@@ 2565
dìm 2564
ngoạc 2564
fox 2561
mc 2561
ngừ 2561
toby 2561
ẩu 2561
ivanovna 2560
campuchia 2559
irene 2559
nhòa 2558
we 2557
101 2556
1966 2555
dề 2554
vợt 2552
ry@@ 2551
gillette 2549
1942 2548
cameron 2548
cuồn 2548
tuốt 2548
venice 2546
võng 2546
axit 2545
jon 2545
roosevelt 2545
chồi 2544
3d 2543
air 2543
uy@@ 2538
xoăn 2538
are 2537
nần 2534
ay 2532
gro@@ 2532
ná 2532
đong 2532
sun@@ 2530
mí 2529
kềm 2528
điểu 2528
dy 2524
hừng 2524
zealand 2524
hungary 2523
georgia 2522
center 2521
cole 2521
nhớp 2521
t.c. 2521
bou@@ 2520
lõa 2520
christina 2519
peru 2519
thóc 2519
cật 2517
côlôse 2515
liệm 2515
ngu@@ 2515
sonya 2515
bộn 2514
yểm 2514
lóa 2513
5.000 2511
1963 2510
gryffindor 2510
ward 2509
moscow 2508
valjean 2505
lùm 2504
ré 2504
robie 2503
sờn 2503
umbridge 2503
seattle 2501
thun 2500
sim 2498
ngầu 2497
whoa 2497
fre@@ 2496
ku 2495
nhen 2495
alfred 2493
rang 2493
trịch 2492
êlisê 2489
̋ 2489
oi 2488
nhẽo 2487
bert 2484
1948 2483
bợ 2483
rita 2483
vernon 2482
berger 2481
winter 2480
đc 2479
hor@@ 2478
cassius 2477
pamela 2476
nixon 2475
ski 2475
mazarin 2474
loang 2472
elliot 2471
dr. 2470
ell 2470
nt 2470
bobby 2467
kèo 2464
mẫm 2464
chững 2463
mason 2463
ngấy 2463
sun 2463
trố 2463
massachusetts 2462
anjin 2461
dùi 2459
ot 2459
teo 2459
rizzoli 2458
sò 2458
hừ 2457
ts@@ 2457
jay 2455
xúp 2455
italy 2454
khựng 2452
bas@@ 2450
mửa 2450
sandwich 2448
rhett 2447
thoa 2447
chợp 2443
cli@@ 2443
sột 2443
dra@@ 2442
nòi 2442
ðoạn 2442
cola 2440
vơi 2437
pas@@ 2436
harris 2435
im@@ 2434
áng 2431
biếu 2429
104 2428
bla@@ 2428
mỳ 2428
amen 2427
chester 2426
khua 2426
let 2426
lán 2426
aum 2425
pandora 2423
diego 2422
êva 2421
tuấn 2420
nasuada 2419
quặng 2418
sydney 2415
twitter 2415
giặc 2413
joey 2413
seth 2413
sherlock 2413
vãng 2412
bat@@ 2411
chổ 2411
cs 2411
luciano 2410
múc 2410
thít 2410
dáy 2409
hugh 2409
kho@@ 2408
qui@@ 2408
niv 2407
grey 2406
ic 2406
mos@@ 2406
lép 2405
nây 2405
huỳnh 2404
gr@@ 2400
bastian 2399
yuichi 2399
900 2397
ir 2397
lìm 2397
tal@@ 2396
ruồng 2395
cher 2394
shaw 2394
als 2393
kin@@ 2393
nhuần 2393
she@@ 2391
sấu 2391
9,@@ 2390
lụy 2389
139 2388
mứt 2388
wolf 2388
muggle 2386
burg 2385
khét 2385
243 2383
cer@@ 2383
liu 2383
ốp 2383
1943 2381
cro@@ 2381
ana@@ 2380
marin 2380
fort 2379
jr 2379
khư 2379
oang 2379
8.@@ 2377
mêsi 2377
hara 2376
molly 2376
angela 2375
vel@@ 2372
áy 2370
archer 2369
tẩm 2367
xép 2367
hủ 2366
giũ 2365
com@@ 2363
sk 2361
trát 2361
chưởng 2360
england 2358
quằn 2358
trẻo 2358
tz 2358
lơn 2357
quẹo 2357
106 2354
bezos 2354
mên 2354
flamel 2352
1941 2351
cross 2350
harriet 2350
trồi 2350
bấu 2349
rám 2348
meo 2346
xuyến 2346
hunt 2345
rụi 2345
7,@@ 2343
bàu 2342
1961 2341
dông 2341
gọng 2340
loay 2339
mòng 2339
yo 2339
harold 2338
youtube 2338
búng 2336
mes@@ 2336
op@@ 2334
america 2333
vượn 2333
wales 2332
hoay 2330
little 2329
gara 2326
luna 2326
mus 2326
pp@@ 2326
malaysia 2324
ul@@ 2324
milo 2323
fri@@ 2322
ber 2321
pharaôn 2320
thẩn 2319
ôtô 2319
phình 2317
2030 2316
m.@@ 2316
shi 2316
dắc 2315
ngạnh 2314
rết 2314
truất 2314
cla@@ 2311
diane 2311
xix 2310
cosette 2307
hũ 2307
amanda 2306
becker 2306
ngoắt 2303
ị 2303
gẫu 2302
ngóc 2301
gregor 2300
ríp 2300
val 2299
nguệch 2298
bằm 2297
mẩn 2297
thím 2297
trăn 2294
kiku 2293
trớn 2291
quại 2288
laila 2287
diễm 2286
island 2286
jeremy 2285
hổi 2282
opera 2282
xỉu 2282
khoét 2281
mọt 2281
dodd 2280
great 2279
noel 2278
olive 2276
vin 2274
giòn 2273
vn 2272
andré 2269
đẩu 2268
réo 2267
1956 2266
ens 2265
mini 2265
jenny 2263
stuart 2263
hamilton 2257
ring 2257
ep 2254
kén 2254
thõng 2254
118 2253
140 2252
6,@@ 2251
kansas 2248
trớ 2248
hám 2247
trứ 2246
vance 2246
win 2246
hực 2245
jung 2244
zarathustra 2242
ðó 2242
boris 2241
rướn 2241
mat@@ 2239
star@@ 2238
tào 2237
khêu 2236
thoi 2236
fiona 2235
mé@@ 2235
tscđ 2235
felicity 2234
vianne 2234
milan 2233
ngợp 2233
nốc 2233
penny 2233
sđd 2232
wells 2231
lè 2230
stanley 2230
suỵt 2230
thoắt 2230
lydia 2229
wallace 2229
chòng 2227
exo 2227
ig@@ 2226
gus 2224
vênh 2223
bịu 2222
sion 2221
xẩy 2221
dỗi 2219
chầu 2218
tel 2218
8,@@ 2216
dăm 2216
tắp 2216
oc@@ 2212
quắc 2212
liềm 2210
fa 2209
hel@@ 2207
that 2207
gội 2206
tốp 2205
nn 2204
◆ 2203
thompson 2202
cô@@ 2199
cy 2198
mỏm 2198
asyri 2196
barney 2196
hựu 2196
thổn 2196
xẻo 2196
khập 2195
carlo 2194
vạc 2194
az@@ 2193
ngoằn 2193
xộc 2192
1939 2191
trối 2191
eu 2189
ment 2189
nôê 2189
garrett 2188
hudson 2188
polly 2188
tur@@ 2188
viii 2188
phi@@ 2187
111 2182
112 2182
ohio 2182
ey 2180
pic@@ 2180
elder 2179
lau@@ 2179
tive 2179
khứa 2177
kềnh 2177
pat@@ 2176
vol@@ 2176
7.@@ 2175
hão 2175
nar@@ 2174
lyon 2172
thui 2172
1947 2171
9.@@ 2171
beach 2171
key 2170
lynn 2170
mồng 2170
đẽo 2169
ami@@ 2168
houston 2166
nịt 2166
nịch 2164
your 2164
phoebe 2163
edmund 2160
khố 2160
toi 2160
what 2160
worth 2160
môt 2159
1958 2158
ea 2157
kal@@ 2157
thớt 2157
tina 2157
ambra 2156
bụa 2156
nhướn 2156
xạo 2156
ver 2155
baby 2153
conrad 2151
norman 2149
clo@@ 2148
anti@@ 2147
madrid 2147
brad 2146
doug 2146
dừa 2146
gang 2146
hấn 2146
diana 2145
sson 2145
blo@@ 2143
nelson 2143
1957 2142
ida 2142
who 2142
dollar 2141
tịt 2141
160 2139
state 2139
tã 2139
pos@@ 2138
michigan 2137
janet 2136
tennis 2136
trạc 2136
ek 2135
mấp 2135
wayne 2135
1946 2132
ú 2132
dc 2131
cọng 2130
mào 2129
kri@@ 2128
thửa 2128
vạm 2128
ism 2127
sào 2127
5,@@ 2126
loãng 2126
allah 2125
brothers 2124
mịch 2124
100.000 2123
úng 2123
dor@@ 2122
gas 2122
vê 2122
yoga 2120
nietzsche 2118
starling 2118
wilbur 2118
0,@@ 2117
giun 2117
richardson 2117
alecxandrovitr 2116
muhammad 2116
varden 2115
nhộng 2112
dal@@ 2111
royal 2111
bợm 2110
tions 2110
via 2106
xantrô 2106
đò 2106
stepan 2105
ghém 2104
low 2103
nigeria 2103
dấp 2102
nhuốm 2101
coraline 2100
ngợm 2100
thỏi 2100
pearson 2098
mariam 2097
gin 2096
johannes 2095
constantinople 2094
seoul 2094
ane 2092
xúm 2090
huh 2089
hen@@ 2088
page 2088
belbo 2086
joshua 2086
gẫy 2085
ngo@@ 2085
thạc 2085
apollo 2084
mùng 2084
whisky 2084
xốp 2084
xống 2082
co2 2080
slughorn 2080
1959 2078
rượt 2078
tấc 2078
alesandra 2076
tè 2075
carol 2074
stu@@ 2074
đượm 2074
1949 2073
petersburg 2073
vó 2072
khảm 2071
fla@@ 2070
lõng 2070
lằm 2069
ama@@ 2068
fc 2068
săm 2067
irina 2063
lững 2063
xu@@ 2063
giựt 2062
lèo 2061
reacher 2061
karen 2060
steven 2059
thòi 2059
kra@@ 2056
lêvi 2056
merry 2056
vồng 2056
zer 2056
keith 2055
khuỵu 2054
ning 2054
xẩu 2054
dobby 2051
đểu 2051
pan 2049
lịm 2047
107 2045
ruby 2045
cus 2044
py@@ 2044
bấp 2043
ngái 2043
ol 2042
kenya 2041
kitti 2040
franc 2039
hank 2038
princeton 2037
xói 2037
china 2036
giles 2036
side 2035
atlanta 2034
not 2033
xắc 2033
3.000 2032
cou@@ 2032
gát 2032
bê@@ 2029
keating 2028
liệng 2028
nêhêmi 2028
trệt 2028
astorre 2027
uổng 2025
1954 2024
s.@@ 2023
silicon 2023
ngổn 2022
nạo 2022
sết 2022
adler 2021
aicập 2021
lạo 2021
nhái 2021
venetia 2021
gh 2020
louisa 2019
rover 2019
xo 2019
kẹ 2016
miguel 2014
nĩa 2014
rosa 2014
ních 2013
chắt 2012
gọt 2012
euro 2011
quệ 2011
109 2010
mương 2010
lẩy 2009
ngăm 2009
painter 2009
xôn 2009
zo 2008
ứa 2008
foot 2007
yale 2007
băm 2006
nell 2006
hớt 2005
chấu 2004
leslie 2004
tel@@ 2004
đui 2004
good 2003
point 2003
radar 2003
sally 2003
ụ 2003
hale 2002
jan@@ 2002
roxtov 2002
102 2000
dina 2000
holder 2000
đèo 2000
milton 1998
cạm 1997
11@@ 1996
italia 1996
lòi 1996
ov 1995
by@@ 1994
vằn 1994
̄ 1994
quặn 1993
res 1993
mont 1992
don@@ 1989
mil@@ 1989
r.@@ 1989
hope 1988
est 1987
goá 1986
tủi 1984
êxêchiên 1984
miết 1982
jill 1980
vữa 1979
gam@@ 1978
gồ 1977
ngoèo 1977
partridge 1977
xấc 1977
225 1976
nháo 1976
vảy 1976
hộc 1974
kon@@ 1973
ngòm 1973
amaia 1972
cen@@ 1972
eilonwy 1972
rie 1971
mâm 1970
nẵng 1970
sà 1970
valentine 1970
ẵm 1970
432 1969
chloe 1967
arthos 1966
micro 1966
columbus 1964
dauntless 1964
eri@@ 1964
fukaeri 1962
tươm 1962
lum 1960
anastasia 1959
harvey 1959
tris 1959
dawson 1958
fedorovich 1958
tobias 1958
è@@ 1958
mississippi 1955
mari@@ 1954
mụn 1954
noelle 1953
maya 1952
paige 1952
sts 1952
michel 1950
port 1950
bach 1949
werner 1949
inh 1947
ette 1946
out 1944
sol 1944
megan 1943
vèo 1943
bac@@ 1942
jonas 1942
almanzo 1940
group 1940
herbert 1939
online 1939
summer 1939
1955 1938
trầy 1938
neely 1935
bbc 1933
cót 1933
claude 1932
guitar 1932
khè 1932
108 1931
nhãng 1931
điêng 1930
colombia 1927
giãi 1927
lecter 1927
madeleine 1927
dvd 1926
luỹ 1926
churchill 1925
guốc 1925
wright 1925
ant 1924
ous 1924
gwen 1921
uni@@ 1920
mói 1919
loi 1918
ash@@ 1917
chilton 1917
erik 1917
delta 1916
mar 1916
ele@@ 1914
av@@ 1913
maurice 1913
ale 1912
cọp 1911
jared 1911
tỏi 1911
ci 1908
tis 1908
ves 1908
ye 1908
miranda 1907
giôsuê 1906
sia 1906
flo@@ 1905
constantine 1904
roland 1903
bdm 1901
ii@@ 1901
đìa 1901
25@@ 1900
mercedes 1900
momo 1900
náy 1900
how 1899
oregon 1899
sabine 1899
gurgi 1898
xiêu 1898
nhãi 1897
éo 1897
hunter 1896
eerdmans 1895
khiễng 1895
kị 1895
sey 1895
bẽ 1894
machiavelli 1894
iso 1893
leng 1893
mas@@ 1893
pon@@ 1893
asakawa 1891
nhử 1890
tẹo 1890
tran@@ 1889
vil@@ 1889
hashi 1888
nẻ 1885
omi 1884
đềm 1884
125 1883
aragorn 1883
giụa 1883
thùy 1883
vodka 1883
soái 1882
aureliano 1881
end 1881
1,2 1880
dun@@ 1880
78@@ 1879
ec@@ 1878
sex 1877
super 1877
jazz 1876
khỉnh 1876
tòng 1876
đuợc 1875
cabin 1874
finnick 1874
choán 1873
e.@@ 1872
romeo 1872
cuội 1871
riết 1871
fan 1870
lói 1870
madison 1869
phảng 1868
bẵng 1867
ys@@ 1867
1952 1866
met@@ 1866
elena 1865
giãy 1865
lake 1865
dennis 1863
nhôm 1863
yun 1862
berkeley 1861
bấc 1860
east 1860
sứt 1860
duncan 1858
has@@ 1858
series 1857
dain 1856
nhón 1855
roma 1855
sloane 1855
12.@@ 1854
helena 1854
nan@@ 1854
gan@@ 1853
hởi 1853
lie 1853
pisciotta 1853
gil@@ 1852
ah@@ 1851
ino 1851
kenny 1851
mot@@ 1851
nicky 1851
antonio 1850
phen 1850
thày 1850
dy@@ 1849
byt 1848
nsnn 1847
books 1846
mống 1845
wor@@ 1845
„ 1845
isabella 1844
ara@@ 1842
ion 1842
khảnh 1842
ons 1842
power 1842
bin@@ 1841
mars 1841
rum 1841
nger 1840
cain 1839
gla@@ 1839
ser 1838
cụp 1837
dòm 1836
mag@@ 1834
pell 1834
tảo 1834
đéo 1834
shu@@ 1833
pr 1832
sạt 1831
barbara 1830
edwards 1829
thuỵ 1829
kệch 1827
ralston 1826
xo@@ 1826
dou@@ 1825
kền 1825
ngốn 1825
og@@ 1825
wynand 1825
chelsea 1822
pulaski 1822
carlos 1820
hĩnh 1820
mía 1819
oscar 1819
penn 1819
phồn 1819
lila 1818
phờ 1818
lionel 1817
thó 1817
gabrielle 1816
riddle 1816
war 1814
dunford 1813
toạ 1813
ä@@ 1813
gurney 1811
lexie 1811
st. 1811
xóc 1811
ation 1810
bel 1810
khàng 1810
nhiếc 1810
nhậu 1810
walt 1810
xệch 1810
asean 1809
mân 1808
pippi 1808
ápram 1807
lukas 1806
nus 1806
quăn 1806
raxkonikov 1806
reiko 1806
theresa 1806
tỳ 1806
bruno 1805
hiu 1804
colorado 1803
nhầy 1803
mickey 1802
ú@@ 1802
hen 1801
khò 1800
bot 1798
khuân 1798
quẹt 1798
135 1797
yes 1797
hume 1796
philitin 1795
society 1794
tâng 1794
chít 1793
wy@@ 1793
b.@@ 1792
club 1792
cưu 1792
ise 1792
lể 1792
vảng 1792
alpha 1791
pegasus 1791
tin@@ 1791
hâu 1789
darla 1788
thụp 1785
ghết 1784
ur 1784
theranos 1783
ok@@ 1782
spe@@ 1782
cle@@ 1781
ngắc 1781
manchester 1780
obama 1780
amsterdam 1779
luộc 1779
láu 1779
quơ 1779
sonny 1779
đóm 1779
giậm 1778
bhyt 1777
lloyd 1777
murray 1777
denver 1776
ếm 1776
ster@@ 1774
bíp 1773
d.@@ 1773
reagan 1773
sậy 1773
ala 1772
bt 1772
cạch 1772
pari 1772
roz 1772
erica 1771
mích 1771
ari 1770
collins 1770
dursley 1770
inc 1770
keng 1770
s.c 1768
pot@@ 1767
sor@@ 1767
sấy 1767
ler@@ 1766
nakata 1765
cacbon 1764
may@@ 1763
pet@@ 1762
murtagh 1761
carlton 1760
dặc 1760
henrik 1760
niu 1760
1953 1757
ky@@ 1757
nsa 1757
patricia 1756
xổm 1756
mafia 1755
145 1753
jacques 1752
mosca 1752
mt 1752
sebastian 1752
xối 1752
115 1751
banaba 1747
ori@@ 1747
pound 1747
trô 1747
cũi 1746
giò 1746
pol@@ 1746
quẫn 1745
gí 1744
harrison 1744
dằng 1743
shin@@ 1743
ner@@ 1742
home 1741
hòi 1740
lane 1740
1900 1739
dor 1739
miles 1739
thằn 1739
tĩu 1739
1938 1738
nq 1738
sub@@ 1738
‖ 1738
nat@@ 1737
ness 1737
ris 1737
tệp 1735
lou@@ 1733
sum 1733
clement 1732
this 1732
snow 1731
spencer 1731
mọng 1730
phừng 1730
nhang 1729
ron@@ 1729
fudge 1728
jin 1728
lou 1728
quạnh 1728
đản 1728
set 1726
alabama 1725
angus 1724
h.@@ 1723
zondervan 1723
son@@ 1722
cc 1721
mohammed 1721
mủ 1721
ôxy 1721
dell 1720
kiếng 1720
tuếch 1718
00@@ 1717
miami 1717
hử 1716
ap 1714
ishvar 1714
nghịu 1714
pc 1714
ae 1713
ổi 1713
gặng 1712
oa 1712
thẹo 1712
jerome 1711
judd 1711
50.000 1710
dmitri 1710
mr. 1710
tý 1710
ùn 1710
aro 1708
orleans 1708
cur@@ 1706
simpson 1706
slytherin 1706
ottoman 1705
sabát 1705
julius 1704
mm@@ 1704
bridge 1703
rượi 1703
trọi 1702
luẩn 1701
fi 1700
sing 1700
barth 1699
350 1697
chandler 1697
fisher 1697
pit@@ 1697
clara 1696
guy 1696
joachim 1696
dãn 1695
dùm 1695
chíp 1694
vu@@ 1693
búi 1692
derek 1692
westminster 1690
chội 1689
see 1689
felix 1688
orc 1688
lợm 1686
met 1686
nxb 1686
queen 1686
11,@@ 1685
madox 1685
sượt 1685
vát 1685
biếc 1683
ena 1683
neu@@ 1683
nie 1683
dé@@ 1682
xoàng 1682
misen 1681
evans 1680
phan 1680
loogan 1679
malachi 1679
ngao 1679
rưng 1676
xachari 1676
1929 1675
ami 1675
bờm 1675
nero 1675
â@@ 1675
kern 1674
bennett 1673
ngo 1671
thót 1671
đia 1671
central 1670
mướt 1669
rot@@ 1669
thiu 1669
tum 1669
bernie 1668
chùn 1668
hin@@ 1668
ngọ 1668
fran@@ 1667
ragnar 1667
đếch 1667
cent 1666
chau 1666
pho@@ 1666
barcelona 1665
chile 1665
cạp 1665
fan@@ 1665
marianne 1665
aurêlianô 1664
xốc 1664
eugene 1663
fra@@ 1663
teresa 1663
cui 1662
fer 1662
gandhi 1660
arnold 1659
dt 1659
british 1658
long@@ 1658
perenelle 1658
à@@ 1658
ess 1657
sùi 1657
nhừ 1655
violet 1655
madame 1654
cộp 1653
dis@@ 1653
gau@@ 1653
1919 1652
khế 1651
troy 1651
tòan 1651
veek 1651
116 1650
micôbơ 1650
natalie 1650
lady 1649
lauren 1649
new@@ 1648
cin@@ 1647
quidditch 1647
mồn 1645
planchet 1645
quyện 1645
â 1644
miss 1643
sậm 1643
toáng 1643
ng.@@ 1641
127 1640
bở 1640
chỏ 1639
mè 1639
naples 1639
ag 1637
cuả 1637
turner 1637
tụm 1637
tuyền 1636
br@@ 1635
company 1635
xoảng 1635
ực 1635
nhăm 1634
êrik 1634
húng 1633
science 1633
vãnh 1633
live 1632
vor@@ 1632
jeep 1631
mê@@ 1631
tine 1631
loé 1630
muỗng 1630
kreacher 1629
cr@@ 1628
leonardo 1628
margo 1628
zurich 1628
kham 1627
ryuji 1627
colette 1626
xõa 1626
paelen 1624
bury 1623
ngông 1623
sato 1623
xèo 1623
ère 1623
op 1621
das 1620
đi@@ 1620
dụm 1619
30@@ 1617
giũa 1617
khạc 1617
ạc 1617
chem 1616
doc 1615
mp 1615
10.@@ 1614
khanh 1614
logo 1612
5000 1610
báptít 1610
canolles 1610
chãi 1610
container 1610
grimaud 1610
illinois 1610
nuông 1610
lọng 1609
cos@@ 1608
kai 1608
shar@@ 1608
tô@@ 1608
11.@@ 1606
22@@ 1606
gavin 1606
katrina 1605
rian 1605
1918 1604
ghẹo 1604
kas@@ 1604
24@@ 1603
dri@@ 1603
pascal 1603
cứa 1602
huế 1602
nombeko 1602
quặt 1602
uganda 1601
giêsu 1600
rand 1600
swann 1600
170 1597
media 1597
mg 1597
thặng 1597
trãi 1597
ngói 1596
berkshire 1595
off 1595
iphone 1594
1936 1593
boy 1593
sapiens 1593
chác 1591
nhỏm 1588
yukawa 1588
zen 1588
nấn 1587
121 1586
hydro 1586
pic 1585
tắn 1585
đô@@ 1585
lom 1584
johanna 1583
liam 1583
logos 1583
medi@@ 1582
canon 1581
mes 1581
pippin 1581
rô@@ 1581
word 1581
bẹt 1580
gam 1580
glo@@ 1580
quệt 1580
xergei 1580
nguời 1579
tolland 1578
gằn 1577
phillip 1577
thảng 1577
ste 1576
gỏng 1575
reel 1575
arius 1574
iceland 1573
papa 1573
standard 1573
clarice 1572
vitamin 1572
haiti 1571
sue 1571
atlantic 1570
dominique 1570
vanger 1570
bím 1569
mau@@ 1569
campbell 1568
hách 1568
sên 1568
aaron 1567
back 1567
khứng 1567
strathmore 1567
3000 1566
bỡn 1566
1935 1565
cùm 1565
ins 1565
alô 1564
atréju 1564
warner 1564
ớ 1564
isak 1563
tong 1563
maine 1562
nike 1562
marc 1561
seung 1561
marathon 1560
mit@@ 1560
mun@@ 1560
sau@@ 1560
sọt 1560
bridget 1559
conor 1559
grove 1559
light 1559
union 1558
ath@@ 1557
cher@@ 1557
dante 1556
gollum 1556
mul@@ 1556
sou@@ 1556
cồng 1555
gru@@ 1555
phillips 1555
gwydion 1554
kos@@ 1554
bện 1553
càn 1553
dúi 1553
tùm 1553
mận 1552
night 1552
sexton 1552
kel@@ 1551
yama 1551
đéc 1551
ố@@ 1551
1933 1550
1951 1550
nhuốc 1549
org 1549
tsu@@ 1549
dr 1548
kẽm 1548
nhoẻn 1548
vienna 1548
kirsch 1547
ứ 1547
mur@@ 1546
▪ 1545
kyle 1544
sla@@ 1543
bit@@ 1542
hợm 1542
plan@@ 1542
132 1541
chịt 1541
eduardo 1541
get 1541
guồng 1541
les@@ 1541
mini@@ 1541
đay 1541
bellamy 1540
dubai 1540
ellie 1540
nớt 1540
nhũn 1539
gat@@ 1538
mãng 1538
rob 1538
ã 1538
jenner 1537
kan 1537
dó 1536
iq 1536
mợ 1536
díu 1534
lis 1534
lạng 1534
lé@@ 1533
teen 1533
12,@@ 1531
elinor 1531
rốn 1531
ói 1531
aifl 1530
corleone 1530
ghề 1530
ela 1529
lợp 1529
ses 1529
studio 1529
236 1528
lảnh 1528
yard 1528
chụm 1527
moses 1527
nghê 1527
ngs 1527
poly@@ 1527
samantha 1526
ghìm 1525
khấn 1525
homo 1524
cker 1523
gion 1523
giời 1523
ôsê 1523
miếu 1522
ươm 1522
bates 1521
loren 1521
128 1519
ahmad 1519
holger 1519
xốt 1517
anh@@ 1516
bùm 1516
ukraina 1516
wan 1516
aga 1515
june 1515
land@@ 1515
stockholm 1515
truân 1515
zar@@ 1514
ernst 1512
lẽn 1511
xiv 1511
pécgôti 1510
bay@@ 1509
laptop 1509
uk 1509
bct 1508
ene 1508
je 1508
ju 1508
vic 1508
ón 1508
dar 1507
emmett 1507
water 1506
kit@@ 1505
laurent 1505
quýt 1505
debbie 1504
lã 1504
ronald 1504
rạ 1504
conway 1503
giòng 1503
malcolm 1503
mcdonald 1503
neh 1503
trĩ 1503
ame 1502
arizona 1502
fflewddur 1502
mina 1502
lốm 1501
rosalie 1501
ev 1500
oz 1500
version 1500
vỉ 1500
edison 1499
gate 1499
bẽn 1498
chên 1498
chặp 1498
lola 1498
bird 1497
id@@ 1497
darrow 1495
mak 1495
khoắn 1494
oli@@ 1494
ros 1494
vại 1494
down 1493
lock 1493
nhòe 1493
xy 1493
ư@@ 1493
ae@@ 1491
gạc 1491
rỏi 1491
maneck 1490
quắt 1490
commentary 1489
high 1489
dia 1488
fortune 1488
laser 1488
gs 1487
kenneth 1487
nhem 1487
nina 1487
&lt; 1484
bonacieux 1483
marx 1483
vladimir 1483
mcmurphy 1482
đươc 1482
1937 1480
led 1480
reed 1479
benny 1478
treville 1478
gas@@ 1476
hurstwood 1476
peggy 1476
mou@@ 1475
comp@@ 1474
santos 1473
ưỡn 1470
osaka 1469
quắp 1469
roque 1468
vía 1468
babylon 1467
mura 1467
cab@@ 1465
hô@@ 1465
rim 1465
logy 1464
nas@@ 1464
nỡ 1464
bis@@ 1463
business 1463
dos 1463
f.@@ 1463
eri 1462
mmm 1460
riley 1460
1800 1459
chen@@ 1459
126 1458
head 1458
toohey 1457
agnes 1456
voldermort 1456
loẹt 1455
monte 1455
114 1453
armenia 1453
miến 1453
mun 1453
rutơ 1453
zero 1453
bil@@ 1452
fe 1452
pratt 1451
sít 1451
krystal 1450
miriam 1450
nong 1450
sủi 1450
rue 1449
sea 1449
ō@@ 1449
‒ 1449
bos@@ 1448
lổ 1448
origen 1448
v.v. 1448
xtrôgôp 1448
ải 1448
g.@@ 1446
school 1446
sôcôla 1445
tab@@ 1445
ukraine 1445
chài 1444
hn 1444
kazue 1444
thithiên 1443
today 1443
chin@@ 1442
nêm 1442
oanh 1442
sand@@ 1442
xii 1441
prince 1440
13,@@ 1439
capricorn 1439
ces 1439
chan@@ 1439
chase 1439
là@@ 1439
mae 1439
won 1439
row 1438
lởn 1437
lỉnh 1436
xtepan 1436
113 1435
dd 1435
magnus 1435
mas 1435
tiều 1435
vito 1435
điếng 1435
chẻ 1434
josephus 1434
sá 1433
mba 1432
zu 1432
360 1431
brien 1431
orik 1431
xiii 1431
xơi 1431
hửng 1430
link 1430
1932 1429
gic 1429
ath 1428
gằm 1428
inger 1427
hot 1426
jeans 1426
panama 1426
wi 1426
zi 1426
lê@@ 1425
lô@@ 1425
quinn 1425
ase 1424
mowgli 1424
sòm 1424
yuri 1424
muông 1423
1934 1422
ese 1422
fleur 1422
missouri 1422
price 1422
sám 1422
vv 1422
yuki 1422
ici 1421
lucrezia 1421
10,@@ 1420
bab@@ 1420
lênh 1420
romano 1420
sig@@ 1420
cocktail 1419
habacúc 1419
ip 1419
ther@@ 1419
nicole 1418
wikipedia 1418
ðiều 1417
hat@@ 1416
sì 1416
fen@@ 1415
ngạn 1415
arcaditr 1414
bot@@ 1414
court 1414
tp 1414
bet@@ 1413
fon@@ 1413
model 1413
ðây 1413
anders 1412
ata 1412
ing@@ 1412
right 1412
sm 1412
arôn 1411
mô@@ 1411
sophia 1411
zion 1411
êsau 1411
hác 1410
nhăng 1410
syri 1410
tửu 1410
eg@@ 1409
sil@@ 1409
bướu 1408
germain 1408
nu 1408
thớ 1408
vinci 1408
yukiho 1408
galileo 1407
montgomery 1407
moon 1407
patterson 1407
webster 1407
ee 1406
mic 1406
shannon 1406
bau@@ 1405
dõng 1405
mai@@ 1405
ares 1404
vởn 1403
hóng 1402
tho 1402
nos@@ 1400
tanner 1400
harding 1399
katniss 1399
ming 1399
ez 1398
nhằng 1398
saddam 1398
cliff 1397
eth 1397
loảng 1397
phới 1397
epi@@ 1396
ishido 1396
lar 1396
niết 1396
réc 1396
sumire 1396
colum 1395
dorian 1395
gol@@ 1395
meyer 1395
cru@@ 1394
doli 1394
hau@@ 1394
abu 1393
ett 1393
sellitto 1393
thau 1393
ao@@ 1392
tie 1392
450 1391
ngát 1391
janie 1390
kir@@ 1390
que@@ 1390
wu 1390
abc 1388
hay@@ 1388
turi 1387
clarke 1386
hal 1386
her 1386
tara 1386
cornelia 1385
hạc 1385
xòa 1385
cathy 1384
kohl 1384
† 1384
1931 1383
kutuzov 1383
phileas 1383
ppp 1382
barrett 1381
marion 1381
tz@@ 1381
atsuko 1380
raphael 1380
aires 1379
cape 1379
nhọ 1378
people 1378
beng 1377
kilômét 1377
mona 1377
noda 1376
timothy 1376
hoác 1375
rần 1375
whitney 1375
gon@@ 1374
lisbeth 1374
zz@@ 1374
college 1373
ivanovich 1373
od@@ 1373
xạc 1372
117 1371
kaylee 1371
sri 1371
bs 1370
macgơrit 1370
jupiter 1369
136 1368
amaranta 1368
rou@@ 1368
ati@@ 1367
evn 1367
gran@@ 1367
marco 1367
ruy 1367
chun 1366
hil@@ 1366
steele 1366
cấn 1365
rogers 1365
tr.@@ 1365
philippe 1364
chin 1363
khmer 1363
jos@@ 1362
walsh 1362
edinburgh 1361
ishigami 1361
roberts 1361
bahr 1360
best 1360
gièm 1360
joy 1360
up@@ 1360
w.@@ 1360
loét 1359
super@@ 1359
ero 1358
fil@@ 1358
sama 1358
1a 1357
20.000 1357
antiochus 1357
dre@@ 1357
now 1357
robbie 1356
vere 1356
hagen 1355
kkt 1355
kịt 1355
leigh 1355
phụt 1355
maryland 1354
randy 1354
marian 1353
mậu 1353
real 1353
donnell 1352
hm 1352
izumi 1352
jackie 1352
belle 1351
jeremiah 1351
tron 1351
emi@@ 1350
hp 1350
huênh 1350
titus 1350
box 1349
dam@@ 1349
law 1349
ini 1348
mót 1348
têsalônica 1348
beaufort 1347
gail 1347
rat 1347
ska 1347
220 1346
its 1346
sakh 1345
kirk 1344
play 1344
ă@@ 1344
giấm 1343
francesca 1342
hab@@ 1342
yoko 1342
maxim 1341
xê@@ 1341
ninive 1340
7871 1339
cel@@ 1339
pollyanna 1339
samsôn 1339
750 1338
bol@@ 1338
emerson 1338
chìu 1337
trảng 1337
y. 1337
ghẻ 1336
nw 1336
o.@@ 1336
ox@@ 1336
226 1334
ml 1334
human 1333
kimono 1333
raina 1333
yan@@ 1333
hag@@ 1332
ara 1331
maura 1331
mĩm 1331
sul@@ 1331
www 1331
bủa 1330
newt 1330
hoen 1329
ngoác 1329
o. 1329
pt 1329
úa 1329
broadway 1328
bính 1328
hủi 1327
lli@@ 1327
ufo 1327
xoe 1326
23@@ 1325
computer 1325
teabing 1325
leamas 1324
sandra 1324
sạo 1324
thom 1324
ex 1323
lt 1323
0.@@ 1322
ipod 1322
mormon 1322
ms@@ 1322
od 1322
ble 1321
sahara 1321
sony 1321
tal 1321
flash 1320
gao 1320
pau@@ 1320
cosimo 1319
và@@ 1318
50@@ 1317
hardy 1317
khum 1317
mecca 1316
bậu 1315
hum 1315
powell 1315
tc@@ 1315
26@@ 1314
rex 1314
sunny 1314
temple 1314
whiskey 1313
cindy 1312
francesco 1312
free 1312
queo 1312
ary 1311
boa 1311
kt 1310
portland 1310
wagner 1310
eng@@ 1309
gram 1309
nge 1309
reid 1309
123 1308
húc 1307
luis 1307
mara 1307
mir 1307
nhờn 1307
28@@ 1306
antichrist 1306
tuýp 1306
1500 1305
ice 1305
jar@@ 1305
yoshino 1305
josephine 1304
paprika 1304
ín 1304
iowa 1303
stewart 1303
ạ@@ 1303
ắc 1303
borg 1302
lụng 1302
ns@@ 1302
vera 1302
1922 1301
chậc 1301
lilly 1301
sons 1301
ủa 1301
15.@@ 1300
casino 1300
gps 1300
palm 1300
aa 1299
earth 1299
evelyn 1299
ghẽ 1299
carr 1298
zoe 1298
berry 1297
arixa 1296
buenos 1296
costa 1296
dictionary 1296
kil@@ 1296
mont@@ 1296
beta 1295
carthage 1295
ish 1295
nile 1294
brasil 1293
express 1293
huyễn 1293
pet 1293
view 1293
venezuela 1292
sandy 1290
abe 1289
daily 1289
garden 1289
hỉnh 1289
ế 1289
dora 1288
linux 1288
thố 1288
lucia 1287
147 1286
yuriko 1286
ab 1285
nadia 1285
tróc 1285
ö@@ 1285
cul@@ 1284
baltimore 1283
hùa 1283
kingsley 1283
millennium 1283
polo 1283
theodore 1283
ut 1283
acid 1282
boeing 1282
pdf 1282
ping 1282
gồng 1281
logan 1281
plaza 1281
burnham 1280
dỏng 1280
review 1280
200@@ 1279
come 1279
connecticut 1278
húp 1278
ct@@ 1277
hab 1277
khục 1277
kyoto 1277
mb 1277
ach 1276
bond 1276
hindu 1276
hẵng 1276
jaime 1276
christine 1275
red@@ 1275
bes@@ 1274
anita 1273
bellatrix 1273
detroit 1273
dow 1273
edi@@ 1272
olympus 1272
toni 1272
fle@@ 1271
khu@@ 1271
reynolds 1271
soda 1271
tamaru 1271
wal 1271
134 1270
alecxandrovna 1270
lance 1270
mitchell 1270
⁄ 1270
1928 1269
lor@@ 1269
ríu 1269
ẹp 1269
anime 1268
izzy 1267
mori@@ 1267
tonks 1267
fel@@ 1266
kol@@ 1266
gilbert 1265
kendall 1265
khạo 1265
set@@ 1265
tat@@ 1265
scathach 1264
eta 1263
melanie 1263
platon 1263
uriah 1263
judy 1262
noah 1262
tcvn 1261
zhivago 1261
khẩy 1260
miu 1260
nà 1259
bing 1258
mattia 1258
wol@@ 1258
palmer 1257
tou@@ 1257
yan 1257
able 1256
dill 1256
ship 1256
sur@@ 1256
zac 1255
cleveland 1254
cohen 1254
feld 1254
hs 1254
westcliff 1254
pap@@ 1253
sem 1253
alia 1252
xệ 1252
33@@ 1251
vông 1251
wer@@ 1251
122 1250
ellis 1250
mart 1250
spurgeon 1250
lap@@ 1249
ỏ@@ 1249
dậm 1248
fol@@ 1248
jer@@ 1248
ori 1248
rê@@ 1248
4,5 1247
atm 1247
dewey 1247
huých 1247
indiana 1247
khóm 1247
laxarơ 1247
hù 1246
java 1246
hack 1245
basta 1244
tertullian 1244
bailey 1243
ld 1243
prim 1243
stress 1243
133 1242
tennessee 1242
todd 1242
tễnh 1242
victra 1242
vuột 1242
18@@ 1241
ines 1241
mạp 1241
nano 1241
nạng 1240
om@@ 1240
saddleback 1240
ạch 1240
4.000 1239
got@@ 1239
tes@@ 1239
turing 1239
rico 1237
tas@@ 1237
bran@@ 1236
division 1236
dỏm 1236
entertainment 1236
hou@@ 1236
lảm 1236
sethe 1236
theo@@ 1236
vùa 1236
ồm 1236
ach@@ 1235
kolia 1235
sinai 1235
thỏm 1234
aháp 1233
bristol 1233
hanna 1233
lah 1233
pacific 1233
quách 1233
ters 1233
woo 1233
keller 1232
liesel 1232
thên 1232
rudy 1231
aquinas 1230
chạc 1230
thãi 1230
chớm 1229
sarin 1229
gospel 1228
nhải 1228
dylan 1227
liza 1227
đọ 1227
137 1226
adonis 1226
settembrini 1226
zen@@ 1226
14,@@ 1225
jamaica 1225
over 1225
phò 1224
rin@@ 1224
car 1223
lanka 1223
nato 1223
over@@ 1223
ẻo 1223
911 1222
bonnie 1222
hoshino 1222
146 1221
bệt 1221
ges 1221
office 1221
pur@@ 1221
omar 1220
ầy 1220
ano@@ 1219
aux 1219
murphy 1219
1925 1218
lừ 1218
2025 1217
jacqueline 1217
ws 1217
131 1216
bea 1216
gổ 1216
lịa 1216
pam 1216
place 1216
rus 1216
tag@@ 1216
bacon 1215
15,@@ 1214
fix 1214
hughes 1214
sel 1214
wick 1214
ama 1213
byzantine 1213
amốt 1212
bun@@ 1212
ip@@ 1212
cham 1211
ethiopia 1211
kane 1211
kes 1211
robertson 1211
creek 1209
mani@@ 1209
pax 1209
santiago 1209
ton@@ 1209
bé@@ 1208
gold 1208
mama 1208
qa 1208
thorn 1208
thérèse 1208
ties 1208
chuôi 1207
honey 1207
wes@@ 1207
kre@@ 1206
oc 1206
blair 1205
bấn 1205
stevens 1205
xvi 1205
tanya 1204
én 1204
143 1203
denise 1203
nic 1203
háu 1202
if 1201
6.000 1200
english 1200
galilê 1200
124 1199
dis 1199
khang 1199
lải 1199
mol@@ 1199
ré@@ 1198
siberia 1198
thút 1198
vỏn 1198
bôn 1197
gwendolen 1197
black@@ 1196
pedro 1196
sikh 1196
tam@@ 1196
valley 1196
castle 1195
dru@@ 1195
shirley 1195
spirit 1195
d.c. 1194
evan 1194
rossi 1194
shawn 1194
13.@@ 1193
ball 1193
maryellen 1193
like 1192
marty 1192
pilar 1192
ì@@ 1192
bod 1191
mill 1191
múi 1191
ric 1191
thượt 1191
õ 1191
đẫy 1191
basic 1190
carey 1190
congo 1190
global 1190
mèm 1190
nêbucátnếtsa 1190
chẽn 1189
dro@@ 1189
đê@@ 1189
khất 1188
148 1187
18,@@ 1187
cks 1187
colo@@ 1187
jehovah 1187
rs 1187
ture 1187
airlines 1186
cali@@ 1186
gomez 1186
grusenka 1186
tót 1186
■ 1186
burton 1185
ence 1185
games 1185
hello 1185
isa@@ 1185
xxi 1185
175 1184
dur@@ 1184
ras 1184
trót 1184
usa 1184
brom 1183
lúp 1183
nhuệ 1183
sar 1183
thorp 1183
yahweh 1183
glaedr 1182
bâng 1181
16,@@ 1180
bonaparte 1180
guộc 1180
ây 1180
1917 1179
drouet 1179
minnesota 1179
angel 1178
baba 1178
buckingham 1178
burn 1177
iris 1177
nữu 1177
yasuko 1177
elli@@ 1176
munich 1176
thẫn 1176
vểnh 1176
draco 1175
erin 1175
lot@@ 1175
nhão 1175
nằng 1175
toại 1175
green@@ 1174
hopkins 1174
maxwell 1174
pauline 1174
ves@@ 1174
cook 1173
kis@@ 1173
sto 1173
etta 1172
leonor 1172
sha 1172
gm 1171
suze 1171
trâm 1171
yểu 1171
cún 1170
hodge 1170
nicolas 1170
nik 1169
đật 1169
cairo 1168
hóm 1168
road 1168
thênh 1168
bc 1167
nhành 1166
shilling 1166
pil@@ 1165
tower 1165
ackađich 1164
jules 1164
oằn 1164
úrsula 1164
kie 1163
sé@@ 1163
two 1163
xviii 1163
air@@ 1162
louisiana 1162
lỏm 1162
đaxa 1162
ev@@ 1161
poli@@ 1161
siếc 1161
frida 1160
zalachenko 1160
ferdinand 1159
owen 1159
toronto 1159
ấ@@ 1159
komatsu 1158
pilon 1158
yn 1158
ăng@@ 1158
boyd 1157
moóc 1157
norah 1157
sherman 1157
1910 1156
michelle 1156
xmerdiakov 1156
129 1155
system 1155
tucker 1155
ới 1155
bad 1153
bun 1153
spi@@ 1153
bag@@ 1152
bẳn 1152
geralt 1152
hoắt 1152
gn 1151
ire 1151
lynch 1151
sal 1151
xki 1151
đu@@ 1151
patrik 1150
stark 1150
vờn 1150
forbes 1149
ssi@@ 1149
truman 1149
zer@@ 1149
cht 1148
kolya 1148
sherry 1148
vas@@ 1148
football 1147
gideon 1147
hõm 1147
istanbul 1147
jam@@ 1147
thuồng 1147
thơi 1147
stra@@ 1146
đựơc 1146
ậm 1146
pros@@ 1144
esther 1143
ram@@ 1143
riơ 1143
£ 1143
ashi@@ 1142
chạng 1142
kwh 1142
marjorie 1142
mành 1142
data 1141
gli@@ 1141
hayes 1140
hester 1140
l.@@ 1140
burke 1139
nê@@ 1139
cairns 1138
gừng 1138
apo@@ 1137
ars 1137
cage 1137
ea@@ 1137
ius 1137
coke 1136
nam@@ 1136
bulgaria 1135
cữu 1135
wat@@ 1135
whittaker 1135
ọp 1135
hòan 1134
our 1134
27@@ 1133
krit 1133
lucius 1133
phàng 1133
142 1132
azkaban 1132
delhi 1132
liếng 1132
ngút 1132
cara 1131
duke 1131
franz 1131
judith 1131
olga 1131
quin@@ 1131
vói 1131
was 1131
liverpool 1130
vol 1130
1926 1129
carax 1129
nap@@ 1129
sẳn 1129
165 1128
hếp 1128
nin@@ 1128
sw@@ 1128
foster 1127
gắm 1127
qh13 1127
wyatt 1127
138 1126
bass 1126
chếch 1126
cầy 1126
wolfe 1126
14.@@ 1125
bean 1125
dd@@ 1125
ray@@ 1125
rày 1125
210 1124
ere 1124
gột 1123
không@@ 1123
master 1123
women 1123
km2 1122
phoenix 1122
toanh 1122
xan 1122
êđôm 1122
austin 1121
kramer 1121
river 1121
ainz 1120
fire 1120
pac@@ 1120
soạng 1120
đỉa 1120
40@@ 1119
fache 1119
friedrich 1119
lon@@ 1119
nải 1119
véo 1119
xoong 1119
hilạp 1118
skulduggery 1118
thốc 1118
panh 1117
rune 1117
wen 1117
fro@@ 1116
fuller 1116
year 1116
dom 1115
renesmee 1115
aglaia 1114
xẹp 1114
gin@@ 1113
judah 1113
lơi 1113
phũ 1113
malta 1112
nikki 1112
omaha 1112
rả 1112
saudi 1112
ethan 1111
toyota 1111
dilsey 1110
dộng 1110
edith 1110
phlôrêntinô 1110
und 1110
kít 1109
bĩu 1108
peters 1108
antiốt 1107
biblical 1107
four 1107
philát 1107
elli 1106
nis 1106
io 1105
lử 1105
phone 1105
rận 1104
tar 1104
sudan 1103
anus 1102
cham@@ 1102
erudite 1102
kohler 1102
liz 1102
ore 1102
samsung 1102
slide 1102
còm 1101
nguậy 1101
roman 1100
card 1099
harald 1099
loà 1099
18.@@ 1098
beatrice 1098
knight 1098
carmel 1097
lới 1097
đác 1097
asia 1096
chông 1096
gil 1096
nevada 1096
self 1096
silas 1096
156 1095
android 1095
aram 1095
charleston 1095
chôm 1095
phate 1095
cộm 1094
phang 1094
saul 1094
túa 1094
ble@@ 1093
ef 1093
tai@@ 1093
ỷ 1093
asad 1092
assad 1092
sie 1092
sất 1092
thoang 1092
ü@@ 1092
kentucky 1091
kes@@ 1091
proton 1091
kam@@ 1090
momonga 1090
thoăn 1090
1890 1089
darcy 1089
gàn 1089
yu 1089
gatsby 1088
soài 1088
sạc 1088
webb 1088
1927 1087
louvre 1087
ngáng 1087
huơ 1086
kirihara 1086
nho@@ 1086
ricardo 1086
thảnh 1086
alicia 1085
arcadio 1085
beau@@ 1085
brandy 1085
case 1085
dae 1085
gg@@ 1085
mad@@ 1085
peri@@ 1085
toác 1085
1870 1084
dn 1084
list 1084
nab@@ 1084
ng. 1084
ramsay 1084
wel@@ 1084
maisie 1083
serbia 1083
sonja 1083
zon 1083
adrian 1082
cn@@ 1082
muốt 1082
osborne 1082
tiếu 1082
bye 1081
gerald 1081
good@@ 1081
homer 1081
nes@@ 1081
vạng 1081
aimee 1080
pao 1080
ded 1079
dexter 1079
girl 1079
ngoi 1079
ooh 1079
sụ 1079
tndn 1079
nghệch 1078
singer 1078
ávila 1078
born 1077
clifton 1077
essex 1077
calcifer 1076
nghĩnh 1076
tessa 1076
thénardier 1076
toilet 1076
gos@@ 1075
flu@@ 1074
bowerman 1072
diệm 1072
eh 1072
kumiko 1072
mana 1072
quentin 1072
rica 1072
sur 1072
rảy 1071
đẵng 1071
1905 1070
abnegation 1070
cromwell 1070
ellsworth 1070
lb 1070
pu 1070
bee 1069
ei 1069
ernest 1069
jen@@ 1069
marietta 1069
saunders 1069
vigor 1069
biêt 1068
coleman 1068
copenhagen 1068
mos 1068
odette 1068
dracula 1067
kar 1067
ola 1066
stan@@ 1066
sẩy 1066
digger 1065
dow@@ 1064
fu 1064
lena 1064
tos 1064
about 1063
butler 1063
corporation 1063
diệp 1063
lis@@ 1063
nghén 1063
records 1063
rodrigues 1063
wen@@ 1063
juliet 1062
shin 1062
wing 1062
1,5 1060
arena 1060
cữ 1060
denmiris 1060
barr 1059
gg 1059
hebrew 1059
lủi 1059
stri@@ 1059
code 1058
curtis 1058
nita 1058
oshima 1058
tas 1058
tics 1058
trác 1058
ç@@ 1058
149 1057
tion@@ 1057
dublin 1056
eusebius 1056
fun@@ 1056
nin 1056
sanchez 1056
êt 1056
dợm 1055
emilia 1055
giậu 1055
titan 1055
abi@@ 1054
trạch 1054
1923 1053
cl@@ 1053
rap@@ 1053
starr 1053
sảy 1053
vich 1053
wellington 1053
bradley 1052
phiệt 1052
3,4 1051
corse 1051
nepal 1051
connie 1050
mellis 1050
oth 1050
cot@@ 1049
faith 1049
nhẩy 1049
thoai 1049
ès 1049
athena 1048
cafe 1048
plu@@ 1048
suv 1048
144.000 1047
agu@@ 1047
amber 1047
arkansas 1047
buck 1047
earl 1047
xoài 1047
tional 1046
west@@ 1046
xela 1046
ả@@ 1046
adi@@ 1045
baghdad 1045
ctnh 1045
petunia 1045
short 1045
sol@@ 1045
đom 1045
60@@ 1044
gút 1044
ity 1044
ona 1044
publishing 1044
wardle 1044
borgia 1043
poirot 1043
kình 1042
naoko 1042
whit@@ 1042
ồng 1042
albus 1041
glen 1041
monroe 1041
tạnh 1041
ắ@@ 1041
bô@@ 1040
cyrus 1040
france 1040
saeed 1040
xerox 1040
1912 1039
ash 1039
bangladesh 1039
ries 1039
scotch 1039
amin 1038
sk@@ 1038
fau@@ 1037
fernando 1037
intel 1037
loát 1037
ục 1037
sua 1036
1921 1035
freddie 1035
fs 1035
ill 1035
kitôgiáo 1035
tius 1035
đớp 1035
dge 1034
kathryn 1034
ơng 1034
chong 1033
ợ 1033
amp@@ 1032
basel 1032
pm 1032
tuỵ 1032
minho 1031
róc 1031
antoine 1030
fur@@ 1030
hastings 1030
kếch 1030
sasagaki 1030
đôra 1030
2,3 1029
ever@@ 1029
sienna 1029
cõng 1028
ginia 1028
hùm 1028
mind 1028
olesen 1028
terri 1028
1924 1027
era 1027
háng 1027
nhụi 1027
cap 1026
dẹt 1026
nicôđem 1026
sê@@ 1026
144 1025
ful 1025
heights 1025
taliban 1025
1b 1024
khoé 1024
lois 1024
social 1024
susie 1024
ucsula 1024
carnegie 1023
dô 1023
thè 1023
tm 1023
bb@@ 1022
flynn 1022
nadine 1022
research 1022
sco@@ 1022
but 1021
ele 1021
fac@@ 1021
khoải 1021
nastasia 1021
ngoáy 1021
pel@@ 1021
beverly 1020
kw@@ 1020
libya 1020
mono@@ 1020
phắc 1020
albania 1019
association 1019
schaeffer 1019
virgil 1019
woody 1019
xa@@ 1019
kur@@ 1018
sansom 1018
charlemagne 1017
drive 1017
lang@@ 1017
moto 1017
plutarch 1017
rọt 1017
bud 1016
hei@@ 1016
lea@@ 1016
trằn 1016
viola 1016
29@@ 1015
challenger 1015
francois 1015
monterey 1015
newman 1015
ừ@@ 1015
ala@@ 1014
fats 1014
mề 1014
three 1014
tủm 1014
whi@@ 1014
ình 1014
1913 1013
ado@@ 1013
myanmar 1013
rumani 1013
soóc 1013
mcloughlin 1012
đo@@ 1012
30.000 1011
andrea 1011
martín 1011
montag 1011
nation 1011
đễnh 1011
gạn 1010
khản 1010
mênchixêđéc 1010
tation 1010
tỉm 1010
baptist 1009
braun 1009
bxd 1009
charity 1009
death 1009
mallory 1009
pha@@ 1009
7845 1008
birmingham 1007
fitzgerald 1007
kissinger 1007
oni@@ 1007
sche@@ 1007
syn@@ 1007
café 1006
phèo 1006
shire 1006
17,@@ 1005
comment 1005
ks@@ 1005
ut@@ 1005
ally 1004
not@@ 1004
sei@@ 1004
diếm 1003
doyle 1003
gui@@ 1003
lei@@ 1003
liến 1003
tate 1003
wood@@ 1003
ười 1003
cồm 1002
lỳ 1002
pierce 1002
trátđơn 1002
trẫm 1002
bòng 1001
erasmus 1001
becky 1000
royce 1000
sian 1000
willie 1000
§ 1000
đôly 1000
16.@@ 999
amma 998
cnn 998
gov 998
maxlova 998
nhao 998
soo 998
story 998
sém 998
ipad 997
khăm 997
mobile 997
nhớt 997
tréo 997
yl 997
ươi 997
35@@ 996
chỏm 996
gel 996
gerry 996
jose 996
muồi 996
myers 996
phy@@ 996
visi@@ 996
isis 995
quờ 995
rạo 995
silva 995
ðại 995
blu@@ 994
voltaire 994
ý@@ 994
jorge 993
copy 992
elliott 992
gab@@ 992
hẩm 992
puerto 992
sullivan 992
thy 992
brand 991
chri@@ 991
gimli 991
javert 991
kurt 991
tọc 991
báptem 990
cinna 990
laure 990
êxêchia 990
152 989
briony 989
cilke 989
county 989
his@@ 989
kers 989
rupert 989
vánh 989
accađiô 988
gel@@ 988
hazel 988
jevy 988
pé@@ 988
pô 988
burger 987
meri@@ 987
porter 987
zach 987
bõ 986
bùi 986
holy 986
hr@@ 986
leah 986
leonard 986
merete 986
mitsuyo 986
phúng 986
phấp 986
trac@@ 986
irenaeus 985
koch 985
koran 985
nature 985
stre@@ 985
hyde 984
jeb 984
macintosh 984
naxarét 984
gloria 983
thụng 983
u.@@ 983
haw@@ 982
heart 982
lyn 982
..... 981
cạt 981
madonna 981
pro 981
sần 981
cecil 980
limousine 980
ato@@ 979
axít 979
carmen 979
gondor 979
gô@@ 979
ngton 979
theological 978
dim 977
nag@@ 977
nen 977
nhọt 977
bal 976
easy 976
only 976
photo 976
witcher 976
ời 976
alo@@ 975
batman 975
boling 975
corky 975
dai@@ 975
kawa 975
michê 975
nhâm 975
para@@ 975
tiger 975
ử 975
barrington 974
bour@@ 974
film 974
net@@ 974
tê@@ 974
work 974
19,@@ 973
ishi@@ 973
tian 973
trồ 973
anselm 972
copơphin 972
ghana 972
illuminati 972
alby 971
bgtvt 971
christianity 971
hills 971
hit 971
kiyoshi 971
mozart 971
starbucks 971
hart 970
tomohiko 970
ên@@ 970
giôên 969
mie 969
mitch 969
simôn 969
zeus 969
141 968
hit@@ 968
kara 968
koto 968
nhặng 968
service 968
kv 967
lester 967
prot@@ 967
alzheimer 966
gonzaga 966
mtv 966
nập 966
torah 966
lands 965
ple@@ 965
ago 964
alps 964
chới 964
della 964
flora 964
mousqueton 964
nghễ 964
thía 964
fraser 963
off@@ 963
thiến 963
227 962
2a 962
alecxandrovich 962
centimet 962
lêu 962
núc 962
phia 962
ttlt 962
xvii 962
honda 961
nhốn 961
ow 961
rochester 961
aa@@ 960
krum 960
muller 960
nintendo 960
gảy 959
đét 959
đụn 959
giảo 958
240 957
dolores 957
ili@@ 957
lman 957
ther 957
bryan 956
cau@@ 956
eli 956
ingrid 956
vs 956
xô@@ 956
2,5 955
akh 955
auto@@ 955
bul@@ 955
khụt 955
ota 955
haven 954
hơ 954
mab 954
tele@@ 954
tsukuru 954
anism 953
dus 953
gal 953
hamburger 953
wisconsin 953
ï@@ 953
7843 952
harmony 952
khiu 952
narumi 952
tau@@ 952
xỉnh 952
586 951
ailen 951
manila 951
yar@@ 951
gore 950
osa 950
quẫy 950
190 949
ato 949
montana 949
phễu 949
rệp 949
rỏ 949
yang 949
zan@@ 949
ñ@@ 949
bkhcn 948
capital 948
lor 948
villa 948
ames 947
cio 947
clar@@ 947
encyclopedia 947
fleming 947
jet 947
lắt 947
ngấn 947
ngẩm 947
sburg 947
byron 946
béng 946
ichi 946
indi@@ 946
qu 946
tactus 946
thea 946
vie 946
cawley 945
lio 945
mario 945
thorin 945
ghềnh 944
hoffman 944
map 944
mis@@ 944
rosemary 944
sterling 944
xém 944
byte 943
dot 943
jensen 943
polycarp 943
chat 942
dượt 941
goldman 941
guatemala 941
hếch 941
u. 941
ching 940
fic@@ 940
frost 940
lev 940
quánh 940
sạm 940
yer 940
cael 939
det@@ 939
dế 939
lizzie 939
nhựt 939
palermo 939
ỉa 939
1830 938
22,@@ 938
calo 938
dallben 938
maycomb 938
trevor 938
tugumi 938
1915 937
buffalo 937
cupid 937
gun@@ 937
pes@@ 937
phê@@ 937
phạn 937
alism 936
eden 936
ek@@ 936
lettie 936
logi@@ 936
millie 936
phecmina 936
ral 936
scho@@ 936
stefan 936
try 936
weather 936
dát 935
lisle 935
sierra 935
uhm 935
mủi 934
sher@@ 934
swindoll 934
1911 933
aja 933
brooks 933
cá@@ 933
izzie 933
spo@@ 933
êtiên 933
7853 932
khứu 932
liban 932
lm 932
melissa 932
schultz 932
shmi 932
tkv 932
váo 932
xịn 932
ches 931
ral@@ 931
ðến 931
ộc 931
155 930
ful@@ 930
var 930
visa 930
dl 929
els 929
rey 929
filch 928
valdespino 928
yemen 928
ụ@@ 928
cùn 927
fifa 927
hot@@ 927
lươn 927
sulamít 927
típ 927
western 927
wozniak 927
april 926
denixov 926
grisha 926
ngoai 926
team 926
wit@@ 926
bộp 925
ish@@ 925
noble 925
17.@@ 924
calpurnia 924
ete 924
hl@@ 924
junior 924
larkin 924
manuel 924
scan 924
addison 923
chửa 923
gotanda 923
halloween 923
70@@ 922
friedman 922
oklahoma 922
oslo 922
stor@@ 922
234 921
bjurman 921
dickon 921
charley 920
clive 920
diên 920
garcia 920
jor@@ 920
kitami 920
bmw 919
kabul 919
alba 918
gamma 918
hussein 918
martinez 918
pliny 918
thều 918
axel 917
body 917
brutal 917
crouch 917
ear@@ 917
eisenhower 917
rap 917
trờ 917
choi 916
gant 916
labs 916
manga 916
ngòai 916
sparta 916
đoản 916
mordaunt 915
tiệp 915
barnes 914
lộp 914
solo 914
study 914
elf 913
185 912
9,10 912
baanh 912
bêu 912
hẫng 912
next 912
shima 912
giắt 911
nẹp 911
tb 911
vót 911
ander 910
croatia 910
diesel 910
gestapo 910
tn@@ 910
high@@ 909
lowell 909
y.@@ 909
dad 908
descartes 908
lồm 908
lỵ 908
steiner 908
ọ 908
daria 907
wilhelm 907
asa@@ 906
chẵn 906
cạy 906
golden 906
rahel 906
tha@@ 906
vaxili 906
xv 906
click 905
html 905
lot 905
prin@@ 905
rông 905
trịa 905
viển 905
êđen 905
bolivia 904
chon 904
corp 904
electric 904
exơra 904
hampshire 904
hôsê 904
roberto 904
sky@@ 904
ácnét 904
phar@@ 903
trành 903
× 903
đa@@ 903
clip 902
gon 902
yugawa 902
45@@ 901
banda 901
chái 901
neanderthal 901
alto 900
beetee 900
buendía 900
bốp 900
ets 900
fedor 900
gy@@ 900
lorenzo 900
slim 900
buddy 899
finn 899
main 899
memphis 899
ề 899
151 898
barker 898
ngủn 898
space 898
bat 897
cullen 897
ein 897
lab 897
when 897
hector 896
hoắc 896
knox 896
laing 896
let@@ 896
venkat 896
2021 895
80@@ 895
dol@@ 895
hannibal 895
severus 895
bửu 894
dead 894
dj 894
engel 894
goyle 894
heroin 894
keiko 894
ket@@ 894
lockhart 894
major 894
sli@@ 894
5,6 893
brenda 893
dog 893
feeney 893
singh 893
smi@@ 893
trôn 893
tấy 893
armstrong 892
hêli 892
luxembourg 892
poker 892
chapman 891
fli@@ 891
hr 891
khoả 891
qh11 891
wharton 891
all@@ 890
georges 890
mol 890
mus@@ 890
xx@@ 890
xẹt 890
caine 889
force 889
graciela 889
jacket 889
nhụt 889
oni 889
open 889
waterloo 889
đct 889
154 888
4000 888
felton 888
goldmund 888
joyce 888
kau@@ 888
rói 888
why 888
claudia 887
dái 887
edgar 887
hood 887
india 887
sứa 887
tarahumara 887
ito 886
lorraine 886
norris 886
ote 886
ridge 886
wycliffe 886
19.@@ 885
aah 885
anton 885
caddy 885
nova 885
shan 885
strauss 885
sultan 885
ừa 885
after 884
dal 884
kins 884
know 884
mariuytx 884
mathê 884
mission 884
ụp 884
dau@@ 883
prometheus 883
tesla 883
uss 883
vit@@ 883
ance 882
gap 882
giép 882
goethe 882
nhuyễn 882
tủa 882
ròi 881
jacobs 880
payne 880
rubin 880
ươn 880
his 879
horace 878
photon 878
quạng 878
single 878
tae 878
unix 878
vùn 878
geisha 877
gờm 877
marsha 877
misa 877
natasha 877
xit 877
1907 876
giạt 876
hailey 876
hiềm 876
imp@@ 876
laban 876
ngoằng 876
noyce 876
rịt 876
vna 876
ứ@@ 876
jeffrey 875
otoko 875
ots 875
ðúng 875
ị@@ 875
1880 874
bergen 874
jun 874
lian 874
méxico 873
springs 873
230 872
avi@@ 872
bủn 872
họ@@ 872
tiffany 872
tx@@ 872
bain 871
century 871
ght 871
japan 871
millard 871
pavlovich 871
phin 871
tẹt 871
153 870
bernarda 870
eus 870
khướt 870
macmillan 870
ob@@ 870
templeton 870
ác@@ 870
19@@ 869
chỉn 869
guido 869
landry 869
qua@@ 869
bli@@ 868
carson 868
form 868
har 868
lars 868
last 868
percey 868
pê@@ 868
chad 867
gườm 867
nạm 867
out@@ 867
rd 867
ráy 867
talmud 867
woods 867
272 866
chột 866
dil@@ 866
dio 866
pittsburgh 866
vy 866
àh 865
200.000 864
cv 864
filippovna 864
gar 864
square 864
20,@@ 863
clemenza 863
dragon 863
joon 863
mei 863
nier 863
trans 863
xị 863
ẹ 863
bangkok 862
cato 862
choai 862
cour@@ 862
cảu 862
húi 862
proust 862
watt 862
đên 862
� 862
000.000 861
kathy 861
peik 861
rockefeller 861
rắp 861
underwood 861
fos@@ 860
legolas 860
norton 860
ỉ@@ 860
anda 859
brandon 859
glover 859
ltd 859
rutherford 859
helsing 858
nora 858
deborah 857
kun@@ 857
nộm 857
scout 857
tyson 857
ột 857
arian 856
ave 856
awards 856
eno@@ 856
lebedev 856
norfolk 856
tania 856
evgeni 855
lund 855
nbc 855
urs 855
johann 854
lip 854
lizaveta 854
ngỗ 854
oromis 854
parvaneh 854
pasha 854
roman@@ 854
smo@@ 854
cheng 853
dv@@ 853
roll 853
salad 853
type 853
umbrella 853
hê@@ 852
just 852
nino 852
vau@@ 852
xiêm 852
aki 851
angelo 851
cas 851
saruman 851
tỏng 851
watch 851
arab 850
avari 850
brockbank 850
chểnh 850
jilly 850
kincaid 850
rọc 850
toẹt 850
ammu 849
ey@@ 849
kai@@ 849
app@@ 848
cerdic 848
chề 848
enberg 848
marilyn 848
đt 848
hên 847
hích 847
janice 847
kle@@ 847
shh 847
tw 847
0,000 846
cleopatra 846
holiday 846
randall 846
shelley 846
clb 845
dellray 845
dạc 845
fo 845
midori 845
rei@@ 845
schopenhauer 845
algorithm 844
kro@@ 844
mbo 844
thoắng 844
athanasius 843
eb@@ 843
ello 843
hd 843
marta 843
plasma 843
sley 843
187 842
6,7 842
face 842
giô@@ 842
lenny 842
phệ 842
yen 842
ùng 842
empire 841
hun@@ 841
anto@@ 840
bic@@ 840
có@@ 840
esme 840
maureen 840
mountain 840
test 840
8,9 839
mandy 839
ski@@ 839
sumer 839
volvo 839
living 838
pepsi 838
1850 837
dolly 837
beethoven 836
bertram 836
buntaro 836
crystal 836
fall 836
kru@@ 836
nhởn 836
rna 836
sat 836
seine 836
tol@@ 836
vancouver 836
zwingli 836
òng 836
fritz 835
guide 835
kawashima 835
pharaoh 835
chap@@ 834
dic@@ 834
francon 834
phili@@ 834
rogojin 834
talk 834
tn 834
wendy 834
000@@ 833
cohn 833
dark 833
elton 833
foundation 833
hùn 833
malkin 833
rờn 833
til@@ 833
ø@@ 833
ayane 832
ekstrom 832
gers 832
ges@@ 832
hục 832
vers 832
ðừng 832
25,@@ 831
giôsia 831
khúm 831
magic 831
nou@@ 831
storm 831
alo 830
gông 830
ignatius 830
nó@@ 830
pas 830
sởn 830
x. 830
beatles 829
nian 829
scha@@ 829
demerest 828
gắp 828
lion 828
mouse 828
soci@@ 828
wars 828
zzi 828
đơm 828
1908 827
bir@@ 827
chel@@ 827
hon@@ 827
kang 827
koh 827
liber@@ 827
lucky 827
né@@ 827
sai@@ 827
sci@@ 827
thỉ 827
veo 827
vsd 827
aghê 826
have 826
jong 826
kung 826
ò 826
alvin 825
darius 825
mw 825
stal@@ 825
ướm 825
212 824
crabbe 824
fai@@ 824
gunther 824
scrimgeour 824
stanton 824
swift 824
zy@@ 824
fletcher 823
kari 823
laurel 823
phil@@ 823
casey 822
francs 822
gutfreund 822
kemal 822
sloan 822
thết 822
morse 821
rhine 821
uranium 821
wes 821
100@@ 820
blackwell 820
bronx 820
kot@@ 820
palace 820
quĩ 820
reese 820
sôđôm 820
adolf 819
bliss 819
erika 819
karma 819
láy 819
tap@@ 819
trelawney 819
ving 819
baum 818
market 818
nagasaki 818
ā@@ 818
1860 817
7.000 817
bull 817
hiro 817
kano 817
nolan 817
rol@@ 817
xuýt 817
hinh 816
motors 816
nghịt 816
queens 816
sten@@ 816
violin 816
yates 816
bnn 815
horn 815
lõ 815
mili@@ 815
nhám 815
piggy 815
qcvn 815
ỏng 815
poppy 814
rasheed 814
ats 813
coffey 813
ely 813
ingram 813
jin@@ 813
marti@@ 813
pre 813
sịt 813
ảrập 813
176 812
bio@@ 812
bublanski 812
cop@@ 812
dian 812
eliza 812
enoch 812
estha 812
frankfurt 812
lutheran 812
swe@@ 812
wan@@ 812
ườn 812
2b 811
bombay 811
giôđanh 811
glu@@ 811
nguỵ 811
oi@@ 811
tone 811
vivian 811
vựa 811
wheeler 811
andes 810
heather 810
kali 810
memorial 810
nc 810
sec 810
trùn 810
utah 810
ðể 810
ều 810
7889 809
anglo 809
rodriguez 809
ện 809
1.500 808
agustin 808
giuđe 808
giê@@ 808
hop 808
minerva 808
ou 808
paulie 808
antonia 807
coo@@ 807
nel 807
nả 807
salvador 807
siôn 807
stott 807
tori 807
tăn 807
vogel 807
ét 807
1200 806
ante 806
cp@@ 806
mand@@ 806
mira@@ 806
rhys 806
rice 806
tors 806
cotton 805
gióng 805
heinrich 805
mine 805
cox 804
ec 804
kirwill 804
penelope 804
trẽn 804
weston 804
ein@@ 803
ist 803
vince 803
21,@@ 802
3m 802
550 802
cba 802
geoffrey 802
kathleen 802
lolita 802
ose 802
reuben 802
xồm 802
gia@@ 801
hes@@ 801
koster 801
wind 801
1904 800
chrysler 800
dakota 800
effie 800
fish 800
kiki 800
kô 800
qur 800
tễ 800
yorkshire 800
20.@@ 799
cụng 799
dio@@ 799
fern 799
marcel 799
muriel 799
nệ 799
packard 799
ruổi 799
ted@@ 799
digital 798
health 798
polis 798
tuồn 798
211 797
ax@@ 797
idaho 797
macedonia 797
network 797
ngen 797
peterson 797
richmond 797
tankado 797
bơ@@ 796
galleon 796
imaeda 796
jed 796
nghẽo 796
petrovich 796
pper 796
rai 796
razumikhin 796
report 796
rộp 796
sch 796
sed 796
tuộc 796
đơ@@ 796
1600 795
bentham 795
bõm 795
chàm 795
ick 795
tuế 795
yne 795
yoshi@@ 795
1812 794
38@@ 794
barbicane 794
batư 794
codex 794
dent 794
dunbar 794
kyohei 794
mussolini 794
nhảu 794
vố 794
xtiếcphoóc 794
battista 793
camp@@ 793
chocolate 793
hedwig 793
open@@ 793
photocopy 793
tot@@ 793
ở@@ 793
cs@@ 792
dúm 792
frankie 792
gibraltar 792
michelangelo 792
moretti 792
ngoạm 792
richie 792
rỗ 792
theta 792
vac@@ 792
éc 792
1916 791
clu@@ 791
ibid 791
octavia 791
rai@@ 791
ém 791
airways 790
gino 790
hamburg 790
leton 790
mags 790
430 789
ais 789
ders 789
mons 789
yves 789
acxinhia 788
alexis 788
brody 788
cti@@ 788
entropy 788
genève 788
gôgôtha 788
somalia 788
ée 788
2050 787
3a 787
chat@@ 787
mati@@ 787
rườm 787
sụa 787
take 787
178 786
kuwait 786
ngải 786
nice 786
ole@@ 786
tribune 786
usb 786
clutter 785
giovanni 785
lebanon 785
phu@@ 785
richards 785
rohan 785
shan@@ 785
baxter 784
greenland 784
hì 784
okada 784
rius 784
sướt 784
trans@@ 784
161 783
franco 783
ghi@@ 783
lers 783
lina 783
nhép 783
vega 783
aka 782
dẩn 782
paulo 782
pep@@ 782
reu@@ 782
eth@@ 781
gne 781
kaoru 781
ludwig 781
morrison 781
1906 780
aspirin 780
brooke 780
chét 780
denis 780
dresden 780
ery 780
ln 780
nhẹp 780
sta 780
xầm 780
cornwall 779
elo@@ 779
eros 779
nôm 779
rôm 779
seamus 779
use 779
winthrop 779
zam@@ 779
ade 778
brent 778
rù 778
second 778
sor 778
dei 777
displaystyle 777
insulin 777
salvatore 777
springfield 777
basil 776
crete 776
dềnh 776
mare 776
scatty 776
tg 776
158 775
alistair 775
ernie 775
láp 775
make 775
tx 775
v.@@ 775
wang 775
đười 775
buênđya 774
hat 774
introduction 774
nal 774
peterburg 774
rad@@ 774
tell 774
12,13 773
asa 773
ecuador 773
pitt 773
yah 773
ường 773
bowman 772
chú@@ 772
justine 772
katerina 772
nêvađa 772
oblonxki 772
scar@@ 772
ui 772
ði 771
320 770
adel 770
brutus 770
control 770
fumero 770
lana 770
nanon 770
sari 770
vức 770
babbage 769
bourbon 769
chơ 769
koinonia 769
merrill 769
mis 769
rea@@ 769
tle 769
dat@@ 768
dra 768
kel 768
rine 768
3chff1000 767
allison 767
burrows 767
champagne 767
göring 767
hamish 767
modern 767
tyndale 767
vốc 767
164 766
bear 766
budapest 766
coliseum 766
geo@@ 766
konakawa 766
mẩy 766
pius 766
schmidt 766
ế@@ 766
ủ@@ 766
325 765
bennet 765
gue 765
harley 765
rama 765
sángthếký 765
beau 764
olenska 764
petra 764
đêvit 764
1.1 763
copernicus 763
est@@ 763
mũm 763
ngoa 763
quít 763
sỏ 763
alf 762
andrei 762
birgitta 762
bươm 762
kit 762
ora 762
water@@ 762
winters 762
core 761
ffer 761
freddy 761
pen 761
saxon 761
there 761
thụi 761
welch 761
û@@ 761
11,12 760
40.000 760
development 760
hanh 760
hấu 760
onitsuka 760
ràn 760
tex@@ 760
260 759
croce 759
flint 759
klaus 759
như@@ 759
oái 759
sushi 759
àn 759
aba 758
andrews 758
hegel 758
lườm 758
mr 758
môáp 758
phelps 758
pr@@ 758
3,5 757
arabella 757
boys 757
chet 757
hormone 757
jeanne 757
less 757
ngham 757
pyle 757
sanders 757
vie@@ 757
mcnamara 756
orlando 756
sán 756
vasquez 756
viettel 756
dứa 755
marena 755
run@@ 755
salem 755
thor 755
tour@@ 755
280 754
brennan 754
btnmt 754
ches@@ 754
feynman 754
ott 754
bim 753
elin 753
hip 753
islam 753
mikhail 753
nar 753
plus 753
project 753
snitch 753
zimbabwe 753
330 752
aldaya 752
bua 752
kara@@ 752
kerry 752
trám 752
ápđia 752
ẳng 752
acha 751
aviv 751
dh@@ 751
here 751
ved 751
đỏm 751
13,14 750
dolokhov 750
ib@@ 750
med 750
micro@@ 750
religion 750
vis 750
albright 749
antony 749
dine 749
lius 749
map@@ 749
ow@@ 749
six 749
tariq 749
viking 749
where 749
yabril 749
16,17 748
163 748
bordeaux 748
get@@ 748
neumann 748
pie 748
slade 748
agliè 747
chal@@ 747
elvis 747
gania 747
hai@@ 747
margot 747
peace 747
pier 747
tech 747
36@@ 746
abby 746
bôô 746
diamond 746
faramir 746
giônathan 746
haley 746
lựng 746
mễ 746
tio 746
1903 745
4a 745
board 745
greek 745
harlem 745
holland 745
mir@@ 745
phelan 745
richelieu 745
168 744
alle@@ 744
bellona 744
crown 744
ira@@ 744
nk 744
paula 744
ribbon 744
sang@@ 744
thóp 744
wer 744
157 743
7841 743
caballo 743
háy 743
ngoắc 743
pru@@ 743
abdullah 742
aci@@ 742
armansky 742
bazin 742
hoắm 742
minneapolis 742
veri@@ 742
7,8 741
bree 741
enzyme 741
gy 741
ðông 741
clyde 740
drake 740
fl 740
gothic 740
khoằm 740
pixar 740
child 739
eds 739
europe 739
illi@@ 739
kid 739
nicolai 739
thia 739
véc 739
ỵ 739
carlson 738
eur 738
fields 738
fy 738
gottfried 738
ippolit 738
melbourne 738
mond 738
osanai 738
stein@@ 738
village 738
xửa 738
ệch 738
aoyama 737
block 737
grande 737
kiền 737
mackenzie 737
cruz 736
log 736
qh10 736
sham@@ 736
vợi 736
15.000 735
ces@@ 735
gaul 735
phineas 735
å@@ 735
ù@@ 735
14,15 734
fairfax 734
guil@@ 734
ira 734
ments 734
rousseau 734
slo@@ 734
xim 734
1909 733
ack 733
andre@@ 733
cac@@ 733
call 733
híp 733
hể 733
nylon 733
turgut 733
672 732
locke 732
nghèn 732
ranieri 732
rwanda 732
wimber 732
hard 731
hớ 731
kenyon 731
lard 731
lov 731
nim 731
venus 731
23,@@ 730
24,@@ 730
channel 730
davenport 730
eman 730
mble 730
mercury 730
portugal 730
thy@@ 730
ẫn 730
201 729
hawk 729
hiromi 729
hur@@ 729
imf 729
thững 729
varenca 729
zuckerman 729
ality 728
donna 728
evangelical 728
hermes 728
nn@@ 728
shah 728
adrenaline 727
az 727
band 727
cadillac 727
cathcart 727
chêm 727
dôi 727
io@@ 727
qaeda 727
vặc 727
cit@@ 726
constantin 726
explorer 726
ez@@ 726
ille 726
nashville 726
ngửng 726
nhẹt 726
rupi 726
third 726
xton 726
bowling 725
k.@@ 725
tun 725
wade 725
act 724
baek 724
dic 724
giập 724
kẽo 724
masako 724
mccarthy 724
mvp 724
ngưòi 724
270 723
ania 723
arrow 723
hêrốt 723
march 723
mariana 723
mills 723
root 723
tier 723
vè 723
ỳ 723
1901 722
benedict 722
doña 722
gad@@ 722
naga 722
xoi 722
ã@@ 722
billboard 721
choang 721
deep 721
evie 721
forest 721
gmp 721
opal 721
pag@@ 721
pickering 721
sko@@ 721
tura 721
tằn 721
bitcoin 720
bourne 720
drew 720
ib 720
klamm 720
mellery 720
ẹo 720
ated 719
boo 719
cisco 719
hydro@@ 719
kno@@ 719
mitsuru 719
mode 719
okinawa 719
tuck 719
enterprise 718
iệ@@ 718
mich@@ 718
regina 718
theory 718
tiễu 718
vas 718
zeke 718
caribe 717
children 717
cóp 717
him 717
mắm 717
palo 717
russ 717
tokita 717
vision 717
digan 716
gly@@ 716
madagascar 716
ngộp 716
cody 715
dot@@ 715
kap@@ 715
kazakhstan 715
magazine 715
personal 715
roslin 715
trust 715
1886 714
bright 714
chipenden 714
gren@@ 714
jess 714
macri 714
natalia 714
tweet 714
yor@@ 714
àm 714
209 713
chum 713
ekaterina 713
ghinh 713
giòi 713
meredith 713
rosamund 713
sing@@ 713
tj 713
wally 713
yankee 713
ò@@ 713
amar@@ 712
boromir 712
françois 712
lenin 712
vé@@ 712
wei@@ 712
whe@@ 712
winky 712
8.000 711
arch@@ 711
kellogg 711
đã@@ 711
7879 710
bet 710
mccullough 710
picnic 710
ps@@ 710
tyersall 710
ē@@ 710
balkan 709
but@@ 709
coun@@ 709
lissy 709
luster 709
milli@@ 709
nico@@ 709
bb 708
cott 708
ferguson 708
glenarvan 708
grayson 708
mid@@ 708
roth 708
serena 708
ản 708
apa 707
chảng 707
gun 707
oo@@ 707
segundo 707
abên 706
action 706
annika 706
atlas 706
cùa 706
fitz 706
fontaine 706
lly 706
martini 706
ret 706
rock@@ 706
trip 706
angelina 705
deblass 705
fannie 705
juliana 705
lc 705
nee 705
orange 705
shimamura 705
versailles 705
205 704
ati 704
cỏn 704
giầu 704
quạc 704
scu@@ 704
ths 704
tino 704
xập 704
zia 704
1. 703
murakami 703
nhi@@ 703
soul 703
đư@@ 703
0.000 702
bes 702
bor 702
brain 702
ich 702
ith 702
kimberly 702
luông 702
trinity 702
uri@@ 702
warsaw 702
africa 701
chambers 701
cói 701
griffin 701
public 701
thatcher 701
7901 700
oper@@ 700
oà 700
ptolemy 700
rodney 700
db 699
dea 699
ile 699
munro 699
mếch 699
tằm 699
cos 698
gaulle 698
glenn 698
kon 698
management 698
money 698
them 698
2.1 697
ever 697
far 697
kelsey 697
ling@@ 697
montaigne 697
myrtle 697
nhản 697
sình 697
woman 697
urgal 696
yahoo 696
1815 695
722 695
bastille 695
coast 695
financial 695
got 695
hermann 695
ios 695
king@@ 695
official 695
oka 695
242 694
alfonso 694
crowley 694
gaia 694
kikuji 694
lôgic 694
© 694
eau 693
himmler 693
hurst 693
hẵn 693
kellan 693
nau@@ 693
wald 693
ū@@ 693
alexandre 692
cookie 692
fitchner 692
kepler 692
masa 692
matthieu 692
nhom 692
race 692
studios 692
ậ@@ 692
ỉm 692
montreal 691
willard 691
buntruc 690
family 690
tanzania 690
barclay 689
caer 689
nakajima 689
365 688
ace 688
cả@@ 688
ils 688
jae 688
kgb 688
monte@@ 688
oto 688
shelly 688
states 688
walk 688
← 688
asi@@ 687
cordell 687
gold@@ 687
lenz 687
seneca 687
bn 686
jenna 686
jon@@ 686
minnie 686
petya 686
philo 686
veronica 686
d.c 685
dixon 685
nasb 685
peabody 685
rt 685
ọe 685
amar 684
bếtlêhem 684
chổng 684
etti 684
hanson 684
hl 684
hms 684
patty 684
text 684
thồ 684
ura 684
yos@@ 684
karaoke 683
levi 683
nel@@ 683
niki 683
savage 683
ãn 683
181 682
bloom 682
economic 682
nemo 682
romania 682
silver 682
ub@@ 682
week 682
ông@@ 682
ates 681
convention 681
ego 681
med@@ 681
neutron 681
rocky 681
sili@@ 681
xan@@ 681
zel 681
bow@@ 680
gauss 680
institute 680
kristoll 680
lất 680
stella 680
ọc 680
192 679
cườm 679
cở 679
davi@@ 679
hàu 679
kiev 679
miquel 679
stic 679
1865 678
aaa 678
giêrôbôam 678
gấm 678
hh 678
hoóc 678
ichi@@ 678
lat 678
ninja 678
sicilian 678
wanda 678
ẹt 678
167 677
1902 677
baltic 677
course 677
culture 677
erson 677
kde 677
kings 677
nhú 677
ất 677
dwight 676
ngợ 676
nà@@ 676
oline 676
202 675
chiểu 675
diotallevi 675
greenwich 675
hand@@ 675
ig 675
phộng 675
rip 675
nitơ 674
sadako 674
sạp 674
thôma 674
torres 674
woodell 674
ặc 674
dia@@ 673
floyd 673
jenkins 673
kirby 673
titanic 673
189 672
mikhailovna 672
qh12 672
qlda 672
shinjuku 672
wn 672
chenko 671
chus 671
griphook 671
kei@@ 671
lam@@ 671
lima 671
preaching 671
sammy 671
soa 671
studies 671
tời 671
gt@@ 670
herald 670
herman 670
hậm 670
keynes 670
murat 670
vip 670
any 669
festival 669
kingdom 669
korn 669
lama 669
parkinson 669
richter 669
sound 669
yama@@ 669
ệ 669
ừng 669
166 668
dấm 668
french 668
lexington 668
philêmôn 668
rho@@ 668
tudor 668
um@@ 668
blđtbxh 667
bosnia 667
ert 667
gs@@ 667
gít 667
kếp 667
mount 667
quy@@ 667
singo 667
são 667
159 666
glasgow 666
hoo 666
kbnn 666
kingship 666
l.a 666
lằng 666
poster 666
true 666
tw@@ 666
small 665
tv@@ 665
balô 664
c.1 664
cassandra 664
fly 664
krishna 664
log@@ 664
lú 664
mick 664
motorola 664
oki 664
ono@@ 664
pt@@ 664
watts 664
words 664
asiri 663
domi@@ 663
kino 663
nelly 663
ravenclaw 663
shockley 663
spring 663
urani 663
watney 663
fenoglio 662
gauvain 662
ical 662
lind@@ 662
mameha 662
rolls 662
search 662
tory 662
vid@@ 662
ầ@@ 662
bĩnh 661
henrietta 661
nigel 661
notes 661
oắt 661
sượng 661
ôliu 661
đâ@@ 661
ộng 661
aztec 660
collie 660
daimyo 660
deb 660
elaine 660
olivetti 660
papias 660
pink 660
viêc 660
web@@ 660
ada@@ 659
kman 659
miệc 659
sted 659
đt@@ 659
bauer 658
carolyn 658
eux 658
fm 658
fujiko 658
gibson 658
premier 658
sas 658
senba 658
sã 658
addy 657
ations 657
god@@ 657
greyback 657
hybálai 657
ngụp 657
nhông 657
nhột 657
paolo 657
sasha 657
ware 657
ãi 657
ốn 657
215 656
650 656
aljaska 656
arafat 656
fouquet 656
hawksley 656
hằm 656
marvin 656
schwartz 656
thro@@ 656
thúng 656
aryan 655
autriche 655
bengal 655
cbs 655
enron 655
mikael 655
ngoét 655
ngót 655
nhẫy 655
seo 655
spin 655
→ 655
5m 654
cass 654
fda 654
hau 654
omega 654
pot 654
rakitin 654
rhodes 654
wennerstrom 654
ères 654
civic 653
giuđê 653
lidia 653
ía 653
1889 652
1895 652
alexand@@ 652
angelis 652
blan@@ 652
chiba 652
chũi 652
delacroix 652
metro 652
nghêu 652
owens 652
petrus 652
pl 652
sit 652
spa@@ 652
sunday 652
ẩy 652
162 651
bagheera 651
gaza 651
matthews 651
osiris 651
otsuka 651
rớm 651
trét 651
3b 650
costello 650
hamlet 650
heim 650
méc 650
olivier 650
quark 650
tter 650
witz 650
xĩnh 650
2. 649
elohim 649
happy 649
lucania 649
lỏn 649
miyashita 649
morning 649
rua 649
thin 649
days 648
etienne 648
gíc 648
las@@ 648
merlin 648
nađia 648
phiu 648
sei 648
shel@@ 648
spar@@ 648
store 648
wheaton 648
ỏ 648
algeria 647
api@@ 647
cartwright 647
cedar 647
edition 647
pec@@ 647
rôi 647
saunière 647
shanker 647
taj 647
yokohama 647
zar 647
10,11 646
183 646
bismarck 646
ef@@ 646
gertrude 646
mordor 646
nc@@ 646
okonkwo 646
sure 646
thelma 646
19,20 645
arabia 645
cl 645
cto@@ 645
hoth 645
mad 645
medici 645
204 644
25.000 644
av 644
bertie 644
chỉa 644
kill 644
mashiba 644
musk 644
sigma 644
thếch 644
vangiăng 644
brook 643
burns 643
cocaine 643
din@@ 643
innocent 643
kazuko 643
lea 643
mila 643
picasso 643
sù 643
traynor 643
aria 642
armand 642
aslan 642
borough 642
cove 642
mah@@ 642
mass 642
sab@@ 642
stern 642
works 642
đĩnh 642
ự 642
47@@ 641
creation 641
kö@@ 641
ls@@ 641
mẩm 641
polynesia 641
taiko 641
xam 641
ades 640
girls 640
mah 640
sụn 640
universal 640
ồi 640
aber@@ 639
cpu 639
date 639
doris 639
kw 639
lip@@ 639
part 639
take@@ 639
ain 638
castro 638
chil@@ 638
hee 638
order 638
roffe 638
thừ 638
tical 638
vale 638
wto 638
zin 638
ẽ 638
500@@ 637
bèo 637
ebay 637
lenet 637
makoto 637
natri 637
obi 637
phos@@ 637
room 637
spartacus 637
ẹc 637
annette 636
banner 636
dowd 636
dre 636
ngố 636
nhễ 636
rosalind 636
shauna 636
susannah 636
thor@@ 636
òn 636
anatol 635
award 635
falls 635
lacey 635
library 635
mate 635
mortimer 635
mumbai 635
nt@@ 635
rich@@ 635
ổ@@ 635
ử@@ 635
alis 634
ashi 634
bai@@ 634
chấy 634
garza 634
lolly 634
nen@@ 634
patri@@ 634
rell 634
af 633
aristoteles 633
dah 633
gina 633
magellan 633
nah 633
rufus 633
sofia 633
weiss 633
èo 633
final 632
gạ 632
late 632
macarthur 632
sten 632
tơn 632
vừng 632
xvyajxki 632
yn@@ 632
237 631
90@@ 631
aga@@ 631
clayton 631
khong 631
lennie 631
rhun 631
temp@@ 631
then@@ 631
wil 631
ade@@ 630
angie 630
cornelius 630
coronavirus 630
ivo 630
lestrade 630
takumi 630
valencia 630
xen@@ 630
andi 629
asahara 629
damon 629
eni@@ 629
hansen 629
logical 629
orr 629
ramée 629
secret 629
taru 629
zombie 629
177 628
747 628
band@@ 628
carbone 628
chy 628
eguchi 628
fire@@ 628
ison 628
lansky 628
tango 628
waters 628
22.@@ 627
aprile 627
ction 627
cum 627
darren 627
giu@@ 627
peregrine 627
síp 627
độp 627
ambrose 626
ass 626
chrestomanci 626
eng 626
has 626
lucifer 626
lxx 626
nestlé 626
nhạn 626
nov 626
rochefort 626
svensson 626
đệch 626
1897 625
7873 625
bl@@ 625
brussels 625
frances 625
gnu 625
hand 625
int 625
lạn 625
mandela 625
sculley 625
théoden 625
vulgate 625
š@@ 625
bòn 624
hống 624
karamazov 624
rion 624
site 624
sukhvinder 624
tac@@ 624
tner 624
520 623
bam@@ 623
chõ 623
ech 623
eriko 623
eun 623
hbs 623
lene 623
lốn 623
oswald 623
party 623
sim@@ 623
tch 623
đúp 623
dp 622
finney 622
gé@@ 622
kata 622
robby 622
schi@@ 622
vine 622
avenue 621
bagman 621
bertrand 621
cé@@ 621
kou@@ 621
nghỉm 621
petr 621
phốt 621
savannah 621
sơmi 621
wu@@ 621
eph@@ 620
jofre 620
sô@@ 620
tree 620
url 620
yoshio 620
46@@ 619
boom 619
calcutta 619
care 619
chantal 619
fen 619
gata 619
giằm 619
hyper@@ 619
macy 619
mv 619
pg 619
phùng 619
pun@@ 619
zio 619
ðộ 619
ờ@@ 619
cb 618
chang@@ 618
ctor 618
eunice 618
heikichi 618
kochamma 618
ngãi 618
nhíp 618
señora 618
sm@@ 618
than@@ 618
tọt 618
át@@ 618
221 617
300.000 617
cdo 617
job 617
rolling 617
tậu 617
alt 616
august 616
bart 616
cunningham 616
downers 616
dunia 616
eisman 616
karlsson 616
kas 616
khi@@ 616
lex 616
ller 616
prokofievna 616
sụm 616
tito 616
dua 615
everest 615
itunes 615
lữa 615
metal 615
rit 615
rod@@ 615
rudolf 615
ọi 615
171 614
197 614
buffet 614
dag@@ 614
dam 614
ginger 614
giăm 614
kahn 614
nica 614
sid 614
ucbinô 614
xuể 614
anden 613
bie 613
cern 613
chình 613
kafka 613
phyllis 613
stream 613
vet 613
đênh 613
change 612
cholesterol 612
côdét 612
future 612
iểm 612
lèn 612
nhụa 612
vẻo 612
1400 611
aten 611
blackberry 611
glucose 611
kiềng 611
mega@@ 611
ors 611
she 611
spinoza 611
yi@@ 611
cauvignac 610
chạ 610
country 610
eleseus 610
hé@@ 610
kaiser 610
kaki 610
khấp 610
myriam 610
pers 610
ple 610
suyễn 610
vits 610
alu@@ 609
cation 609
elisabeth 609
evich 609
fell 609
ked 609
khắng 609
mino@@ 609
mundungus 609
natural 609
publi@@ 609
robespierre 609
tctd 609
wilder 609
xbox 609
7875 608
bard 608
candy 608
danube 608
dino 608
nhạnh 608
phóc 608
pope 608
quest 608
raphaël 608
species 608
stop 608
tactar 608
under 608
volturi 608
years 608
222 607
500.000 607
clemen@@ 607
dore 607
hotel 607
jabba 607
jennings 607
piper 607
some 607
tiếm 607
tl 607
valentina 607
willy 607
zhang 607
bah@@ 606
emil 606
into 606
joni 606
lorn 606
mei@@ 606
mina@@ 606
nhu@@ 606
rabi 606
rặt 606
sven 606
tom@@ 606
té@@ 606
vietnam 606
viktor 606
aba@@ 605
christi@@ 605
dũa 605
gardner 605
giêricô 605
iếc 605
khô@@ 605
kun 605
pictures 605
qumran 605
sake 605
salon 605
êli@@ 605
úi 605
alvito 604
climpt 604
evangeli@@ 604
fair 604
fargo 604
gượm 604
indian 604
kazunari 604
kjv 604
mani 604
rợp 604
thra@@ 604
tov 604
ðược 604
206 603
bươn 603
coin 603
iner 603
munger 603
scofield 603
wis@@ 603
15,16 602
1892 602
azerbaijan 602
isi@@ 602
luộm 602
maz@@ 602
nebraska 602
nette 602
roc 602
yle 602
ồ@@ 602
clarence 601
levy 601
mans 601
quành 601
rabbi 601
uc@@ 601
1700 600
aldo 600
bath 600
bêngiamin 600
edo 600
gotham 600
jodie 600
parks 600
pul@@ 600
sius 600
1848 599
417 599
a1 599
divergent 599
elec@@ 599
hell 599
marcion 599
movie 599
1896 598
boggs 598
cụi 598
ddy 598
pelagius 598
qúa 598
thuộm 598
1898 597
estonia 597
irving 597
macdonald 597
machine 597
strong 597
vể 597
five 596
iegoruska 596
kijima 596
kura 596
mber 596
sivert 596
sport 596
sz@@ 596
wool@@ 596
đúa 596
174 595
binet 595
dawn 595
neon 595
siegel 595
st.@@ 595
stevenson 595
stru@@ 595
vir@@ 595
whitcomb 595
xịch 595
195 594
acre 594
caster 594
epistle 594
garage 594
hin 594
jestine 594
manny 594
mri 594
pasadena 594
pico 594
playstation 594
ró 594
sac@@ 594
tuýt 594
169 593
1840 593
dẽ 593
galaxy 593
gle@@ 593
had@@ 593
lockwood 593
ọ@@ 593
1868 592
are@@ 592
austr@@ 592
bnnptnt 592
chart 592
chotas 592
croft 592
dobson 592
elissande 592
marine 592
moor 592
nor 592
other 592
rel@@ 592
wri@@ 592
zan 592
ðã 592
21.@@ 591
aline 591
ann@@ 591
blanchard 591
cời 591
gb 591
gerard 591
leroy 591
lụn 591
mental 591
phẩu 591
smart 591
aouda 590
cavalli 590
cc@@ 590
claudius 590
giônơx 590
hèm 590
jelks 590
martyr 590
matilda 590
namibia 590
nghển 590
váp 590
xè 590
79@@ 589
gian@@ 589
inui 589
khui 589
konrad 589
naphta 589
ollivander 589
through 589
whole 589
850 588
canterbury 588
deci@@ 588
eti 588
icô 588
ini@@ 588
marzak 588
mn 588
omi@@ 588
speed 588
sấn 588
233 587
api 587
ibn 587
mister 587
morwena 587
nicaea 587
qt 587
shell 587
spock 587
tully 587
éomer 587
ộ@@ 587
22,23 586
249 586
ange 586
circle 586
crowe 586
emon 586
jac@@ 586
lavender 586
leningrad 586
marfa 586
slav 586
townsend 586
vinalines 586
yer@@ 586
đọan 586
chạn 585
chỏng 585
diếp 585
joanne 585
orrin 585
thùa 585
acti@@ 584
barton 584
eland 584
fidel 584
inter 584
jeanine 584
nba 584
stead 584
unesco 584
dream 583
elrond 583
gì@@ 583
hoover 583
huỵch 583
jody 583
lation 583
look 583
pol 583
quèn 583
rh@@ 583
spin@@ 583
arriane 582
clovis 582
illa 582
janeiro 582
macx 582
mansfield 582
maría 582
merton 582
minas 582
morphine 582
narnia 582
philippine 582
rom 582
tư@@ 582
vat@@ 582
xếch 582
zawa 582
ề@@ 582
aus 581
gou@@ 581
gypsy 581
huê 581
kowalski 581
lềnh 581
lờn 581
pyjama 581
sunni 581
tược 581
êu 581
aire 580
alliance 580
jakarta 580
jennie 580
mammy 580
mori 580
most 580
neill 580
nhk 580
nhoẹt 580
porsche 580
salt 580
đẹt 580
25.@@ 579
4b 579
abbott 579
bali 579
bathilda 579
chiện 579
pendle 579
ril 579
ronnie 579
shop 579
alina 578
beli@@ 578
benson 578
glen@@ 578
ive 578
matsu@@ 578
mouth 578
nh.@@ 578
nius 578
odin 578
scri@@ 578
tism 578
cặm 577
ewell 577
granger 577
kiết 577
rỉa 577
tunisia 577
12.000 576
182 576
adri@@ 576
doo 576
edwin 576
fication 576
kiyama 576
mơcxtôn 576
randolph 576
u.s. 576
walton 576
who@@ 576
íc 576
đarya 576
401 575
fear 575
foreman 575
geissler 575
hercules 575
kristen 575
mach@@ 575
ov@@ 575
rhode 575
rothschild 575
shelton 575
tag 575
tày 575
è 575
being 574
cd@@ 574
dur 574
fir@@ 574
genoa 574
guer@@ 574
nahum 574
tech@@ 574
toé 574
trish 574
vái 574
anselmo 573
bologna 573
gur@@ 573
inca 573
made 573
quác 573
sebas 573
tch@@ 573
thuẩn 573
188 572
barceló 572
captain 572
chau@@ 572
dec 572
klein 572
organ 572
qatar 572
tóp 572
watanabe 572
1884 571
196 571
duarte 571
fat@@ 571
ngườ@@ 571
nhúa 571
shia 571
suke 571
tain 571
you@@ 571
academy 570
eda 570
enti@@ 570
mauchly 570
moni@@ 570
số@@ 570
ởi 570
27,@@ 569
edna 569
farber 569
freedom 569
hụ 569
loã 569
lp 569
penélope 569
rené 569
rr@@ 569
sayuri 569
systems 569
vista 569
vt 569
đừ 569
ậy 569
bowl 568
cincinnati 568
cis 568
nhẹm 568
ome 568
oxi 568
roy@@ 568
vinny 568
vius 568
was@@ 568
yon 568
ây@@ 568
õ@@ 568
1789 567
2.500 567
235 567
26,@@ 567
aberforth 567
chẹt 567
dứ 567
fis@@ 567
lic 567
limited 567
pal 567
planck 567
schu@@ 567
sylvia 567
xerxes 567
ðốc 567
17,18 566
193 566
arsenal 566
catholic 566
cẫng 566
dium 566
fernanda 566
fta 566
ghê@@ 566
guardian 566
mers 566
sions 566
sắn 566
vel 566
¿ 566
203 565
ché 565
hekate 565
jun@@ 565
marcia 565
nellie 565
par 565
quẩy 565
rene 565
revelation 565
uefa 565
vos@@ 565
wong 565
xụp 565
õng 565
18,19 564
1820 564
fair@@ 564
kline 564
lost 564
pike 564
sd 564
sila 564
talbot 564
trấu 564
tơ@@ 564
walgreens 564
331 563
alberto 563
canyon 563
eh@@ 563
julio 563
porfiri 563
quạu 563
quặp 563
tuy@@ 563
under@@ 563
đamách 563
đùn 563
ợt 563
001 562
480 562
adele 562
ales 562
any@@ 562
beirut 562
cker@@ 562
gieny 562
holocaust 562
laden 562
lucien 562
rod 562
rodrigo 562
rushworth 562
they 562
6a 561
demiris 561
fiji 561
haz@@ 561
jas@@ 561
kni@@ 561
nately 561
ngưu 561
planet 561
rật 561
sauron 561
special 561
tay@@ 561
weber 561
aki@@ 560
andolini 560
ayumi 560
bolk 560
carla 560
iron 560
kuz@@ 560
nas 560
neal 560
rob@@ 560
saab 560
scot@@ 560
vali@@ 560
walvoord 560
đủi 560
ườ@@ 560
abdul 559
aron 559
chea 559
cites 559
fang 559
fied 559
irs 559
lủn 559
setsuko 559
shu 559
stock 559
augustin 558
cornell 558
euro@@ 558
hess 558
one@@ 558
sche 558
yt 558
ão 558
198 557
against 557
crash 557
damascus 557
elias 557
farid 557
fas@@ 557
glock 557
greene 557
kê@@ 557
mali 557
maranzano 557
oe 557
ses@@ 557
southern 557
taro 557
tõm 557
đoá 557
1899 556
5a 556
605 556
aqu@@ 556
cb@@ 556
delaney 556
hampton 556
horst 556
kettering 556
nana 556
nik@@ 556
vc 556
viet@@ 556
volu@@ 556
xon 556
1893 555
7913 555
brunner 555
cicero 555
ee@@ 555
franck 555
hây 555
paraguay 555
simmons 555
tage 555
webber 555
179 554
achren 554
baden 554
cloud 554
fast 554
goldstein 554
guru 554
help 554
ica 554
low@@ 554
lyndon 554
ocean 554
pov 554
quebec 554
roche 554
shor@@ 554
skeeter 554
sports 554
tnct 554
uffe 554
yermolov 554
172 553
afri@@ 553
atlantis 553
chacko 553
graff 553
libby 553
limo 553
mội 553
narcissa 553
phui 553
sac 553
sellito 553
stoddard 553
208 552
cassette 552
dopamine 552
gard 552
kos 552
ritz 552
sym@@ 552
thúy 552
vidal 552
ăm 552
1885 551
corona 551
dir 551
eme@@ 551
genya 551
ghiền 551
iế@@ 551
mira 551
mõ 551
petro 551
vermont 551
1814 550
agi 550
andreas 550
brahman 550
bultmann 550
cer 550
crow 550
nhắt 550
ong@@ 550
thebes 550
trum 550
twain 550
voice 550
1871 549
deo 549
hades 549
jima 549
lette 549
seven 549
transltr 549
tằng 549
ud 549
uu@@ 549
witnesses 549
xờm 549
camila 548
eastern 548
emmanuel 548
gene@@ 548
hac@@ 548
hóp 548
luci@@ 548
newport 548
niedermann 548
sollozzo 548
vexlovxki 548
ớc 548
1861 547
evolution 547
janey 547
lego 547
lett 547
lđ 547
malo 547
ole 547
vitch 547
vằng 547
whoo 547
213 546
cep@@ 546
gee 546
hewlett 546
intervarsity 546
mary@@ 546
nhât 546
pcpnn 546
sco 546
septuagint 546
veda 546
xt 546
xìu 546
186 545
ameri@@ 545
cit 545
coming 545
galt 545
jour@@ 545
mav 545
meli@@ 545
oy 545
pê 545
robbins 545
rochelle 545
1863 544
4.1 544
audi 544
aw 544
chalcedon 544
christmas 544
chễm 544
cortez 544
ghetto 544
gn@@ 544
non@@ 544
ounce 544
punk 544
yeon 544
400@@ 543
borneo 543
bra 543
brigham 543
dani@@ 543
fitzpatrick 543
gd@@ 543
pannenberg 543
pis@@ 543
play@@ 543
quar@@ 543
tnhh 543
2,4 542
avignon 542
bavaria 542
chor@@ 542
mildred 542
poi@@ 542
salim 542
íp 542
blah 541
cheo 541
chlo@@ 541
chệ 541
glass 541
ima@@ 541
kosovo 541
kô@@ 541
nirad 541
rivas 541
say@@ 541
seymour 541
ộp 541
bis 540
daw@@ 540
jax 540
rơ@@ 540
sharp 540
sty@@ 540
talleyrand 540
tman 540
tráp 540
î@@ 540
199 539
37@@ 539
brad@@ 539
dả 539
ensis 539
ht@@ 539
jc 539
lng 539
patric 539
reng 539
rev 539
start 539
sỗ 539
ttđb 539
đốp 539
1888 538
7891 538
beo 538
dare 538
dồ 538
europa 538
ghêđêôn 538
hillary 538
iri@@ 538
lôtariô 538
petr@@ 538
pô@@ 538
rozzoli 538
thames 538
vô@@ 538
3. 537
elen 537
ghe 537
portella 537
rodin 537
things 537
wich 537
yev 537
¡ 537
champ@@ 536
cynthia 536
darrell 536
guerrero 536
huđơ 536
lone 536
nghiễm 536
ngụt 536
nhố 536
phan@@ 536
selia 536
spaghetti 536
truth 536
217 535
bradshaw 535
cắc 535
flitwick 535
hiroshima 535
jaguar 535
leu@@ 535
morton 535
ngùn 535
nỏ 535
wei 535
zaki 535
380 534
60.000 534
7899 534
aid 534
cherokee 534
chevy 534
giannini 534
gros@@ 534
lav 534
learning 534
pomfrey 534
stadt 534
➢ 534
23,24 533
boro 533
brand@@ 533
càm 533
gích 533
hawkins 533
kla@@ 533
kle 533
leeds 533
moriarty 533
peeves 533
stars 533
ền 533
away 532
color 532
crabb 532
hayek 532
kab@@ 532
lins 532
lúi 532
tasmania 532
39@@ 531
cricket 531
det 531
nicaragua 531
nol@@ 531
pai@@ 531
pasteur 531
rachên 531
suez 531
tet@@ 531
tore 531
vanessa 531
coll 530
eiffel 530
food 530
holt 530
khar@@ 530
kumi 530
scandinavia 530
verdurin 530
wm 530
xibir 530
anemone 529
bp 529
bum 529
had 529
hydra 529
key@@ 529
lucinda 529
moncrieff 529
rịn 529
schumann 529
utsumi 529
want 529
7897 528
andre 528
chỗi 528
cuỗm 528
hafid 528
kiễng 528
manson 528
sman 528
thá@@ 528
tsagaglalal 528
đệt 528
1894 527
219 527
early 527
ents 527
eton 527
fellowship 527
ontario 527
pyotr 527
quil 527
spiritual 527
taka@@ 527
thing 527
wski 527
zanoni 527
ợ@@ 527
194 526
auschwitz 526
blvd 526
bourg 526
chippingham 526
cr 526
dion 526
flannaghan 526
fère 526
hilton 526
jab@@ 526
janssen 526
kobe 526
leong 526
marvel 526
mino 526
saeki 526
thủi 526
tếu 526
une 526
vanh 526
wave 526
312 525
adama 525
bárbara 525
cheryl 525
công@@ 525
dalton 525
maddox 525
manase 525
multi@@ 525
read 525
sôphôni 525
theri@@ 525
zy 525
adelaida 524
bd 524
centre 524
dr@@ 524
information 524
ivanovitr 524
lamb@@ 524
nựng 524
tép 524
vla@@ 524
xoẹt 524
êxơtê 524
ăc 524
.org 523
451 523
albany 523
belarus 523
blu 523
bravo 523
dorf 523
gí@@ 523
gụ 523
himalaya 523
hđ@@ 523
modem 523
nick@@ 523
niger 523
noriko 523
oakland 523
seminary 523
tat 523
ết 523
2m 522
boyle 522
caitlin 522
cast 522
hae 522
language 522
lisbon 522
lla 522
moss 522
nành 522
ober@@ 522
ruỗng 522
sêgunđô 522
td 522
wara 522
ỹ 522
1,3 521
ader 521
aspanu 521
bhutan 521
chúng@@ 521
fab@@ 521
german 521
godric 521
hufflepuff 521
ivanov 521
lawson 521
lennon 521
mako 521
ricky 521
shot 521
talis 521
tench 521
ue 521
300@@ 520
chầy 520
cođơ 520
heller 520
iso@@ 520
khoắt 520
mizu@@ 520
moira 520
oo 520
rừ 520
sartre 520
vand@@ 520
veronika 520
wai@@ 520
agatha 519
carver 519
creta 519
cồ 519
johannesburg 519
newcastle 519
nokia 519
phót 519
tuất 519
tọng 519
aku@@ 518
dman 518
enigma 518
felten 518
gavroche 518
masuo 518
pac 518
patsy 518
qủa 518
reno 518
teleborian 518
191 517
bern 517
condé 517
donnie 517
gallon 517
keef 517
ketty 517
kt@@ 517
rawls 517
seal 517
sears 517
suc@@ 517
thé@@ 517
thúi 517
too 517
trin@@ 517
ẳm 517
bép 516
canxi 516
chapter 516
credit 516
dona@@ 516
frankenstein 516
gamble 516
max@@ 516
mma 516
rel 516
1873 515
berengar 515
gger 515
horne 515
kb 515
kháo 515
mimi 515
plymouth 515
schuller 515
secu@@ 515
sẩm 515
trâng 515
woolf 515
1c 514
297 514
cơ@@ 514
dialogue 514
hammurabi 514
kongre 514
qúy 514
roussard 514
rêbêca 514
shaker 514
shang 514
stormy 514
vey 514
volkheimer 514
1867 513
1887 513
6000 513
ds@@ 513
geller 513
hari 513
mớm 513
nobu 513
tr.cn 513
ua 513
1813 512
baron 512
battle 512
buck@@ 512
ilich 512
oracle 512
sler 512
tillich 512
tsukahara 512
êrênhđira 512
òi 512
aton 511
dame 511
dncx 511
giulia 511
gould 511
lington 511
rằn 511
shankar 511
èn 511
bv@@ 510
cimourdain 510
custer 510
hatsumono 510
hopper 510
khoen 510
maudie 510
sugar 510
syd 510
sẵng 510
tak@@ 510
218 509
gupta 509
hard@@ 509
iigi 509
miều 509
tali@@ 509
uruguay 509
xy@@ 509
ấ 509
amos 508
belle@@ 508
chesney 508
common 508
oặt 508
sởi 508
tiberius 508
tures 508
watchtower 508
íchmaên 508
250.000 507
35,@@ 507
5b 507
bas 507
bụp 507
dah@@ 507
dermott 507
dum 507
gag@@ 507
heidi 507
hemingway 507
mùn 507
u.s 507
254 506
3.1 506
baldwin 506
bingley 506
bjorck 506
bunyan 506
enna 506
felicia 506
mauri@@ 506
modig 506
sum@@ 506
uria 506
vn@@ 506
yehonala 506
óc@@ 506
275 505
barbro 505
caspian 505
chiaki 505
climb 505
elva 505
eter@@ 505
fischer 505
historical 505
hênh 505
lẻm 505
messiah 505
nư@@ 505
prague 505
put 505
savi@@ 505
think 505
winchester 505
ùi 505
207 504
barnabás 504
bryce 504
bungari 504
eb 504
grimalkin 504
santo 504
tôi@@ 504
wrentmore 504
bolt 503
even 503
hokkaido 503
karate 503
lúm 503
lếch 503
mata 503
nathaniel 503
pala@@ 503
sr 503
tammy 503
uzbekistan 503
walden 503
xán 503
cast@@ 502
fauchelevent 502
fron@@ 502
jang 502
midge 502
obaydi 502
ques 502
scan@@ 502
tica 502
wild 502
xer@@ 502
ĩ@@ 502
ịa 502
ữ@@ 502
burt 501
colu@@ 501
gertrud 501
icôrinhtô 501
kha@@ 501
kilomet 501
parti@@ 501
radley 501
rand@@ 501
ree 501
sle@@ 501
thus 501
tow@@ 501
trĩnh 501
uri 501
wataya 501
zed 501
7869 500
booth 500
bẫm 500
chiêng 500
corn 500
genovese 500
herodotus 500
olsen 500
quot@@ 500
yogi 500
ữ 500
1879 499
arc 499
atari 499
basque 499
bayern 499
delaware 499
diết 499
dóc 499
dới 499
ebola 499
irwin 499
ley@@ 499
sami 499
stro@@ 499
student 499
yen@@ 499
áp@@ 499
173 498
333 498
34@@ 498
ast@@ 498
blockchain 498
cana 498
crea@@ 498
domino 498
graf 498
guadalcanal 498
johanssen 498
katavaxov 498
mall 498
naomi 498
parminder 498
rọ 498
simêôn 498
sp 498
suồng 498
yoo 498
184 497
ean 497
epiphanes 497
everett 497
isengard 497
lé 497
lưa 497
n1 497
nắc 497
xáp 497
● 497
1882 496
1891 496
7907 496
asi 496
casanova 496
evileye 496
if@@ 496
kawana 496
klee 496
langley 496
lodge 496
ramón 496
rik 496
scn 496
spain 496
thpt 496
wic@@ 496
yedo 496
ène 496
1804 495
1864 495
aris 495
bron@@ 495
chic@@ 495
cyril 495
kendrick 495
khênh 495
merwe 495
normandy 495
nut 495
person 495
radi@@ 495
ìn 495
charisse 494
dane 494
ferrari 494
georgetown 494
hiromatsu 494
institu@@ 494
ites 494
nãi 494
pos 494
sat@@ 494
spor@@ 494
sturmhond 494
style 494
walmart 494
wy 494
zzo 494
đấ@@ 494
1869 493
24.@@ 493
amador 493
aziz 493
blogger 493
carlyle 493
dz@@ 493
erickson 493
fru@@ 493
kaede 493
lancaster 493
lida 493
lit@@ 493
never 493
ochiba 493
phét 493
sméagol 493
sse@@ 493
takahashi 493
vik 493
whitby 493
ài 493
1m 492
alison 492
aurora 492
cash 492
cci 492
dev@@ 492
edy 492
gali@@ 492
irkuxk 492
ladin 492
naômi 492
nạnh 492
pont 492
shane 492
teri@@ 492
tual 492
ạn 492
.000 491
1881 491
apos@@ 491
flow 491
graffiti 491
korea 491
kên 491
anxelmô 490
bụm 490
eff@@ 490
enne 490
gày 490
hrt 490
main@@ 490
matic 490
movement 490
number 490
nơ@@ 490
reston 490
xoè 490
zone 490
ât 490
1875 489
216 489
avatar 489
bee@@ 489
gonna 489
halle 489
ita 489
mundt 489
nau 489
ngừi 489
sap@@ 489
tncn 489
vồn 489
214 488
99@@ 488
base 488
camp 488
dini 488
diềm 488
dáo 488
electronic 488
gang@@ 488
gruzia 488
hubble 488
justice 488
khấm 488
morocco 488
power@@ 488
rởm 488
save 488
swan 488
zuckerberg 488
araminta 487
ariana 487
dock 487
gogh 487
gộc 487
hap@@ 487
kichi 487
lac 487
magi@@ 487
nô@@ 487
odyssey 487
phôn 487
py 487
rùm 487
software 487
welland 487
arséne 486
bahrain 486
deli@@ 486
huvênan 486
ics 486
kaza@@ 486
masters 486
overby 486
rosen@@ 486
sakigake 486
vor 486
ộ 486
28.@@ 485
boo@@ 485
dutch 485
ferris 485
hana 485
ila 485
law@@ 485
markus 485
mavis 485
ngh 485
rain 485
regan 485
shizuko 485
tahiti 485
tur 485
waldo 485
ū 485
1776 484
7a 484
angola 484
bertha 484
doge 484
gener@@ 484
giồi 484
lausanne 484
lizzy 484
mott 484
phon 484
phẩn 484
rier 484
sergei 484
spanish 484
stil@@ 484
thal 484
valls 484
ờng 484
barb 483
bongo 483
european 483
gö@@ 483
iberia 483
ie@@ 483
kk 483
tex 483
tori@@ 483
very 483
xía 483
aker 482
catalog 482
champs 482
corrie 482
cuddy 482
emi 482
hoáy 482
iser 482
knowledge 482
onia 482
oprah 482
phạc 482
psychology 482
said 482
squ@@ 482
tim@@ 482
translation 482
valerie 482
violon 482
xerioja 482
256 481
539 481
amparo 481
bohemia 481
brandt 481
cath@@ 481
devon 481
evna 481
gigi 481
ick@@ 481
micheal 481
nót 481
papua 481
petro@@ 481
posi@@ 481
sainte 481
tren@@ 481
1883 480
612 480
bhđ 480
crookshanks 480
granit 480
hawking 480
humbert 480
lec@@ 480
lòm 480
neva 480
pietro 480
tract 480
vale@@ 480
303 479
49@@ 479
bic 479
btm 479
celia 479
chernobyl 479
damasso 479
davidson 479
davies 479
huxley 479
jes@@ 479
kal 479
mướp 479
pad@@ 479
peso 479
quaker 479
sheila 479
sive 479
syl@@ 479
tưởi 479
zap@@ 479
apache 478
bdy 478
bethany 478
cameroon 478
full 478
grimm 478
judas 478
livingston 478
rafael 478
royall 478
tler 478
wag@@ 478
đằm 478
1844 477
301 477
bian 477
cognac 477
giuseppe 477
hogsmeade 477
idris 477
knightley 477
mueller 477
qh14 477
rach 477
thới 477
ug@@ 477
238 476
aff@@ 476
cassian 476
celestine 476
colson 476
fed 476
fou@@ 476
gascogne 476
lombar@@ 476
ruiz 476
señor 476
spit@@ 476
thín 476
atp 475
cambodia 475
craft 475
epson 475
fiedler 475
fit@@ 475
home@@ 475
jena 475
nez 475
psyche 475
pơ 475
sio 475
sters 475
vsky 475
ờm 475
buzz 474
bẹ 474
dartmouth 474
ew 474
heli 474
kudo 474
leipzig 474
lạ@@ 474
nhợ 474
reuters 474
rémy 474
target 474
yas@@ 474
ựng 474
538 473
ballet 473
cking 473
doe 473
enjolras 473
frank@@ 473
graphy 473
hiều 473
hyun 473
hập 473
julien 473
merck 473
mk 473
mếu 473
nùi 473
quen@@ 473
rah 473
tamil 473
tẩn 473
xíp 473
ễn 473
′ 473
cky 472
grindelwald 472
gáo 472
korsak 472
loè 472
manu@@ 472
richon 472
rsv 472
vet@@ 472
ược 472
1.3 471
1300 471
32@@ 471
alexei 471
ario 471
cov 471
dence 471
epps 471
fr@@ 471
hella 471
ht 471
lẹt 471
marlene 471
meta 471
mura@@ 471
oli 471
sicilia 471
waltke 471
ớp 471
aman 470
frode 470
hardwick 470
hẹt 470
khuê 470
mingott 470
nhau@@ 470
nõn 470
selma 470
sgdck 470
sweet 470
sằng 470
und@@ 470
watergate 470
ươ@@ 470
hến 469
iề@@ 469
jonah 469
krebs 469
mayo 469
rằm 469
saw 469
xúy 469
yamamoto 469
brubaker 468
coulson 468
của@@ 468
evil 468
giêsabên 468
henderson 468
karkaroff 468
server 468
sher 468
ssd 468
trudy 468
trép 468
vassell 468
zerimski 468
ễu 468
1.200 467
310 467
7911 467
assyria 467
cut 467
dwarf 467
gustav 467
mile 467
mmel 467
oskar 467
personality 467
pes 467
rington 467
toong 467
1862 466
again 466
assembly 466
chow 466
chặc 466
clau@@ 466
egan 466
free@@ 466
jade 466
kcn 466
kiri 466
lt@@ 466
mòi 466
nhoạng 466
oil 466
parvati 466
ppy 466
tle@@ 466
turk 466
valen@@ 466
ễ 466
ởn 466
acts 465
ahmed 465
aven@@ 465
das@@ 465
hler 465
inches 465
nghinh 465
nhài 465
note 465
saurus 465
thorpe 465
zulu 465
đán 465
30,@@ 464
aph@@ 464
arawn 464
bannister 464
belinda 464
eliot 464
garamond 464
gul@@ 464
hideaway 464
ide@@ 464
joad 464
kurd 464
mozambique 464
mà@@ 464
philips 464
ssy 464
turin 464
yvonne 464
zon@@ 464
́ 464
2500 463
bikini 463
bol 463
chis@@ 463
clifford 463
eley 463
goodman 463
lườn 463
mania 463
masa@@ 463
orion 463
reggie 463
try@@ 463
vari@@ 463
1874 462
340 462
ced 462
ceres 462
hecsêbom 462
hein@@ 462
hụp 462
nicholl 462
niten 462
o2 462
ras@@ 462
ring@@ 462
ssa 462
trẹo 462
ubs 462
vy@@ 462
yoon 462
bry@@ 461
gơ@@ 461
hickock 461
ket 461
kev 461
mak@@ 461
marla 461
math@@ 461
metho@@ 461
motor 461
ubcknn 461
weekly 461
cler@@ 460
darryl 460
dominic 460
eo@@ 460
gôliát 460
phị 460
south@@ 460
station 460
strickland 460
strom 460
table 460
torie 460
vê@@ 460
ø 460
1.5 459
1806 459
ain@@ 459
design 459
gavran 459
havard 459
justi@@ 459
lie@@ 459
ngi@@ 459
pou@@ 459
sađusê 459
systematic 459
triễn 459
1832 458
cock 458
edvard 458
hull 458
jenn 458
liberty 458
pur 458
redmayne 458
rệu 458
styx 458
tozer 458
uẩn 458
weis@@ 458
yak 458
aziza 457
bưởi 457
bỡ 457
danvers 457
eduard 457
enka 457
h30 457
hecta 457
ier 457
netflix 457
nichols 457
pneu@@ 457
procter 457
rina 457
ske@@ 457
sner 457
tte 457
uýt 457
223 456
4. 456
ahh 456
angorian 456
app 456
bagration 456
building 456
bêtên 456
cfs 456
chro@@ 456
class 456
danton 456
douglass 456
fat 456
fusae 456
grim@@ 456
ivy 456
rance 456
strasser 456
č@@ 456
ại 456
boat 455
bone 455
cet 455
cles 455
mcmurdo 455
mmer 455
nfl 455
shelby 455
shibuya 455
socrate 455
sõng 455
tana 455
tàm 455
ềnh 455
buff@@ 454
comminger 454
hed@@ 454
mber@@ 454
mith@@ 454
pine 454
rae 454
revised 454
rặn 454
290 453
chinese 453
deutsche 453
dickens 453
engelbart 453
federal 453
laurie 453
laze 453
mcgregor 453
mund 453
rục 453
sn@@ 453
sti 453
đóan 453
1790 452
311 452
48@@ 452
amy@@ 452
anato@@ 452
bc@@ 452
beccanti 452
chevreuse 452
chuồi 452
community 452
eileen 452
elon 452
fé@@ 452
gdđt 452
industries 452
inn 452
milken 452
nak 452
ngưởng 452
pagford 452
rawlins 452
ruthie 452
rốc 452
skinner 452
thọt 452
trư@@ 452
xang 452
âng 452
ảng 452
0x 451
arn@@ 451
bạnh 451
enzym 451
guam 451
interpol 451
javier 451
jen 451
loá 451
menu 451
nhoà 451
publications 451
qs 451
rheingold 451
steroid 451
sumatra 451
technology 451
verde 451
woodhouse 451
xenophilius 451
ến 451
1m@@ 450
barack 450
biế@@ 450
bửa 450
chacal 450
chy@@ 450
front 450
giôsaphát 450
goebbels 450
gơ 450
hold 450
kiri@@ 450
mic@@ 450
ngoẹo 450
pay@@ 450
soli@@ 450
thes@@ 450
urgals 450
weinberg 450
ững 450
broad@@ 449
eck 449
falcon 449
forks 449
garner 449
harney 449
hoc 449
họat 449
marsh 449
rat@@ 449
sse 449
ë@@ 449
ôlive 449
245 448
31,@@ 448
6b 448
ark 448
bải 448
carvahall 448
cw 448
gazef 448
jeod 448
liga 448
nm 448
nun 448
oxit 448
patr@@ 448
sidney 448
spa 448
stapleton 448
vẻn 448
xd 448
albuquerque 447
bernoulli 447
các@@ 447
edelmira 447
fantine 447
foot@@ 447
heskow 447
isi 447
source 447
stown 447
truỵ 447
ucla 447
asher 446
brendan 446
coomer 446
deu@@ 446
gott@@ 446
hari@@ 446
héc 446
ivp 446
kumar 446
ké 446
lit 446
orléans 446
sham 446
simp@@ 446
tary 446
tợ 446
visual 446
xuyết 446
ôgarep 446
bonzo 445
caribbean 445
chóe 445
dley 445
dodge 445
dson 445
friends 445
glew 445
keil 445
kilôgam 445
kom@@ 445
maman 445
maud 445
montelepre 445
này@@ 445
petit 445
plastic 445
regi@@ 445
roper 445
suyển 445
7b 444
agi@@ 444
c1 444
chamberlain 444
chaplin 444
chmann 444
chếnh 444
dul@@ 444
gringotts 444
katsu@@ 444
lẹm 444
mig 444
moshe 444
một@@ 444
nestorius 444
phecnanđa 444
phùn 444
reading 444
rề 444
strait 444
thẩy 444
vier 444
xdcb 444
abigail 443
alber@@ 443
bhtn 443
die@@ 443
dm 443
education 443
firenze 443
gio@@ 443
giần 443
janine 443
lyich 443
m1 443
meister 443
oh@@ 443
pirate 443
rn 443
rêbeca 443
smithsonian 443
tata 443
tomás 443
vul@@ 443
zin@@ 443
♦ 443
1877 442
bei@@ 442
c.5 442
dier 442
disneyland 442
forrest 442
illy 442
ilya 442
immari 442
khều 442
leone 442
mee@@ 442
missi@@ 442
north@@ 442
nwt 442
opus 442
prendergast 442
ranov 442
rea 442
tora@@ 442
ình@@ 442
.tôi 441
1872 441
alta 441
amen@@ 441
dae@@ 441
danu 441
edric 441
gorbachev 441
lorenza 441
mem 441
newark 441
ova 441
pharaon 441
smita 441
tèo 441
êlisabét 441
đễ 441
ẳn 441
audi@@ 440
birgit 440
discovery 440
divine 440
hailsham 440
honduras 440
miễu 440
narziss 440
nem 440
samsa 440
skin 440
sớ 440
uya 440
òm 440
ể 440
altair 439
army 439
athen 439
bea@@ 439
desi@@ 439
dpi 439
gnostic 439
ngật 439
presbyterian 439
rinpoche 439
sberg 439
truớc 439
wentworth 439
õi 439
đoạ 439
420 438
ait 438
brow@@ 438
césar 438
energy 438
gustave 438
howie 438
huy@@ 438
lổn 438
mbe 438
moxcva 438
ngáo 438
nr 438
own 438
ramsey 438
rou 438
scre@@ 438
suite 438
thuôn 438
tolstoy 438
zh@@ 438
ë 438
29,@@ 437
aol 437
aristote 437
ator 437
collet 437
culli 437
demo 437
erie 437
ging 437
hare 437
havana 437
newland 437
sebastien 437
ticus 437
vục 437
xẩm 437
đờm 437
ịch 437
8a 436
bỉu 436
caldwell 436
chịch 436
council 436
cyclo@@ 436
ema@@ 436
ggs 436
gillenormand 436
gos 436
khệnh 436
lgbt 436
loe 436
mcdermott 436
mitka 436
mr@@ 436
mugich 436
newsweek 436
pass 436
rủn 436
stacy 436
sổng 436
thư@@ 436
tulip 436
windsor 436
xvidrigailov 436
xxx 436
ích@@ 436
ướ@@ 436
1,6 435
253 435
beaumont 435
ffe 435
harri@@ 435
mamiya 435
marina 435
meme 435
montague 435
pepper 435
phôtipha 435
swat 435
xềnh 435
zation 435
âp 435
betxi 434
dag 434
edge 434
epc 434
hus 434
nịu 434
patroni 434
pd 434
publishers 434
spence 434
thre@@ 434
tonia 434
536 433
aceae 433
bonhoeffer 433
bronwyn 433
caterina 433
cỡn 433
dh 433
dron 433
kira 433
metropolitan 433
ministry 433
missy 433
mằn 433
pounds 433
rox@@ 433
tera 433
thườn 433
tố@@ 433
đn 433
adelaide 432
brin 432
championship 432
demosthenes 432
etz 432
hayashi 432
heath 432
joanna 432
komako 432
lorna 432
melina 432
mitsu@@ 432
ngi 432
russia 432
sna@@ 432
sov 432
ting@@ 432
tock 432
viscos 432
ầ 432
ự@@ 432
21,22 431
323 431
arts 431
between 431
cello 431
elling 431
exi@@ 431
glick 431
honolulu 431
marisela 431
mor 431
nations 431
raz@@ 431
sỉa 431
track 431
vid 431
xắt 431
yorker 431
ót 431
ằng 431
259 430
b1 430
dằm 430
emmy 430
gudbrand 430
lhq 430
liberia 430
lindsay 430
morstan 430
olmsted 430
player 430
rain@@ 430
samuelson 430
scriptures 430
aw@@ 429
covey 429
geor@@ 429
gram@@ 429
krona 429
tiu 429
vasco 429
whitehead 429
đó@@ 429
abel 428
ashraf 428
augusta 428
c.7 428
cell 428
cept 428
colbert 428
dọi 428
ellidyr 428
guinness 428
heidelberg 428
knu@@ 428
mach 428
medina 428
nakamura 428
nett 428
parsons 428
phy 428
ril@@ 428
rise 428
sidhe 428
sè 428
telegraph 428
229 427
a4 427
anania 427
artemis 427
eur@@ 427
logistics 427
mother 427
ngưới 427
pixma 427
portsmouth 427
tehran 427
timor 427
trợt 427
ulysses 427
vent 427
ầng 427
ẹ@@ 427
1876 426
26.@@ 426
alec@@ 426
azyr 426
beat 426
goo@@ 426
gym 426
hom 426
ivana 426
mallinson 426
monsieur 426
mossad 426
mởn 426
ramon 426
vôn 426
ʹ@@ 426
232 425
a2 425
abi 425
attp 425
bam 425
cin 425
dac@@ 425
evening 425
frederic 425
fredrik 425
goa 425
guar@@ 425
johns 425
lows 425
maru 425
metro@@ 425
noboru 425
oral 425
pareto 425
print 425
razor 425
scytale 425
volkswagen 425
vr 425
épraim 425
đị@@ 425
1750 424
1878 424
ammôn 424
ams 424
bolshevik 424
bâu 424
crew 424
dodo 424
gawa 424
hart@@ 424
hoằn 424
hyatt 424
hơ@@ 424
lange 424
lụp 424
monaco 424
raf 424
rory 424
sarawak 424
somerset 424
sính 424
thùm 424
xe@@ 424
đônôgan 424
ạp 424
27.@@ 423
barbie 423
bermuda 423
bey 423
bren@@ 423
figuerola 423
gny 423
hippie 423
iss 423
karin 423
liv@@ 423
pus 423
rant 423
rene@@ 423
seti 423
sêđêkia 423
cand@@ 422
chuy@@ 422
cng 422
ctions 422
dớ 422
emili 422
ethics 422
harker 422
hel 422
katsumata 422
kyra 422
martyn 422
ming@@ 422
này. 422
nă@@ 422
sne@@ 422
stilgar 422
thướt 422
zack 422
ć 422
đen@@ 422
ơm 422
1,4 421
bagger 421
beckett 421
blessing 421
brah@@ 421
c.4 421
cate 421
celt 421
iể@@ 421
match 421
mika 421
mình.@@ 421
ngậy 421
post@@ 421
scientific 421
sforza 421
slovakia 421
spot 421
steel 421
swi@@ 421
tons 421
vre 421
wolfgang 421
xốn 421
ễnh 421
390 420
bili@@ 420
bludger 420
cocain 420
crow@@ 420
cơđốc 420
fine 420
hathaway 420
illu@@ 420
lini 420
matriona 420
message 420
mustang 420
ngùi 420
original 420
sheol 420
thế@@ 420
tigris 420
vlad 420
ính 420
ôc 420
ẩ@@ 420
597 419
chauchat 419
chemical 419
herac@@ 419
kháu 419
khạng 419
mứa 419
raccoon 419
sey@@ 419
stau@@ 419
tm@@ 419
vện 419
ợc 419
allen@@ 418
arab@@ 418
four@@ 418
johnston 418
kavax 418
kei 418
lio@@ 418
nhẳng 418
pavlovna 418
republic 418
seri 418
slu@@ 418
ux 418
xk 418
zoom 418
¶ 418
ần 418
acet@@ 417
ant@@ 417
bapti@@ 417
bebe 417
cologne 417
dietrich 417
dol 417
engine 417
gent 417
godolphin 417
heaven 417
parc 417
theologi@@ 417
tí@@ 417
virgi@@ 417
walters 417
willi@@ 417
ọng 417
1805 416
beatty 416
bg 416
boast 416
chapel 416
cruvic 416
eldunarí 416
embry 416
eson 416
frede@@ 416
freeman 416
giỗ 416
growth 416
h2@@ 416
latimer 416
luc 416
mundo 416
museum 416
napoli 416
oak 416
phot@@ 416
ravka 416
romero 416
sby 416
shiva 416
smoit 416
stance 416
thur@@ 416
arable 415
chã 415
clorua 415
eagle 415
fad@@ 415
foods 415
granite 415
macondo 415
marks 415
mony 415
plan 415
sni@@ 415
snowden 415
thể@@ 415
til 415
10,000 414
1858 414
algonquin 414
also 414
aya@@ 414
back@@ 414
bơn 414
campus 414
communication 414
delphi 414
devil 414
hcm 414
host 414
interpretation 414
khỏang 414
malawi 414
nanak 414
phnom 414
resi@@ 414
stac@@ 414
stur@@ 414
tec 414
tron@@ 414
uber 414
1854 413
alist 413
choắt 413
côngvụ 413
dulles 413
fr 413
ik 413
kimmy 413
kiểng 413
litva 413
mt@@ 413
nucor 413
num 413
ore@@ 413
rịa 413
sarai 413
sinatra 413
soon 413
sv@@ 413
vani 413
wiki 413
được@@ 413
28,@@ 412
b2 412
bahamas 412
c.6 412
chẹn 412
cover 412
cx@@ 412
eria 412
feli@@ 412
hancock 412
hobbes 412
indianapolis 412
iverson 412
iên 412
kaa 412
latvia 412
md 412
naz@@ 412
noãn 412
paradise 412
tamar 412
vat 412
ðáng 412
ðối 412
asian 411
bang@@ 411
candor 411
doi 411
fund 411
gullberg 411
igor 411
kind 411
love@@ 411
mala@@ 411
mck@@ 411
mellon 411
nhớn 411
northern 411
plo@@ 411
sioux 411
sting 411
suzanne 411
tama 411
tiển 411
ul 411
witt 411
địt 411
ặ@@ 411
1859 410
1866 410
2.5 410
251 410
alai 410
arminius 410
azu@@ 410
branson 410
cf 410
cing 410
eddy 410
fuchur 410
gaga 410
golenichsev 410
kova 410
niệu 410
orden 410
sonia 410
wang@@ 410
zoya 410
ưm 410
ỉn 410
2d 409
adachi 409
brede 409
goth 409
gren 409
jutta 409
levi@@ 409
malone 409
medlock 409
nestor 409
nhậy 409
noman 409
pisa 409
pool 409
row@@ 409
snyder 409
tíu 409
voan 409
volume 409
wein@@ 409
won@@ 409
wur@@ 409
yeltsin 409
ẫm 409
241 408
andro@@ 408
ast 408
beyond 408
btttt 408
cntt 408
corinna 408
deloitte 408
did 408
dimitri 408
doro@@ 408
eter 408
franky 408
heh 408
jekyll 408
kierkegaard 408
meier 408
para 408
quạch 408
rectangle 408
rếp 408
thank 408
tul@@ 408
vic@@ 408
walther 408
amb@@ 407
augsburg 407
cil@@ 407
database 407
ghita 407
kami 407
kindle 407
mõi 407
ngừơi 407
ppe 407
ryland 407
rụa 407
stad 407
tút 407
ña 407
óm 407
ệt 407
ọt 407
1.2 406
agafia 406
assi@@ 406
boulogne 406
celtic 406
clo 406
devane 406
diggory 406
east@@ 406
enter 406
fit 406
grave 406
gía 406
helm 406
herney 406
igiăng 406
inte@@ 406
juli 406
million 406
nairobi 406
nhay 406
oppenheimer 406
pam@@ 406
sacramento 406
soviet 406
wise 406
đó.@@ 406
1793 405
bble 405
benz 405
day@@ 405
double 405
eskimo 405
goya 405
ike 405
jj 405
kazan 405
leibniz 405
line@@ 405
lovegood 405
percival 405
reader 405
rela@@ 405
sea@@ 405
stone@@ 405
their 405
trey 405
wii 405
ết@@ 405
ancient 404
augustinô 404
boughton 404
bretagne 404
chùy 404
cingle 404
feder@@ 404
johan 404
karasawa 404
mang@@ 404
maxi@@ 404
nei@@ 404
organi@@ 404
phen@@ 404
prime 404
pryor 404
ql@@ 404
record 404
saladin 404
shinozuka 404
tres@@ 404
tzer 404
willow 404
ỉu 404
354 403
abimêléc 403
avo@@ 403
bok 403
caribê 403
crypto 403
ebook 403
edie 403
ement 403
equi@@ 403
gir@@ 403
glory 403
hark 403
jeff@@ 403
khê 403
lannister 403
luốc 403
muse 403
ners 403
những@@ 403
nitrat 403
nos 403
oecd 403
stencils 403
tuỷ 403
tênh 403
éc@@ 403
440 402
alette 402
bono 402
colt 402
giốp 402
lib@@ 402
madeline 402
panteley 402
sergey 402
teri 402
thếp 402
twe@@ 402
vos 402
xẵng 402
zai 402
betsy 401
cesar 401
check 401
dollars 401
elia 401
haru@@ 401
mackinder 401
malacca 401
marlboro 401
mcpherson 401
nãn 401
phỗng 401
pollock 401
smolensk 401
wisdom 401
zambia 401
239 400
305 400
7885 400
circuit 400
ethanol 400
fumiko 400
giong 400
homo@@ 400
kerr 400
mabel 400
mccartney 400
ngọng 400
nhẩn 400
parthia 400
president 400
pruđăng 400
release 400
sand 400
stoichev 400
tria 400
woz 400
àng 400
ür@@ 400
1834 399
angeli 399
brunei 399
ddi@@ 399
diệc 399
euclid 399
gho@@ 399
isbn 399
kis 399
lux 399
mađian 399
philosophy 399
saturn 399
shit 399
tanaka 399
yl@@ 399
ł@@ 399
327 398
55@@ 398
brother 398
commodore 398
immanuel 398
izu 398
mail@@ 398
md@@ 398
moral 398
remix 398
sev 398
tab 398
vian 398
ắn 398
490 397
dedalus 397
dome 397
elbe 397
emb@@ 397
emen@@ 397
griffith 397
humvee 397
ingmar 397
jude 397
kaplan 397
leadership 397
macao 397
marge 397
metternich 397
sars 397
sookie 397
steph@@ 397
tessio 397
urban 397
way@@ 397
augu@@ 396
authority 396
boniface 396
constance 396
dez 396
district 396
georgette 396
gustavo 396
kuri@@ 396
maigret 396
myra 396
parfenovich 396
qg 396
raleigh 396
rubio 396
som 396
suit 396
vập 396
wallis 396
yoshitaka 396
ày 396
alli@@ 395
basha 395
cool 395
eckert 395
ente 395
françoise 395
ft@@ 395
galloway 395
golem 395
haus 395
hedestad 395
laur@@ 395
maxine 395
pazzi 395
pompey 395
queensland 395
sergio 395
seville 395
sit@@ 395
tico 395
uých 395
és 395
150.000 394
23.@@ 394
better 394
break 394
bíu 394
cyprian 394
devi@@ 394
ener@@ 394
khoắng 394
medical 394
nuột 394
nypd 394
petrovna 394
pli@@ 394
popper 394
powerpoint 394
raisa 394
răm 394
sic 394
skype 394
ue@@ 394
ugh 394
zab@@ 394
zza 394
ằ@@ 394
313 393
beat@@ 393
bethlehem 393
deal 393
fowler 393
isaiah 393
level 393
linkedin 393
math 393
nabanh 393
pf 393
preston 393
rano 393
sb 393
verona 393
èm 393
5,7 392
7855 392
agen 392
annu@@ 392
bkh 392
brendon 392
bud@@ 392
cbi 392
chab@@ 392
cket 392
desmond 392
fili@@ 392
herblay 392
iliusa 392
infin@@ 392
mits 392
nng 392
notre 392
nuria 392
pole 392
slovenia 392
supp@@ 392
svetlana 392
torng 392
tse@@ 392
wide 392
1810 391
86@@ 391
alix 391
bgdđt 391
bolton 391
chọe 391
conne@@ 391
ellison 391
grad 391
herb 391
hiro@@ 391
jou@@ 391
katy 391
milwaukee 391
momon 391
mov 391
nard 391
ovich 391
perkins 391
peyton 391
phin@@ 391
pré@@ 391
quan@@ 391
rashid 391
rith 391
strau@@ 391
tonic 391
tuileries 391
vọ 391
ðôi 391
ẻm 391
1100 390
1795 390
1851 390
198@@ 390
80.000 390
angustin 390
bros 390
casy 390
continental 390
cow@@ 390
dover 390
eg 390
mcnaughton 390
quẻ 390
rov 390
rămbe 390
shock 390
siberi 390
stones 390
sul 390
suzuki 390
teng 390
trumpet 390
tuala 390
youth 390
ạt@@ 390
ẳ@@ 390
315 389
ayrton 389
barley 389
bov 389
castel@@ 389
epa 389
eum 389
eustace 389
fidelity 389
gilgamesh 389
hĩ 389
jap@@ 389
kita 389
need 389
ono 389
pher 389
praha 389
quer@@ 389
rights 389
spears 389
sub 389
teu@@ 389
toledo 389
tou 389
upper 389
ỡn 389
370 388
607 388
agri@@ 388
arti@@ 388
browning 388
caius 388
colfax 388
dies 388
dorado 388
fg 388
gage 388
konstantin 388
kratz 388
lyn@@ 388
profile 388
prote@@ 388
rhe@@ 388
songs 388
sser 388
tcvm 388
thớm 388
tours 388
travers 388
tta 388
wak 388
9.1 387
arms 387
aubrey 387
bara 387
dil 387
dác 387
gai@@ 387
hole 387
houten 387
juli@@ 387
kami@@ 387
kelley 387
kruger 387
leanne 387
lors 387
marseille 387
mid 387
miya@@ 387
nilon 387
sana 387
tea 387
valse 387
voyager 387
zachary 387
5.1 386
ages 386
anni@@ 386
brittany 386
bọng 386
cayhall 386
chí@@ 386
chườm 386
cressida 386
echo 386
ghan 386
humphrey 386
juni@@ 386
lawlor 386
lotte 386
nhùng 386
nusswan 386
phay 386
psy@@ 386
rez 386
skye 386
togashi 386
toshi@@ 386
trệch 386
ợng 386
1492 385
1809 385
7915 385
bastet 385
coffee 385
ekklesia 385
fremen 385
iiigi 385
johnnie 385
kaya 385
mmy 385
neau 385
nhn 385
prokofievich 385
rựa 385
willis 385
đở 385
30.@@ 384
640 384
740 384
acoca 384
benno 384
cca 384
choảng 384
comple 384
cot 384
diderot 384
erich 384
experi@@ 384
felipe 384
gaston 384
holm 384
https 384
ia@@ 384
juana 384
katiusa 384
lenina 384
lew@@ 384
making 384
nơm 384
pansy 384
pres@@ 384
season 384
sett 384
angelini 383
baskerville 383
dani 383
goldberg 383
july 383
nagoya 383
octa@@ 383
rein@@ 383
scor@@ 383
shore 383
sếu 383
thomson 383
thoreau 383
thóa 383
thược 383
tium 383
vai@@ 383
vimana 383
von@@ 383
1807 382
1853 382
20,21 382
8b 382
aye 382
babên 382
baggins 382
behrens 382
c.3 382
cir@@ 382
como 382
corinthians 382
hendri@@ 382
interview 382
lister 382
logia 382
lớ 382
spiri@@ 382
sq 382
suezo 382
vasseur 382
xọc 382
ưởng 382
228 381
4,6 381
albedo 381
chevrolet 381
cũn 381
ghếtsêmanê 381
mahatma 381
nd@@ 381
nhắp 381
niken 381
reformed 381
rây 381
strand 381
swin@@ 381
unds 381
vert 381
wat 381
ếu 381
1852 380
2x 380
381 380
adam@@ 380
amaléc 380
barbados 380
britain 380
carn 380
chirst 380
chner 380
cian 380
colombo 380
curon 380
demos 380
getz 380
gorman 380
hua 380
info 380
jee 380
joh@@ 380
khamisi 380
leon@@ 380
leopold 380
macônđô 380
nguẩy 380
nial 380
nũng 380
rawleigh 380
return 380
rious 380
roth@@ 380
seward 380
spec@@ 380
tland 380
wad@@ 380
248 379
31.@@ 379
32,@@ 379
8. 379
ander@@ 379
beña 379
brady 379
bubba 379
buzan 379
capra 379
dit 379
frame 379
globe 379
iz@@ 379
leblanc 379
lehman 379
lydda 379
móp 379
roxanne 379
sexy 379
shadow 379
sprout 379
stocks 379
terri@@ 379
tuẫn 379
user 379
vector 379
vishnu 379
bậm 378
dog@@ 378
ffin 378
ghost 378
gyoko 378
hạp 378
kristian 378
lambert 378
mod 378
newfoundland 378
nga@@ 378
nhéo 378
nhổn 378
reve@@ 378
samoa 378
sme@@ 378
thalia 378
zhilin 378
ất@@ 378
252 377
334 377
37.@@ 377
aar@@ 377
andra 377
antioch 377
bed@@ 377
boy@@ 377
burry 377
chechnya 377
chev@@ 377
gally 377
letters 377
lun@@ 377
lọai 377
miro 377
nớp 377
palmgren 377
poor 377
rahner 377
security 377
spri@@ 377
stock@@ 377
trek 377
yau 377
ạy 377
400.000 376
950 376
aurelius 376
baen 376
cki 376
communi@@ 376
cửi 376
daryl 376
derby 376
eben 376
gallup 376
gor 376
hd@@ 376
kah 376
kl 376
mg@@ 376
nishiguchi 376
oa@@ 376
pollux 376
twi@@ 376
xtơ 376
zing 376
410 375
asami 375
aud 375
baby@@ 375
bene@@ 375
bones 375
chành 375
generation 375
giúi 375
hiko 375
johansson 375
leona 375
luc@@ 375
nazi 375
pak 375
prescott 375
punjab 375
q. 375
rad 375
samar 375
seacrest 375
sigmund 375
sno@@ 375
aer@@ 374
briggs 374
britannica 374
cora 374
dến 374
esh 374
ground 374
higgs 374
john@@ 374
kaliayev 374
kyu 374
lich 374
lopez 374
masseria 374
moria 374
naoki 374
nine 374
putin 374
s.com 374
scaramouche 374
sholto 374
tangier 374
tomo@@ 374
tun@@ 374
vous 374
woo@@ 374
xãy 374
đulxinêa 374
ướng 374
amity 373
brighton 373
doll 373
fin 373
index 373
ium 373
maxime 373
mađơlen 373
melinda 373
mông@@ 373
nese 373
pudding 373
ràm 373
testosterone 373
trô@@ 373
vp 373
ưới 373
1857 372
bardo 372
brinkerhoff 372
ghts 372
giêhôgiakim 372
hung@@ 372
hầy 372
ipo 372
kids 372
kito 372
laguerta 372
mahal 372
mclaggen 372
monticello 372
odysseus 372
ola@@ 372
phal@@ 372
porto 372
process 372
rocco 372
ryn 372
rôli 372
rạt 372
scot 372
sinskey 372
survey 372
trôm 372
whitefield 372
wren 372
zelda 372
ốc@@ 372
ballad 371
bec 371
blues 371
borgin 371
craven 371
dle 371
euler 371
friend 371
ggy 371
handbook 371
hary 371
hier@@ 371
jalil 371
jemima 371
leicester 371
life@@ 371
lơ@@ 371
marat 371
mea@@ 371
nai@@ 371
nardo 371
pour 371
remus 371
rolex 371
stafford 371
tique 371
yasu@@ 371
ð 371
,000 370
ads 370
audio 370
buick 370
bundes@@ 370
dori 370
eline 370
galapagos 370
hammer 370
jondrette 370
kul@@ 370
llo@@ 370
loire 370
luyden 370
neri 370
ogden 370
penh 370
pert 370
powers 370
pác 370
shigeharu 370
sot@@ 370
sền 370
thought 370
tier@@ 370
vou@@ 370
wire 370
ýp 370
ş@@ 370
ội 370
255 369
ave@@ 369
bak@@ 369
beppo 369
door 369
emmet 369
gardens 369
iversen 369
machi@@ 369
nghé 369
palamedes 369
scotty 369
singleton 369
tợp 369
ultra 369
value 369
vicky 369
xnet 369
êphápra 369
đtm 369
1833 368
66@@ 368
anpu 368
bedford 368
bernar@@ 368
berthier 368
citi@@ 368
conxtantin 368
cosmo 368
eaton 368
egypt 368
gallery 368
geographic 368
hamamoto 368
hungry 368
huntington 368
kikuco 368
kiyo 368
lien 368
masada 368
mcmillian 368
mme 368
murdoch 368
nigellus 368
niêu 368
nạy 368
ony@@ 368
rath 368
rocket 368
rosasharn 368
santiagô 368
shimamoto 368
sola 368
trol@@ 368
tty 368
winslow 368
xun 368
zig 368
ẻ 368
68@@ 367
7903 367
9a 367
anie 367
belfast 367
bez@@ 367
cdc 367
ceri@@ 367
chani 367
chio 367
clair 367
demiurge 367
dg@@ 367
emile 367
ericsson 367
giạc 367
hypo@@ 367
hỷ 367
kowski 367
magnum 367
patton 367
pendleton 367
polk 367
push 367
sawyer 367
scripture 367
seri@@ 367
still 367
ũ 367
264 366
666 366
999 366
aquinô 366
bah 366
bà@@ 366
eld 366
gazette 366
gutenberg 366
gyeong@@ 366
khẩm 366
letter 366
licklider 366
nhoét 366
organization 366
pavlyts 366
quantico 366
scope 366
white@@ 366
yasvin 366
yong 366
ysơraen 366
đă 366
đổng 366
ằn 366
1831 365
322 365
archibald 365
beauty 365
borodino 365
bạ@@ 365
cano 365
chrysostom 365
cities 365
done 365
fuji@@ 365
georg 365
gp@@ 365
ibrahim 365
inglés 365
mọp 365
ped 365
quincy 365
sos 365
sven@@ 365
worldwide 365
yankees 365
đưc 365
ẽ@@ 365
231 364
adidas 364
ahn 364
ashe 364
berners 364
burgundy 364
command 364
complê 364
dab@@ 364
damien 364
dobbs 364
doctor 364
grin@@ 364
lise 364
mcconnell 364
nabonidus 364
rose@@ 364
saud 364
sordo 364
tartar 364
vsattp 364
đằu 364
ỗ@@ 364
aut 363
bei 363
c.2 363
centimét 363
cis@@ 363
curry 363
ech@@ 363
gallagher 363
gậm 363
heli@@ 363
hênóc 363
kangaroo 363
lov@@ 363
mêhicô 363
nhưỡng 363
nhẩu 363
ollie 363
oxytocin 363
pier@@ 363
sherwood 363
sorry 363
suggs 363
théo@@ 363
tok 363
đắk 363
10b 362
1796 362
amon 362
auto 362
brunswick 362
bryant 362
butter@@ 362
casa 362
digest 362
dunn 362
dúa 362
dờn 362
fonseca 362
gis 362
hey@@ 362
innokenty 362
instagram 362
lav@@ 362
logarit 362
mamá 362
ngụa 362
phra@@ 362
revolution 362
says 362
sistine 362
sêsa 362
tale 362
tau 362
thri@@ 362
vity 362
yon@@ 362
êa 362
ủn 362
21@@ 361
515 361
achilles 361
brahma 361
carlotta 361
cle 361
dius 361
dwt 361
espresso 361
fairbrother 361
fitz@@ 361
gis@@ 361
isles 361
lombard 361
luy@@ 361
mam@@ 361
mathew 361
mena 361
minu@@ 361
nant 361
phine 361
schleiermacher 361
soft 361
ttr 361
world@@ 361
độ@@ 361
1845 360
1cô 360
access 360
aringarosa 360
caltech 360
cobb 360
courtney 360
crosby 360
dhar@@ 360
eis@@ 360
gge@@ 360
jeeves 360
mathieu 360
ord 360
parry 360
pods 360
rabbit 360
sheldon 360
sl@@ 360
tis@@ 360
tola 360
top@@ 360
tric@@ 360
wakayama 360
xôrôbabên 360
ắm 360
26,27 359
excel 359
fisk 359
hic@@ 359
hđbt 359
malaya 359
moncada 359
montanus 359
pid 359
regulus 359
romans 359
sailhamer 359
show@@ 359
song@@ 359
adaon 358
arta@@ 358
balensky 358
boss 358
bto 358
ccu 358
cedric 358
christie 358
dsen 358
edklinth 358
eling 358
f.c. 358
ici@@ 358
joo 358
lagos 358
lines 358
lite 358
merlyn 358
milimét 358
put@@ 358
shield 358
step 358
stylus 358
voc 358
ape 357
bender 357
buster 357
champions 357
chanel 357
frey 357
hero 357
kus 357
mil 357
ology 357
pv 357
rite 357
sancia 357
sardinia 357
smf 357
vallon 357
varvara 357
xoàm 357
1847 356
29.@@ 356
according 356
alain 356
barbaro 356
edu@@ 356
hk 356
jaeger 356
khú 356
kka 356
miya 356
navajo 356
nl 356
năm@@ 356
program 356
qh@@ 356
quil@@ 356
renee 356
sampson 356
sien 356
stus 356
train 356
triple 356
wyoming 356
xar@@ 356
ành 356
đrô 356
─ 356
1855 355
265 355
720 355
9b 355
aly 355
andros 355
ava@@ 355
bunny 355
cancer 355
dandelion 355
economist 355
fukada 355
giạng 355
holcombe 355
hứ 355
kasahara 355
kozaburo 355
larsen 355
mata@@ 355
ony 355
pie@@ 355
prize 355
rit@@ 355
sundberg 355
ậ 355
ỗn 355
25,26 354
65@@ 354
babi 354
bjorn 354
bloch 354
châ@@ 354
guardia 354
iacocca 354
jus@@ 354
jé@@ 354
lafayette 354
lìn 354
madge 354
người@@ 354
nàm 354
psycho@@ 354
quýnh 354
rana 354
raven@@ 354
s.h.i.e.l.d. 354
shasta 354
sos@@ 354
tres 354
wired 354
xoang 354
ượ@@ 354
brandeis 353
buchanan 353
communications 353
conference 353
genevieve 353
gerhard 353
hilda 353
jacobin 353
léon 353
maxêđoan 353
nikov 353
nur@@ 353
pixel 353
some@@ 353
ww@@ 353
ặm 353
aphrodite 352
b.c 352
carmichael 352
efim 352
ems 352
fail 352
ghola 352
haze 352
horse 352
họach 352
liu@@ 352
livres 352
marguerite 352
meermans 352
nging 352
photo@@ 352
prynne 352
stand 352
thian 352
tribu@@ 352
venantius 352
3,6 351
akh@@ 351
anos 351
area 351
bed 351
buy@@ 351
candi@@ 351
courfeyrac 351
denethor 351
ether 351
gié 351
igea 351
kiss 351
lal@@ 351
maynard 351
nico 351
nilsson 351
nium 351
rái 351
serotonin 351
soho 351
tamaki 351
uỵch 351
vitr 351
wittenberg 351
yury 351
berta 350
blon@@ 350
bụ 350
dustin 350
dợt 350
fatma 350
fenner 350
geric 350
gui 350
harbor 350
ivan@@ 350
jaffa 350
maybury 350
produ@@ 350
scheherazade 350
sdr 350
severinus 350
tarquin 350
tuốc 350
vnd 350
xin@@ 350
ươc 350
ỵ@@ 350
609 349
aran 349
ardan 349
bashi 349
before 349
brid@@ 349
ccc 349
chartrand 349
daniels 349
dav@@ 349
doubtfire 349
engineering 349
epicurus 349
exeter 349
gale@@ 349
kheo 349
light@@ 349
lovelace 349
lợt 349
maker 349
mascara 349
massage 349
má@@ 349
too@@ 349
vưởng 349
yong@@ 349
yukiko 349
2.3 348
247 348
257 348
blandish 348
chez 348
cold 348
continu@@ 348
daragane 348
goblin 348
heathrow 348
ik@@ 348
jack@@ 348
janus 348
kodak 348
lantenac 348
maia 348
male@@ 348
micah 348
mut 348
múp 348
oti@@ 348
penicillin 348
ql 348
survi@@ 348
unger 348
vh@@ 348
waco 348
xum 348
zeno 348
ảy 348
2.2 347
5. 347
98@@ 347
ahi@@ 347
arlington 347
basi@@ 347
buckbeak 347
cupertino 347
eastman 347
ere@@ 347
esi@@ 347
fried@@ 347
gross 347
helsinki 347
iu 347
kare 347
ngúm 347
nicola@@ 347
pia 347
proctor 347
rush 347
saoirse 347
stace 347
talley 347
tạ@@ 347
utc 347
ợn 347
336 346
aronsson 346
azi@@ 346
balbino 346
carenin 346
christ@@ 346
deni@@ 346
dial 346
eniac 346
faust 346
ganimard 346
ilych 346
jah 346
lower 346
mammachi 346
muoth 346
raquin 346
stephenson 346
stine 346
tctcvm 346
trong@@ 346
ưở@@ 346
276 345
altamira 345
analysis 345
andersen 345
anhrê 345
animal 345
brock 345
crane 345
doctrine 345
heisenberg 345
irish 345
jihad 345
kag@@ 345
kimmel 345
leila 345
marin@@ 345
micrô 345
nio 345
physics 345
rajaram 345
rồi. 345
saki 345
sari@@ 345
script 345
services 345
ssen 345
ví@@ 345
vạy 345
vậ@@ 345
ôt 345
1770 344
algérie 344
annuvin 344
ax 344
c2 344
chard 344
chel 344
ezra 344
eân 344
figu@@ 344
foun@@ 344
freemantle 344
give 344
gori@@ 344
grammy 344
grool 344
lx 344
nái 344
rem 344
renaud 344
rollin 344
simo@@ 344
wilde 344
xình 344
xẹo 344
1849 343
angels 343
bod@@ 343
calo@@ 343
charan 343
dex 343
ences 343
fielding 343
hlv 343
htx 343
kay@@ 343
langer 343
lũi 343
midway 343
oman 343
pace 343
peck 343
polaroid 343
ration 343
rosen 343
tanith 343
thá 343
từa 343
zak 343
adora 342
bartlett 342
breton 342
btv 342
bushnell 342
donovan 342
faste 342
ghè 342
kl@@ 342
leo@@ 342
mys@@ 342
pit 342
pét 342
sage 342
shen 342
silver@@ 342
sium 342
sputnik 342
trinidad 342
valu@@ 342
đh 342
đù 342
ỗ 342
abelard 341
cỡm 341
dieu 341
domitian 341
dòi 341
end@@ 341
gc 341
jamal 341
kremlin 341
literature 341
mich 341
ngư@@ 341
nissan 341
sant 341
seg@@ 341
voir 341
yam@@ 341
10a 340
adrenalin 340
ald 340
aure@@ 340
bernini 340
bianco 340
bom@@ 340
bos 340
brick 340
bridgerton 340
busan 340
culbeau 340
dolarhyde 340
fiat 340
foreign 340
government 340
haver@@ 340
kaia 340
lakes 340
maroc 340
mercy 340
montenegro 340
nerzhin 340
opp@@ 340
origami 340
oro@@ 340
reich@@ 340
rele@@ 340
sd@@ 340
sox 340
sá@@ 340
vati@@ 340
đm 340
đảnh 340
abôlô 339
alla@@ 339
broad 339
challenge 339
esi 339
ishi 339
jiro 339
keys 339
kiếu 339
nhồm 339
oba@@ 339
pelli@@ 339
phô@@ 339
quin 339
÷ 339
08@@ 338
28,29 338
ales@@ 338
andersson 338
chộn 338
clarissa 338
disco@@ 338
disp@@ 338
dun 338
explo@@ 338
hanaoka 338
kendra 338
lop 338
macar@@ 338
mace 338
melan@@ 338
messersmith 338
mp3 338
nacional 338
này.@@ 338
orddu 338
pasa 338
phernanđô 338
pong 338
principles 338
quỳnh 338
rhy@@ 338
savoy 338
stin@@ 338
vec 338
volga 338
without 338
wo 338
wonder 338
ying 338
ä 338
đầ@@ 338
μ@@ 338
1797 337
335 337
amer 337
bartholomew 337
chs 337
corner 337
diels 337
ela@@ 337
germany 337
giẫy 337
grun@@ 337
inside 337
iều 337
junko 337
lant 337
lyons 337
mum 337
musgrove 337
nassau 337
sendero 337
tari@@ 337
tequila 337
terra 337
winfield 337
đó. 337
ữa 337
0000@@ 336
460 336
587 336
7847 336
`@@ 336
anatolia 336
ating 336
bois 336
capulet 336
chọt 336
daddy 336
dimi@@ 336
edgerton 336
hartley 336
heinz 336
hélène 336
image 336
jame 336
josef 336
kuy@@ 336
linc 336
lsd 336
nicene 336
nọt 336
quị 336
rến 336
schiller 336
sái 336
tcph 336
thóat 336
zataki 336
èng 336
ỗng 336
338 335
56@@ 335
argos 335
belly 335
compos@@ 335
concert 335
deus 335
galli@@ 335
guy@@ 335
hanover 335
hế 335
kli@@ 335
kyung 335
lain 335
naka@@ 335
oleg 335
phứt 335
salam@@ 335
scots 335
shō@@ 335
tríu 335
turbo 335
verse 335
xp 335
295 334
bap 334
baptiste 334
berkhof 334
bh@@ 334
chal 334
clough 334
eye 334
f1 334
farthen 334
jacinta 334
lander 334
lier 334
linear 334
lori 334
lẵng 334
malley 334
manec 334
nantes 334
nhtm 334
patel 334
presen@@ 334
rr 334
sapporo 334
sato@@ 334
som@@ 334
stel@@ 334
trap@@ 334
ungolad 334
yanni 334
ãy 334
ï 334
530 333
54@@ 333
6,8 333
ariel 333
chloro@@ 333
ckle 333
creative 333
esia 333
ethel 333
gemma 333
hibálai 333
judo 333
kikuoka 333
lasker 333
leyte 333
lorentz 333
lư@@ 333
mediocristan 333
molotov 333
monde 333
mèn 333
nabi 333
pei 333
phe@@ 333
pna 333
siobhan 333
sity 333
tiế@@ 333
tyrơ 333
vac 333
vd 333
xổng 333
zz 333
ôxia 333
ỡ 333
1517 332
archie 332
bannon 332
chiền 332
classi@@ 332
critical 332
dorothea 332
hamas 332
iwa@@ 332
jocelyn 332
katia 332
lean 332
loch 332
lúx 332
ogylvie 332
shaoyen 332
shau@@ 332
stos 332
surrey 332
sándor 332
tsk 332
yton 332
1843 331
bell@@ 331
calabi 331
comte 331
cran@@ 331
eper 331
fford 331
flight 331
georgie 331
hubert 331
hượm 331
iền 331
kensington 331
laurence 331
myr@@ 331
onne 331
pp.@@ 331
scandal 331
shun@@ 331
thô@@ 331
vetra 331
1846 330
70.000 330
abee 330
atanasoff 330
barst 330
carole 330
close 330
count 330
dans 330
delacour 330
ead 330
epantsin 330
ering 330
fp 330
gabri@@ 330
giôách 330
godoy 330
herbie 330
illes 330
khokhlakova 330
linnet 330
magg 330
nhò 330
nielsen 330
nikita 330
packer 330
paganel 330
rapper 330
sabitha 330
schul@@ 330
sinclair 330
tani@@ 330
thou@@ 330
trick 330
una 330
ventura 330
were 330
yom 330
ỡm 330
1842 329
258 329
acu@@ 329
bentley 329
biel 329
bug 329
c.11 329
caucasus 329
dọ 329
edmon@@ 329
electronics 329
fun 329
habsburg 329
lal 329
mam 329
mamluk 329
mand 329
marlon 329
mauritius 329
mớ@@ 329
otama 329
paddy 329
papi 329
pathfinder 329
phere 329
philli@@ 329
philo@@ 329
pulitzer 329
rabin 329
russel 329
six@@ 329
snap@@ 329
tcl 329
thal@@ 329
vivi 329
xyanua 329
1801 328
33,@@ 328
8,10 328
930 328
alekxandr 328
barrow 328
brandhaug 328
c.8 328
cannes 328
complete 328
cranly 328
daneeka 328
een 328
eller 328
escobar 328
fantasy 328
gabe 328
hacking 328
jonny 328
khó@@ 328
lili@@ 328
maslow 328
moreau 328
nasar 328
phè 328
ptnt 328
quào 328
respon@@ 328
smaug 328
soma 328
trg 328
vanderhorst 328
vene@@ 328
yad 328
ưỡng 328
1792 327
199@@ 327
262 327
64@@ 327
721 327
760 327
ajihad 327
arlene 327
arn 327
browne 327
chikako 327
chúm 327
constanti@@ 327
cta@@ 327
fernandez 327
heritage 327
hora 327
hà@@ 327
jal@@ 327
monet 327
moritz 327
ppa 327
saigon 327
sell 327
stad@@ 327
tee 327
tíc 327
íu 327
361 326
7000 326
9.000 326
adel@@ 326
austen 326
broussel 326
cier 326
elo 326
genes 326
giorgio 326
gone 326
holi@@ 326
irulan 326
jura 326
kahneman 326
khụ 326
kosar 326
kyushu 326
mirabelle 326
monique 326
morzan 326
mous@@ 326
nol 326
phat 326
ppi@@ 326
rium 326
rollo 326
sible 326
utterson 326
vernet 326
yel@@ 326
đoàng 326
đủng 326
ı@@ 326
ẻn 326
77@@ 325
atta 325
ault 325
beng@@ 325
byrne 325
bợt 325
custo@@ 325
dash 325
ginza 325
herr 325
horcrux 325
leupold 325
lị 325
moe 325
nhoàm 325
reli@@ 325
sồn 325
vern 325
wifi 325
xavier 325
xoã 325
ắc@@ 325
1821 324
1823 324
40,@@ 324
590 324
archimedes 324
belize 324
bora 324
cake 324
chter 324
cili@@ 324
colle@@ 324
constantinopolis 324
digi@@ 324
down@@ 324
eno 324
fes@@ 324
flori@@ 324
huss 324
inez 324
jaco@@ 324
lewie 324
lynggaard 324
matteo 324
meitei 324
mim 324
moran 324
nx@@ 324
privet 324
rick@@ 324
roe 324
seagraves 324
suko 324
tini 324
toot 324
trajan 324
tyre 324
uylix 324
wendell 324
ãm 324
đũng 324
24,25 323
a3 323
akbar 323
bius 323
chopin 323
cortés 323
dìa 323
fl@@ 323
gcnkncm 323
insight 323
kac@@ 323
khuâng 323
krendler 323
mandelbrot 323
marquis 323
mica 323
măt 323
pry@@ 323
ramm 323
rức 323
saturday 323
scher 323
siri@@ 323
soup 323
tik 323
tulsa 323
ật 323
318 322
aegean 322
another 322
bec@@ 322
ckh@@ 322
comes 322
compton 322
cover@@ 322
driver 322
esha 322
gala 322
idea 322
issa 322
kash@@ 322
kurtz 322
lamp@@ 322
leen 322
maljarius 322
nữa.@@ 322
olympics 322
perlita 322
phôtôn 322
phếch 322
princess 322
redwood 322
rumpel 322
southampton 322
thinking 322
toba 322
towers 322
tupperware 322
± 322
ân@@ 322
ðan 322
ơrica 322
10000 321
1799 321
anas 321
bold 321
camelot 321
cru 321
evangelism 321
fedex 321
guise 321
gum 321
half 321
kingston 321
kr@@ 321
malloy 321
mindy 321
mác@@ 321
oxy@@ 321
reality 321
riz@@ 321
thuấn 321
toon 321
tp@@ 321
vulcan 321
đụ 321
ẽo 321
284 320
337 320
aquila 320
cene 320
coco 320
eyes 320
fabio 320
fish@@ 320
franc@@ 320
gala@@ 320
gita 320
grady 320
grand@@ 320
guin@@ 320
insi@@ 320
lb@@ 320
leader 320
left 320
lorena 320
master@@ 320
matxcova 320
month 320
nis@@ 320
nucle@@ 320
oách 320
parak@@ 320
stearns 320
thìn 320
tirith 320
triu 320
universe 320
vicariô 320
về@@ 320
ápsalôm 320
đôrôtêa 320
375 319
abra@@ 319
agawa 319
alen 319
aly@@ 319
arch 319
armen@@ 319
barbar@@ 319
been 319
bess 319
brain@@ 319
caff@@ 319
complex 319
elisei 319
equ@@ 319
garzhvog 319
idi@@ 319
japanese 319
kagan 319
kand@@ 319
khrushchev 319
luỵ 319
mishima 319
nghét 319
oma@@ 319
ones 319
phor@@ 319
regu@@ 319
rig@@ 319
sae 319
schwei@@ 319
shears 319
stadium 319
sw 319
taurus 319
tct 319
tỉu 319
299 318
32.@@ 318
6.1 318
87@@ 318
abad 318
adobe 318
alis@@ 318
alvarez 318
atkinson 318
aura 318
bomb 318
build 318
bullock 318
bễ 318
christy 318
crisis 318
eder 318
expository 318
galen 318
gronevelt 318
guggenheim 318
ikea 318
jessen 318
lian@@ 318
mack@@ 318
mation 318
micha@@ 318
ont 318
pavel 318
qúi 318
rist 318
ryu 318
shep@@ 318
siru 318
thir@@ 318
thât 318
vaccine 318
wilkinson 318
æ@@ 318
ē 318
246 317
261 317
600.000 317
austerlitz 317
bells 317
buil@@ 317
colleen 317
corps 317
etz@@ 317
federico 317
gama 317
hammond 317
indo@@ 317
jfk 317
kali@@ 317
kn@@ 317
livingstone 317
manager 317
mayer 317
mberg 317
mot 317
niagara 317
nobu@@ 317
ols 317
ppi 317
provence 317
rép 317
sack 317
shab@@ 317
thr@@ 317
trơi 317
turkmenistan 317
u.s.@@ 317
umezawa 317
wickham 317
ìm 317
đuờng 317
ẫ@@ 317
ẻ@@ 317
ệ@@ 317
404 316
barnard 316
boli@@ 316
cana@@ 316
capri 316
chrome 316
denny 316
dorath 316
frieda 316
fur 316
gd 316
grimmauld 316
hia 316
hul@@ 316
iec 316
isla@@ 316
kuala 316
lợ 316
mikey 316
mêđi 316
neo@@ 316
ngel 316
ngọai 316
pira@@ 316
police 316
queenie 316
renault 316
rịch 316
salgado 316
taco 316
tet 316
tsu 316
tâ@@ 316
uc 316
vaxya 316
wittgenstein 316
1802 315
1818 315
advanced 315
agan 315
alberta 315
balaam 315
baloo 315
bụt 315
chos 315
durham 315
falcone 315
gat 315
goro 315
hidro 315
jö@@ 315
khem 315
kull 315
lanser 315
mcdaniel 315
meh@@ 315
mere 315
musashi 315
nác 315
orsini 315
paper 315
pizarro 315
pod@@ 315
poincaré 315
rette 315
sbury 315
scotia 315
sion@@ 315
thộn 315
toda 315
toulouse 315
upon 315
vez 315
êp 315
285 314
adi 314
algiers 314
arri@@ 314
baghra 314
boon 314
develo@@ 314
dori@@ 314
drexel 314
fee 314
games@@ 314
iik 314
lac@@ 314
listen 314
mortati 314
ngoe 314
parwana 314
por 314
random 314
sapo 314
skyler 314
somali 314
sonic 314
summers 314
sussex 314
súy 314
sữ 314
transla@@ 314
westbrook 314
wr 314
điê@@ 314
1828 313
37,@@ 313
6. 313
amenhotep 313
balin 313
brisbane 313
dev 313
dhs 313
emer@@ 313
extremistan 313
gaunt 313
hockey 313
hoff 313
hư@@ 313
mk@@ 313
muni@@ 313
nakano 313
navi@@ 313
nứa 313
poe 313
rotterdam 313
rus@@ 313
salinas 313
sheffield 313
speci@@ 313
tip 313
tology 313
warfield 313
xuê 313
1803 312
445 312
aaaa@@ 312
alphonse 312
alyssa 312
annacondia 312
bana 312
blanc 312
chạnh 312
ctive 312
disco 312
ellesméra 312
flanders 312
geo 312
ggins 312
goo 312
grawp 312
hotch 312
ligh@@ 312
lotus 312
middle 312
mio 312
monty 312
neptune 312
nộn 312
nự 312
of@@ 312
rommel 312
scipio 312
settle 312
thunder@@ 312
tristan 312
williamson 312
ốt@@ 312
1819 311
3.500 311
athy 311
barron 311
gangster 311
greco 311
gregorovitch 311
hor 311
inuit 311
mazer 311
mper 311
pale@@ 311
ridley 311
rướm 311
shepherd 311
sine 311
toto 311
ttle 311
ương@@ 311
1453 310
abrams 310
alcatraz 310
anic 310
bari 310
c.9 310
champ 310
cogni@@ 310
corn@@ 310
diag@@ 310
ecu@@ 310
freireich 310
genti@@ 310
gracie 310
gá 310
iro@@ 310
jet@@ 310
lippmann 310
lle 310
lyle 310
mckinley 310
nuremberg 310
peeperkorn 310
piedmont 310
ranger 310
rebeca 310
rey@@ 310
rockwell 310
scrip@@ 310
strange 310
tacitus 310
vercueil 310
which 310
đùm 310
5,8 309
7. 309
aden 309
angi@@ 309
ango@@ 309
apocrypha 309
ardo 309
box@@ 309
catalogue 309
dak 309
destiny 309
eugène 309
ffs 309
fold 309
franks 309
gumb 309
iphi@@ 309
lổm 309
marduk 309
moltmann 309
nim@@ 309
nissho 309
nẫng 309
oss 309
quist 309
superman 309
thos 309
ulrich 309
wessex 309
ás 309
ệu 309
269 308
alma 308
def@@ 308
dehaven 308
estes 308
faber 308
fortress 308
fuisz 308
giêhu 308
hutton 308
jau@@ 308
jôlivê 308
mose 308
ngue 308
ppo 308
reddit 308
rovere 308
sav@@ 308
talone 308
tings 308
universi@@ 308
ved@@ 308
virut 308
yaxley 308
êng 308
để@@ 308
1,8 307
34,@@ 307
405 307
59@@ 307
aikido 307
antwerp 307
aru@@ 307
aspen 307
braggadocio 307
chronicle 307
cổi 307
dall 307
dirk 307
economics 307
every 307
frei@@ 307
hadley 307
hc@@ 307
inclu@@ 307
kron@@ 307
leda 307
ord@@ 307
ort 307
prix 307
real@@ 307
savo@@ 307
sn 307
snead 307
southwest 307
sến 307
td@@ 307
tokugawa 307
touch 307
toulon 307
usp 307
xoan 307
1samuên 306
3,7 306
7,10 306
acmân 306
ava 306
bakersfeld 306
baldor 306
bernstein 306
brin@@ 306
carcante 306
eco@@ 306
eto@@ 306
even@@ 306
evey 306
guinzburg 306
gôme 306
hawthorne 306
helene 306
hubermann 306
iamskoy 306
itimôthê 306
jean@@ 306
jur@@ 306
kafuku 306
manderley 306
mủn 306
n2 306
pepi 306
philoso@@ 306
port@@ 306
quirrell 306
sedan 306
sigurðr 306
sper@@ 306
theodosius 306
tti 306
unicef 306
unt 306
whist@@ 306
xpenlô 306
zacharias 306
279 305
357 305
adelmo 305
cannon 305
cie 305
concerto 305
dras 305
elijah 305
elsie 305
goliath 305
hippo 305
keene 305
kian 305
manor 305
mantua 305
maori 305
mcguire 305
senegal 305
shangri 305
title 305
toni@@ 305
veston 305
wills 305
winter@@ 305
yhwh 305
yor 305
đỏng 305
ần@@ 305
aya 304
behan 304
bush@@ 304
bĩ 304
concord 304
corpus 304
doo@@ 304
dreedle 304
dupont 304
ebo@@ 304
flying 304
gation 304
kimy 304
lexus 304
llyan 304
nicôla 304
novel 304
phọt 304
python 304
regent 304
sefi 304
stu 304
tern 304
tiêng 304
tottenham 304
1794 303
1835 303
acy 303
african 303
alban@@ 303
aqua 303
canfield 303
cry@@ 303
dem 303
drich 303
fré@@ 303
hertz 303
isha 303
istic 303
jolie 303
juven@@ 303
kyrgyzstan 303
manus 303
mili 303
nostrum 303
nunez 303
old@@ 303
origin 303
pad 303
pluto 303
pop@@ 303
poseidon 303
quet 303
sagan 303
sandberg 303
tatsuo 303
wine 303
ơphơrát 303
ạng 303
ỷ@@ 303
395 302
540 302
borne 302
capi@@ 302
cros@@ 302
digory 302
diêu 302
earth@@ 302
esperanza 302
essen@@ 302
gabbe 302
galley 302
hibiya 302
hẽm 302
january 302
koff 302
lasse 302
loop 302
lucille 302
lun 302
müller 302
nil 302
nothing 302
nubia 302
odell 302
oth@@ 302
phie 302
plata 302
quo@@ 302
raw@@ 302
recor@@ 302
res@@ 302
rien 302
ryu@@ 302
scotus 302
socola 302
swa@@ 302
tomas 302
tout 302
tripod 302
tếch 302
uh@@ 302
uta 302
whitman 302
1811 301
3.2 301
35.@@ 301
39,@@ 301
7919 301
alamos 301
alco@@ 301
berk@@ 301
bio 301
blttds 301
gill 301
halley 301
hepburn 301
heter@@ 301
jacob@@ 301
linus 301
madam 301
malm 301
maximus 301
morrigan 301
ngoẵng 301
nhỉnh 301
paley 301
scanlon 301
sf 301
stevie 301
sworth 301
thuỳ 301
tiers 301
tyrese 301
tói 301
vika 301
woodrow 301
xnk 301
ớ@@ 301
aha 300
akela 300
barrymore 300
bull@@ 300
cey 300
chos@@ 300
combe 300
dempster 300
gl 300
gunnar 300
hg 300
ingeles 300
kubo 300
lag 300
mendel 300
mh 300
missionary 300
mưng 300
nicea 300
oku 300
qué 300
rangers 300
rate 300
rười 300
sas@@ 300
simkins 300
stand@@ 300
suresh 300
swatch 300
tronjheim 300
trotsky 300
tạch 300
12,14 299
1841 299
buy 299
clou@@ 299
contemporary 299
dementor 299
due 299
git 299
hindi 299
hog@@ 299
hý 299
lein 299
lich@@ 299
mour 299
ngà@@ 299
normandie 299
olena 299
perth 299
please 299
pping 299
sheikh 299
tajikistan 299
thưc 299
udc 299
verne 299
íp@@ 299
óa 299
1808 298
2.4 298
306 298
314 298
347 298
abbey 298
aberdeen 298
audick 298
bane 298
c3 298
clin@@ 298
cork 298
craw@@ 298
crôm 298
dalal 298
halêlugia 298
ine@@ 298
irons 298
jonan 298
kangetsu 298
lurvy 298
madi@@ 298
mangles 298
medicine 298
mex 298
mhz 298
mungo 298
nagle 298
narayan 298
nghành 298
nhẵng 298
nils 298
pd@@ 298
penguin 298
raven 298
rugby 298
samu@@ 298
sina 298
sớt 298
ushikoshi 298
zuka 298
.1 297
1824 297
1856 297
accessed 297
apollin@@ 297
ases 297
believe 297
benedick 297
braxin 297
chuy 297
cyprus 297
desktop 297
downey 297
dry@@ 297
fiore 297
fleet 297
forever 297
fortuny 297
gatan 297
geoff 297
gues 297
head@@ 297
ika 297
islands 297
kamal 297
lumpur 297
meter 297
middle@@ 297
minster 297
morfin 297
naylor 297
ney@@ 297
night@@ 297
playboy 297
sales 297
sui 297
tchq 297
tq 297
triton 297
vpcp 297
ways 297
work@@ 297
yellowstone 297
ỏm 297
12.1 296
12a 296
1536 296
5,9 296
610 296
6m 296
8000 296
abbas 296
angeli@@ 296
antonius 296
blue@@ 296
dận 296
enza 296
father 296
gaoliang 296
genovia 296
gry@@ 296
hebrews 296
hei 296
hitchcock 296
horton 296
instruments 296
khọm 296
lisette 296
masterson 296
meth@@ 296
mmi@@ 296
nett@@ 296
romulus 296
rôxinantê 296
sad@@ 296
sarajevo 296
scarret 296
sellanraa 296
stay 296
steinberg 296
templar 296
trade 296
từ@@ 296
valentin 296
varsity 296
ôn@@ 296
đế@@ 296
ật@@ 296
ể@@ 296
302 295
9,11 295
antio@@ 295
bara@@ 295
baroque 295
berg@@ 295
bog@@ 295
bow 295
cari@@ 295
chão 295
cđ 295
cạ 295
department 295
dụa 295
falk 295
gei@@ 295
heavy 295
ix@@ 295
jingles 295
kaz@@ 295
keri 295
kurios 295
levine 295
lórien 295
mollison 295
oce@@ 295
palo@@ 295
phau 295
physi@@ 295
rudolph 295
sig 295
stereo 295
tea@@ 295
tese 295
tial 295
ural 295
ùm 295
đk@@ 295
đồm 295
ờn 295
2c 294
397 294
409 294
800@@ 294
aoife 294
chari@@ 294
chev 294
democra@@ 294
dủ 294
eiko 294
este 294
fifth 294
fighter 294
gondy 294
hn@@ 294
hoon 294
hs@@ 294
kohlah 294
lati@@ 294
lives 294
mofass 294
nháng 294
pajarote 294
paz 294
pribluda 294
pritchard 294
raip 294
streets 294
surda 294
switch 294
sylar 294
taggert 294
ônêsim 294
ỡi 294
12b 293
600@@ 293
abb 293
add 293
amália 293
anta 293
brett 293
bót 293
carpenter 293
ign 293
imago 293
iệm 293
lansdale 293
lindsey 293
loo@@ 293
milly 293
môtô 293
park@@ 293
pdp 293
pub 293
rhodesia 293
românia 293
rouge 293
sara@@ 293
sims 293
stes 293
tec@@ 293
terranova 293
timur 293
total 293
tymnet 293
vichy 293
vớ@@ 293
warwick 293
watch@@ 293
wmd 293
yakov 293
amoto 292
arm 292
br 292
cheon 292
cies 292
dahl 292
dama@@ 292
dách 292
ebo 292
enterprises 292
falada 292
fry 292
garber 292
gart 292
greavy 292
grăng 292
hawken 292
jung@@ 292
khà 292
krokowski 292
kura@@ 292
mcbride 292
obispo 292
odo@@ 292
phổng 292
premi@@ 292
question 292
rams@@ 292
renko 292
rid@@ 292
satin 292
strang@@ 292
tonga 292
took 292
vit 292
vơ@@ 292
wins 292
ãng 292
ĩa 292
ểu 292
ứu 292
411 291
483 291
anni 291
bera 291
bha@@ 291
bility 291
chemi@@ 291
cius 291
civil 291
col 291
collection 291
cultural 291
dink 291
dyne 291
ethi@@ 291
hir@@ 291
iêng 291
khon 291
magne@@ 291
mckenzie 291
mechan@@ 291
miyake 291
ml@@ 291
mone@@ 291
node 291
ophelia 291
panem 291
phé 291
radas 291
ramesses 291
sole 291
thresh 291
vail 291
vendée 291
voi@@ 291
wada 291
withers 291
ạnh 291
1822 290
316 290
alla 290
amelio 290
article 290
aur 290
beautiful 290
bhu@@ 290
cic@@ 290
dukhi 290
galilee 290
godfrey 290
grégoire 290
holman 290
holo@@ 290
hutchins 290
ition 290
iu@@ 290
juul 290
kyo@@ 290
luzon 290
marethyu 290
milia 290
milk 290
mph 290
noone 290
panther 290
paoli 290
rocher 290
rs@@ 290
simeon 290
sook 290
triện 290
velutha 290
views 290
xớt 290
zel@@ 290
đêvi 290
1546 289
1610 289
1791 289
85@@ 289
abo 289
adrienne 289
amadé 289
aman@@ 289
avraham 289
awa@@ 289
benito 289
brisingr 289
c.10 289
cad@@ 289
committee 289
conan 289
didache 289
doubleday 289
gulf 289
hash@@ 289
hendricks 289
horus 289
hoẵng 289
khòm 289
kim@@ 289
lay@@ 289
livrơ 289
lém 289
madras 289
moi@@ 289
mún 289
nheim 289
nj 289
olympia 289
questions 289
rb 289
roxton 289
sarayu 289
schwab 289
sentinel 289
thiêm 289
trứơc 289
tôi.@@ 289
unit 289
đì 289
afc 288
bad@@ 288
benjy 288
cai@@ 288
chuckles 288
condi@@ 288
effec@@ 288
ene@@ 288
fein 288
fourier 288
fundamen@@ 288
godalming 288
groslow 288
gwystyl 288
hito 288
human@@ 288
iv@@ 288
jai@@ 288
leaf 288
lil 288
lino 288
ll@@ 288
longbottom 288
loằng 288
lucian 288
modi@@ 288
moller 288
physical 288
sayoko 288
sita 288
size 288
stem 288
sufi 288
thornton 288
tit@@ 288
tó 288
ulf 288
vis@@ 288
vạnh 288
working 288
wurmalde 288
xachê 288
án@@ 288
ö 288
đêu 288
ượng 288
11.000 287
431 287
9000 287
bormann 287
bẹn 287
calép 287
capone 287
chief 287
cornucopia 287
crazy 287
dings 287
eleazar 287
fuck 287
goi 287
mcqueen 287
máo 287
mạ@@ 287
ngứ 287
nila 287
nola 287
oka@@ 287
portia 287
ròn 287
squire 287
swiss 287
torvalds 287
tow 287
vara 287
vincennes 287
yin 287
đá@@ 287
13a 286
324 286
683 286
abu@@ 286
daxo 286
dioxide 286
estr@@ 286
faraday 286
font 286
genji 286
jakob 286
kitchen 286
labrador 286
louie 286
lowe 286
mali@@ 286
method 286
nghi@@ 286
niko@@ 286
phả@@ 286
raj 286
senhor 286
sr@@ 286
suy@@ 286
television 286
tley 286
yd 286
ẵn 286
ợi 286
3.5 285
ability 285
analy@@ 285
annenkov 285
anson 285
bev 285
bil 285
blödhgarm 285
boxing 285
chưởi 285
cứ@@ 285
eit 285
guillaume 285
jewish 285
kroger 285
ktck 285
laođixê 285
lear 285
lens 285
llinger 285
mathe@@ 285
milimet 285
nazareth 285
orthodox 285
otis 285
partners 285
rắt 285
sargon 285
sed@@ 285
stage 285
toma@@ 285
toy 285
uma 285
wild@@ 285
ðầu 285
345 284
6,9 284
630 284
aarfy 284
airbus 284
aragon 284
asha 284
auguste 284
bazơ 284
bolkonxki 284
bremen 284
cans 284
carroll 284
củ@@ 284
december 284
decker 284
dominican 284
drebber 284
dợn 284
eriksson 284
isle 284
kayla 284
kenosis 284
khal@@ 284
kều 284
lat@@ 284
lü@@ 284
lởi 284
mainz 284
mera 284
moldova 284
míp 284
nhít 284
nig 284
odessa 284
ortiz 284
prayer 284
quonsett 284
sign 284
theos 284
tolya 284
tude 284
valenti@@ 284
vargas 284
vus 284
westmoreland 284
wiley 284
zec 284
đim 284
ủm 284
1.0@@ 283
1.4 283
1.600 283
1780 283
271 283
ais@@ 283
ambi@@ 283
bob@@ 283
britney 283
bung@@ 283
burroughs 283
butterworth 283
bắng 283
cale 283
camilla 283
crassus 283
cáy 283
dominica 283
estragon 283
frăng 283
ghẹt 283
klo@@ 283
lottie 283
maire 283
michel@@ 283
moder@@ 283
neuron 283
pav@@ 283
pcr 283
phobos 283
summerlee 283
tub 283
vao 283
xes 283
yeager 283
zobrist 283
ỗi 283
263 282
41,@@ 282
aq@@ 282
arbor 282
aska 282
boot 282
caffeine 282
dornberger 282
elson 282
gain@@ 282
gibbons 282
hassan 282
haumann 282
korontzis 282
leonid 282
ltcm 282
lugin 282
mbe@@ 282
move 282
murry 282
pgp 282
phus 282
polo@@ 282
quày 282
raj@@ 282
revell 282
rivi@@ 282
tabitha 282
telemanus 282
tibe@@ 282
vawtry 282
vicki 282
wolf@@ 282
wonder@@ 282
xl 282
xtiva 282
xus 282
zara 282
¥ 282
đếu 282
ịu 282
aka@@ 281
avon 281
birdie 281
bm 281
bork 281
danby 281
farm 281
feu@@ 281
frans 281
giạ 281
golgoth 281
guthrie 281
hermi@@ 281
lake@@ 281
lmann 281
lockheed 281
loretta 281
mass@@ 281
matsumoto 281
mble@@ 281
nova@@ 281
omo 281
political 281
prewitt 281
refle@@ 281
ritchie 281
sation 281
seasons 281
siemens 281
solembum 281
strasbourg 281
vander@@ 281
zor@@ 281
ça 281
ểm 281
50.@@ 280
anxiđ 280
brattain 280
brêđêzhor 280
chúatrời 280
côtta 280
cư@@ 280
duane 280
engrasi 280
eob 280
fern@@ 280
firefox 280
floren@@ 280
fredri@@ 280
garri@@ 280
geyer 280
gillian 280
greenlight 280
hama 280
hang@@ 280
helium 280
hermeneutics 280
iler 280
kowitz 280
lep@@ 280
levant 280
levasseur 280
lundin 280
lổng 280
mckinsey 280
mean 280
melquíades 280
mơ@@ 280
ngòn 280
nigan 280
oriental 280
peter@@ 280
peti@@ 280
sala@@ 280
serbatxki 280
structure 280
t.p 280
tape 280
trướ@@ 280
trốt 280
venera 280
wahdati 280
xoạc 280
đk 280
2nd 279
75@@ 279
` 279
aida 279
aimard 279
art@@ 279
bak 279
braz@@ 279
burnet 279
cts 279
declan 279
everything 279
gaz@@ 279
gorky 279
goths 279
hannover 279
hó@@ 279
itz 279
iếp 279
kō@@ 279
lasseter 279
libido 279
methy@@ 279
nal@@ 279
oda@@ 279
ox 279
pettigrew 279
philly 279
rv 279
savonarola 279
tax 279
thers 279
weaver 279
10,12 278
341 278
84@@ 278
aang 278
agh 278
alexandros 278
aï@@ 278
berne 278
borden 278
chỏa 278
compson 278
dov 278
duns 278
eira 278
etes 278
experience 278
forth 278
gens 278
gioan 278
gonz@@ 278
gp 278
hermine 278
hoo@@ 278
hop@@ 278
iển 278
jedi 278
middleton 278
mitre 278
montes 278
mpe@@ 278
nh. 278
ooo 278
papyrus 278
pati@@ 278
punkheria 278
pơ@@ 278
quincey 278
rhema 278
ripton 278
sach@@ 278
scen@@ 278
schle@@ 278
tempest 278
thủa 278
travel@@ 278
tét 278
uớc 278
valkyrie 278
yakanov 278
yamamura 278
áu 278
ởng 278
1836 277
42,@@ 277
457 277
537 277
armando 277
bluetooth 277
caravaggio 277
casablanca 277
chur@@ 277
danica 277
het@@ 277
interest 277
kovsky 277
orwell 277
phênixi 277
presley 277
rush@@ 277
spac@@ 277
stuttgart 277
suisse 277
sutherland 277
thel@@ 277
tôi. 277
waste 277
wimbledon 277
xov 277
đạ@@ 277
≤ 277
≥ 277
197@@ 276
274 276
44,@@ 276
ake@@ 276
alekxandrovna 276
animation 276
biền 276
c.12 276
cashmere 276
ceylon 276
choice 276
cyto@@ 276
estrogen 276
freligh 276
greenspan 276
gường 276
gặc 276
kah@@ 276
kk@@ 276
meng@@ 276
monfort 276
rosetta 276
silic 276
spen@@ 276
sêsarê 276
ttlkck 276
wl 276
wye 276
yy@@ 276
ănggiônrátx 276
đước 276
1839 275
bap@@ 275
cke 275
concer@@ 275
cro 275
davos 275
dead@@ 275
demarco 275
exp@@ 275
geraldine 275
interpre@@ 275
jump 275
memory 275
otic 275
pack 275
path 275
retrieved 275
ride 275
rodia 275
russian 275
simei 275
ska@@ 275
slow 275
stam@@ 275
staten 275
ström 275
tek 275
thesis 275
thuôc 275
tō@@ 275
venezia 275
ẩt 275
007 274
1,7 274
1564 274
1837 274
680 274
alek@@ 274
alvah 274
amun 274
att 274
baird 274
c.14 274
chiế@@ 274
combray 274
culver 274
dionysius 274
diển 274
gilles 274
glau@@ 274
gol 274
guild 274
independent 274
kulak 274
lắ@@ 274
nye 274
ohh 274
pochenkov 274
rahman 274
rak 274
schuster 274
see@@ 274
simone 274
stet@@ 274
strasse 274
tran 274
tuyđor 274
uv 274
vectơ 274
vlncn 274
winterfell 274
ụi 274
21,23 273
321 273
342 273
aan 273
aiken 273
aircraft 273
archi@@ 273
arrango 273
bangalore 273
bhag 273
brest 273
château 273
deen 273
documents 273
epicu@@ 273
ernesto 273
garten 273
ged@@ 273
gna@@ 273
harrow 273
imam 273
jorgensen 273
kelvin 273
laird 273
lakeside 273
minister 273
nagasawa 273
nghen 273
nhữ@@ 273
nun@@ 273
oly@@ 273
oshi@@ 273
pham 273
phên 273
phún 273
presi@@ 273
read@@ 273
rôbôam 273
saas 273
sankey 273
schen 273
sutton 273
vaux 273
wah@@ 273
xil@@ 273
đàu 273
1,2,@@ 272
1838 272
268 272
4m 272
alci@@ 272
alpatyts 272
alti@@ 272
amaxia 272
barber 272
bien 272
caracas 272
clevinger 272
cura@@ 272
empi@@ 272
enburg 272
fein@@ 272
friend@@ 272
gami 272
gasse 272
giá@@ 272
hendrix 272
khểnh 272
lysander 272
malo@@ 272
nation@@ 272
nazarick 272
nous 272
ordway 272
orn 272
ost 272
perfect 272
phải@@ 272
sakota 272
salvation 272
scholes 272
sense 272
sheridan 272
suz@@ 272
tae@@ 272
tei@@ 272
tsubasa 272
ura@@ 272
1829 271
35.000 271
aguilar 271
argentine 271
atahualpa 271
chêrubin 271
dreyfus 271
dừ 271
ements 271
esta 271
everdeen 271
gabby 271
giuliani 271
gut 271
haddon 271
ike@@ 271
iệc 271
karla 271
kerman 271
khá@@ 271
krupp 271
leto 271
local 271
longo 271
myung 271
ngưởi 271
nhèo 271
nhùi 271
octavian 271
osama 271
phoenicia 271
quad 271
rous@@ 271
sir@@ 271
skaya 271
summa 271
thane 271
thar@@ 271
trag@@ 271
trailer 271
tôt 271
vant 271
11201 270
1787 270
384 270
angelica 270
bloomberg 270
cambes 270
dix 270
dod@@ 270
ebi@@ 270
ern@@ 270
fabian 270
fatima 270
fried 270
frith 270
golodkin 270
graph 270
herrington 270
joffrey 270
kavkaz 270
khoo 270
knorr 270
larchmont 270
louisville 270
malthus 270
matt@@ 270
methodist 270
mikhailov 270
miska 270
palestin 270
piê@@ 270
poole 270
rhunön 270
rá 270
saga 270
scher@@ 270
stoyte 270
sty 270
tain@@ 270
thaddeus 270
thermo@@ 270
tir 270
ueda 270
uyn@@ 270
xb 270
1054 269
2,000 269
aj 269
ardi 269
audrey 269
australian 269
bella@@ 269
bellingham 269
billie 269
bino 269
candace 269
clean 269
danger 269
depot 269
drucker 269
every@@ 269
ferrara 269
holloway 269
imperial 269
jai 269
khì 269
khắn 269
lancelot 269
leary 269
mace@@ 269
mix 269
mur 269
plo 269
raw 269
ready 269
salu@@ 269
suk 269
takashi 269
thưở 269
toro 269
torrey 269
trea@@ 269
waris 269
wim 269
woodward 269
yusuf 269
15a 268
1825 268
308 268
36,@@ 268
agency 268
alfrida 268
apec 268
arte 268
banjo 268
botswana 268
bragelonne 268
báckít 268
carđêniô 268
cruise 268
deri 268
dero 268
dolfo 268
dong@@ 268
díaz 268
ebisuno 268
focus 268
friday 268
haman 268
heinrici 268
hrothgar 268
isra@@ 268
kalle 268
kine 268
locking 268
mccain 268
myth 268
northup 268
omprakash 268
pantheon 268
rinaldi 268
strategy 268
success 268
sumi@@ 268
syracuse 268
tang@@ 268
tradi@@ 268
ttl 268
vann 268
vski 268
xú 268
ôp 268
0,5 267
3.4 267
7883 267
aj@@ 267
akiyoshi 267
antoinette 267
arpanet 267
boies 267
bre 267
c.13 267
cattermole 267
farmer 267
gilê 267
halsted 267
held 267
hemi@@ 267
hir 267
hus@@ 267
johan@@ 267
jpl 267
khào 267
kilo@@ 267
kov@@ 267
lindy 267
maki 267
marsh@@ 267
masséna 267
matter 267
millar 267
nac@@ 267
nci 267
nest 267
ngù 267
nằn 267
ovo 267
rangoon 267
semi@@ 267
shita 267
skil@@ 267
tusk 267
ubertino 267
vicks 267
việ@@ 267
wiersbe 267
wp 267
yolanda 267
đy 267
555 266
abakumov 266
alcoa 266
ball@@ 266
brun@@ 266
chiu 266
cult 266
dau 266
dunsley 266
etto 266
fawell 266
giát 266
kamp@@ 266
ln@@ 266
mcwatt 266
metz 266
milano 266
mud 266
ngoéo 266
nhụy 266
oke 266
opti@@ 266
oro 266
oăm 266
palau 266
pneuma 266
pompéc 266
rourke 266
saka 266
santi 266
sary 266
scheisskopf 266
stamp 266
t.com 266
ta.@@ 266
thà@@ 266
vinyl 266
xiểng 266
ées 266
épinay 266
13. 265
4.3 265
5,000 265
632 265
701 265
adonai 265
alam@@ 265
aring 265
bardeen 265
bcn 265
cad 265
chảnh 265
collagen 265
contra 265
croix 265
cue 265
defin@@ 265
durant 265
epis@@ 265
etc 265
eulalie 265
exchange 265
fritzie 265
ghter 265
graves 265
halifax 265
hama@@ 265
haru 265
indus 265
kina 265
lata 265
levitt 265
martine 265
milne 265
nephilim 265
oph@@ 265
paradi@@ 265
policy 265
rí@@ 265
sprague 265
understanding 265
venise 265
virút 265
zappos 265
ọm 265
277 264
9. 264
apraham 264
arcadievna 264
bret 264
burien 264
burlington 264
bẫng 264
canal 264
christo@@ 264
cini 264
crim@@ 264
ctr@@ 264
dâ@@ 264
ffy 264
flo 264
gk 264
gnos@@ 264
guen 264
huang 264
jit@@ 264
lambrous 264
lem@@ 264
loth@@ 264
milgram 264
natur@@ 264
otte 264
panxa 264
penang 264
platt 264
present 264
reinhold 264
russo 264
sms 264
startup 264
stat@@ 264
tasso 264
thin@@ 264
valle 264
vam@@ 264
vec@@ 264
vietgap 264
vig@@ 264
weil 264
wid@@ 264
zhenya 264
zucker 264
đamaxô 264
288 263
606 263
ajax 263
bby 263
bloo@@ 263
brenner 263
bả@@ 263
cele@@ 263
coli 263
constable 263
copa 263
elba 263
gibbs 263
guard 263
histori@@ 263
hwa 263
hòang 263
idol 263
maldives 263
nec 263
ngóm 263
nikola@@ 263
thọai 263
tylenol 263
wake 263
ũi 263
€ 263
304 262
317 262
732 262
753 262
adriana 262
aku 262
beer 262
chess 262
dovaleh 262
fauke 262
fran 262
gemini 262
gifts 262
gown 262
hc 262
hook 262
hos@@ 262
hotep 262
khoáy 262
landing 262
lcd 262
margar@@ 262
marriage 262
melynlas 262
mesopotamia 262
methyl 262
mogadore 262
mohammad 262
near 262
nehru 262
proces@@ 262
rh 262
samaritan 262
schubert 262
sheri@@ 262
smp 262
thani 262
thuổng 262
tuabin 262
vikram 262
vinck 262
ếc 262
10. 261
13b 261
1817 261
4.6 261
407 261
accor@@ 261
achaxia 261
active 261
akes 261
alization 261
anth@@ 261
atkins 261
bab 261
birds 261
birkin 261
budd@@ 261
ception 261
coro@@ 261
cote 261
dhabi 261
dimmesdale 261
dolan 261
eps 261
git@@ 261
gusta@@ 261
hodgkin 261
hường 261
ià 261
jp 261
killer 261
kwa@@ 261
lantz 261
lets 261
loew 261
metan 261
micros@@ 261
nefer@@ 261
negro 261
nie@@ 261
performance 261
petrov 261
porte 261
pps 261
senior 261
shalom 261
simon@@ 261
stal 261
timofeyev 261
vogue 261
wallachia 261
11b 260
14b 260
286 260
4.2 260
423 260
511 260
516 260
7921 260
annalise 260
beacon 260
beale 260
bein 260
berman 260
carl@@ 260
cherry 260
cortisol 260
danielle 260
dc@@ 260
dg 260
diocletian 260
drama 260
dunne 260
dướn 260
eic 260
feri@@ 260
gley 260
himuro 260
jaffe 260
magdalene 260
many 260
maximov 260
meta@@ 260
muth 260
ngươ@@ 260
paestra 260
passatempo 260
phé@@ 260
pom@@ 260
potomac 260
reason 260
sabah 260
ship@@ 260
skipjack 260
spike 260
sylvester 260
tly 260
trê@@ 260
tì@@ 260
worthington 260
xuề 260
yê@@ 260
ứơc 260
1520 259
beatriz 259
bethan 259
bjor@@ 259
bron 259
claudio 259
cũa 259
dawkins 259
dette 259
dire@@ 259
dory 259
haifa 259
hearst 259
helmut 259
here@@ 259
incheon 259
kraft 259
leighton 259
manual 259
microphone 259
miy@@ 259
mộ@@ 259
neutrino 259
nhnn@@ 259
nhền 259
osis 259
raspail 259
revere 259
sesame 259
sier 259
tah 259
tering 259
toàng 259
uae 259
unity 259
® 259
170@@ 258
282 258
332 258
belo@@ 258
bradford 258
clave 258
czisman 258
demon 258
elman 258
flavius 258
galaát 258
giuộc 258
hippocrates 258
hz 258
joppy 258
kenji 258
lona 258
loreen 258
lton 258
mais 258
malay 258
marcantonio 258
mark@@ 258
miamas 258
mountains 258
mình@@ 258
nhà@@ 258
nishi@@ 258
nr@@ 258
ordi@@ 258
oso 258
phạch 258
politics 258
pompeii 258
quaffle 258
rennes 258
sep@@ 258
ships 258
stam 258
stat 258
tôbôxô 258
uppsala 258
versh 258
yeong 258
ðang 258
đuy@@ 258
386 257
ans@@ 257
ards 257
aù@@ 257
bf 257
blanche 257
c.15 257
caligula 257
chee 257
comb 257
dap 257
dew 257
ely@@ 257
este@@ 257
gautier 257
gher@@ 257
greatest 257
gue@@ 257
jimi 257
khặc 257
lead@@ 257
loud 257
macbeth 257
masha 257
mohamed 257
mycroft 257
nobuko 257
palais 257
paso 257
pray 257
rodion 257
rol 257
round 257
saxophone 257
september 257
sho 257
stifler 257
sva@@ 257
tton 257
tucson 257
vah 257
xơn 257
zol@@ 257
đòng 257
627 256
abê 256
announ@@ 256
anthropo@@ 256
avdotia 256
beginning 256
cavanaugh 256
commission 256
demo@@ 256
diaz 256
dubois 256
dv 256
gana 256
harteveld 256
heidegger 256
hill@@ 256
hydrogen 256
janelle 256
kippur 256
kosak 256
lim@@ 256
nhưng@@ 256
nảo 256
onoshi 256
priestown 256
psy 256
reser@@ 256
rid 256
scribner 256
socin@@ 256
solo@@ 256
tery 256
tol 256
wies@@ 256
yokosuka 256
ũ@@ 256
278 255
413 255
88@@ 255
acha@@ 255
aero@@ 255
aksyonov 255
amoniac 255
arca@@ 255
aro@@ 255
babe 255
belt 255
chư@@ 255
cậ@@ 255
destin 255
divya 255
gladys 255
hall@@ 255
hil 255
itêsalônica 255
jk 255
kee 255
ktth 255
lies 255
lẳn 255
lặc 255
mcgee 255
mine@@ 255
mist 255
pab@@ 255
phầm 255
plot@@ 255
popular 255
prior 255
saku 255
skaia 255
săng@@ 255
tripoli 255
volt 255
xxiii 255
40.@@ 254
570 254
apol@@ 254
baudelio 254
bedouin 254
behavi@@ 254
cary 254
conner 254
counties 254
crick 254
dler 254
eisner 254
feng 254
garrow 254
gavrila 254
graph@@ 254
grou@@ 254
gômôrơ 254
helgrind 254
hoảnh 254
hyksos 254
ishtar 254
lya 254
marcos 254
mcgill 254
meade 254
mellberg 254
miêng 254
newyork 254
ngle 254
november 254
really 254
remy 254
rie@@ 254
sabbath 254
schindler 254
shen@@ 254
tations 254
ville@@ 254
wynette 254
yes@@ 254
ặn 254
1650 253
1775 253
296 253
625 253
aig 253
archive 253
basili@@ 253
beria 253
bose 253
bostwick 253
bv 253
cken 253
cosmo@@ 253
crighton 253
dger 253
duffy 253
dyke 253
factor 253
fawkes 253
fie 253
higgins 253
holdings 253
homme 253
influ@@ 253
liễn 253
lyme 253
michi@@ 253
misato 253
nhủi 253
oak@@ 253
oster 253
piccadilly 253
pookie 253
quality 253
rach@@ 253
rembrandt 253
rubi@@ 253
sca 253
stall 253
starcraft 253
sặm 253
trotman 253
tá@@ 253
vâm 253
westwood 253
yevich 253
zburg 253
zoroastrian 253
zzy 253
đăc 253
4,7 252
ail 252
anubis 252
arc@@ 252
arianism 252
aurus 252
bloomwood 252
brock@@ 252
calais 252
campo 252
carton 252
coumo 252
cơrết 252
eight 252
eureka 252
foo 252
garland 252
hã@@ 252
jd 252
jefferies 252
kercadiou 252
köves 252
legi@@ 252
linger 252
mirage 252
nag 252
pentstemmon 252
philippa 252
qurꞌan 252
rab@@ 252
raul 252
ravi 252
sanford 252
sone 252
stin 252
sunderland 252
susan@@ 252
tric 252
trix 252
trou@@ 252
victo@@ 252
ấy@@ 252
1760 251
1816 251
283 251
444 251
amor@@ 251
arina 251
aris@@ 251
ceasar 251
chệnh 251
collec@@ 251
dera 251
dj@@ 251
domingo 251
dịnh 251
elles 251
fairchild 251
forum 251
fredo 251
giội 251
gucci 251
intelligence 251
iter 251
iệp 251
kashi@@ 251
lad@@ 251
nais 251
ngổm 251
nix 251
oedipus 251
pennington 251
phính 251
punch 251
rever@@ 251
roc@@ 251
rubinstein 251
schneider 251
signs 251
struc@@ 251
sumi 251
sùm 251
tail 251
tant 251
thê@@ 251
trảm 251
xcơ 251
yp@@ 251
zimmerman 251
ā 251
289 250
argen@@ 250
around 250
associated 250
atsu 250
attack 250
bá@@ 250
béc 250
cera 250
chka 250
cope 250
cuôc 250
dicarlo 250
edman 250
eer 250
eon 250
fate 250
gaius 250
gaëton 250
gloucester 250
hayden 250
junpei 250
komura 250
lingu@@ 250
meir 250
meletus 250
minsk 250
necker 250
nhách 250
pernilla 250
population 250
prydain 250
pythagoras 250
shogun 250
sida 250
spine 250
tampa 250
tien 250
vana 250
àu 250
ño 250
1788 249
1798 249
266 249
298 249
344 249
458 249
525 249
agra 249
ainu 249
alin@@ 249
appro@@ 249
bucharest 249
capit@@ 249
ch00ffff 249
chekhov 249
chớn 249
cliffe 249
denham 249
eckhart 249
etch 249
films 249
hh@@ 249
jeong 249
khuông 249
lức 249
maha@@ 249
n.d 249
nathanaên 249
nghỉu 249
past 249
phant 249
potsdam 249
rubên 249
s1 249
seleukos 249
seok 249
serie 249
shun 249
sl 249
trie@@ 249
ub 249
uno 249
vary 249
vitz 249
wiggin 249
xml 249
ênh 249
355 248
alman@@ 248
annabel 248
arin 248
atten@@ 248
bonsai 248
c4 248
diver@@ 248
einarr 248
ell@@ 248
farrah 248
fide 248
found 248
gets 248
giả@@ 248
globanic 248
grass 248
kawasaki 248
koga 248
kolo@@ 248
kush@@ 248
lae 248
lak 248
lithuania 248
lofthus 248
mara@@ 248
matty 248
mimmi 248
modu@@ 248
nơron 248
p2 248
riga 248
romanovna 248
rowley 248
rẫm 248
shag@@ 248
sik 248
sil 248
taichiro 248
trigg 248
turn 248
vaughan 248
wah 248
westchester 248
what@@ 248
xis 248
xịu 248
ằng@@ 248
ển 248
307 247
309 247
428 247
470 247
99,@@ 247
aled 247
amô@@ 247
anne@@ 247
baruch 247
bine 247
bug@@ 247
bẳng 247
bủng 247
cave 247
cavendish 247
ced@@ 247
chrissie 247
cone 247
culi@@ 247
debut 247
enh@@ 247
gaki 247
gardiner 247
ght@@ 247
gàu 247
hae@@ 247
hermas 247
hideyoshi 247
holden 247
kazu@@ 247
korean 247
ksen 247
lark 247
load 247
nettle 247
nhiêm 247
osh 247
phăm 247
rama@@ 247
rang@@ 247
ruy@@ 247
schwarz@@ 247
sheeran 247
sommers 247
sunshine 247
tani 247
tnt 247
trau@@ 247
urơ 247
vasili 247
vio 247
voss 247
xạch 247
áin 247
đồ@@ 247
560 246
58@@ 246
7,9 246
abba 246
bibli@@ 246
breckin 246
c.s 246
cel 246
châtillon 246
clai@@ 246
confir@@ 246
cryp@@ 246
cọtnây 246
ebla 246
essenes 246
fouché 246
fromm 246
giôram 246
gầu 246
h00 246
hasan 246
hospital 246
hén 246
ité 246
iêu 246
iến 246
karnus 246
khar 246
kum 246
leni@@ 246
lexicon 246
lithium 246
lr 246
melvin 246
michaels 246
mikhain 246
mitsubishi 246
mson 246
nui 246
nuớc 246
oon 246
ops 246
pani@@ 246
pedi@@ 246
phantom 246
pran@@ 246
quid 246
religious 246
ripley 246
roa 246
roku 246
sheryl 246
spielberg 246
thanks 246
thõa 246
vaxili@@ 246
werther 246
xuông 246
yab@@ 246
êphenđi 246
đon 246
1000@@ 245
281 245
642 245
ail@@ 245
bene 245
bhag@@ 245
cals 245
dop@@ 245
economy 245
ercole 245
euphrates 245
georgiana 245
gru 245
hẩy 245
jock 245
lova 245
lớ@@ 245
mayella 245
meriwether 245
paddington 245
ponti@@ 245
ramirez 245
range 245
reich 245
rö@@ 245
sala 245
schen@@ 245
seabury 245
shall 245
smiley 245
sparrow 245
stras@@ 245
tara@@ 245
teau 245
tulippa 245
uyệ@@ 245
vaughn 245
vei@@ 245
wheat 245
willi 245
yvette 245
z. 245
zoroaster 245
zov 245
äl@@ 245
đến@@ 245
18.000 244
465 244
adven@@ 244
aley 244
alfie 244
amphi@@ 244
asper@@ 244
astoria 244
babbiano 244
bakersfield 244
balasov 244
balzac 244
cassie 244
cen 244
cock@@ 244
conten@@ 244
cooke 244
corey 244
curie 244
deacon 244
dee@@ 244
elip 244
ema 244
fay@@ 244
fellow 244
ferriera 244
fra 244
gẩy 244
hilliard 244
intellec@@ 244
investment 244
kashmir 244
kota 244
lipid 244
livre 244
maccab@@ 244
neveu 244
novartis 244
nôen 244
olaf 244
olson 244
peckem 244
providence 244
[...]
