. 24309963
the 24270882
, 23779217
to 11730770
of 11554636
and 11053488
&apos; 8838393
a 8304127
&quot; 8295774
in 7195448
i 5557396
that 5137994
you 4480373
it 4211213
is 4168985
he 3920281
- 3698925
was 3509469
s 3467828
for 3400831
with 2790415
on 2636769
? 2593045
his 2537849
: 2473210
as 2284708
we 2247974
this 2216196
be 2191802
not 2189726
but 2131244
have 1941703
are 1940536
t 1896899
they 1848535
at 1789090
she 1699364
had 1656662
her 1626251
or 1620597
from 1551878
what 1468106
god 1443028
by 1428724
my 1423550
me 1328039
all 1315040
him 1270856
so 1270208
when 1236654
there 1202189
if 1198614
one 1167941
; 1160293
will 1154534
can 1144670
do 1121035
who 1119051
about 1114362
people 1113381
) 1089896
an 1086929
your 1067072
no 1054202
said 1049048
( 1018893
their 995628
! 983342
were 979805
them 930153
out 917168
_ 915890
eos 912547
like 901175
up 897958
would 827830
time 781379
has 777126
more 753186
us 739669
been 723050
which 722476
then 720457
because 714569
know 712182
into 705679
how 692031
— 690543
our 677193
just 666967
other 665910
only 661466
don 658101
now 613650
... 608074
could 598098
see 566558
1 561645
life 561535
some 545152
did 524280
re 521915
also 517057
than 508110
way 505167
two 498256
first 494489
m 490779
d 489430
go 488111
back 482594
get 473334
after 472448
very 468646
must 460760
right 459422
these 450062
even 448871
jesus 447822
here 446320
over 442748
where 439883
man 427556
before 426659
many 425827
2 425243
make 421589
new 420603
well 419416
think 416534
those 408721
down 405102
through 404305
any 401600
good 398825
shall 392988
want 389414
come 376525
/ 376500
its 365217
world 364512
say 363578
day 361836
still 360311
work 355929
take 351531
why 346543
let 345711
3 343630
things 342297
never 340240
most 337679
ll 334012
person 333986
made 331893
need 320640
each 319033
going 317461
years 316292
bible 312087
too 309359
much 308966
love 308536
such 308391
every 307077
something 305521
church 304665
should 298198
didn 296703
ve 295924
again 290483
same 283066
little 282976
long 282236
look 281391
old 281017
being 278340
own 277621
lord 277466
may 276507
thought 271287
* 269594
off 267055
use 266000
three 265928
does 265686
got 264157
4 263084
around 262427
away 256349
another 254265
father 252300
came 251346
christ 251042
really 248837
without 246581
under 244987
between 244811
word 244416
5 240229
article 239548
tell 239382
always 236226
while 234289
place 233900
find 233665
great 231097
give 230909
law 227246
help 227092
words 226418
eyes 225803
hand 221813
children 221299
thing 220517
went 219281
asked 218985
house 217523
head 216657
told 216636
put 215663
used 214601
face 212168
paul 209474
am 207965
himself 206606
last 204744
both 203994
looked 202107
nothing 202033
left 197722
called 196968
state 196230
men 195206
room 194052
might 193825
part 191534
against 190851
took 190737
once 190536
name 190497
everything 189221
others 187826
few 187224
6 186547
anything 186446
year 184356
spirit 183388
body 182806
b 182582
believe 182371
un@@ 182029
saw 181914
found 180365
family 180327
power 179176
different 178972
10 178411
knew 178020
end 177637
according 177272
c 175895
king 175892
next 175765
yes 174594
holy 174145
until 173619
son 173232
days 171551
land 171313
become 169007
important 168706
book 168373
mind 166885
night 163534
death 163193
often 163157
point 162471
feel 162315
-- 162171
home 161354
mother 160958
understand 160829
live 160480
human 160367
keep 160050
better 159267
though 158544
enough 158307
door 157609
faith 157273
ever 156674
together 156216
water 156138
heart 155634
money 155510
today 154944
course 154941
business 154241
woman 152879
7 152642
means 152184
true 151822
small 151705
doing 151342
oh 150519
times 150067
later 149962
wanted 149705
case 149503
looking 148765
second 148674
de 147204
8 147054
sure 146979
since 146238
someone 145701
12 144859
question 144429
whole 143465
read 143241
heard 143021
during 142312
able 142125
set 142110
number 141880
please 141452
felt 141199
says 140359
yet 139560
call 139497
however 139239
gave 138508
done 138007
everyone 137072
front 135806
ask 135443
young 135360
turned 135035
child 134274
high 133992
re@@ 133784
moment 133769
9 133565
far 133402
full 132805
information 131540
lot 130937
side 130460
four 129631
following 129371
15 129339
mean 128967
light 128647
11 128284
o 128181
doesn 127982
seen 127534
kind 127213
group 127058
order 126828
truth 126321
talk 126273
cannot 125915
city 125574
best 125481
open 125472
change 125447
hands 125380
voice 124760
fact 124339
already 124218
remember 123406
having 123310
big 123267
idea 122865
# 122063
began 121989
maybe 121790
jehovah 121659
five 121608
making 121204
themselves 120994
real 119988
behind 118361
almost 118296
problem 117937
within 117852
given 117535
leave 117441
less 117050
job 115567
14 115130
show 114916
20 114665
bring 114463
13 114140
level 113821
seemed 113407
ministry 113313
hard 113222
john 113209
wife 113154
books 112895
christian 112676
school 112586
management 112382
else 111710
living 111515
company 111165
perhaps 111105
government 110797
spiritual 109229
actually 108550
example 108019
story 107815
upon 107688
women 107519
care 107404
anyone 107303
wrong 107151
reason 106910
general 106235
lives 106043
– 106007
system 105888
hear 105722
wasn 105678
morning 105675
answer 105211
half 105210
least 105192
public 105192
try 104975
e 104973
mr. 104966
thinking 104771
started 104769
16 104445
country 103396
dead 103123
war 102691
position 102575
working 102421
saying 102399
happened 101818
myself 101546
form 101463
yourself 101094
trying 100452
couldn 99733
sin 99499
won 99372
le 99247
along 98923
stop 97761
000 97544
% 97264
became 97149
in@@ 97121
sometimes 97014
past 96860
rather 96816
bad 96756
soon 96506
lost 96421
coming 95948
start 95711
inside 95667
close 95630
longer 94566
clear 94228
white 94108
nature 93846
history 93756
needs 93668
decision 93589
friends 93464
la 93454
investment 92478
self 92413
pay 92151
k@@ 92100
yeah 92009
service 91976
instead 91953
girl 91886
friend 91808
large 91768
control 91718
okay 91650
matter 91593
development 91447
although 91216
table 90989
makes 90750
follow 90208
17 90196
experience 90078
outside 89769
black 89758
hope 89697
es 89655
plan 89390
foreign 89008
harry 88910
18 88751
across 88685
earth 88495
line 88473
meaning 88447
brought 88441
national 88425
probably 88366
car 88354
office 88315
blood 87691
taken 87470
testament 86906
possible 86456
talking 86418
known 86302
christians 86259
turn 86221
comes 86098
alone 86077
special 85916
above 85855
tried 85840
meet 85711
quite 85319
written 85312
learn 85274
social 85251
parents 85024
happy 84701
finally 84535
study 84524
fire 83899
air 83606
whether 83364
stood 83361
taking 83188
died 82894
sense 82884
ways 82810
run 82438
die 82431
clause 82416
future 82394
period 82257
questions 82206
using 82034
capital 81708
vietnam 81408
dark 80610
toward 80551
19 80526
wants 80466
ten 80465
certain 80243
l 79954
ago 79766
age 79753
completely 79752
value 79706
getting 79677
gone 79570
among 79551
food 79546
thank 79456
purpose 79403
free 79136
organizations 79101
chapter 79073
teaching 78940
sent 78625
husband 78425
led 78317
relationship 78285
based 77888
stay 77753
bed 77429
sat 77127
gospel 77018
o@@ 76942
rest 76641
feet 76411
d@@ 76393
t@@ 76344
attention 76277
tax 76079
fear 75945
suddenly 75521
building 75464
agencies 75389
activities 75144
letter 75140
listen 75138
return 75103
including 74948
area 74877
israel 74854
construction 74563
feeling 74521
six 74474
wrote 74077
hours 74073
peter 74029
process 73964
s@@ 73842
training 73829
kept 73798
situation 73728
move 73658
worship 73564
authority 73405
brother 73334
works 73229
boy 73218
wait 73216
fine 73058
difficult 73016
main 72929
several 72874
therefore 72849
speak 72589
months 72477
regulations 72158
early 72050
goods 72006
y@@ 71958
y 71795
red 71726
held 71545
short 71059
deep 71007
21 70972
er 70949
seems 70902
knows 70898
natural 70704
e@@ 70683
minutes 70275
present 70268
third 70202
strong 70107
list 69928
herself 69337
22 69300
24 69258
trust 69258
30 69184
hold 69086
hair 68887
et 68860
born 68855
bank 68851
problems 68823
either 68714
evil 68695
itself 68390
road 68325
top 68278
members 68170
personal 67992
sorry 67738
sound 67505
sentence 67420
party 67387
bit 67340
wouldn 67173
heaven 66991
needed 66668
especially 66609
middle 66524
step 66472
opened 66451
ground 66379
price 66372
happen 66336
ready 66314
n@@ 66042
met 66035
news 65856
stand 65789
clearly 65727
walked 65619
documents 65608
25 65454
message 65449
week 65415
standing 65351
thanks 65324
i@@ 65311
organization 65280
related 64995
quickly 64946
project 64890
easy 64480
knowledge 64476
beautiful 64453
decided 64407
individuals 64101
health 64024
eat 63873
support 63850
kingdom 63617
g@@ 63552
single 63435
meeting 63340
23 63260
prescribed 63167
market 63145
result 62975
common 62899
waiting 62865
poor 62852
isn 62675
minister 62667
believers 62573
p@@ 62526
mouth 62517
near 62358
b@@ 62320
ers 62018
en 61955
street 61952
play 61743
decree 61635
complete 61539
cases 61380
report 61377
a@@ 61374
moved 61299
floor 61216
write 61163
kill 61140
wall 61011
cross 60924
twenty 60883
n 60671
hundred 60662
gonna 60612
results 60585
century 60410
mentioned 60360
grace 60353
prayer 60346
save 60324
security 60091
late 60032
view 60005
conditions 59884
sea 59761
phone 59690
million 59622
sir 59568
immediately 59522
receive 59142
en@@ 59024
act 58922
force 58831
forward 58681
consider 58576
strange 58576
hour 58407
pain 58353
cause 58267
received 58258
ar@@ 58244
key 58224
society 58161
local 58133
services 58126
due 57979
disciples 57966
walk 57928
exactly 57909
killed 57839
states 57791
program 57675
master 57517
salvation 57494
marriage 57484
stopped 57484
sitting 57475
hey 57438
watch 57407
pray 57355
economic 57309
necessary 57296
c@@ 57250
simply 57250
&#91; 57155
evidence 57064
board 57012
peace 56916
understanding 56769
financial 56719
giving 56678
explain 56609
afraid 56556
create 56522
beginning 56511
returned 56489
soul 56480
circular 56314
field 56301
areas 56281
entire 56256
sa 56228
al@@ 56165
department 56085
leaders 56047
&#93; 56041
teach 55973
education 55965
created 55950
ed 55914
send 55895
seven 55857
ate 55848
fall 55827
cold 55763
simple 55626
except 55576
lead 55553
looks 55361
learned 55326
team 55325
david 55233
seem 55107
action 55092
cut 55032
$ 55026
build 54989
serve 54982
rich 54955
language 54759
whom 54715
thus 54678
window 54613
interest 54611
followed 54547
k 54468
changed 54347
p 54283
g 54257
police 54205
rights 53983
subject 53951
share 53805
passed 53800
writing 53770
responsibility 53761
lived 53752
les 53400
quality 53388
deal 53339
whatever 53193
sky 53185
class 53090
reading 52942
arms 52644
considered 52590
continued 52574
nor 52552
u 52545
research 52463
town 52449
temple 52416
guy 52365
il 52291
u@@ 52245
saved 52224
low 52205
issue 52197
paper 52168
ran 52149
sleep 51991
ti@@ 51936
students 51899
mat 51844
takes 51747
united 51645
application 51582
v@@ 51571
built 51359
gives 51343
continue 51322
term 51295
provide 51249
pretty 51135
operation 51028
l@@ 50961
places 50899
groups 50866
jews 50859
whose 50760
gi 50711
sort 50613
credit 50576
h@@ 50566
m@@ 50526
science 50459
oil 50451
non 50395
28 50374
trade 50323
le@@ 50297
reached 50256
goes 50166
picture 50136
fell 50120
ones 50057
promise 50053
thousand 50050
smile 50023
stone 49971
american 49907
practice 49886
court 49871
ability 49821
wish 49794
image 49780
daughter 49672
date 49641
jerusalem 49604
countries 49511
type 49470
laws 49403
enterprises 49399
sun 49382
sign 49256
26 49207
music 49087
production 49050
products 49017
space 49012
certainly 48991
running 48985
worked 48897
projects 48892
se 48863
events 48858
implementation 48827
miss 48770
towards 48752
ch@@ 48734
di@@ 48705
al 48667
sit 48663
paid 48627
fight 48578
usually 48577
taught 48382
planning 48350
hell 48324
ideas 48313
section 48199
ro 48082
loved 48047
army 48026
president 48016
glory 47795
raised 47732
chance 47729
learning 47662
ma@@ 47627
an@@ 47588
directly 47555
evening 47549
z@@ 47532
buy 47518
r@@ 47442
center 47435
technology 47367
fully 47340
added 47267
south 47244
27 47189
lesson 47166
original 47113
baby 47111
ra@@ 47110
pulled 46989
companies 46953
li@@ 46928
brothers 46913
seeing 46884
plans 46857
eternal 46716
percent 46705
indeed 46667
de@@ 46659
further 46601
sister 46572
la@@ 46540
beyond 46497
desire 46414
ing 46389
spent 46292
theory 46291
river 46276
sa@@ 46275
safety 46259
co@@ 46245
ro@@ 46131
dad 46065
international 46057
individual 45959
suffering 45958
event 45924
arm 45896
per 45870
judgment 45834
page 45802
blue 45684
imagine 45651
hit 45644
moses 45636
game 45624
filled 45589
doctor 45579
thoughts 45502
crime 45459
request 45375
closed 45292
ted 45287
slowly 45267
18@@ 45200
spoke 45194
leader 45121
allowed 45105
central 45063
humans 45046
data 44938
ha@@ 44908
religious 44889
eye 44864
customs 44795
north 44762
holding 44761
choose 44756
legal 44719
ated 44718
follows 44592
ri@@ 44562
energy 44471
nice 44410
lose 44330
mission 44285
x 44252
2@@ 44027
respect 43995
accept 43987
competent 43829
couple 43772
f@@ 43699
.... 43623
watching 43599
ma 43532
leaving 43506
political 43486
moving 43475
married 43316
amount 43301
speaking 43229
gold 43184
hadn 43175
offer 43169
dis@@ 43105
appeared 43086
answered 43071
community 42991
lay 42847
method 42835
effect 42769
insurance 42711
secret 42698
er@@ 42692
basic 42682
similar 42640
month 42606
higher 42574
caught 42548
reach 42547
si@@ 42531
round 42514
figure 42510
throughout 42450
strength 42442
showed 42405
account 42395
parts 42368
major 42344
points 42312
shows 42206
break 42204
specified 42200
glass 42173
exam 42157
specific 42145
protection 42140
worth 42118
provisions 42100
realized 42083
satan 42079
asking 42075
ah 42003
physical 41961
registration 41896
31 41879
meant 41772
terms 41703
rate 41657
serious 41641
current 41607
ab@@ 41590
final 41552
el@@ 41490
clean 41474
wisdom 41458
decide 41444
contract 41420
note 41419
prime 41409
focus 41387
heads 41322
rule 41256
straight 41256
perfect 41191
pastor 41164
role 41137
believed 41136
committee 41105
test 41051
responsible 41050
jobs 41049
or@@ 40991
doubt 40943
finance 40830
telling 40815
green 40800
steps 40799
weeks 40797
difference 40746
total 40622
industry 40531
haven 40491
dr. 40438
apply 40432
likely 40385
3@@ 40354
j@@ 40345
growth 40334
presence 40310
direction 40306
inspection 40295
wind 40295
vision 40294
spend 40284
eight 40260
mine 40138
charge 40105
attitude 40077
property 40010
à 40010
mo@@ 39994
private 39974
cost 39942
reality 39938
decisions 39908
tree 39907
provided 39813
opportunity 39810
named 39763
piece 39758
est 39724
carefully 39705
powerful 39665
payment 39608
forget 39556
choice 39527
procedures 39513
animals 39512
path 39512
f 39451
safe 39416
enemy 39407
joy 39374
particular 39364
trouble 39319
ship 39281
carry 39262
battle 39253
guess 39218
fast 39212
record 39111
guys 39040
knowing 39005
involved 38995
grow 38994
below 38967
é@@ 38947
spread 38925
train 38920
notice 38861
sins 38860
flesh 38857
freedom 38833
moral 38829
walking 38669
accordance 38653
basis 38609
environment 38578
brain 38559
member 38544
ts 38535
50 38511
product 38478
principles 38442
29 38392
am@@ 38383
be@@ 38344
replied 38324
silence 38322
agency 38305
laughter 38209
success 38193
avoid 38178
lips 38163
ghost 38149
skin 38108
acts 38033
circumstances 38025
win 38015
lo@@ 37979
mary 37939
smiled 37926
teacher 37924
university 37813
un 37812
arrived 37802
mrs. 37771
hurt 37764
box 37726
watched 37672
worry 37606
post 37604
chair 37571
gift 37557
drink 37552
professor 37545
prophet 37529
lady 37510
goal 37507
trees 37461
budget 37452
visit 37441
religion 37411
response 37410
status 37391
h 37364
military 37361
nodded 37351
ourselves 37315
rules 37309
minute 37297
source 37253
des 37238
resources 37195
copy 37187
heavy 37157
ahead 37116
previous 37110
letters 37106
revelation 37063
lack 37027
lie 37003
over@@ 36998
hot 36996
happens 36993
impossible 36981
praise 36979
quiet 36970
interested 36960
standards 36941
despite 36917
girls 36866
ii 36837
churches 36830
reasons 36829
nearly 36798
changes 36796
modern 36795
40 36785
principle 36746
medical 36744
alive 36743
empty 36738
false 36652
actions 36639
york 36589
understood 36565
breath 36528
check 36516
direct 36495
described 36459
angry 36453
tomorrow 36448
clothes 36360
anymore 36346
judge 36322
east 36321
ne 36297
material 36263
units 36259
begin 36234
technical 36222
shot 36190
ancient 36170
enterprise 36151
none 36130
pass 36129
contact 36123
authorities 36082
carried 36080
issues 36058
savior 36012
explained 35955
dream 35940
promised 35883
se@@ 35869
equipment 35828
aware 35821
ly 35797
risk 35784
names 35756
lu 35718
im@@ 35704
leadership 35671
french 35668
ch 35579
placed 35550
provincial 35518
me@@ 35481
jewish 35454
enter 35422
at@@ 35407
vnd 35378
movement 35360
thirty 35354
finished 35317
• 35246
forest 35219
bo@@ 35200
forms 35156
cities 35092
normal 35090
gods 35068
touch 35064
chief 35046
effective 35031
to@@ 35024
english 35023
recognize 35005
computer 34968
include 34922
vietnamese 34892
as@@ 34871
attack 34821
violations 34820
on@@ 34798
entered 34797
station 34771
art 34747
apostles 34744
earlier 34740
dear 34737
administrative 34678
anyway 34668
culture 34593
noticed 34570
dinner 34530
priest 34519
par@@ 34455
feelings 34412
corner 34391
becomes 34376
fingers 34371
realize 34368
rose 34330
th@@ 34306
nobody 34299
it@@ 34293
mark 34202
allow 34180
100 34179
stage 34155
tasks 34146
forever 34124
ie 34109
discovered 34088
shook 34087
enjoy 34077
gifts 34071
ac@@ 34057
birth 34049
co 34028
4@@ 34022
greater 34012
con@@ 34003
mar@@ 33988
content 33977
ting 33941
director 33940
w@@ 33939
easily 33934
wonder 33932
caused 33927
certificate 33912
neither 33897
dated 33885
houses 33846
hospital 33831
owner 33807
relevant 33798
hearts 33788
talked 33776
animal 33771
man@@ 33732
agreed 33690
stories 33648
legs 33643
west 33602
required 33594
cp 33586
ating 33577
develop 33542
sh@@ 33523
contents 33522
kids 33492
universe 33461
addition 33406
st@@ 33401
abraham 33313
gets 33305
covered 33295
onto 33281
professional 33275
determined 33271
listening 33240
expression 33228
broken 33226
wise 33211
conversation 33204
press 33121
willing 33107
surprised 33093
darkness 33072
expected 33061
bodies 33043
foot 33043
available 33017
duty 32932
wearing 32920
obviously 32916
nation 32853
car@@ 32847
established 32773
character 32767
fish 32767
te 32746
starting 32691
is@@ 32682
huge 32680
civil 32679
calling 32667
author 32636
teachers 32619
expressed 32606
que 32581
forces 32576
ico 32555
separate 32526
species 32512
lines 32494
model 32451
opening 32401
hall 32363
worse 32350
behavior 32347
interesting 32321
express 32314
el 32283
multi 32280
series 32265
beside 32229
faithful 32226
mountain 32226
supposed 32217
prison 32172
expect 32170
america 32150
ho@@ 32125
persons 32070
forced 32012
servant 31978
helped 31926
sex 31892
per@@ 31878
humanity 31845
r 31826
covenant 31819
terrible 31802
labor 31736
stock 31732
prove 31706
statement 31691
memory 31660
wide 31660
requirements 31642
fund 31601
mi@@ 31588
anger 31586
do@@ 31585
council 31547
protect 31546
cried 31532
distance 31399
structure 31395
former 31348
ron 31320
ended 31256
population 31248
china 31240
calls 31185
materials 31176
lower 31143
playing 31091
somewhere 30970
dangerous 30969
guide 30967
turning 30967
tells 30942
drive 30918
garden 30906
receiving 30859
gate 30852
daily 30847
es@@ 30845
kitchen 30811
da 30792
unless 30778
afternoon 30769
keeping 30721
uses 30718
ha 30700
crowd 30674
unit 30659
james 30647
shut 30613
song 30600
devil 30538
walls 30537
lying 30515
mr 30496
miles 30481
32 30467
offered 30441
em@@ 30421
shoulder 30390
influence 30388
pre@@ 30379
village 30335
growing 30315
witnesses 30265
po@@ 30244
describe 30214
v 30214
preaching 30203
sight 30181
su@@ 30167
concerned 30159
opposite 30155
personality 30150
tears 30136
numbers 30134
ni@@ 30126
cover 30010
effort 29998
soldiers 29969
qu@@ 29943
vi@@ 29938
um 29887
grew 29872
summer 29813
accepted 29761
tonight 29753
no@@ 29749
scene 29742
ad@@ 29722
adam 29707
treatment 29701
picked 29678
assets 29569
successful 29560
design 29535
search 29527
stuff 29517
silent 29450
lecture 29449
x@@ 29433
size 29425
institutions 29423
transfer 29416
ta@@ 29361
apostle 29346
eventually 29330
roman 29267
os 29262
ver@@ 29252
thousands 29211
ant 29176
issued 29145
branches 29128
increase 29067
levels 29052
rise 29043
eating 29035
bear 29028
loves 28983
code 28966
laughed 28966
particularly 28945
ring 28933
capacity 28918
industrial 28909
prepared 28909
positive 28895
agree 28890
recorded 28869
coffee 28863
sick 28847
fun 28840
prince 28840
he@@ 28825
methods 28825
pe@@ 28810
luke 28787
famous 28766
truly 28761
bar@@ 28756
boys 28754
nd 28675
justice 28658
nine 28607
ceremony 28581
honor 28572
desk 28559
details 28546
sell 28509
reports 28505
.@@ 28461
go@@ 28454
income 28446
ia 28434
neck 28414
loving 28402
+ 28379
dog 28373
scientific 28366
joseph 28346
loss 28327
ates 28296
developed 28290
suppose 28237
standard 28230
employees 28218
escape 28169
systems 28169
bill 28162
fighting 28161
raise 28155
wood 28149
measures 28138
mistake 28111
advice 28049
greek 28045
bright 28036
silver 28028
pleasure 28016
weak 27989
righteousness 27965
sad 27954
bi@@ 27952
everybody 27911
so@@ 27892
du@@ 27889
mercy 27880
remained 27870
familiar 27864
programs 27843
horse 27821
extremely 27817
remembered 27811
serving 27811
ensure 27806
ba 27800
clock 27777
happiness 27771
5@@ 27719
aren 27692
curved 27668
sing 27654
z 27617
closer 27614
leading 27596
recognized 27526
broke 27519
surprise 27514
export 27513
committees 27499
district 27485
ber@@ 27470
approach 27469
becoming 27445
pick 27438
importance 27427
older 27414
import 27402
explanation 27401
object 27370
warm 27370
ce 27369
families 27360
sold 27301
somebody 27263
failure 27257
gu@@ 27237
challenge 27232
cell 27215
bag 27197
machine 27197
ne@@ 27193
absolutely 27186
exchange 27183
gray 27174
europe 27151
ton 27148
student 27145
appear 27133
mom 27128
forgive 27110
transport 27105
ok 26988
carrying 26968
various 26935
announced 26926
association 26926
stared 26924
workers 26920
island 26898
resurrection 26886
equal 26861
command 26844
concept 26810
der 26801
careful 26719
gi@@ 26717
33 26714
committed 26693
tired 26636
shirt 26619
mor@@ 26594
theology 26590
supply 26585
.. 26581
edge 26578
disease 26568
benefits 26565
ine 26561
limited 26546
establishment 26522
sounds 26518
fake 26490
na@@ 26485
catch 26471
hate 26469
hotel 26435
35 26427
chinese 26423
failed 26400
appropriate 26396
review 26395
ps 26344
join 26320
guilty 26304
march 26302
gun 26294
pressure 26292
types 26286
officer 26276
wondered 26275
condition 26270
ice 26243
answers 26237
dollars 26230
official 26219
lies 26218
german 26182
guard 26140
wine 26136
title 26120
customers 26118
unable 26111
ge@@ 26101
progress 26068
believer 26067
rain 26065
handle 26040
egypt 26027
experienced 26009
managed 25976
seek 25937
chest 25919
servants 25918
assigned 25914
na 25907
captain 25906
finding 25899
seat 25896
segment 25889
hi 25841
played 25840
otherwise 25837
bought 25821
pa@@ 25783
crimes 25780
orders 25775
add 25756
defense 25745
rescue 25742
ag@@ 25731
blessing 25722
average 25708
hardly 25692
ation 25588
apartment 25581
signs 25534
liked 25493
obvious 25481
wonderful 25456
agreement 25440
shit 25429
pointed 25424
crazy 25389
bu@@ 25382
righteous 25371
patient 25366
destroyed 25363
apart 25358
fellow 25357
topic 25355
ter 25335
sons 25321
bottom 25304
belong 25255
putting 25247
plant 25243
mon@@ 25218
hu@@ 25216
applied 25215
staff 25208
te@@ 25202
danger 25201
si 25177
performance 25174
assessment 25166
december 25165
twelve 25161
hidden 25153
plus 25127
park 25103
pull 25045
perform 25029
waited 25009
negative 24988
papers 24988
christmas 24986
soft 24958
released 24936
union 24929
useful 24900
shown 24887
waste 24878
journey 24872
powers 24868
sentences 24853
uncle 24841
angel 24823
falling 24820
opinion 24804
activity 24799
dropped 24797
london 24792
bringing 24783
prepare 24763
card 24760
june 24759
relationships 24755
responsibilities 24735
sale 24725
purposes 24703
approval 24684
6@@ 24670
approved 24664
mention 24662
store 24653
witness 24650
existence 24639
advantage 24621
dress 24603
address 24602
career 24600
ru@@ 24580
hi@@ 24571
radio 24567
submit 24566
cry 24514
us@@ 24493
text 24491
stepped 24480
africa 24478
uh 24455
surface 24452
everywhere 24449
il@@ 24439
limit 24432
wealth 24423
ba@@ 24419
contrary 24415
ta 24411
firm 24393
wild 24392
rock 24381
consequences 24344
greatest 24300
demand 24288
requires 24277
quick 24276
worried 24276
dance 24232
fixed 24227
ears 24226
é 24204
lights 24195
bar 24172
border 24169
une 24167
version 24167
usual 24135
slow 24121
34 24094
suffer 24089
network 24086
san 24064
weight 24051
mental 24026
pro@@ 24020
snow 23983
task 23979
characteristics 23959
destroy 23936
environmental 23932
college 23930
cat 23929
teachings 23923
van 23921
turns 23909
magic 23868
correct 23860
collection 23853
assembly 23852
ons 23836
tiny 23831
bridge 23823
eph 23823
ds 23816
discuss 23813
sources 23773
windows 23729
verses 23716
manage 23661
mac 23650
draw 23644
era 23637
laugh 23631
jo@@ 23625
female 23623
twice 23593
valuable 23592
referred 23590
selling 23572
matters 23557
beauty 23546
mass 23529
teeth 23513
parties 23503
enemies 23491
busy 23484
sacrifice 23478
comply 23474
remain 23469
manner 23457
signed 23432
articles 23427
foundation 23426
obey 23410
cup 23403
providing 23387
costs 23372
her@@ 23372
ca@@ 23364
prophets 23338
inter@@ 23327
region 23319
appearance 23297
british 23291
slightly 23287
produce 23262
wear 23254
lu@@ 23240
happening 23203
thinks 23181
studying 23180
encourage 23170
ball 23156
for@@ 23133
ministries 23124
gas 23111
prices 23105
respond 23069
positions 23059
completed 23057
policies 23042
boat 23041
goals 23033
served 23027
nations 23026
glad 23007
besides 22999
fifty 22994
tu@@ 22993
judah 22991
ec@@ 22986
affairs 22977
du 22961
sub@@ 22918
healing 22896
doors 22885
hide 22884
nose 22849
discipline 22836
ling 22821
province 22810
exist 22806
context 22802
christianity 22785
pushed 22777
historical 22757
sexual 22755
balance 22753
annual 22748
michael 22745
sales 22742
out@@ 22730
definitely 22718
forty 22717
weren 22712
somehow 22694
rome 22674
january 22668
ian 22662
repeated 22650
protestant 22646
fit 22640
document 22637
ga 22610
hung 22605
showing 22601
generation 22588
warning 22559
sunday 22550
funds 22521
electricity 22512
7@@ 22509
cor@@ 22500
fourth 22494
calm 22493
leaves 22489
trading 22483
victory 22459
pocket 22457
ordered 22452
hearing 22444
base 22431
smell 22429
july 22428
sword 22422
refused 22408
includes 22397
france 22393
mis@@ 22382
teaches 22382
paragraph 22375
representative 22368
commercial 22360
ya 22357
interests 22342
fair 22305
quietly 22302
policy 22300
claim 22268
efforts 22247
offering 22229
western 22222
prophecy 22211
square 22202
ding 22195
included 22192
= 22191
shape 22175
presented 22157
confidence 22125
damage 22115
hermione 22100
examination 22081
revealed 22073
determine 22065
trial 22054
missionary 22053
traffic 22051
george 22049
beneath 22042
ings 22034
declared 22018
forth 22015
praying 22013
queen 22007
count 22002
attached 21998
prevent 21985
36 21981
kid 21962
stupid 21950
changing 21943
speed 21936
&amp; 21924
minds 21917
kinds 21913
temporary 21905
daniel 21898
unique 21894
divided 21891
dry 21886
solution 21871
pieces 21838
license 21827
empire 21793
moon 21790
banks 21785
shoulders 21783
matthew 21760
till 21759
billion 21741
youth 21737
practical 21716
inner 21706
sp@@ 21681
argument 21671
mirror 21615
em 21582
helps 21579
murder 21573
verse 21573
values 21559
creating 21548
solve 21546
faces 21540
fresh 21533
guidance 21529
whispered 21509
potential 21498
touched 21480
beat 21464
color 21444
actual 21427
ous 21422
thin 21401
regulation 21396
handling 21372
glanced 21347
assume 21344
helping 21322
schools 21308
identify 21293
traditional 21272
chosen 21270
cool 21268
debt 21268
male 21247
causes 21244
sides 21225
henry 21209
deeply 21198
ic 21195
video 21192
meat 21189
brown 21183
instructions 21183
suit 21160
throw 21154
baptism 21153
film 21150
match 21148
jack 21145
winter 21143
skills 21136
ans 21119
tri@@ 21110
strategy 21108
hole 21086
fail 21082
st 21073
stayed 21073
laid 21063
provinces 21057
drop 21048
hello 21027
television 21009
feels 21004
emotions 20992
notes 20991
th 20991
suffered 20981
tea 20977
reported 20969
shop 20964
excuse 20962
conclusion 20954
processing 20948
april 20946
communication 20941
scale 20925
october 20924
securities 20912
thick 20910
yellow 20909
shoes 20903
defined 20890
connection 20886
37 20879
ic@@ 20877
causing 20862
missing 20860
compared 20850
sweet 20850
ra 20841
honest 20835
entirely 20829
tt 20826
cash 20823
advance 20816
benefit 20805
accounting 20804
throat 20801
chose 20782
sam 20778
target 20774
drugs 20768
staring 20764
01 20761
easier 20759
prayers 20752
administration 20740
unto 20736
mu@@ 20702
suggested 20699
paris 20691
experiences 20690
access 20676
creation 20676
tom 20671
regular 20670
ysang 20667
september 20655
op@@ 20647
spot 20646
function 20642
merely 20612
release 20606
ir@@ 20597
grand 20575
17@@ 20563
essential 20554
race 20547
formed 20546
philosophy 20532
division 20530
declaration 20518
seconds 20498
grown 20496
anywhere 20490
om@@ 20483
investors 20465
november 20459
dreams 20446
germany 20446
ness 20441
fallen 20439
removed 20429
site 20426
blessed 20420
priests 20394
forgiveness 20380
penalty 20374
corinthians 20373
trip 20372
urban 20371
domestic 20350
ter@@ 20339
blind 20338
regarding 20324
joined 20323
appears 20292
precious 20276
listened 20267
cars 20262
drug 20260
forgotten 20250
ou@@ 20237
tin 20227
objects 20210
offices 20208
cultural 20203
managing 20193
miracles 20188
hundreds 20182
comfort 20176
media 20166
tall 20165
handed 20149
dressed 20147
speech 20121
ite 20107
ist 20086
pictures 20076
ends 20059
granted 20054
believes 20049
operating 20048
conduct 20046
purchase 20037
fields 20033
satisfied 20014
exercise 20011
stick 20009
throne 20008
bl@@ 20003
pure 20000
records 19993
jacob 19987
contracts 19975
followers 19974
grant 19967
leads 19959
invited 19955
shouted 19948
belief 19934
excited 19926
whenever 19917
officers 19905
shared 19901
lessons 19899
saul 19860
qui 19859
divine 19856
heavenly 19847
welcome 19846
emotional 19826
stars 19825
har@@ 19820
published 19810
partner 19801
file 19795
aside 19786
recently 19773
branch 19741
asks 19738
circle 19737
paying 19722
treat 19719
38 19717
flight 19716
club 19715
surely 19713
discussion 19703
creative 19700
images 19697
damn 19692
studied 19682
screen 19678
establish 19675
popular 19674
ks 19673
highest 19672
tongue 19660
august 19658
langdon 19640
struck 19640
japanese 19616
messiah 19608
0 19600
expenses 19599
star 19590
yours 19584
45 19581
slave 19577
perfectly 19550
&gt; 19548
fa@@ 19540
kings 19534
rachel 19534
sudden 19534
2010 19521
degree 19505
spring 19505
camp 19444
confused 19429
ad 19420
patients 19414
suitable 19414
naturally 19393
cancer 19385
drove 19350
organize 19343
impact 19338
perspective 19333
achieve 19332
drawing 19332
mer@@ 19294
maintain 19281
losing 19267
fucking 19262
horses 19262
trusted 19261
fuck 19246
produced 19238
tone 19236
under@@ 19232
measure 19230
dossier 19224
finger 19216
england 19206
healthy 19198
burning 19191
stated 19179
promises 19162
operations 19157
pair 19152
da@@ 19151
min@@ 19142
seriously 19136
intelligence 19133
setting 19129
drew 19120
sacred 19095
ships 19086
customer 19066
internal 19064
ul@@ 19061
ill 19057
8@@ 19050
bal@@ 19035
dying 19032
moments 19000
style 18991
accident 18988
discover 18988
60 18975
destruction 18966
als 18964
agent 18963
difficulties 18950
games 18925
driving 18921
concern 18913
lake 18910
criminal 18899
dans 18878
ga@@ 18870
complex 18867
examples 18856
spoken 18853
larger 18850
wedding 18843
map 18839
grass 18833
wake 18832
bound 18826
leaned 18826
located 18826
mountains 18823
heat 18820
highly 18820
shadow 18797
ke@@ 18794
hill 18791
ty 18789
audience 18783
ent 18778
fifteen 18757
habit 18754
robert 18742
pursuant 18740
facing 18725
apparently 18721
medicine 18721
views 18706
headed 18698
killing 18680
depending 18670
ot@@ 18658
threw 18631
factors 18624
fruit 18622
proved 18598
hat 18596
dare 18595
meetings 18589
yesterday 18586
pale 18580
cu@@ 18571
au 18569
flow 18547
ar 18540
mal@@ 18540
ten@@ 18528
2015 18526
ear 18522
facilities 18494
remaining 18490
plants 18473
entrance 18472
finish 18468
gar@@ 18463
sal@@ 18442
wa@@ 18433
flat 18424
kh 18423
tv 18404
storm 18401
grave 18396
ought 18395
passing 18393
boss 18391
solid 18390
ler 18384
courage 18383
fi@@ 18381
golden 18377
thy 18370
congregation 18343
ka 18330
angels 18329
iron 18328
souls 18311
majority 18309
driver 18306
eve 18304
ci@@ 18298
aspects 18284
fly 18271
independent 18265
funny 18257
double 18256
proud 18249
certificates 18245
shouldn 18242
hungry 18229
w 18222
streets 18219
smoke 18214
80 18208
poetry 18186
recent 18162
acting 18156
additional 18151
sees 18149
possibly 18148
israelites 18143
obedience 18143
ing@@ 18123
active 18120
settlement 18116
net 18112
39 18093
india 18088
thou 18081
attempt 18068
cast 18067
reasonable 18057
smart 18052
pleased 18051
birds 18042
consciousness 18039
treated 18039
drawn 18036
doctrine 18032
stairs 18030
occurred 18026
begins 18025
faced 18020
ingly 18017
ordinary 18016
manager 18011
contrast 18005
track 18000
truths 17999
rural 17991
der@@ 17979
origin 17976
barely 17949
sharp 17948
bottle 17940
brings 17937
narrow 17921
laughing 17920
thomas 17917
functions 17911
entitled 17905
arrested 17895
commit 17893
crying 17885
buried 17862
range 17848
planned 17839
proper 17838
noise 17835
travel 17832
anti 17818
coat 17808
applause 17781
location 17770
intended 17767
testing 17762
internet 17761
sheep 17750
gathered 17740
length 17736
season 17734
global 17678
lucky 17663
ph@@ 17657
investor 17647
lunch 17636
loud 17632
governor 17624
focused 17617
improve 17597
closely 17578
constantly 17578
miracle 17576
instance 17575
lifted 17574
prayed 17567
satisfy 17561
gentle 17554
hebrews 17544
belongs 17541
bri@@ 17540
comfortable 17539
ed@@ 17532
centuries 17529
asleep 17521
strike 17510
aid 17509
capable 17500
screw 17492
u.s. 17490
singing 17481
ded 17469
ms 17467
bigger 17465
pressed 17465
worst 17465
dust 17463
violation 17463
ator 17454
economy 17436
description 17430
reminded 17430
blessings 17417
significant 17416
pages 17414
crossed 17413
bread 17395
northern 17393
sleeping 17392
flowers 17387
smiling 17384
pi@@ 17373
dan 17372
designed 17361
attend 17343
cells 17342
leg 17342
analysis 17341
developing 17327
saint 17316
m. 17301
était 17288
refer 17277
emperor 17257
items 17247
port 17241
ko@@ 17234
implement 17230
catholic 17227
translation 17226
anybody 17218
fill 17215
locked 17206
taste 17183
sed 17163
innocent 17162
luck 17147
establishments 17139
wore 17134
ies 17129
amazing 17106
rooms 17098
millions 17096
au@@ 17091
web 17089
conscience 17075
beliefs 17039
can@@ 17034
effects 17025
joint 17024
drinking 17015
bird 17012
sha@@ 17009
compare 17002
metal 16999
lit 16992
ins 16978
2013 16972
cha@@ 16963
gradually 16962
subjects 16950
marry 16949
settled 16947
aunt 16939
remains 16937
require 16936
plane 16920
incident 16917
2008 16895
preach 16893
tools 16892
2011 16888
owners 16880
fate 16861
japan 16855
bedroom 16847
ain 16846
ses 16840
saints 16821
accounts 16818
mostly 16817
stuck 16808
opinions 16805
ley 16793
convinced 16783
cards 16781
9@@ 16768
infrastructure 16764
worthy 16760
charles 16758
provision 16750
overcome 16745
provides 16718
proof 16715
supreme 16714
obligations 16711
russian 16701
spending 16700
knife 16649
pre 16643
weapons 16642
ism 16638
phrase 16631
ser@@ 16601
relief 16595
scope 16593
opportunities 16572
ren@@ 16572
participate 16568
institution 16567
ard 16554
ked 16551
ve@@ 16550
flying 16546
generally 16538
owned 16538
burned 16536
knees 16530
pattern 16526
gaze 16523
elders 16513
associated 16505
increased 16505
elements 16489
trained 16484
ye 16484
smaller 16478
guarantee 16470
royal 16464
studies 16461
genesis 16456
kiss 16450
readers 16439
specialized 16426
ass 16424
reaction 16420
satisfaction 16401
bus 16386
id 16385
dd 16383
ca 16370
officials 16368
library 16359
disappeared 16355
features 16352
conflict 16347
existing 16322
tight 16321
citizens 16319
rice 16308
eragon 16305
temptation 16304
ment 16298
detail 16297
pu@@ 16296
absolute 16291
scared 16289
push 16286
charges 16280
likes 16269
alice 16247
500 16244
ally 16225
literally 16225
tend 16213
estate 16206
mistakes 16192
breaking 16178
we@@ 16175
ur@@ 16173
investigation 16166
relations 16166
ai 16152
admit 16142
gra@@ 16140
napoleon 16129
2007 16122
rely 16122
tr@@ 16120
mat@@ 16119
hang 16110
directors 16105
ages 16095
currently 16088
qu 16085
etc 16078
ously 16076
moreover 16057
lifestyle 16049
violence 16039
rec@@ 16033
profit 16031
42 16022
reply 16019
chain 16009
background 16001
ladies 15994
younger 15988
painful 15983
rolled 15982
men@@ 15979
stomach 15977
2006 15967
glasses 15966
pour 15954
memories 15948
lots 15915
madame 15913
sharing 15908
introduced 15901
extra 15889
mail 15881
row 15877
european 15873
properly 15872
hanging 15834
roof 15834
noted 15822
soldier 15811
yahweh 15802
deeper 15794
mankind 15790
regard 15790
stones 15785
pope 15782
conference 15779
70 15765
bel@@ 15755
planet 15749
dumbledore 15711
romans 15709
j 15694
argue 15686
sc@@ 15682
ap@@ 15680
faster 15679
considering 15659
engine 15657
affect 15654
sake 15645
theological 15636
permission 15631
colonel 15605
brief 15597
pen@@ 15593
bell 15584
previously 15584
unknown 15572
gia 15558
lock 15536
elizabeth 15529
zone 15529
gain 15526
elle 15516
remove 15512
ultimate 15509
february 15507
awareness 15483
sch@@ 15477
abandoned 15470
blow 15461
facts 15450
continues 15434
suggest 15434
biggest 15420
sending 15418
guards 15413
simon 15408
copies 15391
dossiers 15384
replaced 15368
ner 15363
sounded 15362
invite 15348
ocean 15339
newspaper 15332
returning 15324
ge 15323
imported 15320
reward 15312
william 15311
personally 15293
tower 15292
pa 15287
mad 15284
artagnan 15276
harm 15272
typical 15272
glance 15266
iico 15264
res 15263
ethnic 15254
duties 15246
instant 15240
largest 15233
sinners 15220
vehicles 15218
describes 15216
raising 15215
weather 15190
determination 15182
keeps 15175
coordinate 15173
rising 15162
wi@@ 15158
visited 15145
scientists 15139
ent@@ 15129
cal@@ 15123
hoping 15108
letting 15105
connected 15096
cre@@ 15091
buildings 15090
fat 15068
2009 15042
imposed 15036
possibility 15029
bra@@ 15027
electronic 15027
rare 15027
princess 15022
breakfast 15009
mystery 15000
yard 14993
core 14990
talks 14983
translated 14979
ity 14976
movie 14976
edward 14970
grateful 14962
anti@@ 14958
unfortunately 14958
41 14945
rates 14945
shares 14943
ol@@ 14934
creature 14912
gently 14911
via 14909
characters 14907
victim 14889
gh@@ 14887
hurry 14885
blame 14884
den@@ 14884
vo@@ 14871
deny 14869
missed 14869
breathing 14859
unusual 14853
anna 14852
wondering 14850
poured 14832
burn 14828
starts 14828
ki@@ 14814
differences 14812
passage 14812
sisters 14811
habits 14808
pride 14806
whoever 14805
sheet 14804
limits 14803
tions 14795
quarter 14788
2012 14784
stronger 14777
online 14765
revolution 14760
90 14744
huh 14744
2014 14732
selected 14731
ride 14720
block 14716
ju@@ 14704
difficulty 14695
arranged 14694
ters 14685
gen@@ 14684
biblical 14681
delivered 14663
fault 14651
guiding 14651
av@@ 14645
volume 14645
tic 14635
separated 14612
execution 14586
ze 14577
prevention 14550
crisis 14545
excellent 14537
arrest 14533
valley 14524
initial 14523
cake 14522
childhood 14507
regularly 14504
shoot 14501
hoped 14500
den 14497
brand 14485
wishes 14484
totally 14483
selection 14482
44 14470
unlike 14466
mc@@ 14453
favorite 14451
stands 14441
agriculture 14435
aspect 14429
meal 14429
lawyer 14428
definition 14425
literature 14420
ex@@ 14419
airport 14409
messages 14398
pri@@ 14394
southern 14390
ak@@ 14386
iii 14373
territory 14363
confirmed 14362
languages 14362
performed 14362
c. 14360
wished 14358
200 14344
upper 14343
appointed 14337
intention 14329
applicable 14321
eastern 14314
transmission 14311
lovely 14305
bet 14301
je@@ 14299
br@@ 14296
demons 14293
coast 14287
ors 14286
testimony 14273
wave 14268
wet 14264
appendix 14254
critical 14254
ée 14253
observed 14246
identity 14232
qualities 14228
sets 14219
frank 14210
primary 14206
guests 14197
universal 14197
pas 14196
survive 14189
refers 14186
ham 14184
pl@@ 14182
supervision 14176
asia 14175
sub 14174
troops 14171
loan 14167
warned 14158
wing 14158
aircraft 14151
16@@ 14149
entering 14147
dozen 14143
ignore 14141
milk 14141
approached 14140
doctors 14138
songs 14125
mi 14122
telephone 14118
claims 14096
amounts 14089
passion 14088
tied 14075
di 14067
truck 14054
commitment 14052
bs 14046
localities 14029
non@@ 14029
fe@@ 14022
15@@ 14018
fees 14011
com@@ 14009
grabbed 13990
schedule 13981
palace 13980
ys 13979
issuance 13978
tor@@ 13970
shaking 13962
extraordinary 13955
id@@ 13955
band 13949
occasion 13948
survey 13941
vast 13936
comments 13922
principal 13917
ker 13912
advanced 13911
unity 13904
gentlemen 13900
tie 13897
competition 13896
collected 13895
extreme 13892
drunk 13887
departments 13882
detailed 13876
distant 13867
giant 13862
software 13860
recognition 13856
educational 13853
seeking 13851
creator 13849
campaign 13843
begun 13820
ence 13809
castle 13807
buying 13802
thien 13801
washington 13775
commission 13770
organized 13770
gotten 13764
checked 13759
remind 13758
redemption 13756
voices 13752
bones 13749
phu 13749
receipt 13741
dirty 13740
cooperation 13737
reference 13730
writer 13729
hiding 13726
ties 13724
raw 13705
objective 13697
gates 13694
miserable 13690
bonds 13685
sports 13680
bent 13679
wooden 13677
external 13676
ev@@ 13673
humble 13672
struggle 13671
monsieur 13663
43 13658
factor 13658
repentance 13658
fulfill 13653
collect 13643
missionaries 13625
thrown 13619
constant 13614
creatures 13612
sophie 13606
wrapped 13597
statements 13593
discussed 13581
assistance 13570
classes 13555
fulfilled 13555
ni 13554
affected 13547
rent 13547
peaceful 13546
favor 13533
paused 13530
threat 13524
tradition 13519
gie 13518
commander 13513
encouraged 13501
solutions 13496
stress 13494
impression 13490
relatives 13487
healed 13483
up@@ 13478
nick 13474
emergency 13471
dong 13465
falls 13464
ized 13453
compensation 13450
fortune 13429
feed 13413
priority 13406
scripture 13402
extent 13391
consideration 13389
chi@@ 13387
avait 13386
spirits 13381
elijah 13372
ish 13372
expensive 13351
conscious 13336
baptized 13330
friendly 13326
criticism 13325
mrs 13320
dr 13318
burden 13314
harder 13312
shock 13310
forgot 13308
val@@ 13308
latin 13291
shame 13281
victims 13278
ffff 13276
centers 13271
pal@@ 13271
pulling 13267
sufficient 13260
holds 13258
relative 13258
evaluation 13255
farm 13249
fix 13249
weakness 13248
odd 13236
roads 13225
ko 13220
igi 13218
2000 13217
complicated 13213
basically 13204
nervous 13196
sought 13194
thee 13193
ir 13183
judas 13181
lectures 13177
parent 13173
weapon 13172
jacket 13170
grandmother 13169
grade 13168
believing 13167
dogs 13166
personnel 13162
ka@@ 13160
corridor 13158
surrounded 13155
ls 13152
repeat 13151
disaster 13149
jumped 13149
observe 13138
hal@@ 13137
awake 13129
talent 13127
americans 13119
ster 13118
46 13112
slipped 13111
error 13109
dy 13106
somewhat 13102
fool 13098
recall 13098
ceiling 13080
cl@@ 13077
reputation 13076
distribution 13075
hy@@ 13070
loans 13069
secretary 13068
invisible 13045
gotta 13034
vehicle 13028
superior 13026
enormous 13023
sk@@ 13020
vice 13015
♪ 13003
naked 12998
increasing 12991
staying 12988
allows 12980
italian 12980
reserve 12980
2005 12978
beach 12976
cas@@ 12966
nearby 12966
claimed 12965
quantity 12964
fi 12960
grandfather 12960
iphi 12959
dé@@ 12954
occur 12951
settle 12949
del@@ 12942
desert 12942
experiment 12940
rid 12934
executive 12922
2016 12917
ep@@ 12914
waves 12912
firmly 12911
replace 12907
magazine 12905
sto@@ 12879
mil@@ 12876
ary 12869
cr@@ 12869
saving 12864
competence 12863
asset 12860
chi 12851
dealing 12844
republic 12841
necessarily 12836
identified 12833
nuclear 12827
ky 12821
nu@@ 12811
hasn 12808
useless 12804
meaningful 12801
mike 12794
anxiety 12790
examine 12790
platform 12785
gr@@ 12780
situations 12780
friendship 12777
deputy 12770
mature 12770
failing 12761
route 12758
reveal 12754
interview 12749
lonely 12746
anne 12741
challenges 12739
lands 12727
char@@ 12723
slept 12710
48 12699
conducted 12691
soil 12691
steel 12690
beer 12685
tre@@ 12681
marketing 12676
sel@@ 12669
engaged 12664
ownership 12664
forehead 12660
ck 12659
politics 12658
burst 12657
psalm 12649
war@@ 12646
dedicated 12644
exact 12641
bond 12632
tive 12622
socio 12620
preparing 12617
ger@@ 12616
curious 12614
ven@@ 12610
reaching 12607
fer@@ 12606
poverty 12593
depends 12590
hated 12589
tool 12585
sighed 12583
symbol 12583
ations 12577
mas@@ 12575
protected 12572
clouds 12557
camera 12556
forgiven 12533
wal@@ 12527
ending 12519
mood 12517
fee 12512
foolish 12511
51 12510
apple 12501
behold 12501
ful 12497
registered 12493
wanting 12487
promote 12483
proposal 12481
fathers 12467
responded 12462
puts 12461
speaks 12459
ments 12457
fought 12456
ours 12455
figured 12449
enjoyed 12438
figures 12435
detective 12433
mel@@ 12429
je 12428
leather 12427
client 12426
latter 12425
refuse 12415
stream 12412
operate 12401
ana 12399
fashion 12398
ste@@ 12394
performing 12392
resolution 12388
desires 12382
pink 12381
ford 12378
imagined 12365
immediate 12365
ality 12352
comment 12351
maintenance 12345
sum 12334
roll 12330
beings 12329
bur@@ 12329
cloud 12328
contain 12325
super@@ 12322
gal@@ 12320
ches 12316
ang@@ 12315
counter 12312
sand 12311
scholars 12304
ators 12303
beloved 12303
salt 12299
founded 12298
applying 12297
ig@@ 12297
ying 12291
criteria 12274
plate 12270
softly 12269
valid 12267
tan 12265
ff 12263
properties 12263
permit 12262
comparison 12257
illness 12257
armed 12250
shake 12245
martin 12237
ke 12223
driven 12222
tion 12222
california 12221
marked 12213
holiness 12209
intellectual 12207
reduce 12200
woods 12196
equivalent 12187
por@@ 12184
fifth 12183
cutting 12181
altar 12175
confess 12174
indian 12171
bon@@ 12167
listed 12164
jeremiah 12161
ants 12160
babylon 12160
solomon 12159
lin@@ 12158
punishment 12142
italy 12139
zones 12139
plenty 12124
reflect 12124
cooperate 12123
dies 12123
wanna 12115
curve 12114
timothy 12107
lion 12102
shift 12102
sadness 12100
appreciate 12097
boards 12089
link 12087
advertising 12080
pan@@ 12074
pleasant 12073
commandments 12072
foreigners 12066
ably 12064
badly 12060
birthday 12059
split 12045
debts 12040
introduction 12039
preached 12029
honey 12023
q@@ 12020
ben 12019
stable 12018
bare 12014
item 12011
flower 12004
effectively 12003
jump 12001
visible 12000
mon 11999
preparation 11996
chemical 11992
tar@@ 11992
upset 11990
bone 11989
excitement 11970
supported 11970
users 11962
rejected 11960
permitted 11959
emotion 11956
mixed 11954
um@@ 11954
pen 11944
entry 11941
atmosphere 11940
repent 11930
spanish 11925
imagination 11922
aged 11917
cigarette 11908
ideal 11901
clo@@ 11900
ina 11900
pointing 11881
47 11878
bow 11876
digital 11872
fre@@ 11864
ly@@ 11851
bidding 11843
restaurant 11841
deliver 11827
desperate 11816
afford 11810
controlled 11809
demands 11803
sinful 11798
slaves 11797
lift 11794
climbed 11792
audit 11786
ob@@ 11771
nurse 11759
noble 11751
housing 11746
pool 11742
household 11741
2020 11736
reporting 11736
wicked 11736
plain 11724
sts 11719
sen 11718
theme 11718
pr@@ 11717
permanent 11716
charter 11710
ri 11707
markets 11701
ey 11697
fishing 11697
meanwhile 11695
precisely 11692
eleven 11674
explains 11669
ng 11666
winning 11666
bishop 11665
enclosed 11665
wives 11665
islands 11658
wound 11656
diseases 11653
deserve 11648
2001 11646
louis 11642
currency 11637
nevertheless 11626
regardless 11614
shi@@ 11610
frightened 11605
the@@ 11605
flew 11592
ement 11583
rarely 11579
wings 11579
ry 11575
machines 11573
ang 11571
don@@ 11571
crowded 11566
dawn 11541
ignored 11536
fellowship 11533
screws 11527
harmony 11524
ward 11524
revenue 11520
morality 11518
ong 11518
agricultural 11509
broad 11504
divorce 11499
bitter 11495
decades 11493
suspect 11489
mum 11488
ance 11487
emma 11486
exists 11484
00 11481
models 11480
strongly 11480
alcohol 11479
joke 11479
elder 11476
russia 11476
attacked 11467
directed 11466
marks 11463
transferred 11461
bre@@ 11456
returns 11449
defeat 11440
chairman 11439
multiple 11438
sen@@ 11431
plastic 11430
ban 11426
col@@ 11426
bless 11424
tail 11424
sections 11415
mere 11413
confusion 11412
els 11401
logical 11396
isaiah 11391
mount 11389
proposed 11387
root 11379
eternity 11373
variety 11365
institute 11364
printed 11364
frame 11358
combination 11354
bye 11352
demanded 11350
hero 11348
massive 11341
arguments 11339
painting 11338
emphasize 11337
prisoners 11337
honestly 11334
ens 11325
shed 11324
communicate 11323
smooth 11323
loyal 11319
adult 11317
virgin 11313
attractive 11308
contains 11305
ching 11303
sector 11297
cheeks 11296
shrugged 11293
fore@@ 11290
wheel 11289
concluded 11288
opposition 11279
mobile 11272
stranger 11272
rushed 11269
confident 11266
va 11251
affection 11234
ruled 11234
overseas 11226
senior 11215
authorized 11209
inspired 11209
far@@ 11207
loose 11200
scriptures 11199
teams 11193
funding 11185
clients 11183
secrets 11183
heading 11172
charlie 11169
player 11164
fired 11163
communications 11162
distinguish 11160
killer 11156
keys 11155
cro@@ 11147
adults 11144
1@@ 11142
curse 11137
unexpected 11137
heal 11136
nowhere 11134
remarkable 11130
rhyme 11128
mainly 11125
chapters 11118
submitted 11117
motion 11115
wash 11115
assistant 11110
exposed 11109
evolution 11105
finds 11103
49 11097
relatively 11095
sun@@ 11094
wrath 11086
shepherd 11085
sti@@ 11085
accurate 11084
insisted 11080
ach@@ 11075
woke 11072
risks 11071
pack 11060
ders 11059
tape 11057
assumed 11055
brilliant 11041
invest 11038
ped 11035
kate 11034
resistance 11031
maximum 11028
patience 11022
fl@@ 11017
expressing 11014
fo@@ 11009
tests 11002
waters 11002
guest 10993
entities 10987
civilians 10985
tough 10985
ho 10984
computers 10981
represent 10978
sensitive 10978
illustration 10974
aim 10969
ites 10967
đ@@ 10966
fr@@ 10965
suicide 10961
procedure 10959
concerning 10952
ves 10951
runs 10949
technological 10942
tra@@ 10940
gs 10936
lon 10936
discovery 10934
remote 10928
wilderness 10921
businesses 10915
informed 10915
occasionally 10900
shadows 10899
los 10892
kindness 10891
des@@ 10889
display 10885
gre@@ 10881
ists 10878
regime 10877
jean 10876
admitted 10874
arrive 10874
uniform 10873
nights 10866
est@@ 10863
specifically 10861
hers 10860
behalf 10859
lee 10857
bathroom 10853
carriage 10853
equally 10849
tables 10849
secure 10847
interpretation 10841
richard 10840
virtue 10828
loyalty 10822
fu@@ 10819
fundamental 10814
arrange 10813
chin 10805
kissed 10803
san@@ 10801
confession 10799
lo 10799
violent 10799
horrible 10796
duration 10791
combined 10790
signal 10788
ber 10784
ping 10783
rang 10781
resist 10779
skill 10777
c.@@ 10774
han@@ 10767
intense 10751
achieved 10750
soviet 10750
practices 10749
practicing 10744
regret 10744
glorious 10740
05 10738
kin 10729
stretched 10725
searching 10718
saturday 10715
temporarily 10711
2002 10706
rush 10703
tal@@ 10701
guilt 10698
host 10695
creates 10693
lease 10693
mer 10691
height 10688
abroad 10685
normally 10683
tc 10681
iti 10680
storage 10675
extended 10672
employment 10670
movements 10666
contained 10652
hel@@ 10652
devices 10651
pe 10651
smith 10650
closing 10646
profound 10639
55 10631
frequently 10624
linh 10623
holmes 10622
agents 10614
session 10611
ils 10608
disappointed 10607
device 10603
uncomfortable 10603
strictly 10602
ken 10600
guns 10595
ned 10594
res@@ 10594
qd 10590
prisoner 10589
panic 10588
spite 10588
writes 10587
colleagues 10581
crew 10579
ministerial 10575
newly 10574
increasingly 10566
ble 10560
03 10558
taxes 10558
dollar 10557
cruel 10555
lists 10554
reception 10551
introduce 10548
2003 10545
covering 10544
53 10543
acted 10534
debate 10534
bloody 10530
approaching 10523
ku@@ 10520
horror 10516
st. 10508
mysterious 10496
stations 10492
upstairs 10488
bro@@ 10487
ja@@ 10484
ashamed 10480
dem@@ 10463
seed 10462
silently 10456
alism 10446
touching 10443
han 10437
gentleman 10436
yo@@ 10433
0@@ 10424
pregnant 10424
sar@@ 10417
native 10416
canada 10410
league 10408
joe 10407
county 10405
et@@ 10398
african 10396
prospect 10395
applications 10392
cousin 10386
attacks 10383
residence 10383
organizing 10380
ces 10377
moves 10372
wh@@ 10368
ray 10367
electric 10364
tempted 10361
lets 10359
damaged 10358
02 10342
reform 10331
exit 10327
surrounding 10326
sixty 10317
10@@ 10312
draft 10310
commune 10309
hatred 10308
stipulated 10308
monitoring 10307
testify 10306
facility 10305
washed 10302
ben@@ 10301
attended 10300
referring 10300
faint 10297
rough 10297
cheek 10296
invested 10294
hunting 10292
presentation 10286
certification 10282
peoples 10282
transaction 10281
accepting 10280
goodness 10274
gather 10272
philippines 10269
convention 10264
ty@@ 10262
pause 10259
cou@@ 10257
supernatural 10252
grounds 10249
declare 10247
supplies 10245
tan@@ 10241
trans@@ 10241
win@@ 10237
collective 10236
severe 10231
ephesians 10226
laura 10224
quit 10223
mid 10218
existed 10214
sweat 10211
bearing 10204
election 10200
wire 10200
stocks 10194
300 10193
ess 10193
prize 10191
concerns 10189
continuing 10183
ars 10181
religions 10176
complaints 10165
grey 10162
bother 10161
ban@@ 10158
seal 10157
heavily 10145
lab 10142
breathe 10141
options 10136
stages 10129
flood 10128
lowered 10119
bas@@ 10118
tent 10109
string 10108
rage 10102
expecting 10100
directions 10099
calculated 10095
and@@ 10093
coin 10092
mac@@ 10090
prior 10090
trembling 10089
neighbors 10078
urge 10076
combat 10065
transformed 10058
sacrifices 10056
guidelines 10052
acceptance 10051
encouragement 10050
ents 10049
kes 10046
ff@@ 10042
tested 10038
representatives 10035
terror 10035
escaped 10033
1999 10031
arrival 10031
assured 10031
va@@ 10019
trace 10017
steady 10016
choices 10010
indicate 10008
wed 10005
boots 10000
objectives 9998
painted 9996
cur@@ 9995
hol@@ 9995
passengers 9990
tour 9989
minimum 9985
absence 9981
bay 9981
employee 9978
ened 9978
gathering 9977
salary 9977
incredible 9974
ye@@ 9974
baptist 9971
2004 9970
techniques 9964
technologies 9959
threatened 9950
recovery 9949
cat@@ 9947
processes 9947
forests 9943
pastors 9941
worker 9939
ti 9935
option 9931
illegal 9927
load 9927
treasure 9927
philosopher 9923
leaning 9917
speaker 9917
signing 9916
corporate 9915
seventy 9913
differently 9912
climate 9910
ultimately 9906
register 9904
chicago 9896
transactions 9893
vous 9892
interrupted 9886
privilege 9881
she@@ 9879
tro@@ 9878
psychological 9872
pat@@ 9865
forestry 9863
elderly 9854
mile 9854
trinity 9854
reflected 9853
factory 9852
sur 9851
examined 9849
patterns 9849
succeed 9848
pity 9842
rapidly 9839
zero 9830
package 9829
ego 9822
instantly 9818
appraisal 9817
assignment 9815
shortly 9801
pushing 9790
managers 9785
phase 9783
d. 9782
52 9781
hurried 9780
summary 9780
worshiping 9780
cent 9773
dancing 9772
gentiles 9771
defeated 9762
reduced 9751
cel@@ 9749
transportation 9749
cap 9748
dragon 9748
integrity 9748
tor 9748
swear 9747
adding 9741
oc@@ 9741
consistent 9726
recalled 9726
attitudes 9707
repair 9703
ched 9700
accompanied 9699
inspect 9699
cy@@ 9694
essence 9693
ministers 9691
regions 9689
dan@@ 9688
mutual 9688
print 9688
appointment 9685
segments 9680
denied 9676
coal 9675
len@@ 9675
depend 9674
rolling 9674
producing 9669
governments 9667
photo 9667
xu 9667
ait 9661
ns 9658
ki 9656
belt 9652
eu@@ 9651
palm 9651
random 9650
contribute 9649
gri@@ 9642
pile 9640
dec@@ 9639
sooner 9639
catherine 9638
federal 9635
cave 9633
psychology 9633
tw@@ 9632
eggs 9631
shaped 9630
par 9626
fed 9615
hunger 9607
pursue 9605
mexico 9604
briefly 9603
nor@@ 9603
climb 9589
rocks 9589
tries 9572
checking 9570
hong 9570
occupied 9567
75 9554
thai 9553
lap 9551
cycle 9550
handsome 9549
periods 9545
cra@@ 9535
ash 9532
element 9532
offers 9532
partners 9532
eligible 9526
defend 9525
ically 9524
independence 9524
underground 9520
lamp 9517
wherever 9517
loudly 9515
tip 9514
weird 9512
greatly 9509
mate 9507
parker 9507
ms. 9497
cher 9495
conformity 9495
lifetime 9495
realm 9493
bunch 9492
emphasis 9492
hired 9490
countless 9489
slip 9483
bid 9482
profits 9482
estimate 9479
expert 9477
enforcement 9475
ex 9472
contribution 9470
encounter 9468
worn 9463
1998 9462
snake 9461
classic 9460
isa 9456
mess 9454
homes 9445
scheme 9442
knocked 9441
ver 9439
anxious 9437
pilot 9433
selfish 9427
sta@@ 9427
dar@@ 9425
exe 9423
spirituality 9421
exciting 9414
originally 9410
explaining 9408
tons 9401
doorway 9394
throwing 9389
lui 9386
invitation 9385
arts 9381
vers 9381
dra@@ 9376
hopes 9361
museum 9357
q 9355
sur@@ 9351
eaten 9350
prefer 9349
deliberately 9347
generations 9343
ical 9338
snapped 9332
trick 9332
hor@@ 9331
fears 9328
grief 9326
congress 9322
estimated 9322
ger 9321
mus@@ 9317
intelligent 9315
outstanding 9308
supporting 9299
convince 9297
lover 9296
preserve 9295
monk 9293
wars 9292
infinite 9291
muttered 9291
column 9290
corporation 9290
argued 9289
thereof 9289
roots 9288
manufacturing 9284
widely 9284
cloth 9281
creativity 9278
bowed 9274
demon 9273
experts 9273
funeral 9272
button 9271
participants 9271
curiosity 9269
belonged 9268
exhausted 9267
alexander 9266
clay 9265
households 9265
chairs 9264
define 9264
tics 9262
academic 9256
scott 9255
che@@ 9249
silk 9248
adopted 9245
sectors 9245
bor@@ 9242
transformation 9240
fla@@ 9215
samuel 9215
inc@@ 9214
cam@@ 9213
occurs 9212
comparing 9211
lieutenant 9210
commanded 9208
witnessed 9207
players 9202
plays 9198
notify 9197
sil@@ 9193
drank 9191
hills 9189
football 9186
jordan 9182
all@@ 9179
urged 9176
arrangement 9174
&#124; 9173
secondary 9173
sol@@ 9173
blanket 9170
clever 9169
fuel 9167
visiting 9165
neighbor 9164
ear@@ 9162
suspected 9160
judged 9159
acknowledge 9156
reminds 9154
daughters 9151
kar@@ 9149
gratitude 9148
lan@@ 9146
lied 9139
friday 9138
website 9138
bowl 9130
components 9128
shore 9128
arise 9125
wil@@ 9119
ians 9117
evaluate 9110
li 9109
yards 9107
represents 9105
bitch 9101
railway 9096
dining 9094
parking 9092
spare 9088
observation 9087
bob 9085
extension 9083
eager 9080
entity 9077
implementing 9077
sin@@ 9077
instruments 9074
organizational 9074
choosing 9071
issuing 9070
category 9069
user 9065
sho@@ 9057
reflection 9054
communities 9052
encouraging 9052
score 9050
im 9047
overall 9043
bags 9040
lip 9038
abuse 9037
ann@@ 9031
newspapers 9028
torn 9028
sy@@ 9024
sympathy 9024
beast 9023
ple@@ 9022
ease 9020
tribes 9017
ise 9016
ridiculous 9016
cook 9014
heavens 9014
publicly 9013
citizen 9010
grab 9010
screaming 9010
endless 9007
inspector 9005
containing 9000
hunt 8999
engineering 8994
bite 8988
blade 8985
medium 8983
concepts 8982
maid 8978
orange 8976
chamber 8972
awful 8971
cheap 8967
tech 8966
announcement 8965
whisper 8961
rope 8958
frozen 8957
enjoying 8952
super 8948
submission 8938
pot 8933
vat 8929
dev@@ 8928
regional 8928
ach 8927
affiliated 8924
banking 8920
sis 8919
fairly 8915
urgent 8912
a. 8909
hebrew 8908
surgery 8894
duke 8888
hand@@ 8887
shining 8887
describing 8882
embarrassed 8875
emily 8872
sy 8866
bat@@ 8865
folded 8864
paint 8864
contemporary 8862
aimed 8861
crossing 8858
sample 8858
14@@ 8855
bomb 8854
farther 8841
earn 8840
indicates 8840
allowing 8838
brave 8838
explore 8838
artist 8836
tu 8834
applies 8832
degrees 8832
shouting 8832
vote 8832
walks 8831
cleared 8830
grasp 8828
boxes 8822
gained 8819
trap 8819
captured 8814
pierre 8812
afterwards 8806
cer@@ 8806
liability 8803
spain 8802
promotion 8801
accused 8792
harvest 8792
temperature 8788
hesitated 8784
statue 8784
colors 8782
reduction 8782
landing 8778
conversion 8774
thoroughly 8774
launched 8769
executed 8767
authors 8760
initially 8760
breast 8756
midst 8745
strict 8745
berg 8738
ugly 8734
earned 8733
sm@@ 8723
compassion 8722
meters 8722
approve 8721
belonging 8719
son@@ 8716
estimates 8714
exceed 8706
feature 8705
pp@@ 8702
iness 8701
propose 8700
eli@@ 8690
files 8689
joshua 8685
hire 8683
connect 8678
logic 8678
sugar 8678
pas@@ 8677
involves 8673
resolve 8668
succeeded 8668
similarly 8666
iv 8664
smoking 8660
consists 8658
tel@@ 8657
arrogant 8656
wounded 8655
intimate 8649
requests 8647
compliance 8645
reasoning 8645
fri@@ 8643
thi 8642
partly 8640
despair 8638
holidays 8636
motivation 8631
ot 8630
moscow 8627
impressed 8625
recovered 8625
ire 8622
confirm 8615
wand 8612
passenger 8610
suggestions 8608
endure 8604
gt 8604
shocked 8598
athos 8592
appeal 8590
delivery 8585
latest 8583
traveling 8580
alarm 8578
shopping 8573
exclaimed 8569
professors 8557
prospects 8555
rer 8549
shooting 8549
stores 8549
manufacture 8548
proverbs 8546
pants 8545
structures 8545
charged 8541
pounds 8538
fin@@ 8536
lords 8534
resolved 8533
dri@@ 8531
expand 8527
buffett 8522
exploitation 8522
collecting 8519
mid@@ 8519
ines 8515
ethics 8514
divide 8513
formal 8513
riding 8508
stra@@ 8505
reliable 8504
jim 8503
tightly 8503
genuine 8502
clothing 8500
continuous 8500
expectations 8499
lamb 8499
lined 8495
listeners 8494
improvement 8493
channel 8487
feared 8485
affair 8484
ensuring 8484
neighborhood 8483
efficiency 8481
behave 8480
midnight 8478
pur@@ 8476
headquarters 8475
innovation 8472
depression 8466
chart 8464
mechanism 8461
rank 8461
2017 8456
alex 8455
deposit 8450
emerged 8450
confessed 8448
58 8447
helpful 8446
cleaning 8441
dna 8440
sorts 8439
select 8436
za 8428
counsel 8427
mothers 8424
steal 8423
flash 8422
ich 8420
trunk 8420
mag@@ 8416
venture 8416
unconscious 8412
humility 8411
monitor 8411
attracted 8409
slight 8408
gap 8405
vol@@ 8403
stare 8398
switch 8395
ruling 8393
seeds 8387
ics 8386
hence 8379
collapse 8378
af@@ 8376
fruits 8374
slid 8370
head@@ 8368
revenues 8368
fal@@ 8365
separation 8360
unhappy 8358
chicken 8357
reign 8355
seated 8355
pouring 8354
steve 8350
beating 8348
levin 8339
sheets 8334
my@@ 8333
tur@@ 8328
happily 8325
tunnel 8324
courts 8323
occupational 8323
ré@@ 8322
tes 8321
assurance 8319
chase 8319
separately 8317
struggling 8316
acc@@ 8315
preferred 8312
transmitted 8307
acquired 8306
ered 8306
penalties 8305
calculation 8304
completion 8300
54 8296
sl@@ 8294
fails 8290
bored 8288
recover 8286
genius 8281
surprising 8280
bo 8278
marie 8277
mode 8275
josh 8272
murmured 8265
ale 8262
collapsed 8254
murdered 8251
guided 8250
65 8245
lin 8242
sink 8242
conclude 8239
j. 8239
kin@@ 8238
lean 8235
anointed 8233
maturity 8231
expense 8230
celebrate 8229
enc@@ 8228
dor@@ 8227
conclusions 8225
enthusiasm 8225
represented 8225
furniture 8212
replacement 8211
dr@@ 8205
picking 8205
focusing 8200
elsewhere 8199
kick 8192
od@@ 8186
fence 8183
concrete 8177
rat 8176
novel 8175
cette 8173
contributed 8171
dragged 8171
back@@ 8170
prophecies 8167
dirt 8160
whereas 8160
1,@@ 8157
packed 8156
cure 8150
spell 8147
gro@@ 8146
twisted 8146
tens 8144
recording 8142
stopping 8139
holes 8137
peak 8135
waved 8134
weekend 8133
remembering 8132
silly 8128
monday 8127
fled 8118
depth 8117
scream 8112
scattered 8105
abilities 8103
witch 8102
devoted 8101
monster 8099
survival 8097
knee 8096
festival 8095
ize 8093
landed 8092
pressing 8091
beg 8089
launch 8087
bills 8086
minor 8085
australia 8084
hereinafter 8081
ads 8076
revenge 8074
democratic 8073
luther 8072
zed 8067
highway 8062
hum@@ 8061
restore 8058
visitors 8058
conducting 8055
tear 8053
strategies 8048
swept 8045
clauses 8044
gesture 8042
senses 8041
stops 8041
literary 8040
dignity 8039
strategic 8039
alized 8037
emphasized 8037
capture 8035
bil@@ 8033
ay 8031
ny 8029
album 8027
jane 8021
bars 8020
blocks 8015
tourism 8011
traders 8008
cla@@ 8007
topics 8007
blank 7999
photograph 7998
seats 7998
attract 7997
eh 7997
hon@@ 7997
linked 7996
lar@@ 7995
react 7990
btc 7989
pace 7989
tru@@ 7988
muscles 7987
composed 7986
suggests 7986
cul@@ 7985
iiti 7981
sted 7981
regarded 7976
farmers 7971
crown 7965
daddy 7965
noah 7960
vital 7958
easter 7956
buddha 7954
consumption 7951
discussing 7946
hans 7946
villages 7945
beaten 7943
lat@@ 7940
inland 7939
rebellion 7936
relation 7933
contractor 7929
answering 7928
earthly 7928
k. 7924
specify 7923
vocational 7923
jealousy 7919
az@@ 7916
societies 7913
associations 7906
genes 7905
ats 7904
advised 7896
strangers 7896
alternative 7895
sinner 7892
announce 7891
genetic 7888
praised 7887
ization 7885
ivan 7882
angle 7881
auction 7881
wolf 7880
arising 7876
reject 7876
post@@ 7874
ane 7873
indicated 7868
balls 7861
400 7857
dependent 7855
promptly 7855
sachs 7853
relieved 7852
bench 7851
actively 7848
statistics 7848
ner@@ 7847
amended 7844
jealous 7844
relax 7844
ash@@ 7843
labour 7843
knock 7842
bol@@ 7841
ning 7841
ran@@ 7840
á@@ 7840
centre 7835
index 7835
floating 7834
ham@@ 7833
significance 7831
swiss 7831
largely 7830
legitimate 7830
star@@ 7829
mm 7827
\ 7826
possession 7822
cardinal 7819
database 7819
freely 7818
physics 7817
respected 7817
jennifer 7816
movies 7816
sting 7816
notion 7811
trump 7807
ade 7802
wow 7802
és 7796
titles 7792
researchers 7791
resting 7790
losses 7782
residents 7781
sarah 7779
obtained 7777
qualified 7777
downstairs 7776
ink 7776
holiday 7773
spook 7770
billy 7768
scarlett 7764
disappear 7763
20@@ 7757
decline 7753
zo@@ 7750
chances 7749
physically 7746
sixth 7745
technique 7744
writers 7743
copper 7742
guessed 7741
ji 7740
licenses 7740
brains 7739
instructed 7738
lawyers 7735
ery 7726
gam@@ 7721
è@@ 7720
dramatic 7712
korea 7710
gor@@ 7707
beard 7705
entertainment 7700
fred 7700
satisfying 7700
agreements 7699
mama 7697
ur 7697
understands 7692
eyed 7691
opposed 7691
ruin 7690
injured 7689
tout 7686
57 7683
criminals 7682
ritual 7679
condemned 7674
screamed 7673
formula 7669
cop 7667
fold 7666
inch 7665
pretend 7662
experiments 7659
monthly 7658
warn 7658
machinery 7656
vague 7655
judgments 7654
possess 7654
chemicals 7653
automatically 7652
delay 7652
ging 7650
tony 7650
courses 7644
exile 7644
outer 7639
filling 7636
envelope 7633
ski 7633
colored 7632
reader 7630
soup 7630
scenes 7629
printing 7624
domain 7623
networks 7623
boring 7622
phenomenon 7617
logy 7616
darling 7613
pastoral 7613
ft 7612
vin@@ 7610
ethical 7608
cow 7607
towns 7607
wiped 7607
sang 7605
photos 7604
ove 7601
participating 7600
ths 7596
parks 7594
13@@ 7591
numerous 7591
tom@@ 7586
vanished 7586
engineer 7585
concentration 7583
mann 7576
frowned 7573
kh@@ 7573
poem 7573
66 7572
ruler 7572
56 7570
minh 7569
cher@@ 7568
crack 7565
johnson 7565
clearing 7564
navy 7563
hereof 7560
judges 7559
suspicious 7558
bold 7555
journal 7554
restored 7553
ry@@ 7550
elevator 7546
blew 7545
gender 7545
shareholders 7531
taran 7528
hood 7527
fierce 7525
inheritance 7524
carl 7522
mud 7520
shell 7519
advise 7518
dish 7518
sofa 7514
rows 7512
expenditures 7506
hallway 7505
commands 7504
maker 7501
ticket 7500
tribe 7498
vel@@ 7492
sions 7490
corresponding 7489
rewards 7487
bury 7486
characteristic 7482
lev@@ 7482
deck 7481
marine 7480
almighty 7479
kicked 7477
jo 7476
pop 7475
obtain 7474
stolen 7473
oliver 7468
belly 7467
vessels 7467
babies 7464
delicate 7461
categories 7458
handled 7455
swung 7454
hmm 7451
receives 7449
profession 7448
covers 7442
worldwide 7442
adjustment 7435
pharisees 7435
donald 7432
spiritually 7429
swallowed 7425
inhabitants 7417
sincere 7417
rear 7416
cared 7415
fbi 7415
rescued 7415
stu@@ 7412
ker@@ 7411
successfully 7411
ely 7410
google 7408
efficient 7403
sites 7403
wages 7402
concentrated 7398
essentially 7398
fried 7397
certified 7394
participation 7394
decade 7392
flo@@ 7388
dly 7384
desperately 7378
implies 7377
ges 7376
new@@ 7376
crash 7372
everyday 7367
ordinance 7365
sergeant 7365
nic@@ 7364
formation 7362
survived 7356
ently 7352
63 7349
protecting 7343
smiles 7342
snape 7341
bastard 7340
requested 7336
errors 7334
mes 7332
air@@ 7331
zing 7328
advantages 7326
britain 7324
í@@ 7324
spreading 7323
mighty 7321
lovers 7319
ering 7318
jail 7318
obstacles 7317
dates 7315
possessed 7314
connections 7311
counted 7309
1.@@ 7307
ol 7304
andrew 7302
95 7298
pic@@ 7296
trials 7296
sigh 7292
identification 7290
parallel 7289
grip 7288
assess 7287
civilian 7287
surrender 7284
ère 7284
companion 7283
biological 7282
eighteen 7278
cri@@ 7276
crowds 7276
fulfillment 7276
industries 7276
cotton 7273
circuit 7269
64 7265
bride 7263
tengo 7263
cia 7261
proving 7259
insight 7258
rue 7257
primarily 7253
recommend 7249
vain 7244
dun@@ 7242
afterward 7241
com 7241
simultaneously 7238
demonstrate 7236
crucified 7231
sovereign 7230
terrified 7230
dull 7228
squ@@ 7226
tobacco 7226
concentrate 7225
seventh 7225
outcome 7221
ore 7220
injury 7217
potter 7217
rapid 7215
abandon 7214
bun@@ 7209
placing 7208
cop@@ 7207
expansion 7204
là 7204
danny 7201
effectiveness 7200
thanh 7200
3.@@ 7196
giop 7194
ignorance 7194
footsteps 7191
hagrid 7189
seized 7189
justified 7187
eg@@ 7186
publication 7186
hitler 7184
cho@@ 7181
trend 7180
banned 7179
inches 7179
regulated 7178
rings 7176
targets 7176
majesty 7172
traditions 7172
inevitable 7171
owe 7170
maritime 7169
pos@@ 7168
hat@@ 7165
doubts 7163
equipped 7163
tendency 7162
alist 7159
mistress 7155
vivid 7155
consequence 7152
red@@ 7152
comme 7151
thereby 7150
sealed 7149
aux 7147
explosion 7147
♫ 7144
grows 7143
cream 7138
curtain 7136
bath 7133
maria 7133
persecution 7131
tension 7129
dy@@ 7126
sessions 7126
aries 7125
punished 7121
ram 7119
sequence 7117
determining 7116
motor 7111
masters 7105
mask 7103
s.@@ 7101
faded 7097
symptoms 7095
cursed 7094
poison 7093
mo 7090
typically 7089
ster@@ 7085
assist 7083
tokyo 7082
cares 7080
sank 7080
theories 7078
corn 7077
harmful 7077
ton@@ 7077
rituals 7075
dean 7072
bullet 7070
sadly 7070
str@@ 7070
cal 7066
ss 7065
ei@@ 7064
controlling 7061
sunlight 7059
kers 7058
invented 7057
redeemed 7055
necessity 7053
ratio 7050
purchased 7045
sul@@ 7045
tic@@ 7045
ada 7041
coach 7041
ese 7038
flock 7036
helen 7033
dynamic 7031
dialogue 7030
nod 7028
supper 7027
fied 7024
symbols 7023
publishing 7020
ok@@ 7017
gg@@ 7016
influenced 7015
proves 7015
binh 7013
dee 7013
2018 7010
opens 7010
employed 7009
isolated 7007
cloak 7006
tracks 7005
communist 7002
lineage 7001
permits 7000
150 6996
establishing 6996
ged 6995
measured 6995
furthermore 6994
yer 6994
obligation 6990
1997 6989
ruined 6985
ari@@ 6984
districts 6984
guaranteed 6984
pig 6983
fever 6982
cage 6980
fancy 6979
altogether 6978
addressed 6974
alert 6974
repeatedly 6974
entrusted 6970
attending 6967
exception 6967
possibilities 6967
widow 6967
che 6964
spo@@ 6963
engage 6962
presents 6962
59 6960
instruction 6960
resource 6960
comp@@ 6955
waist 6953
warmth 6953
bore 6951
ited 6951
h. 6949
adjust 6948
dd@@ 6943
ient 6941
boats 6935
relate 6935
rode 6935
gl@@ 6934
suspension 6934
tim@@ 6934
beneficial 6933
girlfriend 6933
distinction 6932
hy 6929
yen 6929
gene 6928
architecture 6925
telecommunications 6924
trail 6924
percentage 6922
shout 6918
departure 6917
suggestion 6915
mechanical 6914
micro@@ 6914
portion 6914
civilization 6910
planted 6909
skull 6908
stored 6907
nonsense 6899
eliminate 6897
wealthy 6897
kong 6896
encountered 6895
considerable 6891
husbands 6887
washing 6887
granting 6885
sixteen 6881
flowing 6878
officially 6877
counter@@ 6876
virus 6876
hid 6875
romantic 6875
talents 6875
liquid 6873
troubled 6873
vi 6873
tragedy 6871
investing 6870
forming 6865
socialist 6859
prosperity 6858
distinct 6857
max 6856
qui@@ 6854
accomplish 6852
asian 6852
isaac 6852
harsh 6850
conviction 6849
safely 6847
12@@ 6846
supplement 6846
rational 6845
theater 6845
destiny 6844
folks 6844
jer@@ 6844
cops 6843
sor@@ 6841
drops 6838
gabriel 6838
olive 6834
tale 6834
humiliation 6832
dig 6829
obedient 6829
maintained 6826
may@@ 6826
municipal 6824
commandment 6822
relating 6820
complaint 6819
tis 6819
dressing 6817
convenient 6812
talented 6812
frustration 6811
rested 6810
loaded 6808
slide 6808
suspended 6807
fle@@ 6806
pit 6805
routine 6800
ades 6797
calendar 6797
pper 6797
ney 6795
end@@ 6792
peeta 6790
breaks 6788
assign 6785
bottles 6781
robin 6781
crushed 6779
ali@@ 6778
deaths 6778
treasury 6778
metaphor 6777
kim 6775
intentions 6774
quarters 6774
faithfulness 6770
regulatory 6770
generous 6765
frustrated 6764
identical 6763
suspicion 6763
acknowledged 6760
arrogance 6760
laboratory 6760
philip 6757
unclean 6755
izing 6753
06 6752
backs 6752
purple 6752
corruption 6751
e. 6750
stretch 6750
backed 6749
b. 6746
passes 6746
ville 6746
bou@@ 6742
ier 6742
exported 6737
destination 6736
landscape 6736
disappointment 6735
ving 6735
ze@@ 6735
consulting 6734
fire@@ 6734
fist 6733
mineral 6733
deciding 6732
copied 6728
dried 6728
threatening 6726
instinct 6725
zi@@ 6725
61 6722
egg 6722
99 6720
dro@@ 6720
employer 6719
by@@ 6718
black@@ 6715
ble@@ 6715
brush 6715
med 6715
tt@@ 6713
ken@@ 6711
pacific 6711
tical 6709
elected 6708
dic@@ 6706
egyptian 6706
searched 6704
flag 6702
ved 6700
counting 6698
samples 6695
struggled 6695
ant@@ 6692
classified 6691
plot 6687
halfway 6686
inspiration 6685
conversations 6684
distributed 6683
eth@@ 6682
mix 6681
transform 6681
ws 6681
studio 6680
sustainable 6680
mur@@ 6679
ov 6678
serves 6671
harvard 6668
py@@ 6667
yo 6665
tourist 6663
involving 6662
noon 6662
conquer 6659
shifted 6659
math 6658
reverse 6657
prominent 6656
solar 6656
thirteen 6654
work@@ 6654
assuming 6653
expressions 6653
mouse 6653
din@@ 6651
dur@@ 6651
examining 6648
excess 6648
strangely 6648
misery 6647
scientist 6647
fulness 6646
carrie 6645
chat 6645
var@@ 6645
ut@@ 6644
israeli 6642
legend 6642
strengthen 6642
attempted 6639
committing 6639
km 6639
magical 6639
accomplished 6635
verification 6635
conflicts 6634
ignoring 6634
constitution 6628
stephen 6627
execute 6625
investments 6625
email 6624
mortgage 6624
trapped 6622
sabbath 6621
delight 6619
ille 6618
presidents 6618
hun@@ 6617
goodbye 6616
susan 6611
attorney 6609
deserted 6607
correctly 6599
shower 6599
implemented 6598
ivua 6597
tha 6596
sorrow 6593
backward 6583
laborers 6583
mist 6583
aquatic 6575
phi 6573
fourteen 6570
mul@@ 6570
improved 6567
hunter 6565
expertise 6563
traveled 6563
divisions 6561
lightly 6560
saphira 6558
parked 6554
fewer 6553
ttg 6552
charity 6548
avoided 6543
lessly 6543
depressed 6542
rivers 6542
von 6542
boston 6538
proportion 6537
transition 6537
privacy 6536
shy 6534
su 6531
seemingly 6530
reaches 6529
bureau 6528
protest 6527
assure 6526
switzerland 6526
output 6525
respective 6525
armor 6524
poly@@ 6524
attempts 6521
drinks 6521
occasions 6521
pping 6520
stressed 6518
tank 6517
pel@@ 6516
ances 6515
demonstrated 6515
idiot 6515
yelled 6515
cong 6513
substance 6508
expanded 6507
comprehensive 6505
thesis 6502
explanations 6498
reveals 6497
hitting 6495
ory 6494
commonly 6493
2.@@ 6492
democracy 6490
couples 6489
evident 6489
fox 6489
posts 6489
delighted 6488
â@@ 6487
ily 6486
swimming 6486
pockets 6485
vulnerable 6485
heels 6483
component 6482
mit@@ 6481
lit@@ 6479
tossed 6478
ranks 6477
locations 6476
tribulation 6475
vessel 6474
pursuit 6473
expenditure 6472
alization 6468
ak 6466
tender 6464
treaty 6464
contributions 6461
corpse 6459
virginia 6456
award 6455
centrally 6455
of@@ 6455
inform 6451
mars 6450
generated 6446
impressive 6446
instrument 6446
iz@@ 6445
subsequent 6445
dick 6437
polite 6435
sec@@ 6433
diamond 6431
converted 6430
adultery 6429
residential 6428
bus@@ 6427
fleet 6427
grin 6427
garage 6425
alize 6419
cli@@ 6416
embrace 6414
stroke 6414
warehouse 6413
horizon 6406
preservation 6406
dozens 6405
functional 6405
imperial 6403
imprisoned 6403
lucy 6403
carries 6400
decent 6400
nearest 6400
water@@ 6398
utterly 6397
classroom 6395
radiation 6393
ell 6392
chaos 6387
evidently 6386
gn@@ 6386
unfortunate 6386
solved 6385
gan@@ 6384
85 6382
meals 6378
farmer 6377
fel@@ 6377
apparent 6376
destroying 6376
muscle 6373
sc 6372
complain 6370
hygiene 6366
accidents 6364
circles 6364
aging 6363
coins 6363
obliged 6362
perception 6362
cap@@ 6361
increases 6358
unlikely 6358
pole 6357
spotted 6355
wounds 6354
gun@@ 6352
educated 6350
ening 6349
hur@@ 6346
ura 6345
ill@@ 6343
academy 6339
mun@@ 6333
lad 6330
shops 6329
sits 6327
cooking 6326
cakes 6325
ceo 6325
ani 6324
fil@@ 6321
62 6320
vic@@ 6320
derived 6318
ming 6317
dreamed 6316
visual 6316
ino 6315
judicial 6315
ay@@ 6314
roughly 6313
claiming 6312
gay 6312
bits 6311
cultures 6308
dam@@ 6308
hil@@ 6307
mistaken 6307
catching 6306
tering 6305
incredibly 6304
ruth 6304
trusting 6304
paintings 6302
custom 6297
confirmation 6293
hollow 6293
grinned 6291
proceed 6289
companions 6288
exemption 6287
couch 6286
awkward 6282
therapy 6280
ü@@ 6278
tissue 6275
norms 6272
aviation 6271
orthodox 6271
tremendous 6271
dispute 6270
ranging 6270
founder 6268
charming 6267
torture 6267
welfare 6266
4.@@ 6265
ashes 6264
descendants 6263
armies 6261
dit 6261
phones 6261
eyebrows 6260
eddie 6258
honour 6258
annabelle 6253
feast 6253
lane 6253
pipe 6251
poet 6248
bio@@ 6246
elaborate 6243
72 6236
avec 6236
holder 6236
les@@ 6236
affects 6231
bc 6229
ology 6229
reflects 6224
lighting 6223
ram@@ 6223
amendments 6221
relaxed 6221
drama 6220
lively 6219
revealing 6218
signature 6218
kitty 6216
roles 6216
ure 6215
kelly 6214
04 6211
tips 6207
blowing 6205
label 6203
curriculum 6202
stunned 6201
arthur 6200
ries 6200
retired 6199
deserves 6197
organic 6196
shelter 6195
gazed 6192
lai 6189
cabinet 6186
ist@@ 6184
payments 6180
pearl 6177
ji@@ 6175
log 6175
notebook 6175
i. 6170
fullness 6168
sharply 6166
francisco 6165
scent 6164
tide 6160
forcing 6159
desired 6156
din 6155
aloud 6154
lightning 6154
initiative 6149
colin 6148
hostile 6147
oldest 6147
nate 6145
feedback 6144
withdraw 6144
unpleasant 6143
weaknesses 6142
ess@@ 6141
clearance 6140
sentenced 6140
shoe 6140
practically 6138
notification 6134
reserved 6134
framework 6133
burnt 6132
lers 6131
bla@@ 6129
preserved 6129
nash 6127
prof@@ 6127
wage 6127
zer 6127
ai@@ 6123
borrowed 6121
sla@@ 6120
68 6119
precise 6119
script 6118
correspondence 6115
obeyed 6115
uk 6115
alongside 6113
oppose 6112
cabin 6111
joining 6109
promoted 6109
underneath 6104
stole 6103
classics 6101
confusing 6100
pistol 6100
tional 6100
visits 6097
adjusted 6095
photographs 6095
gravity 6090
punish 6090
sem@@ 6089
messenger 6087
persuade 6087
layer 6081
wheat 6081
ius 6077
jaw 6077
tenth 6077
shots 6076
avenue 6074
deadly 6074
flames 6072
oda 6072
pin@@ 6071
yourselves 6069
avoiding 6067
meditation 6067
tomb 6067
masses 6066
adoption 6065
consent 6065
19@@ 6059
atonement 6059
supports 6058
weasley 6058
illustrate 6057
retreat 6055
claire 6054
ences 6054
thrust 6054
missions 6053
ther@@ 6053
oxygen 6052
adventure 6051
bush 6051
ö@@ 6050
temples 6049
senator 6048
baker 6045
moody 6045
voldemort 6044
ä@@ 6043
practiced 6042
profile 6042
teddy 6042
app@@ 6041
bang 6041
continually 6041
boyfriend 6039
cheese 6039
07 6038
borrow 6036
paths 6035
passionate 6032
texas 6031
ac 6030
dwell 6030
pul@@ 6029
realizing 6029
competitive 6027
carbon 6021
honored 6021
universities 6021
invoices 6019
limbs 6019
thief 6016
porch 6012
patrick 6011
terribly 6011
fan 6010
glow 6007
vit@@ 6006
steam 6003
inherited 6001
lending 6001
feeding 6000
5.@@ 5999
sophisticated 5998
minded 5994
caring 5990
nous 5990
prot@@ 5990
ll@@ 5987
ita 5984
payable 5981
pillow 5980
achievement 5977
om 5976
lungs 5974
maintaining 5974
sion 5969
treating 5968
matt 5967
completing 5966
acquire 5960
tors 5959
calmly 5955
cliff 5955
log@@ 5954
forbidden 5951
achievements 5949
blo@@ 5949
ya@@ 5943
papa 5942
exploration 5941
cattle 5939
implications 5939
pon@@ 5939
annually 5938
sig@@ 5938
dating 5936
equality 5934
chocolate 5933
reactions 5932
fac@@ 5928
flame 5927
ere 5926
experiencing 5926
quote 5924
enti@@ 5922
absent 5919
ê@@ 5919
fort 5917
diet 5916
hen@@ 5916
zes 5913
immense 5908
bat 5907
kat@@ 5906
recommended 5906
plates 5904
ano 5903
artificial 5903
artists 5903
corners 5902
invasion 5902
startled 5901
invalids 5900
psalms 5900
conquered 5897
controls 5896
illusion 5892
scary 5891
closest 5890
eligibility 5890
engines 5890
cries 5889
greece 5889
jones 5889
arkady 5888
porthos 5888
spouse 5887
knight 5886
bi 5882
frequency 5882
associate 5881
dropping 5881
wheels 5880
delicious 5877
demanding 5876
paradise 5876
yed 5876
murderer 5873
ron@@ 5873
straw 5873
dared 5872
ser 5871
collar 5870
howard 5870
hospitals 5866
crucial 5862
bert 5859
strip 5859
helpless 5856
carpet 5854
dre@@ 5853
stan 5853
perfection 5851
shield 5847
wrist 5846
humor 5845
mechanisms 5845
speakers 5843
aids 5842
suits 5841
extensive 5840
dictionary 5837
mais 5836
wood@@ 5835
wor@@ 5835
hai 5829
gged 5828
jefferson 5828
predict 5828
tit 5827
valuation 5827
maps 5825
rubber 5825
violating 5825
climbing 5824
furious 5824
surveillance 5824
dou@@ 5823
unnecessary 5823
whoa 5822
basket 5821
reborn 5820
impose 5819
del 5817
eden 5816
liberty 5816
commerce 5814
lincoln 5814
lasted 5813
jet 5812
sport 5812
monks 5811
challenging 5809
vas@@ 5809
1995 5807
worrying 5804
exercises 5803
courtyard 5800
down@@ 5800
istic 5800
portrait 5799
virtually 5799
eless 5797
compromise 5796
shade 5794
apologize 5793
proven 5793
pin 5789
nest 5787
piano 5787
amazed 5785
cab@@ 5785
challenged 5780
buyer 5777
gon@@ 5775
resulting 5774
brick 5772
improving 5772
breed 5771
candle 5771
conception 5771
r. 5771
hath 5770
fond 5769
liberation 5762
pra@@ 5761
stiff 5760
enable 5759
striking 5756
corporations 5755
generate 5755
motivated 5755
ladder 5753
quoted 5752
recognizing 5749
abundance 5747
sensed 5746
taxi 5744
cle@@ 5741
scholar 5741
slavery 5741
significantly 5740
reflecting 5739
tragic 5739
cour@@ 5738
ee 5738
enthusiastic 5738
wel@@ 5738
ah@@ 5736
smelled 5734
indicating 5732
dedication 5731
mayor 5731
som@@ 5731
angeles 5729
tore 5729
episode 5728
tess 5728
acceptable 5722
productive 5722
crops 5720
risen 5720
breasts 5719
classification 5719
hanoi 5718
ky@@ 5717
applicant 5716
1996 5711
surprisingly 5711
dangers 5710
roger 5710
ena 5707
subtle 5707
ender 5706
advocate 5703
cargo 5701
charm 5701
intend 5701
systematic 5699
convey 5696
viewed 5696
smo@@ 5695
contempt 5693
seller 5693
cs 5692
prophetic 5691
grain 5690
eric 5689
blond 5688
pit@@ 5688
sav@@ 5688
dutch 5687
circulation 5685
dug 5684
imp@@ 5683
alley 5682
detect 5682
odds 5680
teenagers 5679
dishes 5677
calvin 5676
eighty 5675
wandering 5675
dealt 5670
ners 5670
boundaries 5665
flashed 5664
fying 5662
pentecostal 5662
guides 5661
overhead 5660
analyze 5659
restoration 5659
dynasty 5658
germans 5658
tically 5656
cru@@ 5649
economics 5649
resurrected 5648
battles 5646
cents 5645
sou@@ 5645
stic 5645
ets 5644
fun@@ 5643
designs 5641
foods 5640
cracked 5639
pulls 5639
peculiar 5638
communes 5637
executives 5636
dao 5635
minority 5634
wells 5634
steering 5632
ath 5630
tickets 5629
chains 5628
disciple 5628
bru@@ 5627
cha 5627
quarantine 5624
statistical 5624
iivua 5622
click 5621
junior 5621
pres@@ 5621
promulgated 5621
shing 5621
magnificent 5620
kennedy 5618
diary 5617
op 5616
ancestors 5615
swallow 5615
marble 5613
graduate 5612
sized 5612
elegant 5610
berlin 5609
brutal 5608
electrical 5608
lacking 5607
eness 5606
ez 5606
formulate 5606
steadily 5606
depths 5605
retirement 5604
sco@@ 5603
exchanged 5602
engagement 5601
films 5599
questioning 5599
s. 5598
vacation 5598
formulation 5597
combine 5596
candidate 5595
allocated 5594
predicted 5594
tongues 5594
automatic 5588
jeans 5587
sters 5586
supervise 5585
dominant 5584
ial 5584
ong@@ 5582
thr@@ 5579
displayed 5576
pays 5576
interior 5573
rep@@ 5573
lining 5570
amending 5567
capabilities 5565
cathedral 5562
consumer 5561
preacher 5561
questioned 5561
accuracy 5560
allocation 5560
arab 5560
behaviors 5560
.the 5559
nam 5554
pollution 5554
600 5553
aramis 5550
pet 5550
toilet 5550
adopt 5549
dim 5549
sticks 5549
top@@ 5546
ce@@ 5544
stumbled 5543
luxury 5542
pp 5540
fy 5539
infected 5539
pla@@ 5539
proposals 5539
exclusive 5534
islam 5534
magazines 5530
adds 5529
savings 5528
xi@@ 5528
haired 5527
approving 5524
beds 5524
ck@@ 5523
tered 5523
alliance 5522
likewise 5520
hom@@ 5519
rac@@ 5518
observing 5517
betrayed 5516
liberal 5516
chasing 5513
1994 5511
loses 5505
ren 5504
folk 5502
solving 5502
fro@@ 5501
multi@@ 5501
tac@@ 5501
aomame 5500
ung 5498
jonathan 5497
iisu 5496
upright 5496
meg 5495
tense 5494
consequently 5493
nom@@ 5493
bella 5492
motive 5492
ut 5491
eu 5490
tly 5490
approaches 5488
beth 5488
cart 5488
pitch 5488
weekly 5487
ots 5486
contractors 5483
satisfactory 5478
measurement 5477
minus 5477
calculate 5475
hook 5475
consultant 5474
prevented 5474
rubbed 5474
ambassador 5473
earnings 5472
swim 5472
pursuing 5471
hip 5470
certainty 5469
extend 5469
egyptians 5468
overwhelmed 5468
verb 5468
incidents 5467
basement 5463
drag 5463
codes 5462
sickness 5460
heroes 5459
dumb 5458
garbage 5458
input 5457
lim@@ 5457
winston 5457
breeze 5456
84 5455
nails 5455
stained 5454
sole 5453
meter 5452
20th 5451
lifting 5451
rebirth 5451
assault 5450
cats 5450
inter 5449
low@@ 5449
lation 5448
oring 5448
thanked 5448
lac@@ 5445
atlantic 5441
meets 5441
aff@@ 5435
69 5434
rejection 5433
ingredients 5430
upward 5429
tricks 5426
clue 5425
fires 5425
def@@ 5422
ori@@ 5422
conservative 5421
continuously 5421
editor 5420
prey 5418
1992 5417
craft 5417
leg@@ 5416
signals 5416
links 5415
god@@ 5414
thumb 5414
indians 5413
racing 5413
ston 5411
bleeding 5410
modest 5410
disturbed 5408
fur@@ 5408
makers 5408
« 5408
barrier 5406
cuts 5405
buddhism 5404
muslim 5404
clerk 5403
cope 5402
mia 5402
enforce 5399
stealing 5399
annoyed 5398
mal 5398
infection 5397
devotion 5396
tively 5396
arriving 5395
ninety 5395
deception 5394
kindly 5392
triumph 5392
measuring 5391
suggesting 5391
medieval 5389
outward 5388
closet 5387
hint 5387
balanced 5386
fortunately 5386
ras@@ 5384
flung 5383
f. 5379
chy 5378
cigarettes 5373
horn 5373
roran 5373
pped 5372
flies 5369
produces 5369
inn 5368
carved 5364
privileges 5364
glimpse 5361
wizard 5361
funded 5359
jury 5359
theologians 5358
musical 5357
jackson 5356
lions 5355
play@@ 5355
9.@@ 5353
deals 5353
intent 5352
abstract 5351
focuses 5348
damp 5347
stepping 5346
pine 5345
whip 5345
cheerful 5343
ell@@ 5343
silhouette 5343
ru 5340
publish 5338
bears 5337
favorable 5336
frequent 5334
seventeen 5332
complained 5331
preliminary 5331
radi@@ 5330
stri@@ 5330
adequate 5328
long@@ 5328
appearing 5327
connecting 5326
67 5325
worlds 5324
korean 5319
shapes 5319
approximately 5318
mme 5316
primitive 5315
shelf 5314
walter 5314
distinguished 5313
cho 5311
consultancy 5310
involve 5309
jonah 5308
sara 5308
hypothesis 5307
requesting 5307
daring 5305
rolls 5305
inventory 5300
exemplary 5297
iling 5295
deux 5293
rulers 5293
lobby 5292
modified 5292
constructed 5290
land@@ 5290
glo@@ 5289
hates 5282
abruptly 5277
curtains 5277
honesty 5277
wishing 5273
decisive 5272
sat@@ 5271
atory 5270
wan@@ 5269
partnership 5263
posted 5263
être 5262
aggressive 5260
turkey 5260
gang 5258
autumn 5256
bin 5256
cleaned 5256
revival 5256
mel 5255
philosophical 5255
amazon 5254
hoa 5254
goat 5253
herein 5253
fies 5251
laughs 5251
chu@@ 5249
disorder 5248
reporter 5245
rot@@ 5245
sus 5244
comm@@ 5243
mentally 5241
obeying 5241
versions 5237
tube 5235
promoting 5233
shone 5233
presenting 5232
warrior 5230
van@@ 5228
compulsory 5224
gen 5224
pan 5224
tel 5222
definite 5221
accurately 5217
merchant 5215
pol@@ 5215
chemistry 5213
ements 5213
mining 5211
blown 5209
knelt 5208
taylor 5208
bull 5207
dent 5207
narrative 5206
po 5206
refusing 5206
rushing 5205
sensation 5205
sphere 5205
ô@@ 5204
arrow 5202
diplomatic 5200
graham 5199
nar@@ 5199
trigger 5199
homme 5197
glancing 5196
nuts 5196
gardens 5195
pond 5195
responding 5195
imitate 5193
operator 5193
warren 5193
intensity 5191
accustomed 5189
burg 5189
inger 5189
freed 5187
slammed 5186
tray 5185
enlightenment 5184
coastal 5182
dal@@ 5182
slightest 5182
lau@@ 5181
revolutionary 5180
legislation 5179
emphasizes 5178
78 5176
ambition 5175
cautious 5173
organs 5173
lazy 5172
sing@@ 5172
convincing 5171
bothered 5170
repeating 5169
valued 5169
1993 5168
73 5168
wasted 5168
enhance 5167
plan@@ 5167
crystal 5164
biology 5161
refund 5160
golf 5159
ass@@ 5158
fur 5158
countryside 5156
120 5155
att@@ 5154
johnny 5154
min 5154
school@@ 5154
admire 5152
hears 5151
scarcely 5150
kissing 5147
malfoy 5147
ious 5146
requirement 5146
stating 5146
tends 5144
sanctioning 5143
rou@@ 5140
swing 5140
sand@@ 5139
supplementing 5138
biting 5133
winds 5133
ny@@ 5132
protective 5132
97 5131
expanding 5131
layout 5130
francis 5129
acy 5128
translate 5125
uttered 5125
grandparents 5124
inspecting 5123
preventing 5117
arguing 5114
consumers 5112
binding 5111
pardon 5111
terminal 5111
fantastic 5110
rays 5110
stake 5110
thunder 5109
meanings 5108
oning 5107
clergy 5105
greta 5105
matches 5105
morgan 5105
idols 5102
probability 5099
stability 5097
esses 5096
nicholas 5096
attraction 5095
lia 5092
stubborn 5092
ium 5086
kidding 5085
pt 5085
jew 5083
pretending 5082
lor@@ 5079
ports 5079
greeted 5078
miraculous 5076
blomkvist 5072
staircase 5072
permanently 5069
representing 5069
waving 5069
passive 5068
crop 5066
einstein 5066
firms 5065
justify 5063
shallow 5063
96 5062
flows 5062
uncertainty 5060
suite 5059
gil@@ 5058
locality 5058
» 5058
lately 5056
dismissed 5055
mathematics 5055
tus 5055
critics 5051
twentieth 5050
lowest 5046
tation 5045
secretly 5044
gazing 5041
fury 5039
stirred 5038
09 5037
texts 5036
drawer 5034
angrily 5032
dwelling 5031
defining 5030
tap 5030
83 5026
capability 5023
merry 5017
exposure 5015
lawful 5015
ture 5015
update 5015
canaan 5014
promising 5014
worries 5014
greeting 5013
71 5012
disposal 5012
passport 5012
wolves 5012
insist 5009
inclined 5008
mp@@ 5008
dreaming 5004
squeezed 5004
painter 5003
arrangements 5002
fairy 5002
redeem 4998
syn@@ 4998
sincerely 4997
□ 4994
92 4993
arose 4993
elbow 4992
ith 4991
rifle 4991
patch 4990
stern 4990
sticking 4987
tures 4987
bul@@ 4985
substances 4985
cups 4983
hammer 4983
hits 4982
utter 4982
deepest 4980
waiter 4980
chuck 4979
ette 4979
godly 4979
operated 4979
custody 4977
providers 4977
diversity 4974
clubs 4972
cows 4972
e.@@ 4972
summoned 4970
conventional 4967
kam@@ 4967
wo@@ 4965
remarked 4964
handful 4963
119 4962
bend 4962
ceased 4962
aw@@ 4961
grid 4961
routes 4959
designated 4956
someday 4956
larry 4955
jessica 4952
shaken 4952
olivia 4950
termination 4950
iraq 4949
oned 4949
engineers 4948
liar 4947
cute 4946
veterinary 4944
criticized 4943
licensed 4943
powder 4943
santa 4943
sh 4943
p. 4942
skirt 4942
digging 4941
iisa 4941
councils 4939
loneliness 4939
refuge 4939
cab 4938
exceeding 4937
winner 4937
gan 4936
ide 4935
mounted 4935
perceived 4935
trains 4935
lara 4934
caroline 4933
descended 4933
jan@@ 4931
und 4929
mes@@ 4927
breathed 4924
correlation 4924
joshu 4923
singapore 4921
dom@@ 4920
listing 4920
settling 4920
neighboring 4919
sson 4919
evolutionary 4918
memorial 4918
syria 4917
thursday 4916
pil@@ 4915
unbelievable 4912
deceive 4911
eff@@ 4911
restricted 4910
commented 4908
secured 4908
martha 4907
tab@@ 4906
mines 4905
spots 4904
outline 4903
6.@@ 4900
unexpectedly 4900
identifying 4899
gging 4896
tier 4896
00@@ 4895
channels 4894
disabled 4894
delegation 4893
withdrawal 4893
pagan 4892
exp@@ 4891
judaism 4891
hazardous 4889
coordination 4888
book@@ 4886
hopefully 4886
brow 4884
iiphi 4881
mediterranean 4881
sack 4878
fog 4877
oth 4877
refusal 4877
bien 4874
hesitate 4874
kins 4874
tot@@ 4874
gown 4873
hem 4872
gran@@ 4871
allies 4869
leaf 4869
ali 4864
assi@@ 4864
cameras 4862
merit 4860
symbolic 4860
toranaga 4860
epidemic 4859
distracted 4858
scheduled 4858
v.v 4858
phenomena 4857
clinical 4855
nasty 4855
98 4854
respects 4854
failures 4853
w. 4853
uncertain 4852
yield 4852
damned 4850
distress 4850
summarize 4850
occasional 4848
uri@@ 4848
translations 4847
evolved 4846
reserves 4846
slope 4845
violate 4845
neat 4843
89 4842
greed 4842
timely 4842
grand@@ 4840
indifferent 4839
pharaoh 4839
appreciation 4838
casual 4838
amy 4837
shirts 4837
governmental 4836
instructor 4835
realistic 4835
smallest 4835
boundary 4834
tism 4834
pers 4831
switched 4830
juice 4829
colleague 4826
insane 4825
tim 4825
welcomed 4825
deeds 4824
sli@@ 4824
corps 4823
thirsty 4823
dian 4822
hot@@ 4822
madam 4822
assembled 4821
intervention 4820
ising 4820
ref@@ 4819
incentives 4817
overwhelming 4816
instincts 4815
lawn 4814
thanksgiving 4814
bike 4813
halt 4813
rel@@ 4812
invention 4811
salander 4811
cooperative 4810
fantasy 4810
alists 4808
bled 4808
dge 4808
races 4808
sovereignty 4808
91 4807
peer 4807
philosophers 4806
stuffed 4806
facebook 4805
puzzled 4804
interpret 4803
candidates 4800
adapt 4799
ani@@ 4799
leasing 4799
thi@@ 4799
gloves 4798
occupation 4796
profitable 4795
healthcare 4794
buddy 4793
flee 4793
ella 4792
fame 4792
investigate 4792
meaningless 4792
participated 4791
priorities 4791
ini 4790
injustice 4790
frankly 4789
equity 4787
bab@@ 4785
bing 4783
sends 4783
excessive 4780
installed 4780
pregnancy 4780
ony 4779
accordingly 4778
dominated 4777
sacrament 4777
denying 4775
edition 4775
pencil 4775
dana 4773
fragile 4773
ums 4773
passages 4771
81 4769
gallery 4768
hut 4764
conver@@ 4763
lewis 4763
retail 4763
ined 4762
towel 4761
deserved 4760
rosie 4759
rumors 4759
goddamn 4757
judging 4757
bly 4756
t. 4755
assumption 4752
celebrated 4751
covenants 4751
kevin 4751
wilson 4751
bli@@ 4748
rats 4748
globe 4746
bit@@ 4743
chen 4742
aims 4740
hips 4740
wednesday 4740
lab@@ 4739
whit@@ 4739
dness 4738
limitations 4738
gregor 4735
1991 4733
frodo 4732
bitterness 4731
guiliano 4731
shi 4731
motives 4730
soci@@ 4730
annex 4729
mill 4729
lan 4728
disasters 4726
cement 4725
dimensions 4725
particles 4722
rises 4722
chooses 4719
tiger 4718
vent 4718
obstacle 4716
aded 4715
insects 4715
trends 4715
curled 4714
visitor 4712
stein 4711
patiently 4709
phi@@ 4707
orientation 4706
wallet 4706
abundant 4703
politicians 4703
departed 4702
tuesday 4702
temperament 4701
mb@@ 4699
absorbed 4698
sympathetic 4696
1990 4695
ick 4695
19th 4694
documentation 4692
esai 4692
farming 4692
satellite 4692
spinning 4691
stove 4691
cottage 4690
fication 4690
awarded 4689
heir 4689
rob 4688
twins 4688
sam@@ 4685
ek@@ 4683
decides 4682
gau@@ 4682
colour 4681
} 4681
76 4679
rude 4679
clarify 4677
manual 4676
fra@@ 4674
goddess 4674
nerve 4674
bot@@ 4671
ruins 4670
voluntary 4670
actor 4668
panel 4667
absurd 4666
preferential 4666
pulse 4666
tian 4666
87 4664
watches 4664
bruce 4663
77 4661
aaron 4661
tin@@ 4660
affirmed 4659
fascinating 4659
gru@@ 4657
breeding 4655
fig 4655
nerves 4654
purse 4654
varieties 4654
jewelry 4653
stro@@ 4653
exc@@ 4652
lon@@ 4651
disputes 4650
pad 4650
robe 4650
traces 4649
barn 4648
nail 4647
forgetting 4646
ath@@ 4644
medicines 4644
vronsky 4644
wandered 4644
assumptions 4643
shine 4643
burial 4642
countess 4641
08 4640
ignorant 4640
reg@@ 4640
submitting 4640
kon@@ 4638
ven 4638
continent 4637
zen 4637
greatness 4636
stance 4636
hiv 4635
importantly 4635
promulgate 4635
plague 4633
transit 4633
ursula 4632
expresses 4629
consumed 4628
greedy 4628
oms 4628
sni@@ 4628
borders 4627
strive 4627
brushed 4625
disgusting 4625
iled 4625
cable 4624
deceived 4623
needle 4623
astrid 4621
mathematical 4620
worshiped 4620
zu@@ 4620
gul@@ 4617
lar 4617
attributes 4615
earthquake 4614
sciences 4614
alien 4613
sky@@ 4613
swords 4613
weary 4613
pay@@ 4609
bridges 4608
warriors 4608
86 4607
affecting 4604
off@@ 4604
emerging 4603
arena 4601
petrol 4601
reminder 4601
retain 4600
holders 4599
radical 4599
singer 4599
historian 4598
butler 4597
wipe 4597
cited 4595
negotiation 4595
discussions 4594
offerings 4593
rab@@ 4593
seldom 4592
arises 4591
gios 4586
broadcast 4584
88 4581
caesar 4579
celebration 4579
flexible 4578
packages 4572
flu@@ 4571
rewarded 4570
lid 4569
pigs 4569
temper 4569
ara 4566
aboard 4565
café 4565
observations 4564
mé@@ 4563
hurts 4562
louder 4562
port@@ 4562
blocked 4561
fearful 4560
resulted 4560
où 4559
74 4557
nightmare 4556
trader 4556
petroleum 4555
trips 4555
canal 4553
nie 4553
directing 4552
baseball 4549
mit 4549
jumping 4548
smells 4548
alike 4547
persuaded 4547
rail 4546
allowance 4545
dreadful 4545
shorter 4545
sleeve 4545
spec@@ 4545
blinked 4543
appreciated 4542
herod 4540
med@@ 4540
sty@@ 4540
autonomy 4539
verify 4539
leo 4538
happier 4536
accent 4535
tle 4535
partially 4534
reads 4534
semi 4532
dam 4531
monastery 4531
neutral 4531
edges 4529
lam@@ 4528
gear 4526
tre 4525
eagerly 4524
removing 4524
jokes 4521
equ@@ 4520
campus 4519
tapped 4519
tz 4519
floors 4518
hear@@ 4518
astonished 4517
sounding 4517
con 4515
tasted 4515
admired 4514
not@@ 4511
tion@@ 4511
anonymous 4510
brazil 4510
troubles 4510
sk 4509
ups 4508
stripped 4506
wonders 4506
od 4505
stack 4505
phrases 4502
sect 4502
stir 4502
jun@@ 4499
alistic 4496
jungle 4496
openly 4494
emp@@ 4492
tho@@ 4492
schemes 4491
hug 4487
our@@ 4487
publications 4487
riches 4487
gross 4485
93 4483
insult 4482
illustrated 4479
ousness 4479
bles 4478
comforting 4478
spun 4478
̄ 4478
premium 4477
sim@@ 4477
poems 4476
bes@@ 4475
800 4474
utility 4474
borrowing 4473
vegetables 4473
ou 4472
albert 4470
harbor 4470
classical 4469
hiring 4469
ea 4468
eva 4468
sirius 4468
spi@@ 4468
zeal 4468
ion 4467
confront 4465
° 4464
immortal 4463
graduated 4462
zz@@ 4461
hay@@ 4460
lest 4460
leap 4459
1980s 4458
overnight 4457
toes 4456
anc@@ 4455
earliest 4454
knocking 4454
puzzle 4454
nas@@ 4453
savage 4453
sheriff 4452
vin 4452
howl 4451
lasting 4451
mouths 4450
fabric 4449
victor 4447
trivial 4446
trucks 4445
gla@@ 4444
ile 4444
conf@@ 4443
longing 4443
policeman 4443
deadline 4442
conservation 4441
workshop 4440
planes 4439
proceeded 4438
snow@@ 4438
jamie 4436
meantime 4436
pairs 4436
jimmy 4434
p.@@ 4434
ringing 4434
shoved 4433
dia 4432
heritage 4432
amused 4431
draws 4431
ama@@ 4429
vil@@ 4428
processed 4427
wat@@ 4427
rap@@ 4424
spin 4424
casting 4422
ja 4421
physician 4419
iting 4418
handkerchief 4415
mild 4413
offense 4413
rape 4413
spar@@ 4412
threats 4412
tran@@ 4409
locks 4407
subjective 4404
progressive 4403
qualifications 4402
waking 4402
begged 4400
impatient 4400
complaining 4397
fon@@ 4396
hometown 4396
peered 4395
drives 4394
nam@@ 4394
praising 4394
touches 4394
camps 4393
dimension 4393
echoed 4392
enters 4389
compound 4384
wider 4384
wholly 4383
brethren 4382
disciplined 4381
chill 4380
quang 4380
transparent 4379
ene 4377
misleading 4376
rapids 4376
imports 4375
int 4375
punch 4371
textbook 4370
barrel 4369
firing 4369
katie 4369
decrease 4368
threshold 4368
charlotte 4367
key@@ 4367
noticing 4367
tucked 4367
expectation 4366
pounding 4366
west@@ 4366
nasa 4363
nineteenth 4363
seminary 4363
hopeless 4362
ross 4362
stretching 4361
ul 4361
geographical 4360
publicity 4359
inf@@ 4358
ées 4358
awakened 4357
foot@@ 4357
hem@@ 4357
yu@@ 4357
diverse 4355
irish 4355
farewell 4354
keeper 4354
protested 4352
inferior 4351
inviting 4351
operational 4351
detected 4350
pretended 4350
harvath 4349
lacks 4349
youngest 4349
79 4346
onic 4345
rebecca 4345
denunciations 4344
rhythm 4343
sidewalk 4343
reconciliation 4342
hesitation 4341
acid 4338
detailing 4338
sively 4338
commitments 4336
columns 4335
kor@@ 4335
crap 4334
uneasy 4334
das 4333
fiction 4333
posed 4333
fitting 4331
reap 4331
esteem 4330
commodities 4329
pad@@ 4329
receiver 4326
marcus 4325
renaissance 4325
purely 4322
sel 4320
nh@@ 4319
clan 4317
contributing 4317
lao 4317
parliament 4317
offended 4315
supplied 4315
accommodation 4313
bombs 4313
lisa 4312
prohibited 4312
vow 4311
thread 4308
faction 4306
checks 4305
incense 4304
secular 4304
integrated 4303
bankruptcy 4302
swiftly 4302
incomes 4301
cord 4300
encourages 4300
neatly 4299
soap 4298
ç@@ 4298
spaces 4297
scar 4296
aiming 4294
oxford 4294
pronounced 4294
partial 4293
trousers 4292
fines 4291
reli@@ 4291
sometime 4290
sufficiently 4290
bases 4289
compete 4289
liver 4289
polish 4287
amen 4286
coincidence 4286
ored 4286
tations 4286
dos 4285
paragraphs 4284
sheer 4282
remembers 4280
disobedience 4278
eth 4277
injuries 4277
unemployment 4277
hara 4276
tommy 4276
augustine 4275
fraud 4275
gregory 4274
blows 4273
ix 4273
refuses 4273
monkey 4272
ireland 4271
founding 4267
dense 4266
awesome 4265
disc@@ 4265
emerge 4265
drivers 4264
unfair 4264
xi 4263
ann 4262
microsoft 4262
tracy 4262
gasped 4260
volunteer 4260
horns 4258
taxation 4257
wards 4256
everlasting 4255
beam 4254
stays 4254
3,@@ 4253
duc@@ 4253
wagon 4253
alities 4251
hen 4251
ine@@ 4250
carrier 4249
jason 4248
realization 4248
storms 4247
bushes 4246
finishing 4246
twin 4246
clarity 4245
impulse 4245
chip 4244
prestige 4244
cesare 4243
filed 4243
relates 4243
accepts 4242
crush 4242
bao 4241
are@@ 4240
apo@@ 4238
blast 4238
cellar 4235
roar 4235
boldly 4234
chris 4234
confronted 4233
pleasures 4233
benjamin 4232
despise 4232
las@@ 4232
delta 4230
keen 4230
reducing 4230
eighth 4229
gir@@ 4229
trash 4228
mourning 4227
deposits 4226
wn 4226
thorough 4225
tune 4223
cease 4222
sinned 4218
integration 4217
a.m. 4216
tariff 4216
d.@@ 4211
wind@@ 4211
admiration 4210
stamp 4210
advances 4209
hastily 4209
run@@ 4207
strikes 4206
theoretical 4206
retained 4205
dude 4204
pound 4204
mentioning 4203
bolt 4201
virtues 4200
interviews 4199
livestock 4199
chased 4198
exploded 4198
escort 4197
dose 4195
substantial 4195
alizing 4193
consciously 4193
joyful 4192
teenager 4192
raises 4187
ae 4185
robot 4185
thoughtful 4185
cemetery 4184
concert 4183
discovering 4183
shes 4183
bon 4181
persistent 4181
tible 4181
hostility 4180
sac 4180
embarrassment 4179
exports 4179
concealed 4178
formerly 4177
invalid 4177
prosecutor 4177
russians 4177
copyright 4175
monetary 4174
portfolio 4174
lement 4173
namely 4173
interaction 4172
shifting 4171
fatal 4170
mar 4170
elsa 4169
laying 4169
graphic 4168
mir@@ 4168
owns 4168
1970s 4167
fer 4167
gio 4167
interpreted 4167
cont@@ 4166
grim 4165
sive 4163
dale 4162
buddhist 4161
lili 4160
phil 4160
attendance 4157
dave 4157
experimental 4157
fashioned 4157
florida 4156
yan 4156
nurses 4155
250 4154
seeks 4152
ste 4152
theirs 4152
severely 4148
oak 4147
criticize 4145
mirrors 4143
toy 4143
basin 4142
sprang 4142
bacteria 4141
counseling 4140
planets 4140
rubbing 4140
louise 4137
sia 4137
opera 4136
fait 4135
corinthian 4133
geneva 4130
nes 4130
stumbling 4130
argues 4129
historic 4128
muslims 4127
clare 4125
joel 4125
candy 4124
même 4123
consultants 4122
foster 4122
inv@@ 4122
tant 4122
liable 4120
possessions 4119
solemn 4118
taxpayer 4118
8.@@ 4117
ack@@ 4116
destructive 4115
merciful 4115
rounds 4114
dai 4112
pun@@ 4112
attacking 4111
sinking 4111
homeland 4110
jurisdiction 4110
stabbed 4110
1945 4109
pyramid 4108
wholeheartedly 4108
occupy 4107
7.@@ 4106
ona 4106
parted 4106
py 4106
gordon 4105
strings 4105
bed@@ 4104
allen 4103
prosperous 4103
ata 4102
manners 4100
tele@@ 4100
tness 4100
ica 4098
labels 4097
parable 4097
bronze 4096
motionless 4096
zation 4096
nodding 4095
sno@@ 4094
tolerance 4094
cker 4093
organ 4093
ark 4091
brass 4090
consistently 4090
ripped 4090
whispering 4089
shattered 4088
5,000 4087
rabbit 4087
mau@@ 4086
ther 4086
billions 4085
flowed 4085
proclaimed 4084
hyper@@ 4083
substitute 4082
defensive 4081
tourists 4081
wa 4079
hard@@ 4078
ama 4074
manifest 4073
ano@@ 4072
innocence 4072
burns 4071
cultivate 4071
nat@@ 4071
edi@@ 4070
contacted 4069
clinic 4068
marched 4068
rigid 4067
exiled 4066
accidentally 4065
condemn 4064
miller 4063
tracking 4063
a.@@ 4061
doc 4060
buttons 4058
gut 4058
hearted 4058
siblings 4058
ue 4058
dre 4057
nia 4057
buyers 4056
denial 4055
green@@ 4054
consistency 4053
ghosts 4053
luca 4053
ku 4052
positively 4052
swi@@ 4052
addresses 4051
fits 4051
idol 4051
socks 4050
stadium 4049
foundations 4048
l. 4048
vaguely 4047
hymns 4045
divorced 4044
spy 4044
developments 4042
ide@@ 4042
lings 4042
lun@@ 4042
marshal 4042
replacing 4041
brian 4040
entrepreneurs 4040
2,@@ 4039
flushed 4039
iran 4038
contacts 4037
robes 4037
southeast 4037
videos 4036
pleaded 4035
warfare 4035
luggage 4034
tanks 4034
lighter 4033
owed 4032
reluctant 4032
ira 4031
merchants 4031
resentment 4031
calculating 4030
eled 4030
watson 4029
tou@@ 4028
coup 4027
anticipated 4024
generating 4024
strengths 4024
daylight 4023
explosive 4023
vor@@ 4023
sensible 4022
flights 4021
loading 4021
logically 4021
canvas 4020
madness 4020
quantum 4020
greeks 4019
kno@@ 4019
donation 4018
hymn 4018
strengthened 4018
licensing 4017
mai 4017
suited 4017
glowing 4015
alia 4014
legally 4014
anointing 4013
delayed 4013
comforted 4012
ment@@ 4011
nationality 4011
swift 4011
roses 4010
slim 4010
terrorist 4010
tia 4010
ó@@ 4010
designing 4008
gambling 4008
handing 4006
offensive 4006
crawford 4004
liber@@ 4004
mas 4004
yoke 4004
94 4003
beasts 4003
saves 4003
rela@@ 4001
packing 4000
responses 4000
lap@@ 3999
gripped 3997
blamed 3996
defence 3996
shakes 3995
drifted 3994
isolation 3994
conceived 3992
greet 3992
t.c 3991
ini@@ 3990
lowering 3990
ransom 3990
sacrificed 3990
complexity 3989
consisted 3986
naval 3985
os@@ 3985
vis@@ 3985
wrap 3985
jeff 3983
sail 3982
toys 3982
matched 3979
porcelain 3979
tropical 3978
alan 3977
lacked 3977
82 3976
exploit 3976
urs 3976
acquaintance 3975
weeping 3975
ards 3974
treasures 3974
jake 3973
tennis 3973
dragging 3971
pro 3971
scores 3970
penny 3966
raced 3966
champagne 3964
filthy 3964
quest 3964
boot 3963
mixture 3963
nathan 3963
ux 3963
astonishment 3962
misunderstood 3962
peasant 3962
tat@@ 3962
hair@@ 3961
spit 3961
1989 3960
opponent 3960
professionals 3959
sunny 3959
robbery 3958
shepherds 3958
sip 3958
regimes 3957
productivity 3956
terrifying 3956
trumpet 3956
g. 3955
kil@@ 3954
scratch 3953
imprisonment 3952
amendment 3951
breeds 3951
installation 3951
sire 3951
sunshine 3950
vertical 3950
nursing 3949
appoint 3948
fs 3948
iah 3948
las 3944
consisting 3942
elite 3941
transported 3941
ache 3940
expose 3940
mates 3940
xes 3940
crept 3937
sey 3937
worthless 3937
fus@@ 3936
ranked 3936
blu@@ 3935
sue 3933
ace 3932
portal 3932
sible 3932
tended 3932
cancel 3931
enabled 3929
ralph 3929
plat@@ 3927
cecilia 3926
intimacy 3925
pie 3925
nods 3924
nearer 3923
stock@@ 3923
dul@@ 3922
bald 3921
cin@@ 3918
elementary 3918
fulfilling 3918
stem 3918
bullets 3917
bag@@ 3916
dot 3916
elled 3916
exodus 3916
night@@ 3916
swore 3916
bells 3915
lam 3915
smoothly 3915
willingness 3915
bucket 3914
pat 3914
provider 3914
pursued 3914
cad@@ 3913
composition 3913
sanctuary 3913
conferences 3912
cooper 3910
fat@@ 3910
fix@@ 3910
manhattan 3910
0,000 3909
cape 3909
conquest 3909
timber 3908
polished 3907
ala 3906
envy 3906
nonetheless 3906
persian 3906
eng@@ 3905
preceding 3904
cooperatives 3902
rejoice 3901
kilometers 3900
eliminated 3899
guarded 3899
organisms 3899
crashed 3896
nes@@ 3896
reluctantly 3896
strain 3896
tour@@ 3895
1990s 3894
aching 3894
ili@@ 3894
respectful 3893
eur 3892
lily 3892
shipping 3891
iv@@ 3889
spine 3889
amend 3888
ides 3887
towers 3887
squad 3886
visions 3886
dissolved 3885
influential 3884
awards 3882
corrected 3882
generals 3882
hugged 3882
senate 3882
ari 3881
coffin 3881
container 3880
ops 3880
1980 3879
mic@@ 3879
commodity 3878
streams 3878
ever@@ 3877
ord 3877
wins 3877
bullshit 3876
dissolution 3876
disturbing 3876
heights 3876
patrol 3876
statues 3876
attempting 3875
embarrassing 3875
ative 3874
renewed 3874
voluntarily 3874
sunset 3873
abstinence 3872
ration 3872
domains 3871
edmond 3870
politely 3870
expects 3869
v. 3869
forgiving 3867
gulf 3867
law@@ 3867
1960s 3866
deaf 3865
m3 3864
purity 3864
guardian 3863
manuscript 3863
sle@@ 3863
pose 3862
hospitality 3861
velvet 3860
journalist 3858
alright 3855
fists 3855
smashed 3855
bicycle 3852
pling 3851
agony 3850
julia 3849
boo@@ 3848
galilee 3848
chess 3847
gracious 3847
nervously 3847
zer@@ 3847
lodge 3846
xed 3846
remark 3845
hin@@ 3843
islamic 3843
let@@ 3843
trou@@ 3842
straightened 3840
lens 3839
boom 3838
format 3838
kal@@ 3838
mol@@ 3838
phil@@ 3838
tops 3838
butter 3837
caution 3836
drainage 3835
uni@@ 3834
passover 3833
io 3832
rendered 3832
té 3832
rebuild 3831
undoubtedly 3830
competitors 3829
historians 3829
cc@@ 3828
surgeon 3828
corridors 3827
gated 3827
unaware 3827
emotionally 3826
lend 3826
authentic 3825
disgust 3824
toxic 3824
fortress 3823
convert 3822
gy 3822
wer 3822
candles 3820
inevitably 3820
references 3820
bin@@ 3819
dest 3818
roy 3818
bishops 3816
authorization 3815
irrigation 3815
ball@@ 3814
sie 3814
bubble 3813
ised 3813
minerals 3812
obsessed 3812
clenched 3810
fax 3810
lump 3810
tes@@ 3809
arm@@ 3808
pathetic 3804
sweden 3804
taxpayers 3804
contest 3803
selfishness 3803
preachers 3802
unified 3802
darwin 3801
durable 3801
amid 3799
guinea 3799
thirst 3799
bee 3797
doubted 3797
inherit 3796
dg@@ 3794
listener 3794
sanction 3794
hollywood 3793
kov 3793
wick 3793
casually 3792
collaboration 3792
jem 3792
modification 3791
skilled 3791
pes 3790
recognizes 3790
repented 3790
sans 3790
glorified 3789
acquisition 3788
obscure 3788
shalt 3787
lic@@ 3786
ellen 3785
esp@@ 3785
ginny 3785
governing 3785
simplicity 3785
imagining 3783
sliding 3783
virtual 3783
dusty 3781
governed 3781
molecules 3781
screams 3780
famine 3777
requiring 3777
announcing 3776
swinging 3776
intermediate 3775
ote 3775
umbrella 3775
bis@@ 3772
palms 3772
1,000 3771
murders 3771
beans 3769
dramatically 3769
reviewing 3769
jam@@ 3768
planting 3768
splendid 3767
hay 3766
peasants 3765
dresses 3764
1985 3763
wears 3763
ora 3762
aling 3761
gies 3761
tile 3761
underlying 3761
cautiously 3760
employ 3760
hogwarts 3760
nit@@ 3759
gaining 3758
aver@@ 3757
slo@@ 3756
gossip 3755
behaviour 3754
manufacturer 3754
spider 3754
tives 3754
unions 3754
verbal 3754
hu 3753
aches 3752
negotiate 3752
homework 3751
lessness 3751
anh 3749
nan@@ 3749
connor 3748
foul 3748
pentecost 3748
squeeze 3748
lamps 3747
validity 3747
consult 3744
essay 3744
pharmaceutical 3744
whispers 3744
atomic 3743
gol@@ 3743
otto 3743
urging 3743
angles 3742
demonstration 3742
multiply 3742
factories 3741
secondly 3741
threaten 3740
marx 3739
nationwide 3739
einar 3737
ading 3736
bias 3736
static 3736
distribute 3733
timing 3733
nhon 3732
hydro@@ 3731
infant 3731
producer 3731
tales 3730
textbooks 3730
declarations 3728
fetch 3728
nguyen 3728
margaret 3727
radioactive 3727
traced 3726
intentionally 3724
steep 3724
begging 3723
dle 3723
findings 3723
kneeling 3723
robbed 3723
ami 3722
frightening 3722
intact 3722
wisely 3722
marius 3721
humiliated 3720
medi@@ 3720
neil 3720
watchtower 3720
fl 3719
lust 3719
epi@@ 3718
origins 3717
blankets 3716
thro@@ 3716
1984 3715
brightly 3715
shelves 3715
butt 3713
quar@@ 3713
rebuke 3713
victoria 3713
battery 3712
reminding 3712
waterway 3711
disagree 3710
employers 3710
roman@@ 3710
perceive 3709
glances 3708
achieving 3707
dig@@ 3707
horrified 3707
versus 3707
multitude 3706
ase 3705
balcony 3705
cela 3705
discount 3705
jia 3705
kisses 3705
successor 3705
equation 3703
remedy 3703
danced 3702
removal 3701
stumble 3701
champion 3699
any@@ 3698
fic@@ 3698
bizarre 3697
faculty 3696
abused 3695
implied 3694
tangible 3694
usa 3693
spreads 3692
consultation 3690
incomplete 3689
resumed 3688
nazi 3687
violated 3687
favour 3686
makeup 3686
procurement 3686
wasting 3686
fans 3685
pm 3684
vine 3683
jersey 3682
pills 3682
pré@@ 3682
snap 3682
clutching 3680
apparatus 3679
shiny 3679
1986 3677
but@@ 3677
isa@@ 3677
tyler 3677
insights 3676
remarks 3675
restaurants 3675
volumes 3675
afghanistan 3674
diagnosis 3674
diamonds 3674
gestures 3674
lec@@ 3674
alyosha 3673
declaring 3673
doll 3673
introducing 3673
lupin 3673
broad@@ 3672
involvement 3672
priesthood 3671
crude 3670
jar 3670
karl 3669
sideways 3669
ency 3667
loop 3666
fortunate 3665
replies 3665
doctrines 3664
oul@@ 3664
endured 3662
publisher 3662
springs 3662
ee@@ 3661
stool 3661
guessing 3660
trembled 3659
1988 3658
enlightened 3658
arch@@ 3657
hurriedly 3657
interfere 3657
joking 3657
warnings 3657
tte 3656
financially 3655
intently 3654
ante 3653
ashley 3653
ek 3653
p.m. 3653
dread 3652
hannah 3652
wool 3652
actors 3651
downtown 3651
arranging 3650
capitol 3650
evangel@@ 3650
fascinated 3650
philadelphia 3650
respectively 3650
fatigue 3649
spear 3649
110 3648
diagram 3648
1987 3647
supplemented 3646
assessing 3645
pillars 3645
1970 3644
promulgating 3644
withdrew 3641
barry 3638
fitted 3637
notices 3637
flooded 3636
ao 3635
resident 3634
stanford 3634
password 3631
scotland 3630
congratulations 3629
ongoing 3629
xa 3629
resort 3628
vocabulary 3628
cen@@ 3627
jace 3626
corpses 3625
chan@@ 3622
tails 3622
bernard 3619
freud 3619
ribs 3619
idle 3618
corrupt 3617
obtaining 3617
independently 3613
pered 3613
congregations 3612
convicted 3612
drowned 3612
orderly 3611
sion@@ 3611
app 3610
mobilization 3610
serial 3610
discoveries 3609
num@@ 3607
ideology 3606
luce 3606
confined 3604
pharmacy 3604
potatoes 3603
grandchildren 3597
reporters 3597
backwards 3596
nec@@ 3595
cain 3594
strongest 3593
vatican 3593
davis 3592
layers 3592
roared 3592
slowed 3592
declares 3591
oli@@ 3591
wildly 3591
resisted 3590
unchanged 3590
impacts 3589
ack 3588
mari 3586
ans@@ 3585
britt 3585
crawled 3585
princes 3585
1st 3584
lou@@ 3584
recounted 3584
tri 3584
linen 3583
lows 3580
allowances 3579
ep 3579
katherine 3578
accompany 3576
barriers 3576
bling 3576
chapel 3576
scales 3576
tr 3576
widespread 3575
prints 3574
swollen 3572
echo 3570
ambitious 3569
lic 3569
vary 3569
kan@@ 3568
ero 3567
mou@@ 3567
incentive 3566
communicating 3565
preparations 3565
williams 3564
enjoyment 3563
mont 3563
indifference 3561
seasons 3561
bands 3560
flipped 3560
philippians 3559
hats 3558
purchasing 3558
vincent 3557
edly 3556
males 3556
ité 3555
scenario 3554
inged 3553
siege 3553
sman 3553
drawings 3552
sleeves 3552
veil 3551
advertisement 3550
tactics 3550
zen@@ 3550
zion 3550
casino 3549
pharisi 3549
traits 3549
anniversary 3548
cluster 3548
oneself 3548
elf 3547
legislative 3547
veins 3547
pension 3546
scra@@ 3546
vengeance 3546
inj@@ 3545
producers 3545
ab 3544
influences 3543
invaded 3543
rated 3543
ō@@ 3541
financing 3540
russell 3540
gains 3539
foreigner 3537
sai 3537
canadian 3536
amongst 3535
careers 3534
caleb 3532
chem@@ 3531
oo@@ 3531
tastes 3531
warrant 3531
anderson 3530
gh 3530
bad@@ 3529
fork 3529
entrepreneur 3528
consecutive 3527
escaping 3527
lucas 3527
fe 3525
hurting 3525
negotiations 3525
arri@@ 3524
oath 3524
attach 3522
willingly 3522
margin 3521
expedition 3520
hus@@ 3520
intuition 3519
phuoc 3519
sau@@ 3519
dependence 3518
upside 3518
dol@@ 3517
liquidation 3517
manufacturers 3517
dial 3516
enforced 3516
gener@@ 3516
ington 3516
emphasizing 3515
gloomy 3515
portuguese 3515
rival 3514
dire 3513
theatre 3512
thu@@ 3512
deliberate 3511
evaluating 3510
augustus 3509
chin@@ 3509
declined 3509
millennium 3508
sum@@ 3508
eux 3507
mic 3507
airplane 3506
dow@@ 3506
mmm 3506
immune 3505
oted 3505
dock 3504
narrowed 3504
1975 3503
pha@@ 3503
sw@@ 3503
slipping 3502
framed 3501
warehouses 3501
yi 3501
ech 3500
freezing 3500
ola 3499
richer 3499
straightforward 3499
sunk 3499
battlefield 3498
cer 3498
herd 3498
server 3498
posture 3497
gale 3496
readily 3496
700 3495
gary 3494
lottery 3494
clearer 3493
auditing 3492
pavement 3492
iously 3491
mam 3491
specially 3491
compelled 3490
fighter 3490
gy@@ 3490
razor 3489
{ 3489
kri@@ 3485
eagle 3484
default 3482
jum@@ 3482
£ 3482
fountain 3479
reviewed 3479
destined 3478
conform 3477
feathers 3477
grove 3477
ached 3476
ately 3475
elephant 3475
elves 3475
mortal 3475
tearing 3474
theft 3474
hs 3473
blood@@ 3472
invoice 3472
rating 3472
coats 3471
huu 3471
duck 3470
flashing 3470
outfit 3468
pi 3468
cousins 3466
investigating 3466
bir@@ 3465
zo 3465
fluid 3464
violently 3464
who@@ 3464
voting 3463
ancy 3462
plu@@ 3462
seize 3462
swa@@ 3462
nephew 3461
scare 3461
bers 3460
considers 3460
contradictory 3460
lé@@ 3460
tra 3460
weighed 3459
competing 3458
earl 3457
moonlight 3457
sna@@ 3457
ss@@ 3457
fanny 3456
designer 3453
leaped 3452
adjacent 3451
objection 3451
potentially 3451
embraced 3450
solely 3450
brow@@ 3449
desirable 3449
indi@@ 3449
isabel 3449
shouts 3448
slender 3448
dering 3444
distorted 3444
doubled 3444
neglect 3443
taller 3443
finest 3442
rod 3442
mustang 3441
wax 3441
mindset 3440
strode 3440
addressing 3439
psychologist 3439
pupils 3439
scored 3438
acquainted 3437
impatiently 3437
renewal 3437
turnover 3437
exclusively 3436
respectable 3435
strained 3434
12.@@ 3431
longest 3431
grape 3430
traded 3430
poli@@ 3429
marvelous 3427
vac@@ 3427
que@@ 3425
rebellious 3425
10,000 3424
exploring 3424
helicopter 3424
manufactured 3424
messengers 3424
4,@@ 3423
interrupt 3423
reforms 3423
spectrum 3423
accounted 3422
adams 3422
ects 3422
anchor 3421
wis@@ 3421
civilized 3420
gandalf 3420
grades 3420
reasonably 3420
unprecedented 3419
ises 3418
suitcase 3418
mobilize 3417
builds 3416
hm 3416
magnetic 3416
embassy 3415
mp 3415
jerry 3414
marshall 3414
outlined 3414
dang 3412
quantities 3412
oral 3410
subsequently 3409
ida 3408
doc@@ 3407
linda 3407
cultivation 3403
spe@@ 3403
thri@@ 3403
wept 3403
bundle 3402
compensate 3402
ddled 3402
rip 3401
delivering 3400
mentor 3400
representation 3400
sucked 3399
kicking 3398
pots 3398
recipient 3398
auto@@ 3397
froze 3396
discreet 3395
pou@@ 3394
workplace 3394
ef@@ 3393
jan 3393
guitar 3392
ashed 3391
featured 3391
stat@@ 3390
christ@@ 3388
extraction 3388
prejudice 3388
stepan 3388
yelling 3388
instinctively 3386
natasha 3386
wander 3386
flip 3385
ninth 3385
stan@@ 3384
zar@@ 3384
bind 3382
mari@@ 3382
milady 3381
icy 3379
ast 3378
pec@@ 3377
house@@ 3376
salaries 3376
appetite 3375
bargain 3375
borne 3375
fa 3374
speeches 3374
tioned 3374
gus 3373
ome 3373
psychologists 3373
treaties 3373
ambulance 3368
genuinely 3368
seriousness 3368
vel 3368
ges@@ 3367
template 3367
whistle 3367
deed 3366
rit@@ 3366
territories 3366
arrows 3365
jay 3365
pioneer 3365
neuro@@ 3364
vault 3364
zu 3364
discharge 3363
shaw 3363
executing 3362
josé 3362
antly 3361
farms 3361
goats 3361
kills 3361
bitterly 3360
petition 3358
stal@@ 3358
ank 3357
carlisle 3357
promulgation 3357
freeze 3356
bending 3355
fraction 3355
heel 3354
preferences 3354
crow 3350
deputies 3350
malaysia 3349
sailed 3349
hooked 3348
soaked 3348
fools 3347
bes 3346
elections 3346
safer 3346
amazement 3345
human@@ 3345
terminate 3345
booth 3344
incurred 3344
2019 3342
abo@@ 3342
noisy 3342
graduation 3341
bees 3340
brands 3340
clinging 3340
volunteers 3340
vul@@ 3340
dominate 3339
tortured 3339
engaging 3338
snu@@ 3338
sweep 3338
reverence 3337
twist 3337
1968 3336
2nd 3336
architect 3336
disp@@ 3334
newton 3334
momentum 3333
agenda 3332
allied 3332
receipts 3332
slaughter 3332
defending 3330
conspiracy 3329
eling 3328
solitary 3328
escal@@ 3327
uniforms 3327
walker 3327
été 3327
wer@@ 3326
excluding 3324
shells 3324
marriages 3323
usage 3323
piled 3321
ud 3320
deer 3319
sensitivity 3319
incapable 3318
screwed 3318
collectively 3316
chal@@ 3314
correction 3314
bug 3313
drift 3313
pains 3311
ax@@ 3310
halls 3310
nag@@ 3310
proposing 3310
rever@@ 3310
appearances 3307
gers 3307
heated 3307
optimistic 3306
hast 3305
peers 3304
prompted 3304
votes 3304
popped 3303
premises 3303
courageous 3301
earnest 3300
met@@ 3300
unreasonable 3300
alexandrovich 3299
cavalry 3299
gal 3299
fireplace 3298
shocking 3298
titus 3297
equi@@ 3296
neglected 3296
spectacular 3296
terrorism 3296
earning 3295
graph 3293
risky 3293
atticus 3292
jerked 3292
exempt 3291
explosives 3291
ezekiel 3291
tightened 3291
abide 3290
altered 3290
cock 3289
predetermined 3289
regi@@ 3289
pricing 3288
mation 3287
dt 3286
descent 3285
generosity 3285
transmit 3285
commentary 3284
ffs 3284
summarized 3284
tolerate 3283
pillar 3282
unbelievers 3281
allan 3280
anism 3280
cks 3280
dispatch 3279
formulating 3279
guil@@ 3279
lock@@ 3279
agape 3278
cooked 3278
geography 3278
ibm 3277
1982 3276
alas 3276
beautifully 3276
goo@@ 3276
percy 3276
sow 3276
initiated 3275
themes 3274
aki 3273
exceptions 3273
lent 3273
ên 3273
day@@ 3272
inspected 3272
kingdoms 3272
protocol 3272
breach 3271
cheating 3271
importing 3271
weaker 3271
admission 3270
castorp 3270
procuracy 3269
terrace 3269
aka 3267
cac 3267
icon 3267
starling 3267
herewith 3266
relocation 3266
flush 3264
isabelle 3264
republican 3264
gravel 3263
imperfect 3263
indication 3263
suspend 3263
2,000 3262
athletes 3262
practitioners 3262
worldly 3262
subway 3260
invent 3259
kinh 3259
neville 3259
outcomes 3259
boy@@ 3258
seas 3258
menu 3257
spir@@ 3257
determines 3256
div@@ 3256
extract 3256
leased 3256
fertile 3255
kay 3255
survivors 3255
1973 3254
admiral 3254
chim@@ 3254
lier 3254
monsters 3254
nineteen 3254
person@@ 3254
reas@@ 3254
revived 3254
blackthorne 3253
illustrates 3252
colonies 3251
irritated 3251
legacy 3251
plac@@ 3249
vs 3249
annie 3248
iner 3248
nat 3248
got@@ 3247
mers 3247
shar@@ 3247
alter 3246
laptop 3246
mysteries 3245
austria 3243
consolidation 3243
illuminated 3243
ridge 3243
evidences 3242
conceal 3241
sup@@ 3241
enne 3240
absorb 3239
presidential 3239
regiment 3239
theologian 3239
myth 3238
succession 3238
imaginary 3237
swedish 3235
tax@@ 3235
calculations 3234
devastating 3233
hotels 3232
compelling 3230
khai 3230
pipes 3230
rented 3230
mexican 3229
resigned 3229
toast 3229
campaigns 3228
credits 3228
slapped 3227
adi@@ 3226
erik 3226
penetrate 3225
transferring 3225
centered 3224
resolutions 3224
precision 3223
writings 3223
presently 3222
tag@@ 3222
nen 3221
ppers 3221
gentile 3220
gin 3220
noting 3220
éri@@ 3220
1983 3219
surviving 3219
tooth 3219
grasped 3218
comparable 3217
lace 3217
matching 3217
descriptions 3216
restless 3216
seeming 3216
ute 3216
artistic 3215
net@@ 3213
oriented 3213
cognitive 3210
anytime 3209
excuses 3208
boarding 3207
circumstance 3207
contracting 3207
array 3206
bonus 3206
ox@@ 3206
retrieved 3206
sign@@ 3206
width 3206
jac@@ 3205
logist 3205
meditate 3205
fermín 3204
curses 3203
chips 3202
ado 3201
plunged 3199
shel@@ 3199
warming 3199
atoms 3198
winding 3198
imper@@ 3196
spilled 3196
gue 3194
leon 3194
shu@@ 3194
australian 3193
hum 3192
tait 3192
ō 3192
airlines 3191
mason 3191
exceptional 3190
privately 3190
pilots 3189
sleepy 3188
mansion 3186
tag 3186
vicious 3186
drill 3185
blaming 3184
myron 3184
proudly 3184
reacted 3184
rooted 3184
anticipation 3183
navigation 3182
douglas 3181
predictions 3181
ranking 3181
privileged 3179
1979 3178
alarmed 3178
nha 3178
devils 3177
automobile 3175
boast 3175
patent 3175
amusement 3174
dwarf 3174
jar@@ 3174
6,@@ 3173
ater 3173
dc 3173
eri 3173
riddle 3173
grinning 3172
seals 3172
bait 3171
colon@@ 3171
exhaustion 3170
apartments 3169
nowadays 3169
ole 3167
adjusting 3166
palestine 3166
plato 3166
disciplinary 3165
illegally 3165
crawl 3164
interact 3164
ceremonies 3163
proceedings 3163
protein 3163
bb@@ 3162
cane 3162
crouched 3161
hn 3159
lawrence 3159
julian 3158
mot@@ 3158
railroad 3158
agrees 3157
nella 3157
tilted 3157
trunks 3157
cheer 3156
berry 3155
jen@@ 3155
hacker 3154
clary 3153
disposition 3152
tas@@ 3152
melted 3151
with@@ 3150
clark 3149
cation 3148
discouraged 3148
quotes 3148
sermon 3148
sac@@ 3147
spends 3147
yel@@ 3147
cole 3146
frowning 3146
smu@@ 3146
detention 3145
ection 3145
instruct 3145
decorated 3144
hardware 3144
surroundings 3144
tod 3144
architectural 3143
clu@@ 3143
kat 3142
cam 3141
tal 3141
kent 3140
periodically 3139
clues 3138
aroused 3137
blindness 3137
counts 3137
associates 3136
poses 3136
witnessing 3136
break@@ 3135
eats 3135
rotten 3135
skeptical 3135
til@@ 3135
betray 3134
form@@ 3134
refugees 3134
speci@@ 3134
columbia 3133
fen@@ 3133
gle@@ 3133
mont@@ 3133
thailand 3132
triangle 3132
variation 3132
ared 3131
inappropriate 3131
gold@@ 3130
bac@@ 3129
float 3129
aquaculture 3128
backing 3128
11@@ 3127
dimensional 3127
wires 3126
fiercely 3125
bran@@ 3124
intensive 3124
jasper 3124
disney 3123
recruitment 3123
suck 3123
tous 3123
bethel 3122
inflation 3122
lum@@ 3122
messy 3121
scri@@ 3121
1971 3120
balloon 3120
coward 3120
holly 3120
logists 3119
subconscious 3119
chuckled 3118
landlord 3118
mitya 3118
cambridge 3117
lian 3117
part@@ 3117
was@@ 3117
ast@@ 3114
snakes 3114
mountainous 3113
tien 3113
sworn 3112
withdrawn 3111
adjustments 3109
empathy 3109
mumbled 3109
supervising 3109
tapes 3109
sour 3108
females 3107
repay 3107
knot 3106
scal@@ 3106
garments 3105
reliability 3105
sore 3103
fights 3102
andy 3101
arrives 3101
morris 3101
slu@@ 3101
airline 3100
illustrations 3099
knights 3099
temptations 3099
nell 3098
toe 3097
characterized 3095
helmet 3095
inhabited 3095
antichrist 3093
1969 3091
lame 3091
specialist 3091
maids 3090
stand@@ 3090
pal 3089
groaned 3088
indirect 3088
misfortune 3088
passions 3087
chester 3086
powered 3086
ú@@ 3086
dedicate 3085
plannings 3085
saddle 3085
cm 3084
trac@@ 3084
laundry 3082
titled 3082
arya 3081
despised 3081
rebuked 3081
hal 3080
vegas 3080
beef 3079
whatsoever 3079
drum 3078
francs 3078
hoi 3078
hr 3078
rebels 3078
samurai 3078
offspring 3077
exhibition 3075
gym 3075
sor 3075
broadcasting 3074
recommendations 3074
maggie 3073
anxiously 3072
giants 3072
analyzing 3071
ci 3071
kur@@ 3071
voted 3070
currencies 3069
julie 3069
rat@@ 3069
gorgeous 3068
.com 3066
gas@@ 3065
revelations 3065
1974 3064
weep 3064
pier 3063
ress 3063
becca 3062
picks 3062
superiority 3062
ando 3061
upgrade 3061
wesley 3061
dor 3060
frederick 3060
phuong 3060
rightly 3060
axis 3059
vinh 3059
wan 3059
apology 3058
dealer 3058
merger 3058
operates 3058
irregular 3057
tabernacle 3057
thereafter 3057
technically 3056
taxable 3055
audio 3054
dain 3054
rien 3054
sustained 3054
dic 3053
exceeds 3053
accumulated 3052
fearing 3052
premiums 3052
render 3052
cing 3051
hue 3051
ph 3051
white@@ 3050
athens 3049
exams 3049
pitched 3049
defendant 3048
hr@@ 3048
proposition 3048
stirring 3048
wary 3048
mack 3047
1981 3046
evenings 3046
impe@@ 3046
websites 3046
1960 3045
cling 3045
populations 3045
relying 3045
witches 3045
aqu@@ 3044
ct 3043
moore 3043
1965 3042
isu 3042
galaxy 3041
growled 3041
aur@@ 3040
hedge 3040
compose 3039
loads 3039
asi@@ 3038
unfamiliar 3038
psychic 3036
programming 3035
enthusiastically 3034
gospels 3034
fare 3033
quarrel 3033
swe@@ 3033
restructuring 3032
impress 3030
mechanics 3030
monica 3030
contradiction 3029
crawling 3029
rick 3029
attachment 3028
pete 3028
tured 3028
zealous 3028
rizzoli 3027
sus@@ 3027
vanity 3027
worm 3027
buck 3026
meggie 3026
colony 3025
liquor 3025
mattered 3025
poorly 3025
refer@@ 3025
sof@@ 3024
assessed 3023
bler 3023
musicians 3023
brooklyn 3022
stru@@ 3022
daphne 3021
novels 3021
collector 3019
spin@@ 3019
bewildered 3018
confidential 3018
pilate 3017
sailing 3017
preference 3016
ryan 3015
sweeping 3015
dine 3014
frank@@ 3014
ici 3014
attain 3012
filing 3011
mock 3010
publishers 3009
rocket 3009
spoiled 3008
ap 3007
donkey 3007
fan@@ 3007
bout 3006
fisheries 3006
franklin 3006
petersburg 3006
sous 3006
aisle 3004
lighted 3004
nab@@ 3004
skinny 3004
lydia 3003
roaring 3000
rounded 3000
scandal 3000
scanned 3000
vouchers 3000
disciplines 2998
pled 2998
spacious 2997
dismiss 2996
ila 2996
wr@@ 2996
amelia 2995
supposedly 2995
asshole 2994
closes 2994
paralyzed 2994
shortcomings 2994
cally 2993
impressions 2993
shaft 2993
sweater 2993
frost 2992
nancy 2992
dynamics 2991
inherent 2991
needing 2991
sexually 2991
similarities 2991
unstable 2991
viewing 2991
ideals 2990
multiplication 2990
opponents 2990
fatherland 2989
florence 2989
sellers 2988
oured 2987
appropriately 2986
urgency 2986
3rd 2985
lung 2985
drained 2984
nailed 2984
paces 2984
real@@ 2984
signatures 2984
smarter 2984
fairness 2983
horizontal 2983
kit 2983
vis 2980
commissioned 2979
oping 2979
presumably 2978
detectives 2977
hunters 2976
stark 2976
betrayal 2975
coverage 2975
fade 2975
gos 2974
thed 2974
matic 2973
rin@@ 2973
tempting 2973
bia 2972
misunderstanding 2972
perfume 2972
scarf 2972
scars 2971
solic@@ 2970
voyage 2970
chef 2969
organism 2969
stamped 2969
equals 2968
anguish 2967
wretched 2967
endurance 2966
stamps 2966
versa 2966
aureliano 2965
dislike 2965
unlocked 2965
choked 2963
cruelty 2963
grandson 2963
ware 2963
sandy 2962
dripping 2960
facilitate 2960
prostitution 2960
juan 2959
tumor 2959
beck 2958
definitions 2958
1976 2957
actress 2957
guarantees 2957
modify 2957
rebel 2957
chil@@ 2956
broker 2955
infinitely 2955
reproach 2955
romance 2955
wol@@ 2955
www.@@ 2955
goose 2954
abandoning 2953
cannon 2953
commanding 2953
pizza 2953
disbelief 2952
drunken 2952
shifts 2952
differ 2951
lur@@ 2951
drifting 2950
greg 2950
performs 2950
tho 2950
camille 2949
ous@@ 2949
capit@@ 2948
cet 2948
gdp 2948
patted 2948
preserving 2948
quarterly 2948
arc 2947
bucks 2947
formally 2947
pag@@ 2947
hosts 2946
sketch 2946
yossarian 2946
chev@@ 2945
fellows 2945
lations 2945
len 2945
tem@@ 2945
pictured 2944
graves 2943
lig@@ 2943
scribes 2943
supervisor 2943
separating 2942
1972 2941
redeemer 2941
starving 2941
thieves 2941
marking 2940
creek 2939
interviewed 2939
density 2938
terrain 2938
anthony 2937
dinh 2937
fertilizer 2937
jesse 2937
oddly 2937
qua@@ 2937
resume 2937
realities 2935
vii 2935
awaiting 2934
dividing 2934
incorrect 2934
int@@ 2934
poland 2934
ribbon 2934
accountant 2933
heed 2933
jerk 2933
vacuum 2933
weakened 2933
1950s 2932
thoughtfully 2932
dive 2931
filter 2931
travis 2931
cd 2930
floated 2930
ples 2930
aura 2929
exporting 2929
airports 2928
quadrant 2928
chairperson 2927
darker 2927
porter 2927
liberated 2926
pot@@ 2926
arabic 2925
marrying 2925
smoked 2925
wrists 2925
urgently 2924
stam@@ 2923
1967 2922
appealing 2921
dump 2921
gel@@ 2921
presses 2921
affirm 2920
capitalism 2919
scarlet 2919
valjean 2919
arch 2918
perspectives 2918
proceeds 2918
crosses 2917
disagreement 2917
hh 2917
sells 2917
decay 2916
faithfully 2916
hardest 2916
sandwich 2916
sincerity 2916
frown 2915
seth 2915
darkened 2914
variable 2914
tones 2912
villa 2912
glared 2911
knives 2911
oni@@ 2911
clung 2910
propaganda 2910
travels 2910
comfortably 2909
mystical 2909
oma 2909
gent 2908
jaws 2908
copying 2907
haste 2907
rumor 2907
scrap 2907
à@@ 2907
immoral 2906
manifested 2906
replaces 2906
usion 2906
ables 2905
courtesy 2905
dead@@ 2905
cunning 2904
membership 2903
controversy 2902
radar 2902
compiled 2901
governance 2901
ities 2901
periodic 2901
observance 2900
dancer 2899
apples 2898
daisy 2898
gifted 2898
noises 2898
salomon 2898
construct 2897
gang@@ 2897
ivanovna 2897
9,@@ 2896
chickens 2896
clam@@ 2896
mem@@ 2896
accord 2895
comb 2895
fossil 2895
tire 2895
twisting 2895
blake 2894
disturb 2893
gag@@ 2893
parade 2893
peering 2893
specimen 2893
vitality 2893
eo 2892
favourite 2892
swan 2892
tted 2892
unconditional 2891
elbows 2889
lot@@ 2888
pig@@ 2888
robinson 2888
beijing 2887
slice 2887
henri 2886
persecuted 2886
beau@@ 2885
bre 2885
evaluated 2885
expelled 2885
irs 2884
span 2884
haymitch 2883
humiliating 2883
awe 2882
home@@ 2882
phong 2882
tubes 2882
charts 2881
cked 2881
factions 2881
robots 2881
vampire 2881
sait 2880
4th 2879
baron 2878
canon 2878
electronics 2878
ankle 2877
inspiring 2877
spill 2877
surveys 2877
advocates 2876
clicked 2876
sanctioned 2876
ori 2874
ont 2872
wastewater 2871
depended 2870
feasibility 2870
poles 2869
scratched 2869
shakespeare 2869
inquiry 2868
relieve 2868
5,@@ 2867
alaska 2867
inspectorate 2867
turkish 2867
blades 2866
rental 2866
traitor 2866
medal 2865
bathing 2864
cadres 2864
fam@@ 2864
mob 2864
sm 2864
expired 2863
treats 2863
anders 2862
tournament 2862
tam 2861
arian 2860
disclosure 2860
integrate 2860
nut 2860
unlimited 2860
convenience 2859
lasts 2859
aristotle 2858
carter 2858
electro@@ 2858
patron@@ 2858
bra 2857
cursing 2857
prosecution 2857
haw@@ 2856
mall 2856
ple 2856
firstly 2855
indirectly 2855
cross@@ 2854
ordering 2854
bark 2853
locate 2853
soccer 2853
impatience 2852
nurture 2852
adapted 2851
debut 2851
eleanor 2851
gleaming 2851
retreated 2851
eye@@ 2850
lpg 2850
pc 2850
badge 2849
behaved 2849
lillian 2849
flashlight 2848
liking 2848
acres 2847
mattress 2846
7,@@ 2845
inquired 2845
chambers 2844
dallas 2844
northwest 2844
thigh 2844
1978 2843
diff@@ 2842
hybrid 2842
étaient 2842
deemed 2841
justin 2841
remedial 2841
auto 2840
nov@@ 2840
ological 2840
fogg 2839
folds 2839
maze 2839
perry 2839
constitute 2838
pleading 2838
speculation 2838
blocking 2836
considerably 2836
containers 2836
disposed 2835
fingertips 2835
nostrils 2835
blan@@ 2834
illa 2834
pump 2834
sevro 2834
stor@@ 2834
lesser 2833
furiously 2831
grammar 2831
bas 2830
deducted 2830
jon@@ 2830
colleges 2829
objections 2829
rest@@ 2829
supervisory 2829
carolina 2828
chatting 2828
naming 2828
streaming 2828
comrade 2827
dges 2827
mother@@ 2827
demonic 2826
gaps 2826
reconcile 2825
repayment 2825
hugo 2824
vu 2824
prolonged 2823
teens 2823
beats 2822
lish 2822
acute 2821
particle 2821
regain 2820
desperation 2819
retire 2819
micro 2818
psycho@@ 2818
salesman 2818
aug@@ 2817
homeless 2817
leur 2817
popularity 2817
gat@@ 2816
scan 2816
wheelchair 2816
advisory 2815
monkeys 2815
chiefs 2814
driveway 2814
reckon 2814
sean 2814
teenage 2814
sweetheart 2813
kel@@ 2812
mice 2812
reversed 2812
rub 2812
alexei 2811
iri@@ 2811
bachelor 2810
ela 2810
pleasing 2810
colonial 2809
inspire 2809
strengthening 2809
mach@@ 2808
yl 2808
author@@ 2807
dless 2807
mortality 2807
nobel 2807
olympic 2807
sailors 2807
tremble 2807
wre@@ 2807
astonishing 2806
memorize 2806
motioned 2806
arr@@ 2805
cans 2805
iite 2805
toll 2805
arctic 2804
dome 2804
rey 2804
biography 2803
notified 2803
testified 2803
vy 2803
ecting 2802
prediction 2802
celebrating 2801
levi 2801
restrictions 2801
saigon 2801
ves@@ 2801
finch 2800
compliment 2799
legendary 2799
raymond 2798
chang@@ 2797
mini 2797
niece 2797
wholesale 2797
worthwhile 2797
ascended 2796
harper 2796
fragments 2795
ough 2795
grapes 2794
joan 2794
1950 2793
bothering 2793
fastened 2793
keepers 2793
natur@@ 2793
piles 2793
tting 2793
athletic 2792
ordin@@ 2792
sexuality 2792
wastes 2792
andrei 2791
ials 2791
kas@@ 2791
surplus 2791
his@@ 2790
linking 2790
ures 2790
deceased 2789
deprived 2789
folding 2789
julián 2789
vernon 2789
hissed 2788
sobbing 2788
variations 2788
í 2788
infectious 2787
granny 2786
lawsuit 2786
see@@ 2786
angel@@ 2785
orbit 2785
prob@@ 2785
rejecting 2785
unclear 2785
briefcase 2784
kim@@ 2784
marketplace 2784
championship 2783
cough 2783
hul@@ 2783
whipped 2783
thine 2782
temps 2781
terry 2781
alexandra 2780
banker 2780
clinton 2780
gar 2780
rider 2780
cosette 2779
ration@@ 2779
socrates 2779
aring 2778
tipped 2778
utmost 2778
craig 2777
vineyard 2777
dragons 2776
moi 2776
1944 2775
alexandria 2775
flour 2775
tiles 2775
curiously 2774
chronic 2772
stalin 2772
graceful 2771
parameters 2771
berger 2770
enables 2770
bach 2769
gli@@ 2768
ow 2768
surge 2768
childish 2767
feeds 2767
itation 2767
whore 2767
blinking 2766
hed 2766
lakes 2766
resignation 2766
duc 2764
leapt 2764
mono@@ 2764
ón 2764
affordable 2763
armchair 2763
ero@@ 2763
prop@@ 2763
suspects 2762
adversity 2761
courtroom 2761
defended 2761
thrilled 2761
undergo 2761
costume 2760
jon 2760
painfully 2760
storing 2760
hugging 2759
kha@@ 2759
wiping 2758
yn@@ 2758
coke 2757
eau 2757
gian 2757
nets 2757
ragged 2756
disguise 2755
scenery 2755
bio 2754
eds 2754
mccaleb 2754
melt 2754
rents 2754
dling 2753
extracted 2753
izes 2753
piercing 2753
sauce 2753
salespeople 2752
depository 2751
inge 2751
mocking 2751
quixote 2751
spells 2751
wri@@ 2751
cultivated 2749
medic@@ 2749
realised 2749
ams 2748
manifestation 2748
tents 2748
103 2747
ryrie 2747
shuddered 2747
ange 2746
unite 2746
citadel 2745
metres 2745
aspirations 2744
terrorists 2744
hardened 2743
numb 2743
snatched 2743
para@@ 2742
year@@ 2742
smelling 2741
vie 2741
cheaper 2740
indonesia 2740
tening 2740
combining 2739
consolidated 2738
sequ@@ 2738
void 2738
coordinating 2737
martial 2737
bombing 2736
cking 2736
considerations 2736
gigantic 2736
nurturing 2736
remarkably 2736
vich 2736
kir@@ 2735
literal 2735
georgia 2734
sizes 2734
esau 2733
glare 2733
inscribed 2733
j.@@ 2733
bard 2732
imply 2732
raoul 2732
renovation 2732
spared 2732
staggered 2732
unworthy 2732
10.@@ 2731
autre 2731
occurrence 2731
selecting 2731
subjected 2730
levy 2728
0.@@ 2727
calf 2727
operators 2727
faire 2726
kie 2726
weigh 2726
bow@@ 2725
claws 2725
gab@@ 2725
realms 2725
sher@@ 2725
unbelief 2725
eri@@ 2724
stall 2724
plead 2723
remainder 2723
spat 2723
sticky 2723
weighing 2723
blonde 2722
eldest 2722
indispensable 2722
pitiful 2722
ques 2722
side@@ 2722
zealand 2722
bacon 2721
sharon 2721
superficial 2721
dumped 2720
marching 2720
roark 2720
posing 2719
shire 2719
sexy 2718
wrinkled 2718
jam 2717
mim@@ 2717
mustn 2717
nt 2717
simplest 2717
situated 2717
weeds 2717
travelling 2715
undertake 2715
discarded 2714
dwells 2714
heap 2714
poisoned 2714
procession 2714
rim 2714
abortion 2712
betty 2711
eus 2711
opposing 2711
dled 2710
rem@@ 2710
torch 2710
gloom 2709
jack@@ 2709
tai 2709
1000 2708
banner 2708
comedy 2708
ephesus 2708
seattle 2708
step@@ 2708
sweating 2708
î@@ 2707
covid 2706
maxim@@ 2706
protestants 2706
vase 2705
á 2705
analogy 2704
garment 2704
nikolai 2704
crooked 2703
dazzling 2703
extending 2703
ld 2703
bricks 2702
anda 2701
grandma 2701
indicators 2701
sown 2701
neutr@@ 2700
paradox 2700
spray 2700
attribute 2698
jab@@ 2698
strokes 2698
throws 2698
eman 2697
justification 2697
oting 2697
ros 2697
cult 2696
denies 2696
floods 2696
vo 2696
ign@@ 2695
christopher 2694
detecting 2694
excitedly 2694
minimize 2694
sighs 2694
styles 2694
suffers 2694
junk 2693
oriental 2693
compass 2692
seminars 2692
ripe 2691
val 2691
liabilities 2690
mcgonagall 2690
saith 2690
thin@@ 2690
transporting 2690
yep 2690
11.@@ 2689
careless 2689
pressures 2689
aga@@ 2688
accompanying 2687
basketball 2687
fading 2687
limp 2687
ppy 2687
prostitute 2687
1. 2686
itable 2686
comrades 2685
harmon@@ 2684
murmur 2684
stop@@ 2684
bedside 2683
pablo 2683
anim@@ 2682
hardship 2682
infer@@ 2682
muffled 2682
unbearable 2682
accusations 2681
backup 2681
detection 2681
unwilling 2681
annoying 2680
panting 2679
quan 2679
atten@@ 2678
dru@@ 2678
feminine 2678
moderate 2678
paradigm 2678
structural 2678
southwest 2677
vic 2677
rocky 2676
breakthrough 2673
callie 2673
dilemma 2672
galbatorix 2672
ling@@ 2672
tunnels 2672
bred 2671
alternatives 2669
environments 2669
struggles 2669
explored 2668
m2 2668
reviews 2668
clusters 2667
grassroots 2667
boiling 2666
fiber 2665
metaphors 2665
ư@@ 2665
headache 2664
economists 2663
hereby 2663
wright 2663
controversial 2662
defines 2662
earnestly 2662
mariko 2662
melancholy 2662
palestinian 2662
thirds 2662
deposited 2660
hydrogen 2660
reside 2660
successes 2660
adventures 2659
luna 2659
victories 2659
fixing 2658
haunted 2658
depart 2657
kit@@ 2656
phoenix 2656
ambitions 2654
learners 2654
ng@@ 2654
screens 2654
simpler 2654
disadvantages 2653
emo@@ 2653
stre@@ 2653
t.@@ 2653
christi@@ 2652
compassionate 2652
consume 2652
consuming 2652
hurrying 2651
180 2650
cracks 2650
directory 2650
3,000 2649
vou@@ 2648
5th 2647
disastrous 2647
hide@@ 2646
learns 2646
abi@@ 2645
winners 2645
ashi 2644
imposing 2644
reel 2644
dots 2643
drafting 2643
remnant 2643
ooh 2642
sober 2642
transforming 2642
tta 2642
way@@ 2642
avi@@ 2640
encore 2640
forecast 2640
multiplied 2640
sanctions 2640
cigar 2639
pakistan 2639
porte 2639
argentina 2638
coldly 2638
luckily 2638
monseigneur 2638
uring 2638
wardrobe 2638
3d 2637
leverage 2637
plaza 2637
tha@@ 2636
efficiently 2635
promulgates 2635
resettlement 2635
thankful 2635
alec 2634
europeans 2634
raid 2634
gation 2633
tapping 2633
toby 2633
cau@@ 2632
tam@@ 2632
regul@@ 2631
rus@@ 2631
alo@@ 2630
anjin 2630
collaborate 2630
compartment 2630
morally 2630
responds 2630
riders 2630
cle 2628
exaggerated 2628
faintly 2628
atic 2627
cupboard 2627
jewels 2627
1914 2626
1964 2626
bel 2626
cot 2626
tar 2626
tribute 2626
creed 2624
exhibit 2624
folder 2624
harmless 2624
bilbo 2623
rah 2623
sanitation 2623
thighs 2623
boiled 2622
dudley 2622
devote 2621
fau@@ 2621
shin@@ 2621
striving 2621
bot 2619
show@@ 2619
18th 2618
bulk 2618
continental 2618
blog 2617
dusk 2617
ggle 2617
protects 2617
credibility 2616
drawers 2616
tub 2616
fundamentally 2615
supporters 2615
compatible 2613
moto 2613
observer 2613
rewarding 2613
whiskey 2613
boredom 2612
freight 2612
indicator 2612
joey 2612
rain@@ 2612
worms 2612
pennsylvania 2611
stares 2611
rein@@ 2610
leisure 2609
ski@@ 2609
solitude 2609
slain 2608
archives 2607
confrontation 2607
crushing 2607
vile 2607
banquet 2606
counselor 2606
eyelids 2606
geological 2606
ish@@ 2606
kant 2606
releasing 2606
suff@@ 2606
clutched 2605
coloured 2604
7th 2603
avery 2603
fucked 2603
originated 2603
seoul 2603
blouse 2602
ddling 2602
excluded 2602
hes@@ 2602
jr 2602
serv@@ 2601
spark 2601
tangled 2601
ais 2600
chers 2600
redeeming 2600
sque@@ 2600
trent 2600
wag@@ 2600
brun@@ 2599
eyebrow 2599
105 2598
defects 2598
eman@@ 2598
fum@@ 2598
halted 2598
sylvie 2598
chewing 2597
reconstruction 2597
thum@@ 2597
1962 2596
geor@@ 2595
blacks 2594
researcher 2594
thre@@ 2594
ore@@ 2593
affectionate 2592
aled 2592
eous 2592
frying 2592
100,000 2591
8,@@ 2591
conceive 2591
enduring 2591
govern 2591
highness 2591
improvements 2591
brit@@ 2590
dung 2590
kho@@ 2590
lantern 2590
managerial 2590
lamã 2589
liqu@@ 2589
ushikawa 2589
bean 2588
ea@@ 2588
onia 2587
sustain 2587
underwear 2587
downward 2586
ggy 2586
summit 2586
ank@@ 2585
imitation 2585
blink 2584
him@@ 2584
prevents 2584
prospective 2584
stimulate 2584
athlete 2583
dwarves 2583
how@@ 2583
jonas 2583
sums 2583
test@@ 2583
1977 2582
distinctive 2582
attic 2581
pes@@ 2581
stain 2581
khan 2580
master@@ 2580
facial 2579
bobby 2578
cured 2577
dorothy 2577
truthful 2577
oi 2576
accusation 2575
attracting 2575
herr 2575
high@@ 2575
rack 2575
arabia 2574
bamboo 2574
feasible 2574
rob@@ 2574
sicily 2574
addiction 2573
felicity 2573
ruby 2573
killers 2572
negotiating 2572
specimens 2572
corinth 2571
empress 2571
accessible 2570
contacting 2570
donated 2569
ented 2568
erected 2568
fois 2568
maxim 2568
archer 2567
· 2567
cameron 2566
chu 2566
delightful 2566
irony 2566
stroked 2566
villagers 2566
intends 2565
attendant 2564
honoring 2564
longed 2564
peacefully 2564
shark 2564
sym@@ 2564
polis 2563
politician 2563
assisting 2562
kra@@ 2562
distract 2561
metric 2561
conveyed 2560
frustrating 2560
refu@@ 2560
spies 2560
surveyed 2560
brokerage 2559
proc@@ 2559
affirmation 2558
agitated 2558
obsession 2558
perish 2558
revised 2558
tracked 2558
ees 2557
additionally 2556
artillery 2556
embedded 2556
sung 2556
animated 2555
comprehend 2555
discomfort 2555
bonded 2554
ib@@ 2554
breakdown 2553
deployed 2553
freak 2553
pinned 2553
130 2552
brighter 2552
intervene 2552
functioning 2551
spoon 2551
spouses 2551
lama 2550
ced 2549
evolve 2549
flooding 2549
plainly 2549
refrigerator 2549
similarity 2549
formidable 2548
demonstrates 2547
graphy 2547
mour@@ 2547
musician 2547
unusually 2547
awoke 2546
deploy 2546
glittering 2546
ow@@ 2545
set@@ 2545
shorts 2545
vet 2545
dged 2544
exploited 2544
fastest 2544
plo@@ 2544
revocation 2544
ez@@ 2542
odor 2542
scrambled 2542
sont 2541
lanes 2540
salmon 2540
frog 2539
meadow 2539
racial 2538
advancing 2537
photographer 2537
physicians 2537
adel@@ 2536
diligent 2536
vie@@ 2536
drain 2535
extre@@ 2535
postal 2535
torment 2535
pho@@ 2534
roosevelt 2534
recruited 2533
norman 2532
plains 2532
triple 2532
instances 2531
cheat 2530
crashing 2530
exotic 2530
fiery 2529
fran@@ 2529
twilight 2529
prone 2528
catches 2527
exercising 2527
hang@@ 2527
leans 2527
pirate 2527
dolly 2526
eries 2526
fir@@ 2525
hugh 2525
attributed 2524
cit@@ 2524
inherently 2524
realizes 2524
violet 2524
canceled 2523
premier 2523
shor@@ 2522
whilst 2522
yell 2522
carpenter 2521
confuse 2521
contr@@ 2521
olds 2521
widows 2521
boost 2520
brandy 2520
emptiness 2520
kg 2520
@ 2519
aye 2519
offshore 2519
unconsciously 2519
yabu 2519
1966 2518
syrian 2518
aire 2517
concentrating 2517
furnished 2517
mister 2517
pr 2517
ivory 2516
socially 2516
supplements 2516
alfred 2515
perseverance 2515
stray 2515
businessman 2514
disappearing 2514
ros@@ 2514
surrendered 2514
wit 2514
1942 2513
adaptation 2513
hop 2513
jor@@ 2513
tedly 2513
rubbish 2512
ello 2511
fighters 2511
mentation 2510
sherlock 2510
discretion 2509
harris 2509
hopeful 2509
pepper 2509
30@@ 2508
ania 2508
oper@@ 2508
punched 2508
read@@ 2508
thorn 2508
chan 2507
mekong 2507
petty 2507
resi@@ 2507
101 2506
militia 2506
agnes 2505
oven 2504
escorted 2503
fills 2503
mommy 2503
river@@ 2503
dashed 2502
linear 2502
newborn 2502
pissed 2502
allocate 2501
karma 2500
lyrics 2500
politically 2499
pos 2499
ambi@@ 2498
asp@@ 2498
beams 2498
cardboard 2498
hoyt 2498
deduction 2497
dis 2497
relics 2497
illnesses 2496
coinci@@ 2495
kusanagi 2495
recommendation 2495
reconciled 2495
sneak 2495
6th 2494
breaths 2494
legends 2494
gestured 2493
ounding 2493
spoil 2493
attentive 2492
lis@@ 2492
diego 2491
gillette 2491
recruit 2490
block@@ 2489
discrimination 2489
dissolve 2489
mold 2489
abram 2488
shim@@ 2488
autonomous 2487
eps 2487
acquiring 2486
buck@@ 2486
jung 2486
kle@@ 2486
det@@ 2485
heroic 2485
institutional 2485
journalists 2485
lang 2485
caves 2484
explode 2484
imperi@@ 2484
scratching 2484
c.e 2482
goldmund 2482
grasping 2482
psych@@ 2482
accountable 2481
auxiliary 2481
barbara 2481
communal 2481
refined 2481
distraction 2480
tenderness 2480
understandable 2478
butcher 2477
entries 2477
packaging 2477
tires 2477
tized 2477
domin@@ 2476
frantic 2476
wy@@ 2476
ligh@@ 2475
volunteered 2475
geographic 2474
penal 2473
road@@ 2473
rug 2473
sects 2473
skip 2473
fuckin 2472
loo@@ 2472
milo 2472
poster 2472
bble 2471
dog@@ 2471
pledge 2471
traditionally 2471
constantinople 2470
skeleton 2470
assistants 2469
umbridge 2469
broader 2468
figuring 2468
materi@@ 2468
nutrition 2468
sped 2468
vest 2468
1963 2467
eb@@ 2467
frantically 2467
laboratories 2467
probable 2467
elliot 2466
numbered 2466
immigration 2465
kom@@ 2465
wickedness 2465
chorus 2464
behavioral 2463
heavier 2463
interactions 2463
1948 2462
regeneration 2462
spears 2462
auntie 2461
doubtful 2461
hail 2461
serpent 2461
noses 2460
alcoholic 2459
fou@@ 2459
i.@@ 2459
invariably 2459
confirming 2458
incarnation 2458
mam@@ 2458
accuse 2457
mum@@ 2457
oun@@ 2457
robie 2457
pub 2456
suppressed 2456
upcoming 2456
zoo 2456
bau@@ 2454
dew 2454
exquisite 2454
galati 2454
harold 2453
norm 2453
sable 2453
updated 2453
dging 2452
libraries 2452
pandora 2452
sparkling 2452
wit@@ 2452
flown 2451
malachi 2451
viii 2451
comprises 2450
ink@@ 2450
irritation 2450
idi@@ 2449
oo 2449
resistant 2448
assignments 2447
flags 2447
nhu 2447
waitress 2447
enjoys 2446
acked 2444
budgets 2444
interference 2444
monopoly 2444
shrug 2444
targeted 2444
tless 2444
tun@@ 2444
consensus 2443
deb@@ 2443
registering 2443
ria 2443
erie 2442
guts 2442
innovative 2442
inward 2442
eaters 2441
grabbing 2441
indignation 2441
pic 2441
regards 2441
s.c. 2441
regretted 2440
ret 2440
slap 2440
baked 2439
curb 2439
irrelevant 2439
massachusetts 2438
christina 2437
circulated 2437
erg@@ 2437
hunched 2437
merits 2437
raped 2437
ample 2436
sation 2436
underwater 2435
hairs 2434
locking 2434
finite 2433
mentions 2433
poets 2433
shortage 2433
spirited 2433
valu@@ 2433
inadequate 2432
slower 2432
ès 2432
acquaintances 2431
ffed 2431
revol@@ 2431
captive 2430
martín 2430
occurring 2430
palestinians 2430
recovering 2430
supplementation 2430
tily 2430
ik@@ 2429
inc 2429
m.@@ 2429
sucking 2429
waits 2429
widened 2429
becker 2428
hideous 2428
educate 2427
elu@@ 2427
bust 2426
descending 2426
dity 2426
eased 2426
mos 2426
overlooked 2426
shan 2426
trailer 2426
disappearance 2425
varden 2425
drowning 2424
shaved 2424
sydney 2424
trades 2424
analyzed 2423
bodily 2423
homicide 2423
shanghai 2423
dum@@ 2422
ov@@ 2422
synchron@@ 2422
ail@@ 2421
fishermen 2421
nixon 2421
rains 2421
sol 2421
camp@@ 2420
carlo 2420
scru@@ 2420
disappears 2419
exchanging 2419
rhett 2419
thrill 2419
ères 2419
fit@@ 2418
install 2418
territorial 2418
clasped 2417
distances 2417
nun 2417
notions 2416
prostitutes 2416
aw 2415
bian 2415
initiate 2415
magician 2414
suspicions 2414
administrator 2413
gases 2413
ility 2413
portions 2413
assisted 2412
conspir@@ 2412
ean 2412
prescription 2412
warden 2412
handwriting 2411
phy@@ 2411
reco@@ 2411
cassius 2410
ein@@ 2410
iss@@ 2410
soda 2410
warmly 2410
womb 2410
amusing 2409
clumsy 2409
elaboration 2409
mut@@ 2409
ids 2408
onwards 2408
fis@@ 2407
sacrificing 2407
sca@@ 2407
toss 2407
bugs 2406
nasuada 2405
pel 2405
reinforced 2405
sympathize 2405
aga 2404
glu@@ 2404
startup 2404
bloom 2403
foolishness 2403
immortality 2403
squir@@ 2403
stab 2403
venice 2403
† 2403
geo@@ 2402
langu@@ 2402
rais@@ 2402
balancing 2401
dangling 2401
hau@@ 2401
ric 2400
apos@@ 2399
delegates 2399
smen 2399
hunted 2398
neurons 2398
taiwan 2398
supplying 2397
dal 2396
grocery 2396
incorporated 2396
terminated 2396
ele 2395
heals 2395
fasting 2394
spiral 2394
motivate 2393
molly 2392
peace@@ 2392
unnatural 2392
advocacy 2391
seminar 2391
ases 2390
onal 2390
plug 2390
wired 2390
attentively 2388
emptied 2388
hush 2388
patri@@ 2388
atri@@ 2387
orientations 2387
squared 2386
vitch 2386
greetings 2385
oped 2385
bull@@ 2384
ester 2384
fleeing 2383
ison 2383
rocking 2383
ér@@ 2383
anyhow 2382
commanders 2382
muddy 2382
raining 2382
roofs 2382
bankers 2381
sutra 2381
cheer@@ 2380
netherlands 2380
portugal 2380
roy@@ 2380
atively 2379
gai 2379
infantry 2379
vegetable 2379
authentication 2378
bu 2378
merged 2378
niv 2378
scriptural 2378
synthesis 2378
awakening 2377
beg@@ 2377
list@@ 2377
patches 2377
restrained 2377
shivering 2377
tful 2377
tis@@ 2377
doomed 2375
marin 2375
shrink 2375
tling 2375
circus 2373
devastated 2372
reservoir 2372
tram@@ 2372
usd 2372
gee 2371
pamela 2371
shameful 2371
archi@@ 2370
galatians 2370
intermediary 2370
prestigious 2370
pushes 2370
reilly 2370
angela 2369
cheerfully 2369
exploiting 2368
favored 2368
fertilizers 2368
intellect 2368
mills 2368
poisoning 2368
scout 2368
sensing 2368
ô 2368
celebrity 2367
detached 2367
performances 2367
syndrome 2367
traps 2367
applicants 2366
charging 2366
tled 2366
cheers 2365
founders 2365
gger 2365
intersection 2365
specialists 2365
vert 2364
potato 2363
shri@@ 2363
collateral 2362
stephanie 2362
triumphant 2362
inequality 2361
woe 2361
bathed 2360
drought 2360
sinai 2360
stressful 2360
1943 2359
ado@@ 2359
ahab 2359
fiscal 2359
numbness 2359
radiant 2359
sha 2359
catholics 2358
profoundly 2358
dipped 2357
leaf@@ 2357
ditch 2356
ecological 2356
keyboard 2356
settings 2356
wl 2356
frames 2355
majestic 2355
restraint 2355
vna 2355
cambodia 2354
circled 2354
possessing 2354
hou@@ 2353
mad@@ 2353
pierced 2353
acks 2352
centralized 2352
gin@@ 2352
memorable 2352
ticism 2352
troublesome 2352
batch 2351
customary 2351
vows 2351
phoebe 2350
ropes 2350
sancho 2350
peu 2349
catholicism 2348
coll@@ 2348
transparency 2348
modes 2347
pix@@ 2347
spontaneous 2347
stag@@ 2347
telescope 2347
jenny 2346
ming@@ 2346
varied 2346
short@@ 2345
buff@@ 2344
crumpled 2344
imminent 2344
owl 2344
printer 2344
youtube 2344
arbitrary 2343
gladly 2343
sided 2343
16th 2342
ander 2342
backyard 2341
grouped 2341
protests 2341
solo 2341
awaited 2339
kolya 2339
pu 2339
clin@@ 2338
bankrupt 2337
necklace 2337
elevated 2336
merge 2336
dieu 2335
peninsula 2335
samson 2335
singular 2335
weekends 2335
advisor 2334
disturbance 2334
restoring 2334
accidental 2333
deuteronomy 2333
mobilized 2333
quick@@ 2333
sewing 2333
shir@@ 2333
mazarin 2332
plum@@ 2332
abyss 2331
asses 2331
caps 2331
rev@@ 2331
umi 2331
wizards 2331
exchanges 2330
backpack 2329
yn 2329
melting 2328
mixing 2328
overcoming 2328
pearls 2328
slumped 2328
wool@@ 2328
nan 2327
proclaim 2327
,000 2326
chaotic 2326
reinforce 2326
colorful 2325
kneel 2325
shipped 2325
stakes 2325
1941 2324
classmates 2324
turing 2324
û@@ 2324
clarified 2323
amanda 2322
blurred 2322
scanning 2322
baggage 2321
denominations 2321
fron@@ 2321
mainland 2321
brotherhood 2320
jupiter 2320
pus 2320
suppliers 2320
downs 2319
outsiders 2319
cruci@@ 2318
ggers 2318
guarding 2318
twitter 2318
ankles 2317
dding 2317
diane 2317
honorable 2317
repetition 2317
rub@@ 2317
buys 2316
lowed 2316
spectacle 2316
subsidiary 2316
intervals 2315
persisted 2315
salad 2315
1961 2314
eliminating 2314
quin 2314
distinctly 2313
epistle 2313
gram@@ 2313
sailor 2313
richest 2312
edit 2311
amp@@ 2310
bids 2310
bliss 2309
cleansing 2309
diver@@ 2309
extinct 2309
propped 2309
rho@@ 2309
1940 2308
shivered 2308
upgrading 2308
broom 2307
conceptions 2307
ggling 2307
slips 2307
translates 2307
logs 2306
passports 2306
secrecy 2306
strat@@ 2306
900 2305
gues 2305
lance 2305
warns 2305
cancellation 2304
releases 2304
wu 2304
counterfeit 2303
craving 2303
lone 2303
exhibits 2302
haz@@ 2302
insect 2302
ond 2302
tendencies 2302
trustworthy 2302
lea@@ 2301
drums 2300
milan 2300
raven@@ 2300
vicinity 2299
advisers 2298
hindu 2298
magnitude 2298
mandatory 2297
travelers 2297
insignificant 2296
itch 2296
policemen 2296
reflections 2296
reliance 2296
solemnly 2296
timid 2296
intensely 2295
recalling 2295
recipe 2295
skirts 2295
corporal 2294
erica 2294
hinder 2294
mug 2294
behaving 2293
platforms 2293
crimson 2292
gram 2291
l.@@ 2291
heart@@ 2290
outs 2290
dora 2289
fishery 2289
intuitive 2289
plausible 2289
quand 2289
stuart 2289
eighteenth 2288
labeled 2288
unjust 2288
bie 2287
invites 2287
slides 2287
tioning 2287
blazing 2286
brightness 2286
raft 2286
bezos 2285
ey@@ 2285
inging 2285
salon 2285
sanctification 2285
voir 2285
abra@@ 2284
chlor@@ 2284
thes 2284
tter 2284
bour@@ 2283
abbot 2282
adju@@ 2282
aum 2282
deliverance 2282
has@@ 2282
nah 2282
ridicule 2282
satisfies 2282
bud 2281
easiest 2281
intentional 2281
jeremy 2281
packet 2281
resembled 2281
vittoria 2281
106 2280
adviser 2280
falsely 2280
presiding 2280
sit@@ 2280
turn@@ 2280
groan 2279
pleasantly 2279
rusty 2279
cruise 2278
depreciation 2278
good@@ 2278
hydr@@ 2278
wrongly 2277
unfinished 2276
bic 2275
cao 2275
disgrace 2275
notable 2275
saudi 2275
comic 2274
cr 2274
nicely 2274
stanley 2274
subordinate 2274
assert 2273
ddle 2273
fleeting 2273
gryffindor 2273
rita 2273
ax 2272
choking 2272
irrational 2272
owing 2272
stled 2272
sé@@ 2271
insulted 2270
nelson 2270
erase 2269
flat@@ 2269
logies 2269
sparks 2269
tugged 2268
analysts 2267
ascension 2267
brushing 2267
diana 2267
evenly 2267
sage 2267
vodka 2267
eg 2266
mammals 2266
dents 2265
momentarily 2265
startling 2265
tz@@ 2265
wrapping 2265
laden 2264
nuns 2264
pick@@ 2264
ape 2263
berries 2263
encyclopedia 2263
kung 2263
nope 2263
burdens 2262
ein 2262
perceptions 2262
gad@@ 2261
probation 2261
wayne 2261
aide 2260
alpha 2260
kansas 2260
camel 2259
furnace 2259
pher@@ 2259
terrific 2259
woo 2259
conditional 2258
fry 2258
án 2258
gens 2257
premise 2257
suppress 2257
tus@@ 2257
creditors 2256
inspectors 2256
puis 2256
regained 2256
tempt 2256
oc 2255
unused 2255
cheering 2254
ninh 2254
qualification 2254
shades 2254
consist 2253
faults 2253
statute 2253
bro 2252
sop@@ 2252
tee 2252
audiences 2251
auditors 2251
conquering 2251
logo 2251
predictable 2251
harmonious 2250
rests 2250
verge 2250
org 2249
door@@ 2248
ller 2248
104 2247
fiona 2247
fu 2247
recognised 2246
rosa 2246
139 2245
2030 2245
episodes 2245
harriet 2245
nier 2245
nobility 2245
partridge 2245
tick 2245
trait 2245
wra@@ 2245
bursts 2244
interrogation 2244
persuasion 2244
purchases 2244
stacked 2244
aroma 2243
bt 2243
disorders 2243
madrid 2243
masks 2243
mr@@ 2243
pren@@ 2243
edged 2242
fisherman 2242
offenders 2242
accountants 2241
archive 2241
aro 2241
constitutional 2241
consulted 2241
motor@@ 2241
prioritize 2241
say@@ 2241
trillion 2241
fang 2240
fru@@ 2240
huddled 2240
restrain 2240
sar 2240
unpredictable 2240
commendation 2239
condemnation 2239
curves 2239
dissatisfied 2239
kol@@ 2239
petro@@ 2239
hawk 2238
scroll 2238
definitive 2237
dered 2237
dispen@@ 2237
spac@@ 2237
brook 2236
jewel 2236
levites 2236
vladimir 2236
clip 2235
gom@@ 2235
reckless 2235
typing 2235
federation 2234
poker 2234
sonya 2234
whim@@ 2234
goin 2233
voy@@ 2233
preschool 2232
wallace 2232
ym@@ 2232
crowned 2231
economies 2231
phon@@ 2231
vaccine 2231
synthetic 2230
assigning 2229
confidently 2229
descend 2229
hit@@ 2229
nation@@ 2227
piss 2227
tol@@ 2227
cot@@ 2226
lifelong 2226
nh 2226
runway 2226
stresses 2226
rehabilitation 2225
seas@@ 2225
verbs 2225
buffalo 2224
ential 2224
gurney 2224
mmed 2224
opposes 2224
reproduction 2224
unsuccessful 2224
computing 2222
constantine 2222
ree 2222
stables 2222
thinkers 2222
aber@@ 2221
bane 2221
wob@@ 2221
diving 2220
poin@@ 2220
posi@@ 2220
agitation 2219
chant 2219
discharged 2219
dissemination 2219
genetically 2219
polly 2219
tao 2219
dina 2218
eves 2218
thessalonians 2218
vacant 2217
oceans 2216
assemble 2215
immorality 2215
parlor 2215
wash@@ 2215
yu 2215
cers 2214
doubtless 2214
marya 2214
stom@@ 2214
flicked 2213
mosaic 2213
sally 2213
wheeled 2213
1956 2212
andre 2212
mississippi 2212
reverend 2212
brad 2211
ethnicity 2211
hamilton 2211
inability 2210
captivity 2209
hoo@@ 2209
repaired 2209
someplace 2209
parting 2208
explicitly 2207
lait 2207
closeness 2206
heim 2205
houston 2205
podium 2205
decom@@ 2204
oppression 2204
arabs 2203
cyber@@ 2203
duchess 2203
extinction 2202
tos 2202
endangered 2201
hudson 2201
sexton 2201
thered 2201
ghts 2200
polar 2200
conn@@ 2199
dont 2199
mani@@ 2199
plea 2199
appealed 2198
astorre 2198
dash 2198
felix 2198
locker 2198
perc@@ 2198
surveying 2198
verified 2198
bec@@ 2197
ip 2197
monstrous 2197
northeast 2197
samari 2197
sour@@ 2197
bet@@ 2196
boldness 2195
conformable 2195
luciano 2195
submarine 2195
wang 2195
blushed 2194
entre@@ 2194
mute 2194
aks 2193
needles 2193
supermarket 2193
tain@@ 2193
antagon@@ 2192
cookies 2192
fair@@ 2192
toute 2192
butterfly 2191
stunning 2191
vn 2191
categor@@ 2190
clad 2190
grants 2190
guar@@ 2190
nap 2190
steward 2190
here@@ 2189
insecurity 2189
prototype 2189
ø@@ 2189
elect 2188
kidnapped 2188
verdict 2188
eable 2187
tory 2187
entertain 2186
ful@@ 2186
nickname 2186
flu 2185
groom 2185
appeals 2184
atheist 2184
barbar@@ 2184
barney 2184
acknowledging 2183
archaeological 2183
battered 2183
documentary 2183
momo 2183
recep@@ 2183
deity 2182
donor 2182
randomly 2182
communicated 2181
delu@@ 2180
tribal 2180
abstain 2179
echoing 2179
originating 2179
gideon 2178
blinded 2177
bowls 2177
exo 2177
immersed 2177
irene 2177
payroll 2177
circum@@ 2176
laila 2176
reigned 2176
runner 2176
undergoing 2176
9th 2175
abel 2175
mustache 2175
tex@@ 2175
có 2174
demonstrating 2174
economist 2174
acti@@ 2173
ales 2173
grinding 2173
pearson 2173
bounded 2172
dagger 2172
hinduism 2172
gentleness 2171
hierarchy 2171
labs 2171
negro 2171
beggar 2170
esh 2170
rio 2170
vulnerability 2170
dove 2169
hypo@@ 2169
parchment 2169
rainy 2169
viewpoint 2169
whites 2169
dait 2168
ei 2168
hostage 2168
jour 2168
pork 2168
flourish 2167
summon 2167
teresa 2167
tête 2167
feather 2166
renew 2166
concurrently 2165
cy 2165
eli 2164
indigenous 2164
sentiment 2164
tormented 2164
drilling 2163
foremost 2163
michigan 2163
regulate 2163
check@@ 2162
moss 2162
ohio 2162
rebuilding 2162
flamel 2161
hawaii 2161
hovering 2161
personalities 2160
weed 2160
ational 2159
voltage 2159
availability 2158
deployment 2158
equip 2158
hl 2158
nis@@ 2158
termin@@ 2158
whistling 2158
đ 2158
antique 2157
four@@ 2157
thompson 2157
disap@@ 2156
hank 2156
improper 2156
king@@ 2156
phar@@ 2156
140 2155
doug 2155
eter@@ 2155
investigations 2155
omi 2155
ght@@ 2154
lah 2154
wen@@ 2154
acies 2153
analyst 2153
costly 2153
của 2153
frau 2153
heirs 2153
mu 2153
recalls 2153
reed 2153
tum@@ 2153
wilbur 2153
metals 2152
outlook 2152
explicit 2151
hangs 2151
noun 2151
rot 2151
thuong 2151
unseen 2151
insti@@ 2150
keith 2150
kia 2150
lac 2150
neighbours 2150
peti@@ 2150
dish@@ 2149
insufficient 2149
silicon 2149
sunrise 2149
swell 2149
valentine 2149
confirms 2148
cus 2148
naive 2148
professions 2148
convent 2147
excellence 2147
housekeeper 2147
lyn@@ 2147
activated 2146
contracted 2146
debates 2146
ferry 2146
poisonous 2146
tit@@ 2146
17th 2145
console 2145
dell 2145
dominance 2145
festivals 2145
fingerprints 2145
gasp 2145
johannes 2145
lifts 2145
surgical 2145
13.@@ 2144
1958 2144
annoyance 2144
elling 2144
identifies 2144
1939 2143
aggression 2143
bron@@ 2143
programme 2143
snorted 2143
embroidered 2142
glove 2142
massacre 2142
peaks 2142
reassured 2142
austrian 2140
cracking 2140
cut@@ 2140
interface 2140
mastered 2140
optimism 2140
proverb 2140
tren@@ 2140
ula 2140
beforehand 2139
sensations 2139
band@@ 2138
mark@@ 2138
philistines 2138
teasing 2138
conventions 2137
positioned 2137
relativity 2137
stricken 2137
vir@@ 2137
belongings 2136
bosses 2136
hunch 2136
severity 2136
potent 2135
ption 2135
exposing 2134
ggled 2134
hon 2134
patriarch 2134
pools 2134
sundays 2134
communion 2133
undertaking 2133
50,000 2132
authorize 2132
convul@@ 2132
d.c. 2132
madeleine 2132
sty 2132
dodd 2131
frontier 2131
haze 2131
ket@@ 2131
sta 2131
whereby 2131
treatments 2130
ith@@ 2128
knuckles 2128
paw 2128
donors 2127
perched 2127
viewers 2127
cious 2125
mails 2125
polar@@ 2125
exceeded 2124
ied 2124
pointless 2124
trauma 2124
jewel@@ 2123
preoccupied 2123
rebuilt 2123
dder 2122
ections 2122
myths 2122
outbreak 2122
barnabas 2121
bondage 2121
civic 2121
conrad 2121
coughing 2121
disk 2121
motorcycle 2121
muhammad 2121
mus 2121
pierce 2121
worshipers 2121
adri@@ 2120
bility 2120
regar@@ 2120
respectfully 2120
ured 2120
slot 2119
flocks 2118
fright 2118
residing 2118
consolation 2117
discern 2117
displays 2117
holland 2117
malaria 2117
overview 2117
uriah 2117
boris 2116
ech@@ 2116
shudder 2116
store@@ 2116
visa 2116
1957 2115
admiring 2115
ket 2115
oka 2115
prioritized 2115
bastian 2114
reassuring 2113
buzz 2112
competitions 2112
railing 2112
historically 2111
literacy 2111
nothingness 2111
cherry 2110
convictions 2110
ironically 2110
ongs 2110
sal 2110
bastards 2109
beware 2109
dauntless 2109
elaborating 2109
janet 2109
limb 2109
sibly 2109
soothing 2109
workshops 2109
missile 2108
whale 2108
exalted 2107
vocal 2106
apollo 2105
karen 2105
mastery 2105
betting 2104
carol 2104
continuity 2104
debris 2104
folly 2104
navi@@ 2104
scu@@ 2104
coma 2103
pacing 2103
wrought 2103
bows 2102
brain@@ 2102
firepaw 2102
brows 2101
neo 2101
norway 2101
you@@ 2101
agu@@ 2100
anks 2100
packs 2100
surprises 2100
creeping 2099
flickering 2099
onian 2099
clapped 2098
jah 2098
mao 2098
mingled 2098
8th 2097
web@@ 2097
ancestor 2096
dge@@ 2096
energetic 2096
impulses 2096
muttering 2096
ologist 2096
respecting 2096
harmed 2095
insi@@ 2095
mornings 2095
offset 2095
paperwork 2095
axe 2094
bowing 2094
develops 2094
medication 2094
awkwardly 2093
brac@@ 2092
glori@@ 2092
inde@@ 2092
morrow 2092
twenties 2092
advertisements 2091
dream@@ 2091
inventions 2091
legged 2091
panicked 2091
encing 2090
warmed 2090
asa 2089
rover 2089
yukawa 2089
cables 2088
mercury 2088
notary 2088
elles 2087
overly 2087
ris@@ 2087
allah 2086
stum@@ 2086
after@@ 2085
arius 2085
olives 2085
1947 2084
remorse 2084
vianne 2084
belbo 2083
desolate 2083
esther 2083
criterion 2082
dividends 2082
nekhlyudov 2082
visualize 2082
15th 2080
anced 2080
buses 2080
petitions 2080
cipher 2079
cular 2079
heating 2079
paige 2079
telegram 2079
unk 2079
amateur 2078
beautify 2078
dom 2078
investigator 2078
milit@@ 2078
physicist 2078
ret@@ 2078
youths 2078
exceedingly 2077
zy 2077
160 2076
n. 2076
nings 2076
resemblance 2076
sandwiches 2076
usi@@ 2076
beads 2075
cosmic 2075
ec 2075
manipulate 2075
marquis 2075
sely 2075
1946 2074
coarse 2074
lectured 2074
mc 2074
phe@@ 2074
violin 2074
aa@@ 2073
compromised 2073
lay@@ 2073
dim@@ 2072
laser 2072
motors 2072
enhanced 2071
feeble 2071
moun@@ 2071
raging 2071
sdd 2071
trung 2071
vividly 2071
21st 2070
apprentice 2070
boulevard 2070
cock@@ 2070
designers 2070
gripping 2070
mariam 2070
diagnosed 2069
tius 2068
woven 2068
ambra 2067
highlands 2067
princeton 2067
youthful 2067
bursting 2066
fc 2066
knowledgeable 2066
miguel 2066
aman 2065
barren 2065
bosom 2065
lov 2065
atlanta 2064
bac 2064
lead@@ 2064
sent@@ 2064
slughorn 2064
columbus 2063
declarant 2063
employing 2063
grams 2063
rabbits 2063
rait 2063
vienna 2062
boarded 2061
cals 2061
retrieve 2061
there@@ 2061
architects 2060
thunder@@ 2060
unsure 2060
honors 2059
pis@@ 2059
tactical 2059
unimportant 2059
xia 2059
bulb 2058
cylinder 2058
1949 2057
authenticity 2057
cies 2057
herbs 2057
rand 2057
beneficiaries 2056
fantas@@ 2056
molecular 2056
dealers 2055
imperative 2055
projected 2055
shareholder 2055
bos@@ 2054
conc@@ 2054
consular 2054
fluctu@@ 2054
foam 2054
persistence 2054
pioneers 2054
sonny 2054
chandler 2053
dealings 2053
abnormal 2052
engraved 2052
itu@@ 2052
cue 2051
essly 2051
persuasive 2051
disguised 2050
hesitant 2050
shly 2050
take@@ 2050
aly@@ 2049
freshly 2049
lethal 2049
dizzy 2048
peru 2048
revolt 2048
actu@@ 2047
informal 2047
owning 2047
perimeter 2047
reproduce 2047
herbert 2046
investigated 2046
nem@@ 2046
crisp 2045
gasoline 2045
tiv@@ 2045
amber 2044
poked 2044
r.@@ 2044
bethlehem 2043
scarce 2043
trafficking 2043
withstand 2043
agreeing 2042
mindfulness 2042
112 2041
blindly 2041
bump 2041
highlight 2041
luxurious 2041
phili@@ 2041
strips 2041
fudge 2040
necks 2040
overthrow 2040
damages 2039
draped 2039
lipstick 2039
thanking 2039
tran 2039
lyon 2038
sch 2038
tiveness 2038
amazingly 2037
milton 2037
animation 2035
bloo@@ 2035
continuation 2035
finances 2035
grabs 2035
matrix 2035
thes@@ 2035
willow 2035
confessing 2034
iso 2034
synagogue 2034
monument 2033
offender 2033
stationed 2033
flashes 2032
hurricane 2032
lebanon 2032
prisons 2032
specifying 2032
troop 2032
denunciation 2031
dict@@ 2031
footage 2031
insured 2031
leak 2031
maine 2031
noelle 2031
piti@@ 2031
truthfulness 2031
donate 2030
eminence 2030
ining 2030
timer 2030
forged 2029
repairs 2029
introduces 2028
less@@ 2028
seaport 2028
flickered 2027
relied 2027
rev 2027
cola 2026
encounters 2026
induc@@ 2026
ography 2026
screening 2026
ult 2026
visionary 2026
bitten 2025
chat@@ 2025
fuss 2025
sacrificial 2025
yoga 2025
arti@@ 2024
grin@@ 2024
lure 2024
marxist 2024
mundane 2024
prompt 2024
revi@@ 2024
voters 2023
ede 2022
liv@@ 2022
memor@@ 2022
nim@@ 2022
père 2022
lynn 2021
sensory 2021
1959 2020
cycles 2020
typed 2020
aient 2019
assassination 2019
awa@@ 2019
evangelical 2019
ices 2019
lene 2019
scholarship 2019
arbitrarily 2018
extends 2018
inserted 2018
yale 2018
giles 2017
gum 2017
hanged 2017
http 2017
jin 2017
oval 2017
sick@@ 2017
hanh 2016
lt 2016
peut 2016
ó 2016
epidemics 2015
erased 2015
genre 2015
itude 2015
mart 2015
coordinated 2014
diminished 2014
ivanovich 2014
prevail 2014
resisting 2014
hes 2013
inclination 2013
superstition 2013
tattoo 2013
drown 2012
feld 2012
originals 2012
participant 2012
pronoun@@ 2012
shh 2012
gala@@ 2011
irina 2011
nou@@ 2011
sley 2011
idly 2010
phoned 2010
sights 2010
travelled 2010
wie 2010
disability 2009
immature 2009
inmates 2009
cai 2008
hardy 2008
immigrants 2008
shoots 2008
transplants 2008
graduates 2007
nut@@ 2007
sipped 2007
swelling 2007
visu@@ 2007
eût 2006
hale 2006
hobby 2006
qualify 2006
sorting 2006
algorithm 2005
sufferings 2005
admitting 2004
splitting 2004
dessert 2003
dual 2003
enting 2003
extraordinarily 2003
glorify 2003
stiffened 2003
tai@@ 2003
louisa 2002
mercedes 2002
openness 2002
ug@@ 2002
1954 2001
kets 2001
sowing 2001
ventured 2001
accommodate 2000
dawson 2000
harvey 2000
nightmares 2000
symbolizes 2000
venus 2000
davi@@ 1999
disadvantage 1999
heh 1998
lingered 1998
miniature 1998
sten 1998
10th 1997
deri@@ 1997
falcon 1997
lingering 1997
loser 1997
tract 1997
breathless 1996
dismissal 1996
eilonwy 1996
interpreter 1996
chau 1995
empires 1995
headline 1995
wiser 1995
antonio 1994
atop 1994
corleone 1994
deng 1994
invade 1994
nay 1994
yanked 1994
cheated 1993
crus@@ 1993
fas@@ 1993
manages 1993
peri@@ 1993
apparel 1992
watch@@ 1992
telecommunication 1991
adopting 1990
direc@@ 1990
ffle 1990
foretold 1990
susceptible 1990
unbelieving 1990
blur 1989
compu@@ 1989
estimation 1989
jin@@ 1989
quin@@ 1989
uss 1989
15.@@ 1988
appro@@ 1988
distressed 1988
favors 1988
logos 1988
richardson 1988
adv@@ 1987
anastasia 1987
glaring 1987
individually 1987
smash 1987
acking 1986
distributing 1986
tidy 1986
paraly@@ 1985
arkwright 1984
chairpersons 1984
doub@@ 1984
guardians 1984
hill@@ 1984
shiver 1984
accountability 1983
atom 1983
hop@@ 1983
marsh@@ 1983
neu@@ 1983
abor@@ 1982
ingredient 1982
nothin 1982
publi@@ 1982
sab@@ 1982
tablet 1982
tham 1982
advocated 1981
colossians 1981
diligently 1981
physiological 1981
weaving 1981
dismay 1980
threads 1980
chri@@ 1979
gleam 1979
kan 1979
mocked 1979
nazis 1979
steven 1979
thuy 1979
beau 1978
essentials 1978
dant 1977
nietzsche 1977
ounce 1977
panels 1977
plaster 1977
stretches 1977
offend 1976
powerless 1976
uncovered 1976
awa 1975
bern@@ 1975
clement 1975
collectors 1975
edom 1975
ingham 1975
recipients 1975
suburbs 1975
turi 1975
almanzo 1974
conditioning 1974
crucifixion 1974
itated 1974
mounting 1974
edmund 1973
squares 1973
sten@@ 1973
trailed 1973
adap@@ 1972
designation 1972
nursery 1972
ray@@ 1972
equations 1971
metrics 1971
pill 1971
strolled 1971
ym 1971
118 1970
disappointing 1970
kne@@ 1970
spur@@ 1970
wls 1970
auc@@ 1969
blend 1969
capitalist 1969
victorious 1969
én@@ 1969
autopsy 1968
pharaon 1968
sev@@ 1968
skillful 1968
sobs 1968
grande 1967
hiep 1967
skepticism 1967
sunglasses 1967
ulating 1967
alter@@ 1966
chaplain 1966
developers 1966
michel 1966
yon 1966
jes@@ 1965
legi@@ 1965
lowing 1965
cleaner 1964
garrett 1964
o.@@ 1964
sanc@@ 1964
temperatures 1964
handy 1963
howling 1963
megan 1963
mentality 1963
murderers 1963
neighbour 1963
nick@@ 1963
obsolete 1963
oppressed 1963
periodical 1963
struc@@ 1963
swayed 1963
therein 1963
batteries 1962
hypocrisy 1962
ias 1962
insulting 1962
advancement 1961
appraising 1961
bites 1961
clothed 1961
extr@@ 1961
pau@@ 1961
populated 1961
unhappiness 1961
vigor 1961
histor@@ 1960
providence 1960
resemble 1960
outright 1959
provisional 1959
provoked 1959
sniffed 1959
humanitarian 1958
jessie 1958
outstretched 1958
timo@@ 1958
astronomy 1957
devised 1957
goodwill 1957
staggering 1957
1930s 1956
commissioner 1956
confiscated 1956
convict 1956
insecure 1956
11,@@ 1955
annotation 1955
blush 1955
carriers 1955
contributes 1955
ental 1955
heartbeat 1955
incomprehensible 1955
likelihood 1955
mans 1955
sodom 1955
20,000 1954
allu@@ 1954
embarked 1954
toutes 1954
vines 1954
appraise 1953
bets 1953
grou@@ 1953
hatch 1953
reciprocal 1953
fier 1952
illusions 1952
inquiries 1952
issa 1952
leslie 1952
trois 1952
awaken 1951
controllers 1951
fences 1951
fish@@ 1951
focal 1951
footprints 1951
nur@@ 1951
pilgrimage 1951
weaken 1951
headlines 1950
itory 1950
leton 1950
measurements 1950
revision 1950
tionary 1950
acre 1949
basics 1949
erect 1949
fooled 1949
maternal 1949
swallowing 1949
tighten 1949
cros@@ 1948
petit 1948
prodigal 1948
switching 1948
tasting 1948
berkeley 1947
gasping 1947
hab 1947
miraculously 1947
roland 1947
cramped 1946
deficit 1946
ety 1946
quarry 1946
tackle 1946
optimi@@ 1945
squadron 1945
stroking 1945
thereon 1945
tobias 1945
vre 1945
criticizing 1944
hauled 1944
quelque 1944
aj@@ 1943
audited 1943
darted 1943
formulated 1943
knitting 1943
modern@@ 1943
mourn 1943
shave 1943
tossing 1943
agreeable 1942
irresistible 1942
lounge 1942
pisciotta 1942
wales 1942
arched 1941
choir 1941
sak@@ 1941
unemployed 1941
apologized 1940
arly 1940
directive 1940
glowed 1940
mused 1940
nouns 1940
probe 1940
proceeding 1940
recruiting 1940
ducked 1939
innovations 1939
prevailing 1939
rattled 1939
brus@@ 1938
commits 1938
examinations 1938
andre@@ 1937
fuller 1937
pounded 1937
sandals 1937
vanish 1937
acious 1936
bath@@ 1936
compact 1936
news@@ 1936
tionally 1936
yang 1936
pee 1935
barley 1934
countenance 1934
teller 1934
energies 1933
werner 1933
aus@@ 1932
hound 1932
interval 1932
overlooking 1932
revered 1932
señor 1932
virtuous 1932
gamble 1931
pillows 1931
reacher 1931
woken 1931
alesandra 1930
analy@@ 1930
exempted 1930
seam@@ 1930
compilation 1929
divi@@ 1929
rubble 1929
ñ@@ 1929
` 1928
citizenship 1928
disc 1928
eph@@ 1927
grunted 1927
ister 1927
entr@@ 1926
paced 1926
sharks 1926
ati@@ 1925
bbc 1925
moon@@ 1925
semi@@ 1925
tum 1925
auditor 1924
donations 1924
gon 1924
jointly 1924
margins 1924
need@@ 1924
oughs 1924
diabetes 1923
fragrant 1923
free@@ 1923
psychiatrist 1923
reminders 1923
sorcer@@ 1923
elevation 1922
jol@@ 1922
pret@@ 1922
researching 1922
sleeps 1922
tracing 1922
algorithms 1921
emails 1921
lamp@@ 1921
linger 1921
predecessor 1921
reasoned 1921
rifles 1921
surround 1921
lateral 1920
swam 1920
swirling 1920
sympath@@ 1920
vag@@ 1920
accreditation 1919
contemplate 1919
dist@@ 1919
galaxies 1919
joints 1919
ler@@ 1919
combinations 1918
maurice 1918
queer 1918
sellitto 1918
conductor 1917
interpreting 1917
marital 1917
minimal 1917
sighted 1917
automobiles 1916
determin@@ 1916
endeavor 1916
lemon 1916
nicky 1916
reaper 1916
scotch 1916
simpli@@ 1916
administer 1915
centi@@ 1915
confucius 1915
dignified 1915
lecter 1915
rendering 1915
subdued 1915
cocked 1914
harness 1914
oni 1914
aters 1913
posting 1913
sloane 1913
varying 1913
1955 1912
embark 1912
extra@@ 1912
keating 1912
launching 1912
remedies 1912
calmed 1911
catastrophe 1911
charms 1911
lip@@ 1911
oon 1911
power@@ 1911
slopes 1911
yielded 1911
milli@@ 1910
transplan@@ 1910
unmarried 1910
bass 1909
belle 1909
chen@@ 1909
pious 1909
squeezing 1909
bah@@ 1908
eerdmans 1908
za@@ 1908
churchill 1907
coherent 1907
industri@@ 1907
mei 1907
continents 1906
elisha 1906
implication 1906
lofty 1906
penn 1906
quicker 1906
documented 1905
elena 1905
shotgun 1905
wrestling 1905
doom 1904
handles 1904
hull 1904
impl@@ 1904
maj@@ 1904
veteran 1904
acles 1903
chir@@ 1903
delete 1903
machiavelli 1903
tolland 1903
stered 1902
swaying 1902
tricky 1902
twelfth 1902
úrsula 1902
cabbage 1901
eugene 1901
jill 1901
manuel 1901
ols 1901
preside 1901
dances 1900
eas@@ 1900
pha 1900
ppings 1900
sanctified 1900
supplier 1900
tombs 1900
fantasies 1899
portable 1899
rell 1899
ure@@ 1899
yuichi 1899
ley@@ 1898
mented 1898
rie 1898
trick@@ 1898
aud@@ 1897
madison 1897
rags 1897
shima 1897
gurgi 1896
hooks 1896
pham 1896
poetic 1896
14.@@ 1895
itors 1895
tempered 1895
mediation 1894
tôi 1894
111 1893
assumes 1893
dem 1893
exor@@ 1893
ough@@ 1893
possesses 1893
rowing 1893
scottish 1893
t.c. 1893
vance 1893
recreation 1892
cone 1891
curls 1891
forbid 1891
murtagh 1891
orchestra 1891
shan@@ 1891
tactic 1891
tici@@ 1891
acqui@@ 1890
har 1890
rocked 1890
carriages 1889
cian 1889
bene@@ 1888
cht 1888
exercised 1888
fridge 1888
prejudices 1888
squinted 1888
penis 1887
photography 1887
regulating 1887
tul@@ 1887
absalom 1886
accumulation 1886
après 1886
aragorn 1886
helena 1886
limiting 1886
pens 1886
shove 1886
ukraine 1886
anticipate 1885
apron 1885
damaging 1885
jazz 1885
siveness 1885
credentials 1884
edwards 1884
elephants 1884
fetched 1884
mademoiselle 1884
magistrate 1884
muscular 1884
occupations 1884
pell 1884
psalmist 1884
sburg 1884
107 1883
bouncing 1883
deton@@ 1883
duel 1883
lette 1883
molecule 1883
wes@@ 1883
coral 1882
crow@@ 1882
ef 1882
lled 1882
naples 1882
outskirts 1882
pins 1882
ranch 1882
vanger 1882
finnick 1881
borg 1880
posters 1880
retro@@ 1880
essays 1879
gwen 1879
isabella 1879
sultan 1879
bby 1878
compares 1878
defect 1878
honeymoon 1878
yuan 1878
advising 1877
circling 1877
dresser 1877
encies 1877
skins 1877
tsu@@ 1877
admir@@ 1876
editing 1876
inno@@ 1876
refrain 1876
surpassed 1876
deci@@ 1875
psychiatric 1875
captains 1874
constituted 1874
devi@@ 1874
hairy 1874
hating 1874
journeys 1874
julius 1874
practitioner 1874
administrations 1873
dobby 1873
rag 1873
anche 1872
dice 1872
greasy 1872
hides 1872
melody 1872
yar@@ 1872
correspond 1871
dani@@ 1871
idolatry 1871
lloyd 1871
royalty 1871
attained 1870
barracks 1870
communists 1870
hei@@ 1870
serum 1870
trailing 1870
inspections 1869
snor@@ 1869
24@@ 1868
dares 1868
detained 1868
eta 1868
genus 1868
inhi@@ 1868
ente 1867
kindergarten 1867
yers 1867
conflicting 1866
derivative 1866
homo 1866
loy@@ 1866
bully 1865
constructing 1865
dyke 1865
veled 1865
pus@@ 1864
tzu 1864
elli 1863
neely 1863
telegraph 1863
hommes 1862
stillness 1862
tification 1862
abe 1861
efully 1861
lukas 1861
unrelated 1861
carts 1860
enchanted 1860
ggs 1860
oy 1860
sper@@ 1860
supportive 1860
hume 1859
ledge 1859
ponder 1859
rabbi 1859
rainbow 1859
ral 1859
salvage 1859
scrip@@ 1859
textile 1859
triggered 1859
highlights 1858
lem 1858
mickey 1858
succeeding 1858
coraline 1857
fostering 1857
jesusing 1857
atro@@ 1856
butter@@ 1856
mbles 1856
nevada 1856
overheard 1856
forum 1855
gravely 1855
heaved 1855
jumps 1855
luci@@ 1855
marke@@ 1855
missiles 1855
outdoor 1855
tenants 1855
vian 1855
cc 1854
coordinates 1854
discourse 1854
draw@@ 1854
paved 1854
perpetual 1854
salesperson 1854
bangs 1853
gabrielle 1853
jacques 1853
submerged 1853
dus 1852
induced 1852
revive 1852
contradict 1851
cooperating 1851
duncan 1851
fingernails 1851
grandpa 1851
hoang 1851
jade 1851
kenny 1851
amsterdam 1850
camer@@ 1850
oregon 1850
vito 1849
scar@@ 1848
than@@ 1848
chloe 1847
chor@@ 1847
firewood 1847
placement 1847
relevance 1847
spectacles 1847
tighter 1847
unacceptable 1847
compile 1846
esti@@ 1846
joys 1846
lawsuits 1846
ose 1846
steaming 1846
urges 1846
apologies 1845
displaying 1845
distinguishes 1845
fertili@@ 1845
pir@@ 1845
quota 1845
confronting 1844
connects 1844
cuba 1844
portraits 1844
sly 1844
beat@@ 1843
marqu@@ 1843
bony 1842
decrees 1842
degradation 1842
prizes 1842
proteins 1842
regre@@ 1842
colours 1841
rol@@ 1841
rostov 1841
sec 1841
1952 1840
baba 1840
blackness 1840
casualties 1840
dimly 1840
priced 1840
swo@@ 1840
crescent 1839
locally 1839
stacks 1839
that@@ 1839
guer@@ 1838
stering 1838
ulation 1838
carlos 1837
colorado 1837
fitness 1837
fut 1837
rained 1837
swim@@ 1837
variables 1837
ave 1836
dennis 1836
champions 1835
consolidate 1835
delegate 1835
disgusted 1835
interestingly 1835
recommends 1835
ạ@@ 1835
ephesian 1834
socialism 1834
welcoming 1834
25@@ 1833
dispose 1833
moaned 1833
nđ 1833
parcel 1833
pauses 1833
rhe@@ 1833
rich@@ 1833
sweetness 1833
thermal 1833
tris 1833
og@@ 1832
paste 1832
simul@@ 1832
stains 1832
trim 1832
bernie 1831
entertaining 1831
fea@@ 1831
kiku 1831
lousy 1831
specifications 1831
vaccines 1831
sity 1830
classi@@ 1829
continual 1829
dumping 1829
remuneration 1829
denmark 1828
eting 1828
flared 1828
harvesting 1828
meth@@ 1827
nhnn 1827
quer@@ 1827
editorial 1826
fli@@ 1826
manuscripts 1826
risked 1826
rus 1826
bruised 1825
enrolled 1825
kingship 1825
licked 1825
rotting 1825
tissues 1825
foreman 1824
ordained 1824
skies 1824
decreased 1823
defiled 1823
marker 1823
mming 1823
neh 1823
pent@@ 1823
proclamation 1823
ario 1822
ashing 1822
crouch 1822
pavilion 1822
analytical 1821
banged 1821
happiest 1821
jour@@ 1821
observers 1821
dormitory 1820
moan 1820
alexandrovna 1819
dialed 1819
elessly 1819
fili@@ 1819
fisher 1819
resolving 1819
ske@@ 1819
winked 1819
ys@@ 1819
alexey 1818
bunk 1818
chilton 1818
convertible 1818
curly 1818
marathon 1818
jared 1817
migration 1817
mom@@ 1817
uncommon 1817
bounced 1816
compliments 1816
disclose 1816
handbook 1816
judgement 1816
nsa 1816
shrine 1816
0,@@ 1815
18.@@ 1815
arcadio 1815
bered 1815
distinctions 1815
incoming 1815
metallic 1815
ruthless 1815
striped 1815
tro 1815
dious 1814
englishman 1814
impres@@ 1814
ome@@ 1814
omni@@ 1814
beth@@ 1813
jericho 1813
kee 1813
puff 1813
reformed 1813
runners 1813
translator 1813
belgium 1812
chewed 1812
empowered 1812
stupidity 1812
notably 1811
walt 1811
willpower 1811
hezekiah 1810
inher@@ 1810
motel 1810
ras 1810
clar@@ 1809
debit 1809
nom 1809
shabby 1809
tablets 1809
caus@@ 1808
fertility 1808
ive 1808
jerome 1808
naz@@ 1808
tivity 1808
109 1807
plump 1807
slam 1807
unlucky 1807
await 1806
critic 1806
hashi 1806
ares 1805
bidder 1805
footnote 1805
nang 1805
benches 1804
caribbean 1804
maiden 1804
reassure 1804
sapiens 1804
satin 1804
nel 1803
precautions 1803
radically 1803
cu 1802
evans 1802
leurs 1802
museums 1802
undermine 1802
expiration 1801
massage 1801
outw@@ 1801
slippers 1801
slippery 1801
tak@@ 1801
anci@@ 1800
duong 1800
gradual 1800
intrinsic 1800
pertaining 1800
preventive 1800
shin 1800
sinister 1800
symptom 1800
arity 1799
contractual 1799
expiry 1799
ordinances 1799
pupil 1799
terri@@ 1799
corrupted 1798
dir@@ 1798
ngoc 1798
radius 1798
spilling 1798
và 1798
af 1797
frac@@ 1797
reiko 1797
speeding 1797
barrels 1796
bolts 1796
chelsea 1796
eck 1796
giang 1796
strap 1796
altitude 1795
asakawa 1795
barefoot 1795
explo@@ 1795
harrison 1795
mummy 1795
pentagon 1795
straining 1795
ammunition 1794
digit 1794
hypotheses 1794
miranda 1794
mohammed 1794
softened 1794
bruno 1793
firstborn 1793
neighbourhood 1793
recession 1793
resign 1793
street@@ 1793
alphabet 1792
emergence 1792
nurtured 1792
parental 1792
pegasus 1792
rattling 1792
succ@@ 1792
fragrance 1791
olympics 1791
wynand 1791
erotic 1790
mint 1790
plucked 1790
rouge 1790
therapist 1790
burdened 1789
gateway 1789
importation 1789
liberate 1789
open@@ 1789
pé@@ 1789
settlements 1789
withered 1789
cob@@ 1788
deser@@ 1788
diameter 1788
disa@@ 1788
liner 1788
refugee 1788
uno@@ 1788
futile 1787
impu@@ 1787
paranoid 1787
ased 1786
baskets 1786
constructions 1786
intrigued 1786
knots 1786
notorious 1786
sadd@@ 1786
warmer 1786
will@@ 1786
atters 1785
barred 1785
blushing 1785
disobey 1785
physicists 1785
potion 1785
renamed 1785
riot 1785
alleged 1784
babe 1784
boun@@ 1784
emissions 1784
hiro 1784
slowing 1784
wakes 1784
greens 1783
urg@@ 1783
dispersed 1782
ignores 1782
luminous 1782
orleans 1782
phosp@@ 1782
praises 1782
reproductive 1782
rung 1782
sleep@@ 1782
ag 1781
alle@@ 1781
bubbles 1781
chatter 1781
deter@@ 1781
masterpiece 1781
oblivious 1781
respon@@ 1781
tying 1781
alled 1780
smuggling 1780
stockholm 1780
thor@@ 1780
trin@@ 1780
abolished 1778
banging 1778
chet 1778
nero 1778
programmed 1778
sufficiency 1778
evils 1777
fossils 1777
granite 1777
grimly 1777
integral 1777
sculpture 1777
stful 1777
tization 1777
b.@@ 1776
claude 1776
disliked 1776
murray 1776
ush 1776
ì 1776
abdomen 1775
amal@@ 1775
assa@@ 1775
kid@@ 1775
mm@@ 1775
obscured 1775
xing 1775
boil 1774
communism 1774
conserv@@ 1774
derive 1774
lovingly 1774
rewrite 1774
sturdy 1774
admirable 1773
glossy 1773
gou@@ 1773
microphone 1773
tenney 1773
incidentally 1772
insisting 1772
ua 1772
miami 1771
rails 1771
stockings 1771
swamp 1771
thrilling 1771
turmoil 1771
insert 1770
more@@ 1770
secre@@ 1770
unhealthy 1770
accusing 1769
asserted 1769
coalition 1769
duly 1769
lou 1769
marvel 1769
napkin 1769
yan@@ 1769
4,000 1768
ati 1768
flavor 1768
sci@@ 1768
silas 1768
ë@@ 1768
chimney 1767
cradle 1767
interrupting 1767
jus 1767
reacting 1767
sings 1767
sunken 1767
consum@@ 1766
cooling 1766
recorder 1766
spiders 1766
terminals 1766
token 1766
vely 1766
convoy 1765
did@@ 1765
establishes 1765
lling 1765
asean 1764
dot@@ 1764
dra 1764
fol@@ 1764
frogs 1764
sponsor 1764
buzz@@ 1763
prescribe 1763
romeo 1763
sche@@ 1763
sne@@ 1763
u.@@ 1763
whe@@ 1763
angus 1762
flank 1762
inian 1762
scep@@ 1762
steak 1762
strands 1762
vol 1762
cube 1761
feder@@ 1761
parish 1761
picnic 1761
thinker 1761
byt 1760
denver 1760
grieved 1760
moor 1760
phases 1760
1953 1759
accomplishment 1759
hec@@ 1759
iest 1759
ironic 1759
splash 1759
barber 1758
fabulous 1758
metropolitan 1758
noticeable 1758
por 1758
forgives 1757
genome 1757
gilead 1757
manchester 1757
remotely 1757
spr@@ 1757
minim@@ 1756
nai 1756
pigeons 1756
ridden 1756
surfaces 1756
17.@@ 1755
flash@@ 1755
hoarse 1755
juli@@ 1755
positioning 1755
cinema 1754
controller 1754
jeep 1754
onom@@ 1754
trusts 1754
contingent 1753
drying 1753
motto 1753
guerrilla 1752
isi@@ 1752
kenya 1752
pilgrims 1752
rit 1752
wits 1752
cast@@ 1751
dded 1751
distinguishing 1751
jammed 1751
stoned 1751
stride 1751
zzo 1751
brake 1750
certifying 1750
frenzy 1750
desks 1749
slit 1749
spelling 1749
valleys 1749
aliens 1748
coupled 1748
mations 1748
put@@ 1748
quel@@ 1748
sayings 1748
bats 1747
coefficient 1747
comte 1747
constitutes 1747
organ@@ 1747
passionately 1747
trainer 1747
theo@@ 1746
102 1745
banaba 1745
chang 1745
frail 1745
groaning 1745
natalie 1745
ui 1745
ventures 1745
withdrawing 1745
kidney 1744
nausea 1744
ominous 1744
retri@@ 1744
scorn 1744
spokesman 1744
zarathustra 1744
22@@ 1743
bolted 1743
jima 1743
lengths 1743
pigeon 1743
witz 1743
yeh 1743
adulter@@ 1742
bounds 1742
ox 1742
rods 1742
scraps 1742
visibly 1742
westminster 1742
collections 1741
grumbled 1741
habitat 1741
sampling 1741
sperm 1741
certify 1740
derek 1740
earthquakes 1740
entrusting 1740
nekhludoff 1740
plantation 1740
outdoors 1739
patricia 1739
provi@@ 1739
ral@@ 1739
stling 1739
thermo@@ 1739
classify 1738
creep 1738
doin 1738
haul 1738
mutation 1738
phs 1738
tious 1738
anch@@ 1737
dissatisfaction 1737
familiarity 1737
lecturers 1737
likeness 1737
litter 1737
penetrated 1737
rescuing 1737
spl@@ 1737
1930 1736
absol@@ 1736
cac@@ 1736
horribly 1736
nakata 1736
pumping 1736
shovel 1736
wiel@@ 1736
wireless 1736
big@@ 1735
confidentiality 1735
digits 1735
intel 1735
lang@@ 1735
projection 1735
rotation 1735
transfers 1735
erupted 1734
fore 1734
ions 1734
kinda 1734
lexie 1734
mandarin 1734
orphans 1734
shores 1734
sporting 1734
them@@ 1734
census 1733
collins 1733
dres@@ 1733
embracing 1733
flexibility 1733
licated 1733
nadia 1733
oppressive 1733
partition 1733
vial 1733
viruses 1733
barking 1732
lever 1732
loaf 1732
masculine 1732
presentations 1732
vulgar 1732
adverse 1731
momentary 1731
rations 1731
rig@@ 1731
bennett 1730
ished 1730
issuer 1730
upwards 1730
yellow@@ 1730
ça 1730
cafeteria 1729
dolphin 1729
itor 1729
meta@@ 1729
plunge 1729
baal 1728
commissions 1728
lila 1728
timothe 1728
intercourse 1727
lick 1727
lionel 1727
mainstream 1727
10,@@ 1726
malicious 1726
manifestations 1726
unmistakable 1726
yielding 1726
athed 1725
cio 1725
indic@@ 1725
intellectuals 1725
ishes 1725
parenting 1725
blunt 1724
merchandise 1724
stew 1724
tle@@ 1724
beaming 1723
structured 1723
velocity 1723
èrent 1723
apps 1722
chronicles 1722
divinity 1722
fashionable 1722
leaked 1722
starve 1722
tual 1722
accelerate 1721
ae@@ 1721
circuits 1721
ounded 1721
specialty 1721
closure 1720
download 1720
expectancy 1720
inscription 1720
intru@@ 1720
mediocre 1720
rally 1720
rier 1720
somethin 1720
amos 1719
care@@ 1719
misunderstand 1719
quotas 1719
registry 1719
addicted 1718
affliction 1718
currents 1718
earth@@ 1718
esse 1718
sex@@ 1718
barked 1717
depot 1717
fts 1717
refreshing 1717
corn@@ 1716
ope 1716
yuri 1716
alabama 1715
gaping 1715
né 1715
perplexed 1715
reagan 1715
bdm 1714
burying 1714
commenting 1714
effected 1714
flora 1714
fortunes 1714
fting 1714
italians 1714
shipment 1714
shop@@ 1714
thom@@ 1714
aria 1713
exceptionally 1713
intervened 1713
peeled 1713
severed 1713
stimulation 1713
traveler 1713
trimmed 1713
bleed 1712
box@@ 1712
kingly 1712
robust 1712
tumbled 1712
barcelona 1711
collision 1711
graduating 1711
mistakenly 1711
temp@@ 1711
wrinkles 1711
blurted 1710
coff@@ 1710
elli@@ 1710
motions 1710
repairing 1710
siberia 1710
chron@@ 1709
fav@@ 1709
fruitful 1709
iners 1709
moaning 1709
monarchy 1709
raskolnikov 1709
sbv 1709
summarizes 1709
wur@@ 1709
zondervan 1709
circumcision 1708
puppet 1708
selective 1708
shrieked 1708
tresses 1708
wonderfully 1708
biased 1707
brakes 1707
grav@@ 1707
lich 1707
pont 1707
rivals 1707
slan@@ 1707
bibli@@ 1706
dearest 1706
dley 1706
elimination 1706
intimately 1706
jackal 1706
knit 1706
nic 1706
bumped 1705
complications 1705
entrust 1705
plow 1705
sacks 1705
ishvar 1704
mean@@ 1704
millionaire 1704
loogan 1703
maintains 1703
confi@@ 1702
ested 1702
inval@@ 1702
preceded 1702
progressed 1702
slogan 1702
swap 1702
undergone 1702
bering 1701
correcting 1701
fireworks 1701
hero@@ 1701
kni@@ 1701
mongo@@ 1701
towels 1701
counterpart 1700
databases 1700
directorate 1700
disagreements 1700
ensures 1700
fted 1700
singles 1700
ï@@ 1700
flicker 1699
puppy 1699
workforce 1699
amor@@ 1698
carlton 1698
devant 1698
hall@@ 1698
requ@@ 1698
revolution@@ 1698
revolver 1698
rock@@ 1698
sorted 1698
transc@@ 1698
dow 1697
endeav@@ 1697
gandhi 1697
grate 1697
lenses 1697
sentimental 1697
thers 1697
fuka 1696
highways 1696
murmurs 1696
mutually 1696
quivering 1696
trum@@ 1696
aster 1695
brah@@ 1695
needy 1695
soli@@ 1695
weakly 1695
yer@@ 1695
dominion 1694
elev@@ 1694
iro 1694
pondered 1694
shuffled 1694
shutting 1694
tay 1694
una 1694
celestial 1693
confided 1693
f.@@ 1693
invaluable 1693
semester 1693
vampires 1693
w.@@ 1693
graph@@ 1692
ota 1692
phillips 1692
stench 1692
systematically 1692
whis@@ 1692
blin@@ 1691
dentist 1691
hart 1691
reservation 1691
145 1690
authoritative 1690
disman@@ 1690
organisation 1690
subsidies 1690
undertaken 1690
dat@@ 1689
electrons 1689
exterior 1689
kicks 1689
lovel@@ 1689
quo 1689
rides 1689
sas@@ 1689
tifying 1689
1938 1688
350 1688
buds 1688
deleted 1688
meticulous 1688
queens 1688
rigorous 1688
singers 1688
disdain 1687
echoes 1687
immensely 1687
listens 1687
melo@@ 1687
obeys 1687
dence 1686
desktop 1686
dustfinger 1686
dv@@ 1686
eping 1686
inauguration 1686
malcolm 1686
pony 1686
stature 1686
story@@ 1686
dante 1685
dowager 1685
proportions 1685
comparisons 1684
explorer 1684
humankind 1684
insol@@ 1684
judd 1684
mona 1684
saw@@ 1684
ular 1684
contaminated 1683
leaping 1683
pausing 1683
regrets 1683
gears 1682
ii@@ 1682
ottoman 1682
anatomy 1681
barth 1681
charitable 1681
elec@@ 1681
immer@@ 1681
kettle 1681
plots 1681
stale 1681
cran@@ 1680
duplicate 1680
ecstasy 1680
registers 1680
seventeenth 1680
dental 1679
disabilities 1679
emperors 1679
headlights 1679
helper 1679
itate 1679
levi@@ 1679
simpson 1679
cellular 1678
eternally 1678
gem@@ 1678
kes@@ 1678
moist 1678
ound 1678
125 1677
arily 1677
beak 1677
grounded 1677
ills 1677
mildly 1677
turner 1677
arians 1676
baby@@ 1676
hasty 1676
innate 1676
leonardo 1676
lum 1676
tify 1676
zers 1676
broadly 1675
coaches 1675
enced 1675
rash 1675
relaxing 1675
scor@@ 1675
suspiciously 1675
yoshi@@ 1675
œ@@ 1675
cocktail 1674
lodged 1674
madox 1674
venetia 1674
hazard 1673
ju 1673
ratios 1673
zzi 1673
graciously 1672
humbly 1672
lurking 1672
scissors 1672
tize 1672
logistics 1671
provoke 1671
sternly 1671
towering 1671
`@@ 1670
concluding 1670
epic 1670
harbour 1670
institutes 1670
nik 1670
pets 1670
chúng 1669
cushion 1669
dab@@ 1669
dough 1669
enberg 1669
follower 1669
humming 1669
interfering 1669
railways 1669
tain 1669
theranos 1669
ungodly 1669
agon@@ 1668
conspicuous 1668
ick@@ 1668
blinding 1667
canals 1667
coded 1667
fo 1667
hardness 1667
negotiated 1667
fty 1666
hamlet 1666
investigators 1666
micawber 1666
relaxation 1666
tenant 1666
wreck 1666
yama 1666
aires 1665
genetics 1665
hastened 1665
simulation 1665
marines 1664
modernization 1664
muggle 1664
n.@@ 1664
yor 1664
coughed 1663
intending 1663
playground 1663
steer 1663
advertise 1662
akin 1662
crises 1662
hyde 1662
initiatives 1662
lom@@ 1662
onward 1662
revoked 1662
steal@@ 1662
bras 1661
consecration 1661
maximize 1661
perenelle 1661
strand 1661
technician 1661
dians 1660
mass@@ 1660
ader 1659
git 1659
johanna 1659
kaz@@ 1659
colette 1658
dus@@ 1658
marianne 1658
rup@@ 1658
successive 1658
accelerated 1657
clara 1657
enabling 1657
kreacher 1657
sib@@ 1657
viol@@ 1657
equitization 1656
housed 1656
pim@@ 1656
scolded 1656
titude 1656
unt 1656
uri 1656
hagen 1655
invitations 1655
microscope 1655
miriam 1655
mockery 1655
nq 1655
sebastian 1655
thy@@ 1655
veterans 1655
aron 1654
denounce 1654
hosted 1654
justi@@ 1654
minorities 1654
nal 1654
renowned 1654
shines 1654
vowed 1654
apocalypse 1653
chores 1653
cleverly 1653
fearless 1653
fluttering 1653
gur@@ 1653
importer 1653
indications 1653
rs 1653
borrowers 1652
alleg@@ 1651
herds 1651
publicize 1651
vigorously 1651
arisen 1650
fin 1650
gauge 1650
resurrect 1650
shrill 1650
assassin 1649
christendom 1649
depicted 1649
gating 1649
infants 1649
life@@ 1649
repeats 1649
solidarity 1649
tack@@ 1649
zurich 1649
canolles 1648
glue 1648
imitating 1648
kilometres 1648
subordinates 1648
thrive 1648
40@@ 1647
appointments 1647
constitu@@ 1647
deserving 1647
inquire 1647
maya 1647
nn@@ 1647
pyotr 1647
strapped 1647
warranty 1647
accomplishments 1646
dame 1646
emerald 1646
forcible 1646
gu 1646
pippi 1646
quel 1646
slate 1646
builder 1645
caval@@ 1645
climax 1645
darkest 1645
interruption 1645
anton 1644
friction 1644
frighten 1644
gence 1644
lodging 1644
matics 1644
realise 1644
seg@@ 1644
trans 1644
vigorous 1644
adler 1643
assemblies 1643
irresponsible 1643
ultra 1643
115 1642
audible 1642
reins 1642
viral 1642
drafted 1641
mop@@ 1641
proximity 1641
rant 1641
rearing 1641
stout 1641
trench 1641
proclaiming 1640
rence 1640
reservoirs 1640
shields 1640
sob 1640
tica 1640
warner 1640
b.c.e 1639
endor@@ 1639
hurled 1639
sher 1639
anglo 1638
dazed 1638
demiris 1638
ensured 1638
hack 1638
illinois 1638
plateau 1638
schedules 1638
terre 1638
wad@@ 1638
awfully 1637
eloquent 1637
financed 1637
hectares 1637
lage 1637
marguerite 1637
quoting 1637
venue 1637
13,@@ 1636
dicated 1636
hushed 1636
mafia 1636
nourished 1636
photo@@ 1636
pulaski 1636
softness 1636
clown 1635
reunion 1635
superiors 1635
teased 1635
antibiotics 1634
editors 1634
whir@@ 1634
bates 1633
entre 1633
infections 1633
pam@@ 1633
vesti@@ 1633
xe 1633
1929 1632
backgrounds 1632
mobility 1632
pascal 1632
troubling 1632
administered 1631
ceas@@ 1631
optical 1631
sche 1631
sweetie 1631
weigh@@ 1631
clim@@ 1630
crammed 1630
doorbell 1630
enhancing 1630
obsc@@ 1630
passepartout 1630
prohibition 1630
stormy 1630
sé 1630
tuition 1630
bruises 1629
cations 1629
gent@@ 1629
israelis 1629
suburban 1629
agon 1628
blur@@ 1628
forensic 1628
jackets 1628
lul@@ 1628
madman 1628
malice 1628
orn 1628
crusade 1627
doctrinal 1627
nobles 1627
trong 1627
aboli@@ 1626
adequately 1626
horsemen 1626
tink@@ 1626
graveyard 1625
mir 1625
monte 1625
prepares 1625
repu@@ 1625
bidders 1624
geometry 1624
planchet 1624
demon@@ 1623
encryption 1623
lei 1623
một 1623
niche 1623
pasture 1623
spectators 1623
108 1622
authenticated 1622
booked 1622
gut@@ 1622
propositions 1622
samu@@ 1622
tail@@ 1622
twe@@ 1622
wild@@ 1622
arouse 1621
midday 1621
seduc@@ 1621
sheep@@ 1621
symbolize 1621
135 1620
buzzing 1620
corresponds 1620
insults 1620
jagged 1620
prohibit 1620
skir@@ 1620
smoothed 1620
breadth 1619
competitor 1619
liness 1619
sealing 1619
sket@@ 1619
arbitration 1618
avant 1618
bay@@ 1618
bbled 1618
buendía 1618
extremes 1618
mailed 1618
ories 1618
receptionist 1618
sabine 1618
stabbing 1618
tains 1618
cos 1617
generic 1617
preserves 1617
sensual 1617
siddhartha 1617
fab@@ 1616
giver 1616
jars 1616
shadowy 1616
afflicted 1615
ames 1615
appel@@ 1615
contexts 1615
declining 1615
modesty 1615
nigeria 1615
pid 1615
sarcastic 1615
teen 1615
ts@@ 1615
unlock 1615
accumulate 1614
cic@@ 1614
concessional 1614
crest 1614
ddy 1614
disapproval 1614
elic@@ 1614
joachim 1614
neur@@ 1614
outrage 1614
rhetoric 1614
stiff@@ 1614
usions 1614
compatibility 1613
eco 1613
lex@@ 1613
messed 1613
oxy@@ 1613
brazilian 1612
ür@@ 1612
adolescent 1611
featuring 1611
stripes 1611
atone 1610
bethle 1610
bry@@ 1610
obama 1610
ranges 1610
supervised 1610
wig 1610
flor@@ 1609
inconsistent 1609
ishable 1609
lengthy 1609
madonna 1609
overflowing 1609
pending 1609
satellites 1609
stead 1609
syl@@ 1609
toujours 1609
audi@@ 1608
berkshire 1608
chew 1608
mala@@ 1608
strathmore 1608
technicians 1608
whi@@ 1608
ballet 1607
excellency 1607
resides 1607
turks 1607
angu@@ 1606
cade 1606
configuration 1606
mushrooms 1606
renewable 1606
thorns 1606
aah 1605
americas 1605
ampli@@ 1605
curl 1605
diligence 1605
doctoral 1605
enlighten 1605
gour@@ 1605
iter@@ 1605
biodiversity 1604
darla 1604
eland 1604
gavin 1604
interpretations 1604
love@@ 1604
promotes 1604
reigns 1604
spon@@ 1604
briskly 1603
capturing 1603
classrooms 1603
darkling 1603
efs 1603
frenchman 1603
lifeless 1603
quanti@@ 1603
shit@@ 1603
snarled 1603
ammon@@ 1602
archbishop 1602
colum@@ 1602
davít 1602
steam@@ 1602
time@@ 1602
tolerant 1602
zhou 1602
200@@ 1601
fascination 1601
lans@@ 1601
paul@@ 1601
poking 1601
claw 1600
confesses 1600
diploma 1600
electri@@ 1600
electron 1600
flattering 1600
hypno@@ 1600
parti@@ 1600
1919 1599
assyria 1599
belts 1599
brig@@ 1599
homosexual 1599
innov@@ 1599
rum@@ 1599
servers 1599
shrimp 1599
stroll 1599
tutor 1599
bulls 1598
chalk 1598
eduardo 1598
ema 1598
exul@@ 1598
forsaken 1598
gion 1598
lei@@ 1598
scripts 1598
finals 1597
hart@@ 1597
hemisphere 1597
henrik 1597
herbal 1597
licence 1597
martyr 1597
omer 1597
prudent 1597
recognizable 1597
strawberry 1597
sway 1597
takers 1597
turtle 1597
use@@ 1597
vere 1597
administrators 1596
bal 1596
centr@@ 1596
dungeon 1596
hose 1596
không 1596
kidnapping 1596
mobilizing 1596
ott 1596
quotation 1596
snapping 1596
suffer@@ 1596
varies 1596
waterfall 1596
what@@ 1596
aci@@ 1595
dolls 1595
ffe 1595
inflicted 1595
intricate 1595
revise 1595
sixteenth 1595
targeting 1595
untouched 1595
metaphor@@ 1594
monitored 1594
readiness 1594
strait 1594
turb@@ 1594
father@@ 1593
lls 1593
protest@@ 1593
spencer 1593
dip 1592
ination 1592
nombeko 1592
nuit 1592
paelen 1592
rez 1592
rum 1592
tari@@ 1592
villain 1592
academ@@ 1591
brokers 1591
campbell 1591
concludes 1591
damascus 1591
tanner 1591
wearily 1591
iny 1590
mandate 1590
priv@@ 1590
rei@@ 1590
wills 1590
commis@@ 1589
creepy 1589
extinguished 1589
koto 1589
mailing 1589
och@@ 1589
oz 1589
throbbing 1589
cooler 1588
daytime 1588
evacuation 1588
roubles 1588
amaia 1587
bonp 1587
comprise 1587
ems 1587
tours 1587
wharf 1587
arnold 1586
gwydion 1586
ragnar 1586
reluctance 1586
streak 1586
1920 1585
21.@@ 1585
aesthetic 1585
chilly 1585
contemplating 1585
discrimin@@ 1585
east@@ 1585
marsh 1585
mysti@@ 1585
outta 1585
ship@@ 1585
stung 1585
yeux 1585
bapti@@ 1584
compli@@ 1584
expe@@ 1584
sentiments 1584
sponsored 1584
bonuses 1583
ernst 1583
mak 1583
nin 1583
tribunal 1583
ố@@ 1583
acity 1582
cauldron 1582
co2 1582
escapes 1582
fleur 1582
grimaud 1582
laos 1582
spatial 1582
apt 1581
defl@@ 1581
hostess 1581
purified 1581
reduces 1581
renting 1581
tread 1581
usable 1581
frequencies 1580
joong 1580
networking 1580
pippin 1580
recurring 1580
anthropo@@ 1579
banana 1579
composing 1579
gollum 1579
hysterical 1579
rejoicing 1579
serene 1579
treasuries 1579
chez 1578
evangelism 1578
tenderly 1578
topped 1578
compounds 1577
encro@@ 1577
etic 1577
sociology 1577
a.d. 1576
aristocratic 1576
bearded 1576
dition 1576
eine 1576
lingu@@ 1576
12th 1575
arche@@ 1575
daw@@ 1575
iniquity 1575
injection 1575
naomi 1575
poised 1575
skinned 1575
vig@@ 1575
whichever 1575
opium 1574
tigers 1574
clou@@ 1573
itations 1573
polo 1573
seduce 1573
tial 1573
unfolded 1573
arkadyevich 1572
boasted 1572
chard 1572
disseminate 1572
nucleus 1572
superintendent 1572
sweaty 1572
therefor 1572
1951 1571
overseer 1571
penetrating 1571
bibles 1570
dwelt 1570
intangible 1570
scenarios 1570
seung 1570
ugh 1570
uneven 1570
babylonian 1569
checkpoint 1569
cherished 1569
destroys 1569
dier 1569
greenhouse 1569
lauren 1569
reinforcement 1569
reson@@ 1569
slaughtered 1569
tec@@ 1569
tuberculosis 1569
ại 1569
common@@ 1568
contrasts 1568
judea 1568
liam 1568
ograph@@ 1568
prairie 1568
relentless 1568
studios 1568
cowardly 1567
dden 1567
quidditch 1567
rite 1567
underestimate 1567
1936 1566
bridget 1566
cosmo@@ 1566
exert 1566
whereabouts 1566
acha 1565
avaient 1565
bleak 1565
chile 1565
circulating 1565
cow@@ 1565
debated 1565
discusses 1565
dit@@ 1565
gaz@@ 1565
infringing 1565
mare 1565
remittance 1565
sies 1565
dwel@@ 1564
eng 1564
iris 1564
predicting 1564
ất 1564
achi@@ 1563
aim@@ 1563
cleansed 1563
devout 1563
dioxide 1563
light@@ 1563
scoring 1563
silver@@ 1563
bathe 1562
bod@@ 1562
gav@@ 1562
multiplying 1562
rog@@ 1562
stun@@ 1562
tinh 1562
tuous 1562
dishonest 1561
mt 1561
pet@@ 1561
sucks 1561
crews 1560
[...]
