. 15307503
, 13763003
và 4962385
của 4696577
có 4323262
&quot; 4231907
là 4080124
một 4058292
không 3924024
tôi 3858728
người 2885016
trong 2669856
được 2644025
những 2554218
đã 2446508
- 2411047
ta 2369550
các 2294408
cho 2290821
với 2100683
chúng 2044067
đó 1912804
? 1811056
anh 1767408
sự 1680646
thể 1669253
ra 1596210
này 1572252
như 1556279
khi 1534990
làm 1505569
phải 1474625
để 1468438
về 1465240
: 1459456
đến 1435994
sẽ 1432820
ông 1424279
lại 1388529
nói 1383662
ở 1360254
điều 1262855
vào 1234821
con 1174617
họ 1139152
nhưng 1132000
mà 1127084
thế 1125897
nó 1114844
đi 1114091
cô 1106001
gì 1096432
việc 1083739
công 1078111
mình 1019617
định 1002163
từ 999680
bạn 979146
đầu 959087
cũng 921789
chúa 917182
biết 910158
chỉ 896825
nào 883826
theo 880379
thấy 875108
nhà 870758
thì 869534
cả 859977
trên 840595
vì 830599
quan 821070
bị 805166
đang 797869
rằng 796730
; 796444
thành 789668
năm 777528
chính 770324
cái 763928
đây 761349
sau 753571
khác 725593
tại 725545
! 721764
ấy 721226
cách 705438
rồi 704424
hơn 698459
còn 698280
đức 689423
thực 667827
ngày 666148
hiện 659601
lên 654895
số 653117
động 650695
nhân 640088
vậy 637952
nhận 624013
nhiều 613260
em 610432
nếu 609469
trước 602010
cơ 598948
tin 592432
giờ 582672
sao 579511
hành 574910
hai 574238
muốn 569813
nước 567258
trời 565135
lý 559660
học 549509
hợp 545106
nhất 544120
ngài 538432
thời 531836
eos 529234
đối 529109
ý 526152
rất 523693
bộ 523286
cùng 519993
hàng 511553
qua 503580
lời 503307
bằng 495160
kinh 491649
) 488535
sống 487824
́ 486133
thứ 484489
nghĩ 481401
nên 480191
thật 478566
đồng 477428
thông 477187
tự 475938
hội 470810
hay 470228
nhìn 469744
bà 466230
dụng 463326
quy 460849
( 458877
hoặc 455015
chuyện 453607
1 449101
bản 448079
gia 445249
cậu 442418
mọi 441867
cần 438420
do 434964
mặt 433072
tay 429616
nữa 427646
vụ 426613
tư 421346
trường 420016
bảo 418657
hình 416801
cảm 414875
thánh 412798
trở 401664
̀ 401004
cuộc 394672
ai 391886
chức 389785
tới 389555
đề 388612
bao 387752
mới 385702
lúc 382192
tất 374313
tiếp 370891
phát 368685
pháp 367943
trình 367085
dân 362182
bắt 362025
... 359368
vẫn 359359
quyền 354715
vị 353693
phần 351589
giá 345841
kết 345557
toàn 342204
2 340817
hỏi 340298
yêu 339356
nhiên 338772
tìm 338765
cầu 337797
hãy 337170
câu 337045
bên 336366
viên 336317
sử 335546
nơi 334334
quyết 333363
chẳng 331492
quá 331275
thường 329120
tài 329038
phòng 327873
tiếng 327562
cấp 326634
nghe 321344
sinh 320444
lần 319638
chủ 319000
gian 317792
bất 316789
sản 315775
tình 314508
tâm 312210
lớn 312120
tính 310984
giải 310734
đường 309008
năng 307628
nhau 307611
tổ 307230
giáo 306463
xuất 306442
tháng 304907
bởi 303364
liên 302094
/ 301278
chưa 301266
trung 301217
nghiệp 300148
đại 299788
điểm 299691
chứng 298097
ngoài 297620
ban 297202
tế 296818
cứ 295112
đều 294219
đâu 291808
̣ 291209
đúng 290508
xem 290024
luật 289961
đời 288841
hắn 288402
giới 287857
tiền 286765
hết 284802
thức 282458
ba 281396
cứu 281371
mẹ 280572
báo 279791
thích 277611
tạo 277336
tốt 275203
ngay 274640
nghĩa 274364
trọng 273550
đổi 269920
vật 268604
chết 268421
sách 268165
tiên 267956
chiếc 267885
tên 266541
quốc 265997
thay 265042
hiểu 264808
đất 263754
ăn 263640
3 263178
xuống 260520
a 258939
lấy 258435
lập 257774
lòng 256987
gọi 256396
thuộc 253649
đưa 253388
quả 252965
khỏi 252140
hệ 251823
đồ 251785
cao 251092
sáng 250595
độ 248165
hoàn 246287
thôi 246161
doanh 245051
dự 244665
kẻ 243503
thương 243361
i 241352
lực 240819
kỳ 238793
vấn 238275
phương 238130
mắt 237613
nhiệm 237341
trị 235243
bỏ 235174
y 234776
cửa 234622
trả 233744
từng 232517
cố 230087
xác 229202
sở 228753
xe 228128
thân 227876
giúp 227294
đấy 226612
tác 225634
chi 224525
mục 223836
quản 223198
bố 222772
chắc 222121
hoạt 221632
dẫn 219789
án 219715
văn 218457
rõ 218230
giữa 217708
thống 216603
kiểm 216409
loại 215886
c 215617
chiến 214598
vi 213180
bình 213144
thiết 212902
cha 212430
tưởng 211703
nay 211317
giống 210790
giao 210569
chuyển 210052
lẽ 209836
… 209778
xin 209691
nàng 209141
sát 209085
máy 208558
thu 208300
cảnh 208181
đơn 207653
cuối 206502
hóa 206378
lượng 205080
phía 204537
liệu 204228
tội 204194
đạo 203847
biệt 203593
kế 203275
tiêu 203118
gần 202779
tập 202687
dùng 202543
dịch 202314
phục 201895
chất 200634
mất 200571
điện 200112
hiệu 199668
dù 199584
đánh 199468
phép 197118
vừa 196945
hướng 195909
kể 195249
vô 194935
tra 194813
̉ 194537
dựng 194443
địa 194326
nhỏ 194246
gặp 194063
mỗi 193575
luôn 193355
– 193351
thần 192656
phạm 192426
dưới 191437
tục 190741
đủ 189478
hạn 188798
tối 188217
chịu 187667
nghị 186898
đặt 186710
4 186264
cá 185312
phụ 185144
&apos; 184754
khoản 183144
phân 182223
đứng 182045
xây 181129
nam 180970
triển 180809
vẻ 180202
ảnh 179093
ký 179078
an 178963
bàn 177841
trưởng 177609
tượng 177455
chứ 176849
trí 176748
thủ 176538
bước 176364
đặc 176339
trẻ 175217
vài 175164
giữ 175078
nguyên 174224
sĩ 173913
5 173568
chân 173167
chị 172667
linh 172613
mạnh 172418
đáng 171996
thêm 171884
thanh 171668
tiến 171562
bài 170808
truyền 170171
đầy 169720
chế 168215
tương 168136
n 167580
mang 165828
bệnh 165819
mở 165773
sức 165317
khu 164874
lỗi 164863
chỗ 164713
chú 163782
cười 163683
tín 163460
xảy 163306
bé 162536
biến 162349
ứng 161612
khiến 161082
phẩm 160803
khó 160561
thi 160445
quay 159792
ng 159707
trách 159135
viết 158673
cổ 158629
kia 158314
va 158110
giả 157603
nhớ 157288
mặc 156716
hồ 156076
chàng 155996
giê 155043
t 154739
nữ 153639
ngồi 152595
xã 152422
xa 152362
thị 151968
mức 151393
thuật 151188
phủ 151008
cáo 150825
ty 150544
thư 150489
toán 150462
sơ 150399
ngươi 150184
đấng 150017
chí 149735
khách 149301
phố 149201
ít 149076
nhập 148557
danh 148319
la 147892
giấy 147875
đôi 147742
bán 147729
căn 146367
quân 146358
tranh 146265
kiện 146236
xử 146126
xét 145928
đình 145041
trái 144996
nghiệm 144955
diện 142806
chương 141832
chọn 141776
b 141248
hữu 141160
đàn 140027
dài 139706
minh 139662
vui 139610
tham 139536
cây 139385
tổng 139309
bây 139272
lệ 138671
vực 137841
mô 137040
hoạch 137020
tử 136888
trang 136753
nhóm 136548
nội 136184
gái 135862
lợi 135689
sợ 134615
vốn 134079
phí 133558
khai 133111
vọng 132959
à 132812
thái 132492
diễn 132159
ơn 131888
kiến 131459
khoảng 131100
đừng 130582
thiên 130293
khả 129628
mua 129554
tớ 129301
thẩm 129102
lâu 128948
vệ 128515
6 128256
cháu 127498
tuổi 126365
thuế 126123
áp 125786
10 125471
áo 124324
hôm 124320
bọn 124281
chạy 124119
dạy 123710
nổi 123667
luận 123618
sư 122885
càng 122559
chuẩn 121757
tăng 121136
mấy 120521
đọc 120163
tức 120109
bác 119868
suy 119811
hô 119603
khẩu 119558
lãnh 119446
% 119067
ngân 118292
bay 117972
tuy 117592
lao 117465
nhanh 117282
đứa 117028
chơi 116727
ghi 116717
đoạn 116707
ước 116702
yếu 116634
trợ 116446
duy 115927
quanh 115590
cung 115323
màu 115205
phản 114894
trai 114725
chút 114698
đảm 114261
sai 114077
đáp 113995
the 113959
quý 113802
gồm 113759
đông 113716
tuyệt 113311
tinh 113058
gây 113053
tàu 112592
trò 112559
riêng 111560
khí 111538
đẹp 111520
nằm 111111
việt 111041
trông 110873
lắm 110747
christ 110517
hầu 110021
hồi 109985
dễ 109913
giết 109687
ca 109587
lịch 109571
lễ 109542
đội 109494
chấp 109244
lo 109061
đốc 108386
nghệ 108209
hưởng 108158
̃ 108146
hiểm 107949
vùng 107946
chung 107910
nguồn 107621
đau 106300
nghiên 106251
mày 106163
tích 105905
kỹ 105550
cụ 105389
dung 105344
mối 105338
bức 105055
âm 104951
thuốc 104576
to 104502
môi 103901
vua 103666
giám 103274
ngoại 103191
đêm 103083
đóng 103032
7 102690
sang 102671
đa 102640
hoa 102634
thú 102603
phá 102111
khoa 101675
trực 100714
ma 100530
tỉnh 100460
chắn 100281
cánh 99951
thờ 99627
lưu 99611
buổi 99556
cộng 99546
bóng 98820
nầy 98691
biểu 98490
vận 98425
ánh 98312
thầy 98151
tỏ 98044
kiếm 97618
thử 97589
— 97351
tiết 97304
hộ 97164
biển 97022
viện 96814
thuyết 96218
nguyện 95751
dành 95391
mạng 95270
chuyên 95154
000 95095
mỹ 95002
vợ 94939
cạnh 94821
12 94737
lạ 94432
chống 94420
ngủ 94202
độc 93747
hơi 93053
gã 92834
ràng 92704
8 92517
kỷ 92484
đấu 92033
loài 91595
giác 91489
đăng 91277
nỗi 90271
u 90245
vòng 90113
dục 89674
phi 89605
hy 89426
đá 88969
sứ 88581
sẵn 88489
trừ 87795
rộng 87539
tuần 87309
gửi 87259
dấu 86885
thúc 86853
đợi 86789
vâng 86767
kéo 86644
tôn 86634
giọng 86011
hoàng 86002
sâu 85697
chia 85285
sắp 85189
ngôi 84894
suốt 84819
hôn 84816
ích 84020
đích 83949
môn 83928
đạt 83834
lành 83795
hề 83622
chờ 83574
đoán 83064
trạng 83013
thậm 82860
so 82831
di 82765
vai 82742
thiếu 82671
phán 82617
da 82440
9 82116
cập 82094
mẫu 82009
đám 81861
dữ 81815
mười 81573
đô 81381
phù 81203
giảng 81075
hại 80748
hải 80615
nghi 80552
hạ 80514
ngành 80354
buộc 80009
sửa 79870
cuốn 79863
đem 79505
tấm 79340
d 79331
thẳng 79254
lạc 78700
bổ 78387
ngữ 78247
dụ 78163
sa 78162
chồng 78024
đen 77802
tai 77435
phút 77199
lão 77003
gắng 76964
chữ 76489
phạt 76477
vũ 76466
11 76218
chào 76104
nhờ 75887
bốn 75727
kính 75678
m 75548
cực 75443
cư 75120
giê-xu 75073
đoàn 75059
hẳn 74643
thất 74530
tao 73790
bày 73507
giảm 73316
thoại 73115
phúc 72976
thưa 72794
15 72519
coi 72226
khăn 71726
thuận 71659
khá 71619
tả 71530
phê 71361
vàng 70949
triệu 70923
rời 70692
mong 70529
dòng 70479
tri 70404
mật 70217
xúc 69989
tờ 69974
nền 69894
lệnh 69818
lắng 69710
20 69528
nhắc 69126
thằng 68926
cơn 68730
nạn 68697
dậy 68627
in 68384
tây 68146
uống 67876
thượng 67861
dầu 67805
tố 67758
quen 67610
nhật 67316
kêu 66905
cục 66819
kiểu 66812
lớp 66750
hòa 66692
tòa 66637
# 66534
mươi 66218
ủy 66205
tắc 66155
vượt 65921
hậu 65919
nhạc 65749
tiện 65634
phong 65632
nguy 65488
chữa 65436
khổ 64958
soát 64909
nghề 64571
s 64571
lặng 64569
ngờ 64417
cầm 64300
đào 64226
&#91; 64157
nông 64097
sung 64016
sổ 63923
&#93; 63839
hạnh 63653
quần 63590
lai 63358
thắng 63304
trận 63298
thù 63198
ấn 63183
niềm 63129
lựa 63124
yên 62958
thuê 62900
tệ 62453
buồn 62448
sắc 62442
đổ 62376
giản 62375
nộp 62375
xấu 62359
lộ 62212
trải 62179
ví 61692
tận 61553
phối 61518
tránh 61489
sàng 61389
o 61358
tái 61302
tồn 61210
chăm 61197
_ 61033
trắng 61000
dừng 60703
co 60632
phim 60562
ô 60469
lối 60274
dường 60272
hứa 59966
tạm 59895
đỡ 59855
tha 59813
băng 59758
tấn 59689
châu 59631
bí 59513
thoát 59467
niên 59357
tường 59250
đẩy 59099
of 59055
lửa 59029
trì 58965
thủy 58892
lĩnh 58850
ngạc 58599
ạ 58324
cải 58241
đảo 58219
hỗ 58182
khắp 58108
nặng 58066
chiều 57970
máu 57896
đế 57857
may 57829
đột 57829
dạng 57804
bánh 57762
ác 57742
nghiêm 57654
tuyên 57536
mã 57431
ổn 57383
mừng 57378
tộc 57065
phiếu 57022
quên 56979
xếp 56969
mời 56670
thở 56628
nắm 56595
ngăn 56418
xong 56190
mùa 56172
khắc 56145
trăm 55710
miệng 55558
tóc 55445
dây 55439
cử 55259
rối 55103
niệm 55082
lá 54938
đỏ 54883
rừng 54879
rượu 54846
giận 54795
e 54752
mơ 54685
thập 54650
cũ 54464
nh 54249
nghỉ 54040
tướng 54024
xanh 53986
ân 53984
tầng 53958
dần 53913
bạc 53898
dựa 53823
thiện 53648
chặt 53637
ngựa 53591
xuyên 53424
bại 53395
thăm 53389
hoá 53343
ghế 53304
bắc 53190
ngôn 53149
nửa 53138
hồn 53103
lẫn 52985
sân 52984
nhiêu 52942
quỹ 52907
du 52813
nhu 52718
nuôi 52712
biên 52675
harry 52636
lạnh 52553
già 52417
mái 52283
tầm 51913
lầm 51885
hát 51858
sáu 51855
14 51832
thảo 51601
lương 51381
chỉnh 51320
ngang 51189
thỏa 51107
nhé 50997
ngược 50950
khủng 50824
cấu 50799
xung 50663
biện 50656
nợ 50610
13 50548
hiệp 50520
thừa 50338
tải 50214
súng 50163
thịt 50146
nhẹ 50120
kích 50001
tỷ 49991
xứ 49901
trụ 49892
núi 49886
món 49799
su 49797
im 49569
30 49567
hả 49348
tù 49305
cắt 49292
phao-lô 49254
mãi 49244
giai 49235
khởi 49179
khám 49016
kê 48992
chiếu 48970
thấp 48901
lục 48852
thác 48677
tim 48602
phóng 48517
nhằm 48502
16 47921
p 47898
song 47805
đo 47753
hủy 47562
sông 47524
sớm 47250
đòi 47161
rút 47071
ðức 47048
khích 46904
đương 46849
rơi 46841
phận 46686
luyện 46652
mắc 46649
mại 46595
binh 46548
bầu 46467
and 46430
ngắn 46335
bắn 46288
dàng 46194
vời 46019
chậm 46004
ưu 45922
lưng 45921
na 45864
tạp 45599
điên 45540
chuyến 45452
bữa 45403
khóa 45285
huy 45076
tiểu 45047
tịch 44993
gương 44864
mê 44731
thận 44626
nối 44624
thang 44476
gốc 44359
kèm 44337
điển 44311
ơi 44273
dõi 44233
ngừng 44225
thí 44209
truy 44048
kim 44046
họp 44033
vinh 44003
nhảy 43991
ly 43761
bật 43750
chừng 43703
lan 43668
túi 43469
bảy 43462
sạch 43351
khôn 43183
duyệt 43163
lái 42870
nóng 42859
mai 42836
đuổi 42811
khỏe 42801
18 42767
vết 42625
dỗ 42577
góp 42441
giường 42428
đèn 42290
lính 42203
dối 42169
-@@ 42041
thơ 41948
nâng 41892
ẩn 41825
phó 41806
17 41777
tô 41625
chối 41622
dĩ 41578
ngoan 41572
cu 41564
vay 41476
new 41405
kho 41251
tắt 41179
thưởng 41138
19 41023
thầu 40972
trao 40936
ôi 40779
khuôn 40724
che 40669
hút 40636
chứa 40621
họa 40594
miễn 40411
pha 40255
ro 40245
jêsus 40211
cám 40170
nổ 40042
hiển 39938
hạt 39914
cận 39894
giàu 39869
cậy 39829
bảng 39816
chiếm 39585
tan 39578
suất 39498
mi 39348
thuyền 39212
phổ 39201
cất 38964
gió 38888
chó 38796
quảng 38668
liền 38495
phái 38462
vương 38306
bang 38253
tĩnh 38194
lô 38173
chóng 38150
dương 38053
tàn 37936
sóc 37911
đựng 37909
đền 37903
vững 37848
chu 37842
gắn 37841
trại 37827
nêu 37779
nhiệt 37532
nhỉ 37495
não 37338
cháy 37334
ngón 37105
dứt 37089
cẩn 37007
hãi 36920
bờ 36893
khuyên 36795
ngã 36727
can 36687
ga 36329
hài 36262
dâng 36257
giây 36202
25 36186
loạn 36183
ư 36180
tuyến 36171
trốn 35919
01 35918
cặp 35886
đài 35875
quán 35871
trọn 35788
màn 35759
khóc 35746
24 35674
s@@ 35648
cân 35577
âu 35502
mùi 35413
mũi 35369
dưỡng 35327
đập 35225
ghét 35222
tước 35192
thách 34950
ngọn 34940
ương 34851
tốc 34706
no 34634
sẻ 34567
cp 34559
gi 34524
chạm 34481
đê 34416
nga 34278
nha 34249
thầm 34233
chấm 34048
vẽ 34028
chăng 33973
khối 33942
chim 33757
ồ 33714
tân 33675
mẽ 33647
kịp 33551
ê 33414
ngàn 33412
khoán 33404
phước 33397
góc 33297
vỡ 33265
hộp 33113
xưa 33084
đằng 33084
tu 33058
giấc 33035
dám 32953
phiên 32825
lang 32820
bậc 32805
điệp 32739
diệt 32732
hoang 32657
quái 32575
quyển 32548
t@@ 32491
bào 32408
tách 32346
tá 32290
21 32207
cứng 32185
bãi 32135
nghèo 32117
* 32052
cà 31884
lũ 31847
miền 31706
^ 31673
lược 31528
ha 31504
trống 31419
liệt 31405
trần 31350
bồi 31310
xu 31235
rỗi 31181
chép 31127
-- 31044
100 30950
giăng 30945
ch 30942
bối 30925
22 30922
trúc 30736
bạo 30681
vĩ 30667
50 30461
vườn 30312
hồng 30258
huấn 30212
k@@ 30207
cam 30149
ám 30134
sót 30042
giấu 30036
lâm 30019
hư 29998
kém 29998
cai 29993
tán 29946
hạng 29943
khốn 29919
chảy 29905
de 29839
đón 29825
sóng 29819
quỷ 29817
hấp 29786
ninh 29769
tùy 29758
mảnh 29715
ống 29682
căng 29581
se 29418
vang 29405
mỉm 29393
d@@ 29381
nhấn 29371
trồng 29350
bò 29277
nđ 29267
cỏ 29169
khiển 29162
thiệu 29159
cảng 29156
ên 29114
kì 29102
trấn 29058
khuyến 29053
trích 29025
vội 29012
g@@ 28992
kín 28954
nhiễm 28916
c@@ 28912
ngại 28895
+ 28872
phượng 28855
hằng 28795
b@@ 28730
nô 28581
siêu 28581
chớ 28560
phu 28558
trưng 28555
gỗ 28523
gật 28503
23 28458
sắt 28419
thải 28410
phức 28364
khải 28343
ừ 28336
m@@ 28302
thê 28296
john 28191
thảm 28162
kịch 28159
tuân 28139
khảo 28126
chúc 28105
tám 28089
ủng 28061
lỗ 28039
nỗ 27911
nhánh 27910
lát 27863
kiên 27807
nghịch 27770
đ 27740
hứng 27729
mệt 27689
mến 27649
thả 27634
lừa 27539
mềm 27494
thụ 27473
nhẫn 27428
ngu 27400
tổn 27394
lắc 27390
giỏi 27348
bè 27339
tròn 27320
tiệc 27301
n@@ 27289
khen 27254
khiếp 27249
bi 27242
cựu 27198
sàn 27194
mãn 27131
tảng 27086
hà 27084
ko 27069
mưa 27069
vỗ 27061
bận 26996
♪ 26991
hàm 26982
săn 26883
rao 26878
cấm 26707
ti 26676
dọc 26580
hào 26579
viễn 26572
h@@ 26473
làng 26463
trữ 26399
y-sơ-ra-ên 26384
xương 26354
cớ 26324
cưới 26228
thổ 26203
đống 26185
khát 26136
ném 26117
sánh 26092
chăn 26028
say 26023
hoảng 26003
hẹn 25992
ấm 25942
than 25917
xưng 25898
gấp 25873
p@@ 25829
ngợi 25780
x 25765
cờ 25754
hảo 25747
trú 25735
mạch 25721
dị 25712
đói 25648
giơ 25600
ii 25598
bếp 25482
tiếc 25409
mộ 25400
lùng 25392
g 25378
dáng 25373
đớn 25362
bề 25348
gợi 25245
chụp 25204
tóm 25183
ôm 25091
nụ 25080
mệnh 25075
óc 25066
i@@ 25006
ho 24999
xứng 24932
vẹn 24892
thói 24789
phiền 24775
28 24746
đe 24711
răng 24681
thiệt 24679
cong 24622
hương 24612
mụ 24584
tuyển 24571
york 24571
chuộc 24430
hi 24429
cãi 24260
khung 24260
lôi 24106
đùa 24097
thợ 24087
chín 24055
điệu 24027
hối 24022
lông 23946
26 23932
giày 23931
run 23911
tràn 23898
ngực 23836
đỉnh 23830
khứ 23766
tụi 23762
canh 23741
dao 23718
xoay 23715
es 23711
mờ 23679
hùng 23647
cổng 23626
tung 23605
dọa 23560
hổ 23501
lí 23469
bỗng 23456
ơ 23451
đãi 23380
huống 23330
bụi 23257
40 23201
ar@@ 23198
tồi 23193
mắn 23185
chán 23169
đảng 23156
sốt 23148
quang 23075
tặng 23050
ngon 23015
hầm 23014
chìa 22952
hiến 22946
khô 22935
cường 22915
bụng 22907
đạn 22885
rắc 22879
lu 22874
cúi 22870
ngũ 22853
đeo 22823
nét 22788
khổng 22765
mũ 22737
chặn 22694
thao 22690
triết 22689
lưới 22574
bội 22558
treo 22547
cướp 22544
27 22538
trùng 22506
huyết 22504
chiên 22499
loạt 22448
on 22441
u@@ 22390
đĩa 22386
tuyết 22370
chằm 22369
rủi 22369
cản 22343
trôi 22327
hét 22326
cán 22301
tắm 22264
lồ 22192
lơ 22189
dư 22187
ngốc 22155
thiểu 22138
bèn 22129
hè 22046
thôn 22027
xâm 22020
mù 22000
nhắm 21915
sợi 21886
lặp 21817
khái 21814
sanh 21814
v@@ 21764
ả 21750
0 21623
thoải 21585
vắng 21565
tỉ 21551
2015 21524
đàng 21522
khẳng 21457
thoảng 21438
miếng 21410
chủng 21289
31 21284
vả 21236
e@@ 21223
ép 21219
ch@@ 21203
sạn 21197
lạy 21117
mưu 21108
thiêng 21060
giành 21023
li 20959
gói 20956
x@@ 20950
dọn 20867
địch 20844
ngập 20816
phỏng 20805
lưỡi 20792
đốt 20753
giật 20729
khúc 20672
kháng 20633
leo 20617
á 20617
buôn 20616
gác 20592
dịu 20564
o@@ 20553
dính 20524
nhuận 20523
nhục 20506
lộn 20487
v 20474
bấy 20468
l@@ 20450
2010 20446
trào 20432
rắn 20422
tháp 20403
thẻ 20402
tứ 20402
uy 20292
l 20284
man 20269
móc 20268
kìa 20220
jesus 20178
chở 20148
triều 20098
thỉnh 20083
ghê 20051
quà 20037
cột 20002
h 19977
cú 19969
dò 19956
hỡi 19890
lãi 19887
29 19884
mực 19827
thảy 19796
hiếm 19771
muộn 19737
nát 19688
tươi 19640
rửa 19628
trầm 19594
k 19562
.. 19532
uỷ 19503
lê 19481
tật 19470
đồi 19447
f@@ 19392
mỏi 19379
lò 19374
hỏng 19350
dày 19323
giam 19296
r@@ 19287
y@@ 19253
oh 19243
2013 19238
gối 19188
bá 19186
al@@ 19150
trưa 19143
phấn 19115
ma@@ 19094
giáng 19089
đươ 19083
dặm 19017
chai 19010
mat 19000
chìm 18996
rãi 18950
tựa 18891
diệu 18880
tiềm 18878
liêng 18847
tt 18803
túc 18800
ung 18765
cương 18678
chánh 18657
vải 18638
re@@ 18612
huyện 18590
thai 18514
trật 18501
bông 18457
he 18430
xinh 18429
quí 18371
mát 18361
lui 18332
mét 18331
lạp 18296
thuần 18289
lãng 18287
ảo 18259
huyền 18213
khẩn 18165
lượt 18164
2011 18134
phao 18107
ron 18099
đẳng 18099
khiếu 18023
khoan 17999
bão 17994
trộm 17989
trăng 17914
• 17912
gỡ 17864
li@@ 17861
rẽ 17843
đâm 17838
xô 17825
má 17812
vơ 17795
nghìn 17789
bám 17783
khoác 17782
rô 17728
lắp 17714
ngục 17666
ngưỡng 17608
is 17551
toà 17536
f 17513
nhượng 17509
gà 17496
chợt 17487
cỡ 17479
ngươ 17430
ưa 17414
tà 17407
khẽ 17362
nho 17345
ngắm 17305
mau 17297
2008 17281
đệ 17270
= 17260
thề 17256
tủ 17229
gọn 17213
hung 17212
tốn 17207
nhàng 17193
ức 17148
z@@ 17120
trạm 17108
trương 17083
bê 17076
ti@@ 17075
to@@ 17067
hòn 17065
cưỡng 17048
chuột 17046
hỏa 17029
làn 17005
xạ 17003
le@@ 16984
2012 16978
quát 16904
ro@@ 16901
trừng 16886
mạo 16867
thoáng 16807
bực 16791
lăm 16789
ham 16786
lùi 16785
sướng 16784
bồ 16782
san 16780
th@@ 16780
khấu 16707
2014 16693
chả 16651
đậu 16650
mò 16600
hãng 16598
nhắn 16577
quê 16572
dạ 16568
hoại 16563
rác 16552
châm 16545
mồ 16545
xót 16543
tia 16535
đồn 16525
ủi 16489
bền 16482
mì 16452
thùng 16442
rào 16436
it 16432
lẻ 16429
bom 16422
dại 16397
tí 16386
liếc 16384
giê-hô-va 16365
an@@ 16364
dắt 16350
quận 16308
năn 16304
di@@ 16295
đai 16288
mạc 16271
gánh 16232
2007 16215
tụ 16206
lấp 16171
mây 16161
đua 16095
gi@@ 16082
thô 16070
thăng 16058
cụm 16054
thước 16042
ái 16018
thâ 15979
dược 15971
cốc 15968
nại 15878
ngầm 15877
thua 15873
david 15872
tàng 15863
tr@@ 15860
mèo 15825
đa-vít 15824
a@@ 15812
si 15805
trượt 15765
soạn 15757
dịp 15722
cốt 15709
as 15694
chuỗi 15682
cởi 15680
thiệp 15649
nọ 15641
cuồng 15601
video 15592
nở 15581
buông 15565
rốt 15558
2006 15551
phaolô 15549
2009 15516
thổi 15515
nhầm 15512
dâm 15481
02 15474
al 15449
dãy 15448
đắn 15448
trà 15430
nắng 15429
vĩnh 15422
tăm 15364
bó 15352
thèm 15345
trục 15335
xám 15321
bia 15268
nhạt 15262
ri 15255
sơn 15253
nảy 15251
ra@@ 15204
bù 15147
xóa 15107
en@@ 15084
ri@@ 15082
60 15075
&amp; 15066
khía 15031
chuông 15022
mar@@ 15017
sụp 14999
chôn 14989
nan 14947
hỗn 14931
le 14915
táo 14860
kiêu 14853
giêxu 14849
lo@@ 14848
đáo 14835
tháo 14811
gõ 14790
khinh 14786
phẫu 14721
nhịp 14713
hẹp 14665
2016 14664
j@@ 14656
web 14642
vây 14639
in@@ 14638
phi-e-rơ 14625
pháo 14597
bầy 14563
thám 14536
soi 14491
đ@@ 14480
long 14478
khói 14474
tuệ 14458
bẩn 14377
chà 14351
tạ 14314
bớt 14313
rơ 14313
sếp 14266
khiết 14244
nhường 14241
mary 14234
đâ 14222
ngự 14211
cát 14210
ng@@ 14208
luân 14167
nhãn 14167
mỏ 14143
khoảnh 14141
nhóc 14133
vỏ 14105
dì 14081
ve 14045
me 14041
lệch 14033
03 14008
cuộn 13999
ngọt 13999
as@@ 13951
lăn 13951
nề 13945
đạp 13909
internet 13889
ru 13886
đếm 13868
tang 13849
đinh 13846
kiếp 13797
khao 13773
thốt 13755
tiệt 13751
w@@ 13731
hôi 13711
lờ 13710
dạo 13691
bốc 13686
ho@@ 13684
lánh 13657
ed 13652
đuối 13626
32 13618
khiêm 13610
van 13608
si@@ 13560
sữa 13559
lướt 13558
ngẫu 13556
ni@@ 13555
ph@@ 13555
that 13542
paul 13540
500 13537
quỉ 13500
gạt 13498
35 13496
hít 13496
trứng 13478
co@@ 13475
bưu 13473
vân 13455
you 13402
george 13393
thắc 13387
do@@ 13378
hoà 13314
kiệm 13310
mi@@ 13287
đuôi 13254
cắp 13248
bọc 13234
liều 13231
vâ 13230
gen 13225
nghiêng 13209
chục 13208
nút 13207
trùm 13174
bơi 13166
peter 13162
bút 13161
khoáng 13154
phú 13143
michael 13113
jack 13100
nhở 13083
ướt 13061
lọc 13038
80 13022
bu@@ 13017
ngột 12989
2000 12966
câ 12950
thuỷ 12950
paris 12947
thấu 12936
tom 12926
ni 12917
james 12900
at 12886
truyện 12854
henry 12843
giê-ru-sa-lem 12830
05 12823
kênh 12798
be 12775
su@@ 12761
car@@ 12754
rũ 12742
xăng 12741
khán 12711
chợ 12702
tống 12694
giô 12689
chinh 12683
for 12682
sô 12671
r 12670
ổng 12655
hermione 12654
am@@ 12625
lu@@ 12610
rực 12585
lật 12577
trúng 12550
thạch 12541
nhi 12530
vi@@ 12530
mo@@ 12516
se@@ 12511
thắt 12498
mộng 12491
ôn 12487
khéo 12467
phe 12450
cõi 12445
edward 12432
thụy 12414
ki 12411
tánh 12408
đặng 12392
70 12386
mọc 12367
33 12363
bến 12363
de@@ 12339
dốc 12339
đàm 12338
rung 12330
bì 12327
sam 12327
langdon 12302
gián 12268
bo@@ 12253
hê 12238
nấu 12238
by 12223
tỏa 12208
2005 12192
đụng 12181
bạch 12179
ruột 12143
rachel 12137
chốt 12111
sắm 12104
thoả 12086
nhặt 12081
váy 12075
tơ 12072
non 12057
trán 12053
há 12052
biê 12051
qđ 12023
kiệt 12018
200 11997
chớp 11971
đam 11970
2020 11963
bùng 11956
hàn 11947
rủa 11945
đô-la 11933
hoài 11925
vã 11925
iii 11915
ong 11900
vít 11900
tò 11886
buồng 11858
lau 11858
so@@ 11849
rỡ 11837
xích 11835
quãng 11825
muôn 11814
alice 11813
hệt 11804
vở 11791
dội 11786
khoái 11778
45 11756
90 11749
thuẫn 11749
vé 11739
us 11737
túy 11711
london 11706
miêu 11695
cạn 11666
vuốt 11654
choàng 11650
qui 11635
dán 11612
môi-se 11597
nh@@ 11583
ốm 11549
ổ 11528
nộ 11518
nhã 11517
am 11492
cắn 11470
chốc 11462
hoan 11452
nhăn 11416
robert 11409
thâm 11409
thịnh 11400
ngắt 11390
a. 11372
khuynh 11369
bẩm 11354
kh@@ 11343
sh@@ 11316
ne@@ 11313
phật 11313
khe 11299
đáy 11297
hang 11278
huynh 11275
lường 11266
rỗng 11262
giáp 11242
nghiện 11222
mu@@ 11219
xuân 11214
mượn 11211
lồng 11193
el@@ 11192
nâu 11191
mỏng 11179
ao 11175
ico 11155
lưỡng 11133
tiệm 11131
mông 11128
trễ 11121
kh 11099
ngạo 11086
mòn 11075
gan 11067
xé 11040
2001 11018
len 11013
dã 11001
súc 10987
móng 10984
tùng 10976
chọc 10969
rẻ 10963
vê 10952
nuốt 10945
giọt 10938
ranh 10930
el 10913
ngơi 10902
ngụ 10901
en 10868
mạn 10826
lỏng 10806
răn 10803
bill 10783
hoạn 10781
con@@ 10774
nhạy 10761
israel 10758
bắp 10756
rồng 10752
cỗ 10738
34 10726
bơ 10726
khỉ 10726
trộn 10724
chấn 10720
cừu 10720
mẻ 10719
cay 10716
thiêu 10693
hạch 10676
36 10673
dồn 10670
tụng 10659
yeah 10656
sôi 10654
nê 10631
er@@ 10625
luồng 10625
ok 10625
bồn 10613
dũng 10606
bô 10605
phụng 10588
lúa 10579
manh 10573
râu 10566
tê 10558
hận 10554
ghé 10553
lều 10550
tu@@ 10549
go 10543
thomas 10537
giu-đa 10533
be@@ 10492
ồn 10468
điê 10453
vong 10448
kĩ 10445
gào 10418
2003 10417
vạch 10391
bẫy 10366
thét 10348
đợt 10334
khuất 10328
dinh 10313
khiêu 10284
ru@@ 10276
ghép 10256
bar@@ 10239
mẩu 10239
toa 10231
túng 10204
nãy 10195
du@@ 10194
đẻ 10185
bát 10181
quầy 10176
rộn 10175
dàn 10167
đạc 10167
ted 10152
gươm 10146
2017 10145
charles 10145
trắc 10138
đỗ 10122
rồ 10114
úy 10114
hở 10105
no@@ 10102
giu 10095
thép 10092
hưu 10089
la@@ 10084
gớm 10066
đan 10051
cự 10042
es@@ 10030
hò 10028
cơ-đốc 10011
ghen 9982
đôn 9976
men 9972
2002 9959
đà 9959
is@@ 9957
thản 9946
ah 9941
vạn 9930
củng 9926
37 9923
nếp 9922
or@@ 9914
mồi 9891
kỉ 9862
nhấc 9858
báu 9854
quyến 9854
muối 9852
hái 9846
nhủ 9843
ngước 9840
nản 9840
will 9837
vờ 9835
kẹt 9833
ab@@ 9830
rập 9818
bách 9816
khuyết 9816
hoãn 9814
cắm 9811
khôi 9796
hu@@ 9795
vươn 9786
quét 9771
lót 9767
chê 9753
gãy 9746
km 9745
sương 9696
tởm 9669
eragon 9665
5@@ 9661
xóm 9646
khơi 9644
tiê 9639
niêm 9588
ts 9582
nhún 9581
béo 9575
kỵ 9569
đấm 9566
gìn 9563
gầm 9546
bi@@ 9537
ad@@ 9494
er 9466
khăng 9454
đắc 9434
thình 9433
38 9426
1999 9416
ngọc 9416
qu@@ 9405
nhọc 9404
mâu 9393
sỹ 9393
êm 9393
nồng 9391
họng 9389
dẫy 9368
go@@ 9364
we 9364
2004 9352
thung 9347
đoan 9334
vẫy 9312
nhựa 9302
.... 9299
xưởng 9293
gạch 9287
khoẻ 9287
đoạt 9280
william 9276
ngộ 9268
nàn 9265
khớp 9262
quỳ 9256
trá 9252
z 9244
chẽ 9240
vu 9237
me@@ 9220
â 9217
at@@ 9201
xà 9201
rưỡi 9198
lũng 9196
tẩy 9194
bột 9155
sờ 9145
th 9134
giục 9126
viếng 9125
ko@@ 9116
đắt 9090
tro 9080
sa-tan 9079
vách 9071
căm 9061
dẹp 9059
ào 9058
màng 9053
hèn 9049
frank 9048
sảnh 9048
đắm 9048
hố 9036
lợn 9032
gởi 9029
đu 9023
kha 9012
tiễn 9001
bo 8995
nương 8995
lỡ 8993
ván 8990
đòn 8983
album 8982
rỉ 8948
nướng 8941
mac 8925
sườn 8925
son 8907
sưởi 8888
vuông 8883
lặn 8865
washington 8855
đứt 8843
ờ 8832
$ 8819
dập 8813
gũi 8796
lân 8796
ne 8793
elizabeth 8792
xoa 8775
tiêm 8763
ngô 8758
mép 8751
anna 8746
bóp 8745
nguyền 8744
ngẫm 8743
1998 8742
nhét 8723
gu@@ 8720
trơ 8719
nôn 8711
cưng 8709
mo 8659
{ 8653
ầm 8634
ẩm 8633
4@@ 8628
gieo 8628
tông 8624
dở 8622
per@@ 8621
cài 8615
lam 8600
tam 8597
st@@ 8594
te 8578
vớ 8566
tể 8561
gai 8554
hi@@ 8553
đực 8552
vứt 8548
chén 8529
xi 8527
btc 8526
chui 8524
dan 8508
sói 8488
gậy 8485
đắng 8483
nhát 8474
nick 8454
eph 8441
okay 8434
os@@ 8431
nhâ 8424
39 8423
mác 8421
ngây 8417
côn 8416
california 8408
mãnh 8387
rẩy 8378
trèo 8358
khuẩn 8350
cóc 8332
đũa 8320
300 8318
thơm 8316
ngưng 8315
xức 8313
đành 8310
6@@ 8308
a-@@ 8300
ngoái 8289
rít 8280
artagnan 8278
trinh 8277
khoá 8276
rên 8266
lăng 8247
ki@@ 8237
lẩm 8236
chốn 8228
bỏng 8216
suýt 8203
2018 8201
cành 8187
martin 8164
cu@@ 8162
thọ 8160
dâu 8153
man@@ 8149
lạm 8133
lem 8130
tít 8130
xíu 8126
tần 8125
hiền 8112
điền 8108
mớ 8105
ber@@ 8103
bổn 8103
voi 8085
khoang 8073
ac@@ 8066
.@@ 8065
thiếp 8059
har@@ 8044
ngó 8037
rách 8033
huỷ 8026
dumbledore 8025
vướng 8017
dải 8014
chư 8009
nén 8008
bừng 7989
pe@@ 7980
kí 7976
06 7973
pi@@ 7973
hey 7969
one 7968
trân 7967
42 7965
giãn 7965
st 7959
with 7949
bớ 7947
phô 7942
\ 7916
par@@ 7910
bỉ 7908
cống 7883
mike 7879
don 7870
dặn 7868
chước 7859
pho 7857
ka 7851
mổ 7844
trói 7844
um 7834
9@@ 7826
vú 7820
suối 7815
ngả 7813
ton 7806
vịnh 7791
khoe 7780
mập 7779
nhơn 7774
god 7768
viê 7767
nè 7765
ke 7760
tị 7752
hễ 7743
rễ 7736
nhạo 7732
nốt 7731
ysơraên 7731
emma 7725
sáp 7719
rà 7718
7@@ 7717
thà 7716
reo 7706
lìa 7705
mor@@ 7675
điếu 7668
c. 7665
sa@@ 7660
mồm 7635
all 7625
băn 7622
kệ 7615
was 7590
gióp 7588
đè 7585
nài 7572
ap@@ 7567
napoleon 7552
khoăn 7551
emily 7548
duyên 7537
đúc 7530
bể 7529
hưng 7529
canada 7528
daniel 7525
kem 7525
mark 7519
i. 7514
chói 7497
gục 7484
tráng 7481
rèn 7475
đắp 7470
world 7457
ngẩn 7443
láng 7413
khoát 7408
mc@@ 7408
sophie 7407
thoái 7400
quấy 7393
dẫu 7381
ray 7376
sưu 7376
gấu 7362
8@@ 7352
phổi 7352
po@@ 7351
vặn 7350
điềm 7349
nhịn 7346
thính 7321
uế 7321
xen 7319
báp 7318
ngừa 7309
simon 7306
bùn 7305
bẻ 7300
ag@@ 7292
vặt 7289
ốc 7283
jean 7277
đăm 7265
et 7262
chuồng 7254
te@@ 7251
lâ 7239
00 7236
gắt 7236
đầm 7231
gay 7226
mă 7225
sốc 7221
ớt 7219
48 7213
44 7210
cáu 7202
úc 7196
đẽ 7195
game 7193
dê 7190
bệ 7179
kiêng 7179
phun 7171
xông 7167
os 7164
cơm 7160
bar 7155
buýt 7155
los 7144
nói. 7123
chen 7120
lây 7118
43 7117
ben 7112
cối 7111
ừm 7095
ấu 7091
cau 7089
41 7080
hăng 7080
trươ 7078
vẩn 7073
đày 7070
nấy 7051
ngào 7049
j 7035
nến 7034
lõi 7026
cược 7022
nhị 7003
richard 6991
hiếu 6985
lọt 6983
kiềm 6979
maria 6976
kề 6970
ngớ 6970
nắp 6965
04 6964
au@@ 6960
ttg 6960
vụn 6950
xách 6943
ia 6941
bộc 6930
on@@ 6921
nom 6918
ven 6918
hiếp 6907
phẳng 6903
lee 6901
chuyê 6884
đính 6872
áp-ra-ham 6871
kẹp 6865
ak@@ 6863
lột 6856
chênh 6849
lề 6837
múa 6833
hãnh 6827
thấm 6824
lũy 6820
quấn 6819
gặt 6815
pin 6808
hiê 6804
hạm 6803
hao 6772
bấm 6770
choáng 6770
rau 6768
chuyền 6766
léo 6755
khép 6746
hãm 6739
sê 6731
16@@ 6721
eve 6720
nhấp 6715
xí 6714
bã 6711
xì 6710
xá 6706
rải 6703
dời 6694
ter@@ 6693
eo 6690
iv 6685
he@@ 6682
15@@ 6678
thối 6673
hoạ 6670
lầu 6668
cưỡi 6662
holmes 6662
lãm 6650
ngẩng 6647
bìa 6637
gầy 6635
ngư 6629
tuôn 6621
hông 6619
rạp 6613
re 6610
cor@@ 6605
bă 6599
lượn 6589
kẹo 6582
1@@ 6571
hân 6571
lùn 6569
thẳm 6569
ta@@ 6558
46 6555
ku@@ 6554
át 6550
đậm 6537
chi@@ 6530
chật 6521
07 6519
my 6510
rạng 6507
ver@@ 6496
ngửi 6495
rê 6484
vất 6484
đậy 6483
un@@ 6478
lách 6476
are 6472
câm 6469
dỡ 6469
der 6468
joe 6458
tím 6443
rùng 6433
lay 6432
chẩn 6425
51 6406
giếng 6394
mexico 6388
loa 6379
ar 6374
chì 6374
phơi 6369
mu 6365
sch@@ 6357
phác 6344
tâ 6340
then 6336
chua 6333
com 6330
w 6325
đặn 6321
chă 6319
xuôi 6318
well 6310
vầy 6299
1990 6298
244 6296
55 6288
jacob 6288
sét 6279
ford 6268
quăng 6267
ruộng 6256
tv 6254
ci@@ 6251
her@@ 6245
sắng 6245
nháy 6242
les 6241
độn 6240
cô-rinh-tô 6239
charlie 6230
kate 6228
nạp 6226
usd 6222
phàn 6216
mon@@ 6215
louis 6201
christian 6200
que 6190
v.v 6188
75 6186
xao 6182
yết 6182
nhào 6180
em@@ 6170
mas@@ 6170
rầu 6162
ai@@ 6160
nhứt 6155
lình 6149
nhĩ 6138
xế 6135
ngần 6131
ba@@ 6122
nư 6119
triệt 6118
tuỳ 6117
siết 6115
ana 6114
gót 6112
tui 6112
cạo 6104
email 6094
b. 6091
nhọn 6085
uốn 6083
muô 6074
it@@ 6066
from 6062
gtgt 6059
sùng 6056
sừng 6054
virus 6051
vọt 6046
google 6041
ex@@ 6037
vấp 6033
sững 6026
this 6023
heo 6017
thẹn 6015
nhốt 6006
cọ 5997
uh 5997
0@@ 5995
đó. 5995
mảng 5988
} 5984
hă 5976
khoanh 5970
hốc 5966
lén 5950
giang 5945
47 5926
tọa 5924
gom 5915
đố 5907
xua 5905
♫ 5892
for@@ 5891
chiêm 5885
m. 5877
nghiệt 5876
or 5876
lanh 5875
52 5864
jim 5862
oda 5861
xôi 5861
273 5860
gò 5859
hòm 5859
400 5855
nhì 5847
chicago 5844
tựu 5842
satan 5836
xơ 5835
49 5834
vòm 5830
nghiền 5825
gh@@ 5824
1997 5818
alex 5815
thoạt 5802
võ 5802
ley 5800
dạn 5794
nấm 5759
rhyme 5754
min@@ 5739
ya 5737
q@@ 5734
ngủi 5724
bành 5719
giặt 5713
nứt 5713
anne 5707
chóc 5706
2@@ 5689
cước 5689
vác 5684
sp@@ 5680
xê 5679
chồn 5674
pro@@ 5674
trọ 5665
we@@ 5665
noi 5663
steve 5661
bob 5656
báng 5655
vung 5655
cằm 5634
lung 5633
roi 5631
hước 5628
mỡ 5627
et@@ 5623
hất 5618
men@@ 5618
đạm 5618
lúng 5609
nhũng 5605
phiêu 5605
3@@ 5601
é@@ 5601
têm 5598
đẫm 5594
ấp 5592
17@@ 5590
ngất 5585
mer@@ 5581
king 5580
lận 5574
1980 5571
đùi 5567
đới 5562
nín 5560
vành 5558
hiv 5555
bọt 5551
laura 5550
đư 5548
10@@ 5545
rệt 5544
thỉu 5544
not 5543
rót 5541
nạ 5531
giê-su 5528
trơn 5528
phế 5527
cửu 5525
ráp 5525
phiến 5521
lụt 5519
sen 5516
jo@@ 5492
kìm 5489
trút 5487
chạp 5486
mốc 5485
kar@@ 5483
hiên 5480
65 5475
fbi 5465
túm 5456
hé 5451
iico 5450
lon 5442
bầm 5439
gie 5438
« 5437
but 5433
nếm 5432
na@@ 5418
thiền 5418
smith 5417
ly@@ 5411
robot 5407
bọ 5403
vượng 5402
224 5401
jane 5398
mộc 5391
tôi. 5390
hốt 5386
xả 5385
catherine 5380
den 5379
his 5379
nhõm 5375
lụa 5373
dance 5368
khoai 5368
khan 5366
bal@@ 5364
fi@@ 5353
đệm 5352
parker 5349
ria 5345
vo 5343
mình. 5337
ngai 5336
ðấng 5333
ca@@ 5332
il@@ 5330
sập 5328
rã 5313
150 5307
khùng 5303
53 5297
tri@@ 5297
jobs 5296
mầm 5286
giêhôva 5284
nhích 5284
sỉ 5284
văng 5280
sửng 5279
tess 5279
scott 5272
bóc 5268
khâu 5265
khước 5265
bón 5264
bri@@ 5258
quặc 5255
xộn 5250
bong 5243
ers 5237
bén 5230
lửng 5214
phường 5212
sc@@ 5204
lu-ca 5200
thào 5199
ot@@ 5191
phẫn 5189
cáp 5187
giễu 5181
nhiê 5178
sau-lơ 5178
ju@@ 5176
ner 5175
xẻ 5174
1970 5171
dệt 5171
mầu 5171
kèn 5168
đãng 5165
hụt 5164
adam 5161
gia-cơ 5159
cào 5152
thâu 5146
ða 5145
nhức 5138
lư 5136
ben@@ 5128
av@@ 5126
thạnh 5126
vòi 5125
08 5124
bàng 5124
liễu 5123
ba-by-lôn 5117
lịnh 5117
phồng 5114
xoáy 5114
cas@@ 5107
lọ 5106
thỏ 5102
tr 5101
né 5097
la-mã 5087
tản 5087
rậm 5085
cal@@ 5083
thò 5078
gia-cốp 5077
ros@@ 5072
vụt 5072
sáo 5069
dưng 5066
nhược 5062
mal@@ 5058
gar@@ 5057
rô-ma 5056
ke@@ 5052
lầy 5051
nhổ 5049
city 5042
nhô 5040
ră 5037
đôla 5035
chiêu 5031
toan 5031
thắn 5022
ky 5019
day 5014
bùa 5013
im@@ 5013
sachs 5012
đơ 5009
mĩ 5005
bổng 5003
trump 5003
radio 5002
vạt 4997
cuô 4990
bênh 4982
− 4979
phàm 4971
t. 4966
taxi 4966
ê@@ 4965
bu 4960
đọng 4954
điếm 4952
ròng 4951
vắt 4944
găng 4939
tc 4939
gen@@ 4938
sả 4935
xăm 4921
nheo 4917
trêu 4916
chổi 4905
này. 4904
nhện 4902
alexander 4896
ay@@ 4896
neo 4887
they 4885
ngửa 4884
thự 4878
phì 4873
vùi 4871
ngâm 4863
đục 4859
lấn 4855
ck 4853
logic 4852
ắt 4851
ách 4850
tony 4845
cợt 4841
buffett 4839
ngạch 4836
hâm 4834
búa 4822
miên 4821
lẩn 4819
mm 4809
pa@@ 4808
oliver 4807
shi@@ 4799
bơm 4797
sọ 4797
xướng 4792
e. 4791
gạo 4784
giềng 4780
góa 4780
land 4780
báp-têm 4766
giô-sép 4766
ian 4764
chửi 4762
q 4755
ren@@ 4749
can@@ 4748
tokyo 4746
phím 4745
cẩm 4744
fu@@ 4742
bịt 4739
58 4735
95 4729
ed@@ 4724
rầm 4722
carl 4719
lẫy 4717
ge@@ 4716
chải 4713
dấy 4712
tràng 4708
1995 4704
d. 4701
nữa. 4697
san@@ 4696
a-đam 4693
còi 4693
i-@@ 4687
dật 4686
quở 4685
rome 4680
pal@@ 4678
1996 4669
cia 4669
mốt 4667
lẽo 4664
lộng 4655
1960 4654
mâ 4650
hổn 4649
wi@@ 4644
ð@@ 4644
huệ 4643
buồm 4641
om 4638
kẽ 4634
thạo 4631
□ 4631
vãn 4621
chĩa 4614
igi 4612
ngơ 4608
14@@ 4602
cụt 4601
luke 4591
díp 4589
nhợt 4589
angeles 4586
xỉ 4586
lậu 4570
vũng 4570
bế 4563
loan 4560
johnson 4558
khuya 4554
what 4551
us@@ 4548
54 4547
sarah 4541
billy 4538
ngõ 4536
1994 4535
hitler 4534
hắc 4534
ha@@ 4532
phierơ 4531
váng 4531
josh 4526
danny 4523
rét 4518
time 4517
banh 4511
sầu 4511
dna 4510
ol@@ 4494
red 4488
59 4486
chiê 4485
lữ 4485
hê-bơ-rơ 4482
56 4477
fred 4473
ruồi 4471
bur@@ 4470
thừng 4469
rành 4461
250 4460
jordan 4459
nghiến 4459
j. 4458
pu@@ 4457
cúng 4456
field 4453
char@@ 4452
ivan 4452
1992 4446
times 4445
09 4434
13@@ 4433
sẫm 4431
ic@@ 4423
» 4423
náo 4422
ken 4419
viêm 4419
pen@@ 4418
hển 4417
dè 4416
gra@@ 4409
64 4408
sẹo 4408
nhung 4403
chầm 4400
57 4398
lan@@ 4398
ty@@ 4398
sỏi 4386
ô@@ 4383
ad 4382
az@@ 4381
tem 4381
levin 4379
lóc 4374
xoắn 4374
ngặt 4373
ngượng 4371
náu 4371
scarlett 4369
gáy 4367
max 4352
séc 4350
sầm 4349
andrew 4344
ter 4338
wal@@ 4338
susan 4336
sủa 4335
rớt 4328
arthur 4325
lôn 4324
gray 4319
c.@@ 4316
tar@@ 4313
texas 4313
méo 4311
den@@ 4309
cằn 4308
nhơ 4308
tk 4307
val@@ 4302
vỉa 4300
gán 4298
iphi 4297
nhồi 4295
khiếm 4294
63 4293
eddie 4291
ani 4283
chéo 4281
chém 4271
thắp 4266
1993 4261
ten@@ 4257
ct 4251
hổng 4248
môise 4248
apple 4243
have 4242
claire 4241
sal@@ 4239
râ 4238
hẻm 4237
ds 4235
il 4235
trội 4235
vò 4235
hans 4234
pri@@ 4233
house 4232
ser@@ 4230
củi 4229
des 4229
bra@@ 4228
lucy 4227
ủ 4227
mắng 4226
dơ 4221
út 4221
phớt 4218
kiê 4217
rìa 4211
s. 4206
francisco 4205
ite 4202
quật 4200
jennifer 4196
tre 4195
boston 4194
robin 4193
thủng 4189
củ 4188
ey 4188
helen 4187
fer@@ 4185
nhiễu 4185
gẫm 4184
khuấy 4182
tạng 4178
măng 4177
park 4174
hoi 4173
ram@@ 4173
lứa 4171
dang 4168
tengo 4167
điêu 4167
nhai 4166
mỉa 4165
té 4164
pan@@ 4161
iraq 4160
chơn 4155
rock 4155
dai 4148
ten 4146
lự 4145
cm 4141
rầy 4138
yu@@ 4136
vụng 4130
pa 4128
tuột 4126
600 4125
han 4125
đờ 4121
berlin 4120
lóe 4119
99 4117
scotland 4116
nấp 4114
kg 4102
da@@ 4096
nhúc 4094
snape 4087
ler 4084
ali@@ 4074
thuở 4074
sấm 4073
tẻ 4073
feet 4072
n. 4070
sy@@ 4069
đỗi 4068
hagrid 4064
rể 4062
bre@@ 4055
pha-ri-si 4051
chùm 4050
ka@@ 4048
khốc 4048
marketing 4048
oán 4044
cấy 4038
72 4037
p. 4036
cn 4034
xảo 4033
ce 4031
ngụy 4028
xoá 4027
háo 4022
chèo 4016
our 4012
huân 4008
chót 4007
ir@@ 4004
way 4004
iran 4003
66 3999
cúp 3999
up 3998
bịnh 3997
had 3997
sar@@ 3995
khống 3994
rèm 3971
đần 3969
ngạt 3963
tát 3962
&#124; 3961
đốm 3961
1950 3960
ling 3954
von 3954
rơm 3952
joseph 3950
cho@@ 3948
lượm 3947
ê-phê-sô 3945
ápraham 3942
ưng 3934
muội 3932
wall 3932
k. 3929
chướng 3926
do-thái 3925
bâ 3924
protein 3924
ec@@ 3922
thềm 3920
who 3916
vệt 3912
chậu 3909
gal@@ 3907
league 3905
nóc 3905
hằn 3904
vịt 3903
ate 3902
my@@ 3901
ting 3901
85 3898
dấn 3896
cọc 3892
nu@@ 3892
ỏi 3885
tcn 3883
doạ 3881
virginia 3881
bel@@ 3880
sục 3867
ngụm 3866
lội 3861
° 3860
rảnh 3859
carrie 3858
hal@@ 3858
ireland 3857
mat@@ 3853
ji 3852
mài 3852
két 3851
61 3848
mê-si-a 3848
quyên 3846
out 3845
bôi 3841
dồi 3841
palestine 3838
thốn 3835
ma-ri 3834
saphira 3834
miệt 3833
ram 3829
tột 3825
eu@@ 3823
harvard 3823
jo 3820
nức 3820
lố 3817
sưa 3815
str@@ 3814
nor@@ 3808
singapore 3807
jackson 3806
nón 3804
pre@@ 3803
ms 3802
tivi 3802
hắt 3800
nghẹn 3800
bella 3799
camera 3799
hức 3799
líu 3799
nỉ 3799
ada 3796
nồi 3796
đavít 3793
gập 3791
lin@@ 3791
gt 3788
chuộng 3787
mb@@ 3786
bin 3785
chùi 3782
nhe 3781
xiết 3781
rồi. 3780
peeta 3778
website 3776
howard 3773
chu@@ 3772
đả 3772
bịch 3770
tấp 3765
ti-mô-thê 3763
war@@ 3763
dột 3762
trù 3761
potter 3759
taran 3756
bẩy 3754
chộp 3752
nhậm 3748
nai 3747
trỏ 3745
chao 3743
ur@@ 3739
cày 3738
au 3737
chặng 3732
giô-suê 3732
eric 3731
chiết 3727
mách 3727
vo@@ 3724
bro@@ 3721
cò 3720
giở 3719
nash 3719
strike 3719
ma-thi-ơ 3715
bướm 3711
kennedy 3711
lười 3710
120 3704
toát 3704
ang@@ 3698
bạ 3697
hoán 3696
brazil 3693
cốp 3693
jones 3693
tan@@ 3688
donald 3687
xáo 3685
bor@@ 3677
and@@ 3675
đa-ni-ên 3675
côi 3674
ing 3674
ran 3668
gabriel 3667
bừa 3666
12@@ 3664
fe@@ 3664
win@@ 3662
rinh 3661
rọi 3659
thêu 3658
far@@ 3657
táng 3657
mạ 3653
nơ 3651
quẩn 3647
xuẩn 3644
hăm 3641
chày 3640
ine 3635
nate 3629
der@@ 3626
62 3624
her 3623
stephen 3620
ĩ 3618
ng-@@ 3617
eo@@ 3615
ger@@ 3614
colin 3612
búp 3609
tro@@ 3601
kelly 3600
athos 3598
rụt 3596
dar@@ 3593
yếm 3593
ak 3592
tôm 3581
khàn 3579
iti 3578
tầu 3576
west 3572
1991 3570
thục 3568
giỏ 3567
vét 3566
bạt 3559
gre@@ 3558
vóc 3548
khử 3545
lincoln 3543
sút 3543
cớm 3542
ra. 3542
chris 3537
chập 3536
tú 3536
ê-sai 3536
ou@@ 3535
cồn 3534
sto@@ 3529
hol@@ 3525
res@@ 3525
nhiếp 3522
bell 3515
sa-lô-môn 3515
luther 3514
2019 3513
gene 3513
xắn 3513
cam@@ 3509
wood 3509
ng. 3508
mải 3506
ngậm 3503
bục 3499
nghẹt 3499
biếng 3494
black 3489
vần 3488
young 3485
68 3482
trụi 3482
khuỷu 3481
amazon 3479
ent 3478
lại. 3478
grand 3476
weasley 3473
hy@@ 3472
facebook 3471
johnny 3471
loáng 3470
stone 3469
ge 3465
tt@@ 3463
wil@@ 3460
cap@@ 3457
trừu 3451
quất 3442
đờn 3442
che@@ 3441
mel@@ 3440
nhàu 3438
diêm 3436
ban@@ 3431
jefferson 3431
je@@ 3430
-s@@ 3429
được. 3429
1-@@ 3428
aids 3425
bả 3423
vin@@ 3423
ara 3421
nhúng 3420
diễu 3419
tỉa 3418
rú 3416
nhảm 3408
ganh 3404
teddy 3404
ji@@ 3399
sưng 3399
victoria 3399
1000 3398
taylor 3396
old 3394
lốc 3390
ngh@@ 3390
vầng 3388
vớt 3387
walter 3387
đùng 3384
quàng 3379
kiêm 3373
xổ 3371
m3 3370
af@@ 3369
kin 3369
cat@@ 3361
râm 3360
thu@@ 3360
viền 3359
there 3358
ach@@ 3353
einstein 3353
hoành 3353
ker 3348
sara 3347
ny 3346
aomame 3345
ff@@ 3345
mầy 3345
800 3344
tạc 3344
your 3344
sen@@ 3342
bự 3341
she 3340
more 3327
zi@@ 3326
ano 3322
morgan 3322
liếm 3321
matt 3318
bịa 3312
exe 3311
lin 3309
n-@@ 3307
vun 3307
gượng 3305
1.@@ 3302
id 3301
ry@@ 3301
sộ 3296
84 3295
xịt 3294
annabelle 3292
mỉ 3290
tua 3284
ck@@ 3281
ep@@ 3281
rủ 3280
chay 3278
sel@@ 3275
khay 3273
lă 3273
rình 3273
nhan 3271
dâ 3269
life 3268
ari@@ 3267
ei@@ 3267
tươ 3264
afghanistan 3263
nham 3261
kiều 3260
ceo 3259
tợn 3259
francis 3252
hu 3249
microsoft 3249
dan@@ 3248
kevin 3246
ă 3241
dào 3237
báp-tít 3236
luồn 3235
za 3234
ập 3232
aw@@ 3229
lẳng 3227
tẩu 3227
dằn 3219
winston 3219
fo@@ 3217
nhẹn 3217
chô 3216
quạt 3216
ender 3213
tụy 3212
quyê 3210
nòng 3209
nasa 3208
caroline 3204
ina 3199
ste@@ 3199
y. 3199
jimmy 3197
ven@@ 3196
67 3195
ham@@ 3190
cút 3186
dượng 3186
ff 3183
tụt 3183
bas@@ 3180
dốt 3180
yo@@ 3180
love 3178
porthos 3178
1945 3167
ngỡ 3166
giê-rê-mi 3163
sải 3162
ve@@ 3161
sam@@ 3160
eg@@ 3158
duỗi 3154
windows 3154
mìn 3151
rợn 3151
press 3150
giêrusalem 3149
net 3146
ation 3143
phi-líp 3143
wilson 3142
ft 3141
ghiếc 3141
mấu 3140
t-@@ 3131
cat 3129
kỉnh 3128
đi. 3126
ry 3122
vắc 3121
ráo 3119
thoa 3119
malfoy 3117
rạch 3115
bhxh 3112
big 3110
cưa 3110
đốn 3106
71 3103
first 3102
nhí 3102
khóe 3101
larry 3101
rôn 3099
oxy 3097
xui 3096
-tôi 3092
vãi 3091
quạ 3090
xay 3090
xuồng 3086
nguội 3085
sặc 3085
ok@@ 3083
bới 3082
lẻn 3082
dẫm 3081
ev@@ 3076
vậy. 3076
cuống 3075
ny@@ 3074
were 3074
ans 3072
gừ 3072
luca 3071
ursula 3071
đanh 3071
saint 3068
del@@ 3067
ga@@ 3066
lim 3066
roran 3066
nhuộm 3064
chuồn 3061
243 3059
gio 3059
isa 3055
giã 3053
gàng 3052
ta. 3052
úp 3052
sir 3050
min 3047
vút 3044
guiliano 3043
nghênh 3041
blog 3040
florida 3039
like 3039
ngóng 3039
ngỏ 3034
cẩu 3033
if 3029
sòng 3029
boong 3028
vá 3028
lar@@ 3025
đă 3024
lảng 3018
nạt 3018
astrid 3010
wow 3009
quáng 3008
ze@@ 3008
inch 3007
rose 3007
lam@@ 3006
lpg 3006
91 3004
patrick 3004
phanh 3002
tưới 3001
book 3000
graham 2997
á@@ 2997
sép 2994
69 2990
truồng 2990
cỏi 2989
dean 2989
por@@ 2989
cua 2982
cesare 2981
h. 2980
nguyệt 2980
tì 2977
khỏa 2973
joel 2972
lia 2972
78 2968
eli@@ 2968
ếch 2968
arkady 2966
phung 2966
96 2965
mịt 2965
giỡn 2963
mênh 2962
sho@@ 2962
sky 2958
ss 2957
little 2956
sụt 2951
oai 2950
lara 2949
lít 2946
albert 2943
73 2942
aramis 2940
how 2939
hán 2930
ảm 2930
ross 2929
nd 2927
trợn 2926
ann@@ 2922
1-2 2921
giuđa 2918
name 2917
chồm 2915
ker@@ 2915
ce@@ 2913
fax 2910
ane 2907
1989 2900
bần 2900
kho@@ 2899
argentina 2898
cẳng 2896
cl@@ 2894
hon 2894
92 2890
rè 2890
ville 2889
nể 2888
tor 2888
ph 2887
đút 2887
ang 2886
nung 2886
gâ 2885
ngoa 2885
roger 2885
indonesia 2884
bết 2883
rosie 2883
ran@@ 2882
ell 2881
fre@@ 2879
xài 2879
gri@@ 2875
ken@@ 2874
brown 2873
rãnh 2871
sti@@ 2868
còng 2865
mil@@ 2865
ê-díp-tô 2865
tus 2863
ps 2860
xấp 2859
mặn 2856
88 2854
rĩ 2854
gô 2852
jake 2852
lewis 2852
hơ 2851
dẻ 2850
mia 2850
ađam 2849
star 2849
cup 2847
meg 2847
air 2843
phâ 2843
é 2843
tho@@ 2841
432 2840
las 2838
jamie 2837
xít 2837
col@@ 2836
dẻo 2835
mp@@ 2829
nắn 2828
darwin 2827
va@@ 2827
ns 2825
&gt; 2823
ca-na-an 2822
ul@@ 2819
cộ 2817
mẫn 2817
choạng 2816
mann 2816
american 2815
86 2812
ove 2810
when 2810
nhàm 2807
bruce 2805
sấp 2804
cúc 2803
gor@@ 2803
tak@@ 2803
olivia 2802
tru 2802
ard 2801
nhấm 2801
f. 2800
r. 2800
cặn 2799
xở 2795
khánh 2793
rụng 2793
giầy 2788
ai-cập 2787
lào 2785
phông 2783
barry 2781
dave 2781
nhnn 2779
98 2778
tru@@ 2778
jason 2776
bible 2775
rong 2775
tre@@ 2774
piotr 2771
rổ 2771
adn 2765
nhác 2765
tes 2764
chọi 2760
nhói 2757
tic 2755
lằn 2754
iiti 2753
nicholas 2752
sồi 2752
ah@@ 2751
dưa 2750
keo 2750
lên. 2749
miện 2749
com@@ 2748
han@@ 2746
lộc 2745
let 2744
nhíu 2744
nện 2743
gro@@ 2740
mer 2740
brian 2738
gài 2738
katie 2738
m2 2737
hờ 2734
ngấm 2734
bồng 2733
cươ 2733
top 2733
giop 2732
nao 2731
rì 2730
tuý 2730
lì 2727
frodo 2724
mịn 2724
united 2724
rợ 2722
ali 2721
clay 2720
marcus 2720
tanh 2713
nới 2710
piano 2710
ngán 2709
mó 2707
good 2706
phả 2706
110 2705
700 2704
bou@@ 2703
xi@@ 2703
eri@@ 2702
láo 2699
ngoặt 2699
sa-ma-ri 2698
grace 2697
chuck 2696
nực 2695
trọt 2694
street 2693
tết 2692
83 2690
cro@@ 2688
1930 2687
blomkvist 2686
des@@ 2686
len@@ 2685
don@@ 2684
xuô 2684
now 2678
@ 2677
rebecca 2675
87 2674
bốt 2674
charlotte 2674
est 2674
gă 2673
warren 2673
syria 2672
nghếch 2670
reilly 2670
del 2669
ella 2669
khác. 2666
đun 2666
dép 2662
rước 2661
tor@@ 2661
79 2660
thây 2660
1940 2657
crawford 2655
gân 2655
ts@@ 2653
santa 2652
trướng 2652
kan@@ 2651
about 2649
ras@@ 2647
greta 2645
hor@@ 2645
khiên 2645
line 2645
2.@@ 2644
cra@@ 2632
nã 2632
xỏ 2631
bit 2626
buốt 2625
huýt 2624
var@@ 2624
dana 2623
ubnd 2622
toang 2621
hơn. 2620
hy-lạp 2617
khiêng 2617
ló 2616
thế. 2616
rôma 2613
see 2613
ấy. 2613
ant 2612
ie 2612
mag@@ 2611
ngoạn 2610
rìu 2610
bích 2609
luyến 2609
covid 2608
ja 2606
moi 2606
sa-mu-ên 2606
lisa 2605
cy@@ 2600
po 2596
sin@@ 2592
77 2591
bru@@ 2588
1986 2586
music 2585
calvin 2584
hall 2584
hoả 2583
sài 2581
thong 2581
súp 2579
trũng 2579
rặng 2578
andy 2576
anti@@ 2576
74 2574
cri@@ 2574
moody 2573
quai 2572
ay 2570
xiềng 2569
cre@@ 2567
nhàn 2567
nít 2566
phắt 2566
óng 2565
gdp 2564
marie 2563
ac 2562
thán 2562
age 2561
loạng 2561
blue 2558
salander 2557
lút 2555
81 2554
cộc 2553
matthew 2553
nháp 2553
gordon 2549
ngỗng 2549
kat@@ 2548
1985 2547
latin 2547
ngo 2545
pas@@ 2545
1-3 2544
whoa 2544
met@@ 2543
bướng 2542
white 2542
pakistan 2541
1987 2540
elle 2540
voldemort 2540
oxford 2538
tommy 2538
ea 2537
mac@@ 2537
89 2533
anh. 2533
pin@@ 2533
clare 2532
chan 2530
muỗi 2529
xù 2528
amy 2526
hollywood 2526
gặm 2525
rưởi 2523
1988 2522
bịp 2522
hill 2522
không. 2521
rương 2521
alan 2519
hừm 2519
inter@@ 2519
jessica 2516
ga-li-lê 2514
beth 2512
tz 2511
golf 2510
toranaga 2509
town 2508
people 2506
nệm 2505
per 2505
guinea 2504
mit 2503
dãi 2501
manhattan 2500
ráng 2500
quẳng 2497
ss@@ 2495
julia 2493
w. 2492
philip 2489
điếc 2488
kong 2486
sirius 2486
jem 2485
op@@ 2485
76 2484
ding 2484
xỉn 2484
national 2481
vàn 2480
l. 2479
edmond 2477
đoái 2477
c-@@ 2476
fin@@ 2476
nó. 2476
pi 2476
bời 2475
roy 2475
1984 2473
ơ@@ 2472
họ. 2471
ll 2471
nết 2470
die 2468
jeff 2468
ngùng 2468
đc 2468
a.@@ 2467
st. 2467
vronxki 2467
ngà 2462
ngời 2461
tel@@ 2461
elsa 2459
sin 2459
moskva 2458
gốm 2457
phất 2457
thinh 2457
kép 2456
nhộn 2451
cứt 2449
australia 2446
20@@ 2444
un 2444
them 2442
93 2440
ì 2439
lọi 2438
philippines 2437
the@@ 2437
giàn 2436
allen 2435
khờ 2435
ks 2431
quyệt 2430
show 2430
ath@@ 2429
martha 2429
pop 2428
watson 2428
vư 2426
ðoạn 2425
hen@@ 2424
ons 2424
victor 2424
đít 2423
pizza 2422
ger 2421
vincent 2419
225 2418
green 2418
cd 2417
pp 2415
thă 2415
3d 2414
blo@@ 2414
dis@@ 2412
hel@@ 2410
pra@@ 2410
stan 2408
bặt 2407
rền 2407
cuba 2404
news 2404
bon@@ 2403
mánh 2403
ris@@ 2401
giương 2400
rùa 2400
him 2399
héo 2399
lucas 2399
nặc 2398
ren 2398
hươu 2396
nào. 2395
1975 2394
rứt 2393
ron@@ 2392
ửng 2391
cooper 2390
ster 2390
quậy 2389
dong 2388
quỵ 2388
fermín 2387
py@@ 2387
e-@@ 2386
giẫm 2386
nhằn 2385
ale 2383
sw@@ 2383
rich 2382
chang 2380
97 2379
trìu 2379
ama 2378
dy 2378
lóng 2378
rin 2377
great 2376
ê-li 2376
tyler 2374
3.@@ 2373
kin@@ 2371
ls 2370
bert 2366
baker 2364
fran@@ 2364
tracy 2363
columbia 2361
thịch 2361
neil 2360
nấc 2359
zu@@ 2359
tal@@ 2357
art 2355
hột 2355
cecilia 2354
dee 2353
ash@@ 2352
82 2351
báp-tem 2351
chè 2351
ông. 2350
disney 2348
hòng 2348
hời 2348
lord 2348
lẹ 2348
bus 2347
south 2347
ellen 2346
thôi. 2346
lòa 2345
phào 2345
lừng 2344
biếm 2342
international 2342
joey 2341
toả 2340
history 2337
toét 2337
chanh 2333
fal@@ 2333
mon 2331
119 2330
ê-@@ 2330
dặt 2328
ngòi 2326
vắn 2326
chảo 2324
dick 2324
phai 2324
mos@@ 2323
ov 2323
pe 2322
khâm 2320
nhè 2320
uý 2317
cội 2314
giư 2314
kor@@ 2314
anderson 2313
mướn 2312
đuốc 2310
ney 2309
v. 2309
phôi 2308
tơi 2307
miller 2306
mão 2306
berg 2305
sệt 2304
their 2302
ivua 2301
into 2300
dor@@ 2299
oải 2295
rio 2295
y-sác 2295
gregory 2294
gộp 2293
~ 2293
van@@ 2292
vn 2292
center 2291
nhếch 2290
bít 2289
ber 2286
ze 2285
ướp 2285
gãi 2283
ngoảnh 2283
geneva 2282
nar@@ 2282
sa-bát 2282
vạ 2282
rống 2281
louise 2280
connor 2277
bưng 2276
trổ 2275
kitty 2274
rick 2274
2030 2273
kitô 2273
file 2271
nathan 2270
ward 2269
newton 2267
hắng 2266
sy 2266
gam@@ 2265
lở 2265
bái 2263
xát 2262
gù 2260
chần 2258
kẻo 2256
tscđ 2256
tur@@ 2256
giùm 2254
ann 2252
mẹo 2252
ngu@@ 2251
bat@@ 2250
davis 2250
grant 2248
ruth 2248
nhoáng 2246
nhỡ 2246
khịt 2245
jersey 2242
axit 2239
cả. 2238
monica 2238
ala 2237
harvath 2234
ralph 2233
1982 2230
sc 2230
í@@ 2229
1944 2228
marshall 2228
ati@@ 2227
linda 2227
campuchia 2223
vegas 2223
y-@@ 2222
1968 2221
hêbơrơ 2221
sofa 2221
nhút 2220
ky@@ 2219
trườn 2219
trượng 2215
which 2213
kè 2211
thọc 2208
katherine 2207
lau@@ 2207
4.@@ 2206
low 2204
hót 2202
phiếm 2201
xào 2199
zealand 2199
gì. 2197
1973 2194
chát 2193
lảo 2191
nguôi 2191
eva 2190
pierre 2190
u-@@ 2190
cos@@ 2189
ette 2188
nhòm 2188
khom 2187
bậy 2186
cer@@ 2184
ginny 2184
suê 2184
mes@@ 2183
mạt 2183
church 2182
off 2180
thuyên 2179
chip 2177
o. 2177
pos@@ 2177
ngoãn 2176
càu 2174
rò 2174
saulơ 2173
fc 2172
nhướng 2172
wor@@ 2171
kông 2170
sh 2170
trĩu 2170
máng 2167
dơi 2166
tour 2166
ot 2165
ùa 2164
trỗi 2163
1979 2162
north 2162
.com 2161
5-@@ 2160
jerry 2160
sọc 2159
bứt 2158
người. 2157
cal 2156
thiê 2150
youtube 2150
augustus 2149
lili 2149
phil 2149
wo@@ 2148
stu@@ 2147
nươ 2146
ye@@ 2146
huyên 2145
1,@@ 2143
brooklyn 2143
chuối 2142
margaret 2142
94 2141
flo@@ 2140
aka 2139
ena 2139
ja@@ 2139
vôi 2137
3-@@ 2136
ek 2136
trặc 2136
gates 2135
jerusalem 2134
nhẵn 2134
ngo@@ 2133
fa 2130
hogwarts 2130
hê-rốt 2128
ibm 2128
mal 2126
sảo 2126
og@@ 2124
rúc 2124
1920 2122
ir 2122
hí 2120
· 2120
gary 2118
1969 2117
chơ 2117
olympic 2116
dun@@ 2114
right 2113
cha@@ 2111
tam@@ 2110
1983 2109
1974 2108
stein 2108
tel 2107
châ 2106
philadelphia 2105
180 2103
know 2103
1914 2102
dạt 2101
lily 2101
tặc 2100
stanford 2098
lùa 2096
tròng 2096
said 2095
sủng 2094
atticus 2090
fri@@ 2090
g. 2090
lupin 2090
sảng 2089
côrinhtô 2088
tion 2088
chích 2087
bush 2086
led 2085
diều 2084
ens 2083
carbon 2081
vén 2081
ashley 2080
only 2080
twitter 2079
hacker 2075
ned 2075
1972 2074
tủy 2074
chưng 2073
down 2073
karl 2073
mel 2072
thẫm 2072
1942 2071
juan 2071
julián 2071
ố 2071
-không 2069
1971 2069
1981 2067
mọn 2067
luống 2066
bernard 2065
cóng 2065
just 2065
rạn 2065
hawaii 2064
trọc 2064
cúm 2062
nhau. 2061
ối 2061
carlisle 2059
vẹo 2059
nobel 2058
sâm 2058
cross 2055
its 2055
1965 2053
abraham 2053
bú 2053
lê-vi 2053
t.@@ 2051
dem@@ 2050
bói 2049
come 2048
nhặn 2048
să 2048
williams 2048
tâu 2047
nt 2046
rán 2044
nan@@ 2043
pol@@ 2042
đái 2039
phiện 2038
yến 2037
over 2036
isabel 2034
pp@@ 2034
rêu 2034
ryan 2033
caesar 2032
florence 2032
freud 2032
mảy 2032
đây. 2032
jan 2031
giacốp 2030
đao 2030
able 2029
siêng 2029
malaysia 2028
mé 2028
general 2027
electron 2026
giôsép 2026
vest 2024
mượt 2021
nancy 2021
roarke 2020
pennsylvania 2019
ắp 2019
cừ 2018
blood 2016
bon 2016
ig@@ 2016
lươ 2016
percy 2016
hú 2012
hong 2010
jonathan 2010
virgin 2010
iivua 2009
hmm 2008
would 2007
by@@ 2006
dĩa 2006
ani@@ 2005
tịnh 2003
ghim 2001
thươ 2001
chùng 2000
mút 2000
zo@@ 1999
alecxei 1998
lốp 1997
chực 1996
starling 1995
gu 1994
găm 1994
ori@@ 1994
sk 1994
set 1993
carolina 1992
gien 1992
ma-@@ 1991
2-@@ 1990
mím 1990
quặng 1990
bẹp 1986
fa@@ 1986
fort 1986
nang 1986
ê-va 1986
lawrence 1985
rảo 1985
chắp 1984
lủng 1983
cin@@ 1982
sk@@ 1981
wa 1981
ski 1979
tê-sa-lô-ni-ca 1978
fanny 1977
gandalf 1977
russell 1977
annie 1975
id@@ 1975
back 1974
lỏi 1974
ary 1972
bol@@ 1971
lamã 1971
ngáy 1971
yi 1970
gil@@ 1969
líp 1969
vatican 1969
aki 1968
nua 1968
giẻ 1967
lác 1967
7871 1966
ata 1965
franklin 1965
kay 1964
khắt 1964
hungary 1963
18@@ 1958
-t@@ 1957
alaska 1957
hannah 1956
chóp 1955
gin 1955
nhả 1954
clark 1952
ment 1952
giằng 1951
jasper 1951
quế 1951
tạt 1951
tsu@@ 1950
cựa 1949
thi@@ 1949
․ 1949
1976 1946
cen@@ 1946
win 1946
douglas 1944
neville 1944
i.@@ 1943
travis 1943
1943 1942
4-@@ 1942
cole 1942
university 1941
1967 1940
cambridge 1940
hớn 1939
ku 1939
nguyễn 1939
oc@@ 1939
nă 1938
xéo 1938
í 1938
may@@ 1936
cs 1933
trịnh 1932
http 1931
comp@@ 1930
giâ 1930
isabelle 1930
núp 1928
uni@@ 1927
ale@@ 1926
aliosa 1926
vin 1926
dẳng 1925
einar 1925
nas@@ 1924
wales 1924
bập 1923
đấy. 1923
ō 1923
holly 1922
sil@@ 1921
testament 1920
uy@@ 1920
bank 1919
nhó 1917
rát 1917
cli@@ 1916
ela 1916
mường 1916
ae 1915
chằng 1915
hỉ 1915
jace 1915
sey 1914
sharon 1913
-anh 1912
mao 1912
samuel 1911
bặm 1910
dra@@ 1910
kon@@ 1910
sành 1909
toạc 1909
key 1908
stalin 1908
las@@ 1907
mari@@ 1907
ngáp 1907
bềnh 1905
m-@@ 1905
dale 1902
1978 1899
co2 1899
mis@@ 1899
nhá 1899
dươ 1897
vẩy 1897
dí 1896
nghía 1896
nô-ê 1896
toe 1896
xúi 1896
kov 1893
236 1892
post 1892
báptêm 1890
130 1889
chèn 1889
wel@@ 1889
ion 1888
maggie 1887
ino 1886
lả 1886
trâu 1886
walker 1884
moore 1883
phết 1883
tấu 1883
nigeria 1882
pete 1882
uể 1882
phà 1881
vii 1880
đung 1880
adams 1879
est@@ 1877
phoebe 1877
cou@@ 1876
phỉ 1876
where 1876
ix 1875
has 1873
jay 1872
timôthê 1872
iisu 1871
thiếc 1871
ba-@@ 1869
eng@@ 1869
ug@@ 1868
trau 1867
ốp 1867
iiphi 1866
sực 1866
tóe 1865
hóc 1864
benjamin 1863
als 1862
cur@@ 1861
phách 1861
yo 1861
5.@@ 1860
eu 1860
liê 1860
nekhliudov 1860
isaac 1859
bhyt 1858
carter 1858
rúm 1856
t.c 1856
buột 1855
caleb 1855
ves 1855
capitol 1854
gôn 1854
otto 1854
she@@ 1854
end 1853
finch 1853
sun@@ 1853
journal 1852
nẩy 1852
đâu. 1852
diego 1851
kra@@ 1851
perry 1851
res 1851
nes@@ 1850
chửng 1847
1-4 1845
j.@@ 1845
lus 1843
clinton 1842
get 1842
rạc 1842
om@@ 1841
arya 1840
din 1840
rẫy 1840
103 1839
1941 1838
clo@@ 1838
luce 1838
nia 1838
níu 1838
byt 1837
ep 1837
đéo 1837
900 1836
bung 1834
jon 1834
nsnn 1834
ó 1834
ba-na-ba 1833
ys 1833
xo 1830
dor 1829
uyên 1827
peru 1825
shakespeare 1825
ao@@ 1823
cher 1823
mitia 1820
a-si-ri 1819
ass@@ 1819
dà 1819
liêu 1819
6-@@ 1817
beck 1817
kent 1817
phi-lát 1817
què 1815
xo@@ 1814
bỉnh 1812
pegasus 1812
kenya 1810
light 1810
ngàng 1810
túp 1810
ari 1809
two 1809
101 1808
hói 1808
loanh 1808
pat@@ 1808
pearl 1808
dy@@ 1807
bobby 1805
pr@@ 1805
xước 1804
julie 1803
rắm 1802
sun 1800
jessie 1799
phẩy 1799
nghiê 1798
tin@@ 1798
ini 1797
henri 1796
sean 1796
rộ 1795
thon 1795
lấm 1794
lọn 1793
pon@@ 1793
sỡ 1793
chừ 1792
huh 1790
lún 1790
7-@@ 1789
leon 1789
u. 1789
kal@@ 1788
pic@@ 1788
mack 1787
christina 1786
dìu 1785
ghì 1784
nhoài 1784
1964 1783
ili@@ 1783
lựu 1783
nes 1783
solomon 1782
sydney 1782
georgia 1780
nger 1780
amelia 1779
ga-la-ti 1779
zo 1779
hun 1778
tod 1778
gỉ 1777
núm 1777
wa@@ 1776
hay@@ 1775
sand@@ 1775
ngứa 1773
quì 1773
kam@@ 1772
theo@@ 1772
dal@@ 1771
cru@@ 1770
gregor 1769
jesse 1769
allan 1768
2,@@ 1767
beach 1767
tân-ước 1767
aya 1766
ning 1766
6.@@ 1765
giêng 1765
ol 1765
cù 1763
island 1763
oan 1763
ami 1762
vali 1762
105 1761
chừa 1761
cc 1760
nhẩm 1759
blackthorne 1758
burg 1758
mam@@ 1758
1.000 1756
bảnh 1756
gợn 1756
chùa 1755
bos@@ 1754
lie 1754
1977 1753
venice 1753
radar 1752
ame 1751
thìa 1751
vồ 1751
ỉ 1751
hững 1750
tit 1750
avi@@ 1749
hin@@ 1748
sing 1748
mị 1747
cuốc 1746
eleanor 1746
giông 1745
bệch 1744
mathiơ 1744
dd 1743
dd@@ 1743
becca 1742
dorothy 1742
toái 1742
mt 1741
stephanie 1741
vựng 1741
1962 1740
vẳng 1740
buô 1738
pablo 1738
suôn 1738
mail 1737
moscow 1737
1966 1736
nuối 1736
castorp 1735
ise 1735
vol@@ 1735
baby 1734
blake 1734
side 1734
ăng 1734
anthony 1733
hẻo 1733
hờn 1733
9-@@ 1732
live 1732
cameron 1731
dre@@ 1731
state 1730
lạch 1728
mui 1728
..... 1727
11@@ 1727
din@@ 1727
group 1726
asean 1725
iso 1724
water 1724
chòm 1723
gòn 1723
very 1723
dc 1721
opera 1721
nanh 1718
sub@@ 1718
phích 1717
kiệu 1716
ngớt 1715
bs 1714
been 1713
latinh 1713
cỡi 1711
hugo 1711
tra@@ 1711
ance 1710
uất 1710
clary 1709
duệ 1708
nat 1708
10.000 1707
khuếch 1707
athens 1705
new@@ 1705
point 1705
hugh 1704
mỳ 1704
callie 1703
giếm 1703
alfred 1702
cùi 1702
nghẽn 1702
trệ 1702
lou@@ 1701
www.@@ 1701
val 1699
ade 1698
nọc 1698
diê 1697
mason 1697
rữa 1696
augustine 1695
dể 1695
some 1695
êli 1695
ev 1694
sor@@ 1694
these 1694
triền 1694
bab@@ 1693
justin 1693
tráo 1692
series 1691
seth 1691
could 1689
hobbit 1689
lẻo 1688
n.@@ 1688
thửa 1687
angela 1686
ato@@ 1686
molly 1685
nhẽ 1684
home 1683
sherlock 1683
1963 1682
lù 1682
mol@@ 1682
ngách 1682
pic 1682
plato 1682
greg 1681
kas@@ 1681
other 1681
wayne 1681
napoléon 1680
nẻo 1680
ê-xê-chi-ên 1679
gon@@ 1678
huyệt 1678
mả 1678
night 1678
nq 1678
pc 1678
êsai 1678
son@@ 1677
america 1676
nịnh 1676
paelen 1676
ami@@ 1675
dr. 1675
fox 1675
iisa 1675
ôtô 1675
britt-marie 1674
raymond 1674
samurai 1674
1948 1672
shaw 1672
arkwright 1670
cle@@ 1670
yes 1670
mít 1669
ii@@ 1668
nép 1668
marius 1667
xx 1666
hỏi. 1665
nấng 1665
ngài. 1664
quầng 1664
1939 1661
cel@@ 1660
ù 1660
kíp 1658
hoe 1656
nhót 1656
ru-tơ 1656
roosevelt 1655
row 1654
an-ti-ốt 1653
christopher 1653
myron 1653
online 1653
p.@@ 1653
salomon 1653
morris 1652
daphne 1651
tía 1650
òa 1650
dallas 1648
camille 1647
royal 1647
chệch 1646
harold 1646
nd@@ 1645
worth 1645
earth 1642
mar 1642
khiê 1641
med@@ 1640
nie 1640
tào 1639
josé 1638
gả 1637
massachusetts 1637
monk 1637
nhổm 1637
khít 1635
thiển 1635
sũng 1634
võng 1634
ä@@ 1634
cla@@ 1633
seoul 1633
sur@@ 1632
nhại 1631
sicily 1630
lum 1629
cr@@ 1628
sylvie 1628
25@@ 1627
oo@@ 1627
mur@@ 1626
yểm 1626
phịch 1625
fan 1624
thệ 1624
lồi 1623
â@@ 1622
gios 1621
vel@@ 1621
xó 1621
ắng 1621
anh@@ 1619
rúp 1618
đóa 1618
sav@@ 1617
lõm 1616
meggie 1616
queen 1616
qui@@ 1616
xiếc 1616
hãn 1615
natasa 1615
ngoặc 1615
nhoi 1615
chòi 1614
nhúm 1614
biếu 1613
gus 1613
milady 1613
through 1612
lecter 1610
ớn 1610
madrid 1609
craig 1608
nam@@ 1608
nặn 1608
oli@@ 1608
chuốt 1607
chờn 1607
ist 1607
luâ 1607
p-@@ 1607
phi@@ 1607
thạc 1607
bư 1606
cac 1606
cô@@ 1606
o-@@ 1606
sab@@ 1606
nôi 1605
bbc 1604
đĩ 1603
star@@ 1602
aristotle 1601
si-môn 1601
tành 1601
society 1600
seattle 1599
vợt 1599
1961 1598
nella 1598
nhối 1598
fi 1596
ver 1596
vẹt 1596
euro 1595
cacbon 1594
chester 1594
cy 1594
ngầu 1594
xiên 1594
doug 1593
nu 1593
sác 1593
aum 1592
tề 1592
226 1589
amanda 1589
mont@@ 1589
sandwich 1589
human 1587
daisy 1586
thuô 1586
war 1586
dửng 1585
ö@@ 1585
1956 1584
ic 1584
liêm 1584
phỉnh 1583
tie 1583
ẩu 1583
felicity 1582
sevro 1582
kos@@ 1581
terry 1581
bay@@ 1580
betty 1580
frederick 1580
víu 1580
lởm 1579
rita 1579
robinson 1579
trổi 1579
xẻng 1579
1946 1577
colombia 1577
mou@@ 1577
land@@ 1575
jared 1574
cáng 1573
ing@@ 1573
wolf 1573
ó@@ 1570
lẫm 1569
lết 1569
ngừ 1569
alec 1568
ins 1568
mr. 1568
dvd 1567
banks 1566
nạo 1566
rén 1565
ations 1563
houston 1563
wells 1563
bir@@ 1562
chandler 1561
julian 1561
rúng 1561
tưng 1561
táp 1560
e-mail 1559
kur@@ 1559
rón 1559
thóc 1557
1-11 1556
112 1556
ando 1556
phăng 1556
vế 1555
carlo 1554
nghê 1554
nhũ 1554
ring 1553
trans@@ 1553
seung 1552
winter 1552
kusanagi 1551
east 1550
pet@@ 1550
alexandra 1549
joan 1549
1-5 1548
ash 1548
tina 1548
trời. 1547
hoă 1546
italy 1546
ns@@ 1546
1958 1545
bét 1545
pat 1544
bai 1543
nẵng 1542
grigori 1541
bin@@ 1540
ü@@ 1540
140 1539
nixon 1539
ax@@ 1538
s.c. 1538
điểu 1538
foot 1537
1947 1536
fogg 1536
ohio 1536
ushikawa 1536
7845 1535
bac@@ 1535
bươ 1534
prot@@ 1534
vil@@ 1534
thắm 1533
kat 1531
shu@@ 1530
ư@@ 1530
khuy 1529
howl 1528
ðó 1528
bct 1527
here 1527
1949 1526
dec@@ 1526
fiona 1526
port 1526
111 1524
gale 1524
rích 1524
pamela 1522
rưới 1522
3,@@ 1521
bla@@ 1521
becker 1520
boy 1520
club 1520
huỳnh 1520
norman 1520
thụt 1520
harris 1519
rang 1519
hâ 1518
manchester 1518
nag@@ 1518
power 1518
sion 1518
bot 1517
doc 1517
nikolai 1516
đoa 1516
ase 1514
dô 1514
mini 1514
barney 1513
head 1513
160 1512
gol@@ 1511
tô@@ 1511
êphêsô 1511
diana 1509
irene 1509
lụi 1508
babylôn 1507
giô-na 1507
lar 1507
mền 1507
ngấu 1507
shin@@ 1507
chường 1506
milan 1506
oi 1506
romeo 1506
super 1506
chổ 1505
lillian 1505
uganda 1505
1957 1504
ci 1504
gs 1504
sấu 1504
xâu 1504
đầu. 1503
apollo 1502
mp 1502
xược 1502
has@@ 1501
hat@@ 1501
phập 1501
pot@@ 1501
tho 1501
dur@@ 1500
nán 1500
ters 1500
vịn 1500
cháo 1499
cker 1499
revelation 1499
xén 1499
ạ. 1499
hớp 1498
toby 1498
ct@@ 1497
hylạp 1497
els 1496
kihôtê 1496
wy@@ 1496
br@@ 1494
harper 1494
jan@@ 1494
wes@@ 1494
after 1493
cul@@ 1492
đong 1492
mõm 1491
mcgonagall 1490
won 1490
aro 1488
bl@@ 1488
vượn 1488
giặc 1487
sul@@ 1487
nn 1486
bis@@ 1485
pho@@ 1485
yam@@ 1485
dubai 1484
lặt 1484
nách 1484
tab@@ 1484
ties 1484
tỵ 1484
karen 1483
phủi 1483
raoul 1483
thun 1483
ạt 1482
zer 1481
sò 1480
tuồng 1480
chởm 1479
guitar 1479
oh@@ 1479
hank 1478
haymitch 1478
alpha 1476
walt 1476
yossarian 1476
ans@@ 1473
tuốt 1473
carol 1472
lòe 1472
nell 1472
ob@@ 1472
1959 1471
jenny 1471
rờ 1470
soạt 1470
avery 1469
ess 1469
page 1469
bt 1468
gở 1468
xỉa 1468
1-6 1467
xu@@ 1467
also 1466
chile 1466
ner@@ 1466
suỵt 1466
5.000 1465
dầm 1465
bishop 1464
cab@@ 1464
lâng 1464
media 1464
cassius 1463
steven 1463
cật 1462
mul@@ 1461
thé 1461
dừa 1460
mọt 1460
thòng 1460
via 1460
container 1459
pil@@ 1459
quây 1459
ua 1459
ashi@@ 1458
poly@@ 1455
toi 1455
china 1454
od@@ 1454
pha-ra-ôn 1453
7843 1452
lady 1452
england 1451
high 1451
plan@@ 1451
rapids 1451
áng 1451
00@@ 1450
chưởng 1450
nhím 1448
dauntless 1447
cỗi 1446
dudley 1446
tobias 1446
vù 1446
grey 1445
tum 1445
tuấn 1445
đẫn 1445
khư 1443
gas 1442
bộn 1441
gara 1441
ur 1441
ful@@ 1440
kansas 1440
ngác 1440
pit@@ 1440
ato 1438
fan@@ 1438
nê-hê-mi 1438
trát 1438
trề 1437
30@@ 1436
ros 1436
brothers 1435
mc 1435
best 1434
nh. 1434
place 1434
xoăn 1434
1-7 1433
giun 1433
kèo 1433
mơn 1433
gau@@ 1432
teo 1432
xòe 1432
alexandria 1431
ab 1429
khuây 1429
1954 1428
bury 1428
dụi 1428
2.000 1427
ambra 1427
roark 1427
jung 1426
khét 1426
mô@@ 1426
trư 1425
trụy 1425
ally 1424
làu 1424
miranda 1424
thoi 1424
vãng 1424
fon@@ 1423
pres@@ 1423
vu@@ 1423
hươ 1422
tảo 1421
1955 1420
andrey 1420
ous 1420
▪ 1420
ey@@ 1419
lydia 1419
106 1418
dollar 1418
hara 1418
obama 1418
tòi 1418
sau@@ 1417
xix 1416
noel 1415
coraline 1414
kant 1414
lạt 1414
è@@ 1414
4,@@ 1413
diane 1413
gryffindor 1412
rô@@ 1412
viii 1411
đọa 1411
8-@@ 1410
atlanta 1410
oscar 1410
vance 1410
ya@@ 1410
lóa 1408
tennis 1408
mí 1407
tuông 1407
chúi 1406
mứt 1406
thompson 1406
vấy 1406
last 1405
michigan 1405
phi-li-tin 1405
bau@@ 1404
giu-đê 1404
kel@@ 1404
sa-@@ 1404
dr 1403
jeremy 1403
roma 1403
tran@@ 1403
ô-@@ 1403
bilbo 1402
chuốc 1400
mửa 1400
wan 1400
104 1399
phình 1399
nhòa 1398
rie 1397
silicon 1397
trô 1396
24@@ 1395
berger 1395
dos 1395
êdíptô 1395
suông 1393
tag@@ 1393
d.@@ 1392
mccaleb 1392
ốt 1392
amp@@ 1391
sex 1391
ăng@@ 1391
nhà. 1390
app@@ 1389
cô. 1389
dùi 1389
lùm 1389
an-@@ 1388
maya 1388
ná 1388
amen 1387
dam@@ 1387
ere 1387
hunt 1387
5,@@ 1386
gan@@ 1386
glo@@ 1386
gru@@ 1385
jin 1385
hope 1384
hợt 1384
vernon 1384
cent 1383
evn 1383
tas@@ 1383
hen 1382
3-4 1381
đát 1381
...... 1380
7,@@ 1379
nần 1379
ota 1379
dầy 1378
olive 1378
black@@ 1377
chợp 1377
dru@@ 1377
gg 1377
jazz 1377
ngoạc 1377
nh-@@ 1377
nis@@ 1377
cô-lô-se 1376
7853 1375
ene 1375
long@@ 1374
ukraina 1374
nelson 1373
up@@ 1373
9-10 1371
brad 1371
dia 1371
les@@ 1371
hamilton 1370
loang 1370
nab@@ 1370
uyển 1370
tris 1369
aaron 1368
tè 1367
gy@@ 1366
ms@@ 1366
socrates 1366
ee 1365
belbo 1364
inc 1364
hydro 1363
kkt 1363
lõa 1363
make 1363
mariko 1363
rụi 1363
dề 1362
edmund 1362
ele@@ 1362
mòng 1362
ré 1362
boris 1361
ị 1361
109 1360
ines 1360
whi@@ 1360
trịch 1359
tw@@ 1359
joshua 1358
ser 1358
cks 1357
tos 1356
giòn 1355
mmm 1355
ther@@ 1355
hil@@ 1354
jun@@ 1354
nòi 1354
stanley 1354
summer 1354
elliot 1353
kai 1353
rhett 1353
rover 1353
tẩm 1353
ngấy 1352
polly 1352
vas@@ 1352
1952 1351
medi@@ 1351
mau@@ 1350
mississippi 1350
mẫm 1350
đô@@ 1350
ese 1349
penny 1349
1919 1348
hừ 1348
studio 1348
xới 1348
central 1347
gun@@ 1347
oregon 1347
ated 1346
cuồn 1345
awa 1344
gờ 1344
hab@@ 1344
kaz@@ 1344
pandora 1344
xúp 1344
haiti 1343
chồi 1342
law 1342
m.@@ 1342
lốt 1341
valjean 1341
ore 1340
spe@@ 1340
adler 1339
bé@@ 1339
huế 1339
108 1338
astorre 1338
dùm 1338
ngóc 1338
ses 1338
xỉu 1338
elder 1337
gr@@ 1337
wright 1337
6,@@ 1336
harriet 1336
trồi 1336
trớ 1336
carlos 1335
r.@@ 1335
s.@@ 1335
chris@@ 1334
dìm 1334
ppp 1334
vittoria 1334
ap 1333
quẹo 1333
giô-đanh 1332
loãng 1332
sson 1331
mg 1330
jill 1329
vơi 1329
word 1329
gas@@ 1328
margo 1328
gáp 1327
lynn 1327
roman@@ 1327
ori 1326
kén 1325
lán 1325
mê-@@ 1325
mết-si-a 1325
west@@ 1325
1953 1324
did 1324
harvey 1324
jam@@ 1324
kw@@ 1324
ath 1323
ip 1323
nhẽo 1323
ire 1322
je 1322
stuart 1321
tuyê 1321
xẻo 1321
hunter 1320
ves@@ 1320
118 1319
nasuada 1319
snow 1319
thít 1319
wesley 1319
đếch 1319
˝ 1319
19@@ 1318
gh 1318
jr 1318
kit@@ 1318
nhôm 1318
sak@@ 1317
gang 1316
muggle 1316
sol 1316
ye 1316
áy 1316
ón 1316
galbatorix 1315
hudson 1315
luna 1315
ero 1314
hũ 1314
sờn 1314
wol@@ 1314
ett 1313
ness 1313
chầu 1312
kins 1312
nhen 1312
sonya 1312
yale 1312
asa 1311
nhớp 1311
núng 1311
ivanovna 1310
lake 1310
real 1310
rám 1310
chận 1309
khua 1309
wallace 1309
hừng 1308
ism 1308
science 1308
thím 1308
trố 1308
vor@@ 1308
xói 1308
yl 1307
asi@@ 1306
mẩn 1306
ngợp 1306
pr 1306
mosca 1305
ottoman 1305
zi 1305
dri@@ 1304
milo 1304
mont 1304
three 1304
tã 1304
trent 1303
gillette 1302
wood@@ 1302
eth 1301
pound 1301
sig@@ 1301
keith 1300
liềm 1300
mad@@ 1300
cựu-ước 1299
khựng 1299
trăn 1298
1938 1297
fire 1297
búng 1295
kes 1295
chững 1294
miê 1294
môt 1294
mương 1294
23@@ 1293
bastian 1293
mazarin 1293
125 1292
chelsea 1292
lat@@ 1292
oang 1292
ain 1291
hot 1291
lụy 1291
marin 1291
rap@@ 1291
rin@@ 1290
sột 1290
nốc 1289
ō@@ 1289
múc 1288
pt 1288
xốp 1288
giũ 1287
petersburg 1287
truất 1287
ais 1286
conrad 1285
even 1285
nw 1285
bul@@ 1284
dro@@ 1284
archer 1283
bridge 1283
dt 1283
ona 1283
super@@ 1283
gran@@ 1282
rizzoli 1282
sonny 1282
tệp 1282
350 1281
8.@@ 1281
bach 1281
met 1281
mot@@ 1281
tine 1281
antonio 1280
miguel 1280
bun@@ 1279
ez 1279
na-xa-rét 1279
102 1278
1918 1278
mư 1278
ut@@ 1278
prin@@ 1277
robie 1277
ach 1276
gẫu 1276
khố 1274
thẩn 1274
úng 1274
gọng 1273
org 1273
dennis 1272
green@@ 1272
bợ 1271
company 1271
quằn 1271
ê-tiên 1271
nê-bu-cát-nết-sa 1270
tcvn 1270
tp 1270
xạo 1270
british 1269
laser 1269
sus 1269
ever 1268
janet 1268
meo 1268
take 1268
valentine 1268
dông 1267
jar@@ 1267
ả-rập 1267
33@@ 1266
mé@@ 1266
cosette 1265
anime 1264
hổi 1264
loay 1264
vênh 1264
chilton 1263
court 1263
hoay 1263
gội 1262
zero 1262
b.@@ 1261
canon 1261
giêrêmi 1261
iphone 1260
lìm 1260
tem@@ 1260
ca-@@ 1259
cus 1259
dh@@ 1259
fen@@ 1259
ile 1259
pel@@ 1259
200@@ 1258
lis@@ 1258
miami 1258
umbridge 1258
xẩy 1258
yoga 1258
barbara 1257
hủ 1257
kt 1257
ming 1257
prince 1257
ju 1256
kềnh 1256
tis 1256
ây 1256
-r@@ 1255
luciano 1255
italia 1254
đểu 1254
ngs 1253
think 1253
ée 1253
trớn 1251
mari 1249
mồng 1249
yn@@ 1249
zen 1249
fer 1248
jos@@ 1248
kyle 1248
lời. 1248
miles 1248
got 1247
bấu 1246
kir@@ 1246
moses 1246
pan 1246
tốp 1246
churchill 1245
eri 1245
saint-@@ 1245
đèo 1245
kị 1244
leo@@ 1244
vitamin 1244
division 1243
genesis 1243
ple@@ 1243
schu@@ 1243
sis 1243
uk 1243
wer@@ 1243
ú@@ 1243
ble 1242
brasil 1242
derek 1242
khêu 1242
lè 1242
school 1242
thui 1242
hội-thánh 1241
khoét 1241
trẻo 1241
yuichi 1241
cape 1239
ú 1239
chan@@ 1238
dăm 1238
luỹ 1238
pap@@ 1238
watch 1238
hám 1237
lot@@ 1236
miss 1236
nhất. 1236
fe 1235
nguệch 1235
5-6 1234
ngoắt 1234
play 1234
sta@@ 1234
heart 1233
quại 1233
thớt 1233
đi@@ 1233
micro 1232
barcelona 1231
bàu 1231
columbus 1231
bb@@ 1230
colorado 1230
link 1230
quắc 1230
era 1229
mùng 1229
face 1228
away 1227
hau@@ 1227
kham 1227
rượt 1227
đẩu 1227
rosa 1226
soái 1226
&lt; 1225
tal 1225
aa 1224
adi@@ 1224
bezos 1224
mào 1224
1900 1223
armenia 1223
lắm. 1223
over@@ 1223
alô 1222
eb@@ 1222
ston 1222
2-3 1221
ruồng 1221
dáy 1220
tions 1220
sally 1219
dante 1218
lon@@ 1218
mỏm 1218
bot@@ 1217
dobby 1217
lyon 1217
megan 1217
thỏi 1217
paige 1216
rian 1216
ef@@ 1215
lis 1215
pur@@ 1215
samuên 1215
sea 1215
eh 1214
model 1214
nhướn 1214
rum 1214
bợm 1213
helena 1213
collins 1212
cọng 1212
elena 1212
ose 1212
had@@ 1211
ngoằn 1211
thoắt 1210
trối 1210
entertainment 1209
rướn 1209
thõng 1209
vic 1209
2025 1208
flamel 1208
guy 1208
merry 1208
nsa 1208
ré@@ 1208
hấn 1207
đẽo 1207
0-@@ 1206
mid@@ 1206
mía 1206
xa-cha-ri 1206
9,@@ 1205
www 1204
― 1204
anjin-san 1203
băm 1203
bịu 1203
girl 1203
khập 1203
kền 1203
lane 1203
amsterdam 1202
pharisi 1202
vạc 1202
0,@@ 1201
air@@ 1201
garrett 1201
princeton 1201
red@@ 1201
any 1200
nicky 1200
orleans 1200
whisky 1200
chòng 1199
theology 1199
ê-sau 1199
đáp. 1199
neu@@ 1198
xki 1198
erik 1197
cham@@ 1196
laila 1196
quin@@ 1196
biết. 1195
fle@@ 1195
oa 1195
phi-@@ 1195
ứa 1195
linux 1194
1-8 1193
réo 1193
vồng 1193
chloe 1192
diễm 1192
khứa 1192
ago 1191
bc 1191
kilômét 1191
lòi 1191
◆ 1191
gát 1190
xộc 1190
fun@@ 1189
kẹ 1189
ruby 1189
tịt 1189
vodka 1189
oth 1188
sum@@ 1188
bruno 1187
illa 1187
pippi 1187
sat@@ 1187
chắt 1186
ngạnh 1186
yan@@ 1186
inh 1185
vữa 1185
ươm 1185
4-5 1184
sấy 1184
vảy 1184
e.@@ 1183
ever@@ 1183
high@@ 1183
lock 1183
nhuần 1183
tỏi 1183
ừ@@ 1182
look 1181
mars 1181
nat@@ 1181
sy-ri 1181
100.000 1180
bird 1180
carlton 1180
yabu 1180
fra@@ 1179
xôn 1179
dỗi 1178
kềm 1178
lơn 1178
madison 1178
pisciotta 1178
sào 1178
săm 1178
vằn 1178
ôxy 1177
ụ 1177
casino 1176
logo 1176
9.@@ 1175
box 1175
gẫy 1175
ngợm 1175
xuyến 1175
liệm 1174
ris 1174
sm 1174
tai@@ 1174
ery 1173
jor@@ 1173
16-17 1172
mafia 1172
mêsia 1172
11-12 1171
mê@@ 1171
8-9 1170
io 1169
leonardo 1169
1935 1168
cher@@ 1168
delta 1168
iceland 1168
marco 1168
maurice 1168
5000 1167
ca-in 1167
cabin 1167
gabrielle 1167
ton@@ 1167
venezuela 1167
̀ 1167
xắc 1166
đò 1166
nap@@ 1165
teen 1165
business 1164
hale 1164
tes@@ 1164
107 1163
hão 1163
leslie 1163
lô@@ 1163
muhammad 1163
salômôn 1163
tắp 1163
canaan 1162
ooh 1162
khu@@ 1161
nietzsche 1161
office 1161
xia 1161
ish 1160
mes 1160
stepan 1160
vianne 1160
115 1159
johannes 1159
khảm 1159
nhái 1159
phan 1159
si-@@ 1159
nhử 1158
vó 1158
7889 1157
sê-@@ 1157
wit@@ 1157
135 1156
mấp 1156
sia 1156
trầy 1156
cá@@ 1155
felix 1155
hực 1155
irina 1155
vạm 1155
isabella 1154
mụn 1154
170 1153
7.@@ 1153
year 1153
zarathustra 1153
mit@@ 1152
nhộng 1152
nịch 1152
olympus 1152
ragnar 1152
today 1152
và@@ 1152
7879 1151
cạm 1151
pla@@ 1151
sou@@ 1151
thổn 1151
xúm 1151
ble@@ 1150
ida 1150
nhă 1149
because 1148
joy 1148
pdf 1148
abu 1147
arizona 1147
berkeley 1147
gate 1147
trạc 1147
tý 1147
că 1146
flash 1146
football 1146
thuâ 1146
wikipedia 1145
xantrô 1145
́ 1145
8,@@ 1144
ras 1144
scar@@ 1144
mân 1143
đaniên 1143
léc 1142
jacques 1141
gps 1140
liệng 1140
nhuốm 1140
nĩa 1140
tấc 1140
3000 1139
nhãi 1139
panama 1139
michel 1138
standard 1138
1936 1137
dodd 1137
pearson 1137
roland 1137
trệt 1137
đôm 1137
alabama 1136
gồ 1136
thor@@ 1136
xuâ 1136
franc 1135
kwh 1135
mâm 1135
poirot 1135
stark 1135
ler@@ 1134
thòi 1134
139 1133
6-7 1133
milton 1133
agu@@ 1132
mb 1132
1951 1131
mand@@ 1131
mi-@@ 1131
books 1130
khuỵu 1130
never 1130
ha-@@ 1129
ping 1129
theresa 1129
tower 1128
360 1127
mickey 1127
sà 1127
tẹo 1127
79@@ 1126
claude 1126
harrison 1126
qh13 1126
1937 1125
ip@@ 1125
eta 1124
sha 1124
games 1123
turner 1123
bụa 1122
lõng 1121
richardson 1121
éo 1121
reagan 1120
etta 1119
gwen 1119
xẩu 1119
à@@ 1119
dain 1118
kil@@ 1118
na-@@ 1118
phơ 1118
ib@@ 1117
laptop 1117
tuy@@ 1117
varden 1117
alo@@ 1116
gram 1116
lauren 1116
lukas 1116
oz 1116
sebastian 1116
ukraine 1116
fel@@ 1115
thuỵ 1115
troy 1115
vèo 1115
đóm 1115
227 1114
22@@ 1114
chase 1114
duncan 1114
lab@@ 1114
wick 1114
mercedes 1113
rico 1113
zz@@ 1113
allah 1112
chin@@ 1112
giựt 1112
many 1112
tat@@ 1112
thùy 1112
aragorn 1111
ely 1111
kenny 1111
ạ@@ 1111
code 1110
hử 1110
most 1110
gam 1109
isu 1109
reacher 1109
yard 1109
1933 1108
7841 1108
78@@ 1108
born 1108
gọt 1108
nịt 1108
ryrie 1108
things 1107
why 1107
xấc 1107
ùn 1107
jonas 1106
121 1105
cop@@ 1104
wing 1104
234 1103
ets 1103
sky@@ 1103
guốc 1102
hm 1102
jupiter 1102
ên@@ 1102
и@@ 1102
ngái 1101
ski@@ 1101
herbert 1100
13-14 1099
cali@@ 1099
oni@@ 1099
beau@@ 1098
kingdom 1098
ml 1098
mun@@ 1097
trước. 1097
murray 1096
nhậu 1096
oni 1096
sim@@ 1096
wat@@ 1096
aci@@ 1094
dou@@ 1094
kiku 1094
nhãng 1094
ura 1094
50@@ 1093
babylon 1093
anastasia 1092
tndn 1091
cola 1090
got@@ 1090
lẩy 1090
lững 1090
triê 1090
jer@@ 1089
natalie 1089
quâ 1089
werner 1089
ick 1088
lou 1088
malcolm 1088
moon 1088
beta 1087
cn@@ 1087
thằn 1087
wilbur 1087
bet@@ 1086
bê@@ 1086
bấp 1086
free 1086
garden 1086
marty 1086
naples 1086
quệ 1086
union 1086
cô-@@ 1085
nano 1085
story 1085
aires 1084
bằm 1084
không@@ 1084
nak@@ 1084
xống 1084
đượm 1084
1. 1083
hello 1083
lạng 1083
od 1083
logy 1082
đến. 1081
alecxandrovitr 1080
dol@@ 1080
mas 1080
ra-@@ 1080
tar 1080
ek@@ 1079
sri 1078
1929 1077
anus 1077
colette 1077
louisa 1077
mô-áp 1077
ngoèo 1077
xiii 1077
12-@@ 1076
gold 1076
nhầy 1076
gab@@ 1075
ngổn 1075
bit@@ 1074
giles 1074
hộc 1074
lionel 1074
momo 1074
quặn 1074
bíp 1073
mariam 1073
uổng 1073
hoyt 1072
julius 1072
madeleine 1072
tươm 1072
bẽ 1071
lịm 1071
7901 1070
lap@@ 1070
lli@@ 1069
miết 1069
uss 1069
zu 1069
dòm 1068
khmer 1068
loi 1068
still 1068
toạ 1068
cô-dắc 1067
ẵm 1067
ashi 1066
mủ 1066
orc 1066
samsung 1066
vienna 1066
ă@@ 1066
form 1065
castle 1064
thea 1064
tz@@ 1064
chấu 1063
fac@@ 1063
illinois 1063
rat 1063
alesandra 1062
chun 1062
fukaeri 1062
giacơ 1062
kern 1062
lét 1062
ngòm 1062
ních 1062
riley 1062
slughorn 1062
dấp 1061
view 1061
11-@@ 1060
450 1060
benny 1060
ec 1060
vic@@ 1060
mịch 1059
gin@@ 1058
usa 1058
college 1057
kẽm 1057
pav@@ 1057
tors 1057
yun 1057
arena 1056
khè 1056
lạo 1056
phili@@ 1056
rel@@ 1056
tolland 1056
clara 1055
nháo 1055
coca 1054
dead 1054
ering 1054
woo 1054
ã 1054
14-15 1053
19-20 1053
rand 1053
10-@@ 1052
ess@@ 1052
ghém 1052
shar@@ 1052
costa 1051
holder 1051
thặng 1051
ctnh 1050
hớt 1050
ngăm 1050
rob 1050
years 1050
1-10 1049
ces 1049
epi@@ 1049
every 1049
đuợc 1049
bod 1048
denver 1048
ex 1048
háp 1048
painter 1048
set@@ 1048
sts 1048
ado@@ 1047
berkshire 1046
bing 1046
dawson 1046
emi@@ 1046
four 1046
giò 1046
khiễng 1046
dis 1045
evans 1045
iite 1045
sem@@ 1045
yoko 1045
ence 1044
homo 1044
bond 1043
dursley 1043
eni@@ 1043
erica 1043
evan 1043
náy 1043
river 1043
xiêu 1043
a-rôn 1042
luộc 1042
tron 1042
1-13 1041
27@@ 1041
bxd 1041
hs 1041
lép 1041
partridge 1041
sai@@ 1041
128 1040
kitti 1040
nicole 1040
sum 1040
yuki 1040
ish@@ 1039
alia 1038
mói 1038
patricia 1038
ç@@ 1038
chen@@ 1037
dev@@ 1037
keating 1037
tủi 1037
auto@@ 1036
cau@@ 1036
cuội 1036
hĩnh 1036
ave 1035
gandhi 1035
mura 1035
spencer 1035
vảng 1035
berry 1034
láu 1034
pper 1034
1932 1033
cót 1033
cọp 1033
yos@@ 1033
sexton 1032
fisher 1031
agape 1030
bgtvt 1030
geo@@ 1030
amaia 1029
marathon 1029
ngốn 1029
rết 1029
sie 1029
women 1029
£ 1029
liam 1028
mos 1028
sapiens 1028
ut 1028
ef 1027
elli 1027
lèo 1027
mm@@ 1027
vera 1027
chít 1026
pascal 1026
stockholm 1026
1-12 1025
list 1025
sienna 1025
venetia 1025
zar@@ 1025
kk@@ 1024
pm 1024
3.000 1023
nhón 1023
bùm 1022
cũi 1022
debbie 1021
hot@@ 1021
220 1020
emmett 1020
good@@ 1020
rell 1020
rier 1020
116 1019
ball 1019
leigh 1019
mậu 1019
missouri 1018
records 1018
stri@@ 1018
ufo 1018
qh11 1017
28@@ 1016
arthos 1016
jeep 1016
vers 1016
edi@@ 1015
june 1015
ld 1015
miến 1015
murtagh 1015
mê-si 1015
off@@ 1015
op 1015
edwards 1014
l-@@ 1014
la-xa-rơ 1014
maine 1014
pul@@ 1014
ries 1014
ê-đôm 1014
ars 1013
atlantic 1013
machiavelli 1013
nov@@ 1013
eda 1012
global 1012
made 1012
ag 1011
jin@@ 1011
noelle 1011
phone 1011
poli@@ 1011
tc@@ 1011
tòng 1011
campbell 1010
fedorovich 1010
giời 1010
xóc 1010
abe 1009
choán 1009
tă 1009
clu@@ 1008
erin 1008
ther 1008
ê-xê-chia 1008
bernie 1007
galati 1007
kirk 1007
kirsch 1007
death 1006
hem 1006
penn 1006
system 1006
work 1006
almanzo 1005
eugene 1005
giụa 1005
rei@@ 1005
rica 1005
sahara 1005
đìa 1005
arnold 1004
buenos 1004
clarice 1004
giê@@ 1004
grove 1004
ice 1004
reed 1004
space 1004
tou@@ 1004
ô-sê 1004
ill 1003
roxtov 1003
trứ 1003
vladimir 1003
liu 1002
phồn 1002
ồng 1002
1934 1001
40@@ 1001
athena 1001
camp@@ 1001
daily 1001
nẻ 1001
phảng 1001
phừng 1001
127 1000
ace 1000
asakawa 1000
jê-sus 1000
neely 1000
riết 1000
try 1000
warner 1000
philíp 999
rosalie 999
shire 999
thi-thiên 999
35@@ 998
dina 998
giãy 998
hâu 998
khuân 998
ox@@ 998
thó 998
đềm 998
1a 997
android 997
sứt 997
luẩn 996
sabine 996
samari 996
simpson 996
tâng 996
ứ 996
khảnh 995
quẹt 995
sony 995
1-9 994
congo 994
hởi 994
phen 994
violet 994
bil@@ 993
ethiopia 993
spi@@ 993
cụp 992
eilonwy 992
gla@@ 992
khò 992
khỉnh 992
palm 992
rol@@ 992
bấc 991
cạp 991
giậm 991
ments 991
quơ 991
đản 991
7-8 990
atm 990
giu-đe 990
java 990
kol@@ 990
pes@@ 990
đt 990
kệch 989
xối 989
113 988
họ@@ 988
rou@@ 988
16-@@ 987
nos@@ 987
si-ôn 987
thày 987
ớ 987
bennett 986
hp 986
kan 986
lloyd 986
ted@@ 986
ù@@ 986
ả@@ 986
corleone 985
reid 985
sher@@ 985
trâ 985
1931 984
lucrezia 984
ói 984
aku@@ 983
bran@@ 983
lói 983
tm 983
yn 983
again 982
before 982
dãn 982
eas@@ 982
feld 982
gí 982
phờ 982
stress 982
sên 982
bye 981
iq 981
kie 981
mori@@ 981
mợ 981
bag@@ 980
noah 980
đươc 980
60@@ 979
750 979
bec@@ 979
dora 979
fu 979
lor@@ 979
review 979
¯ 979
bẵng 978
nina 978
road 978
tuô 978
12-13 977
abc 977
das 977
data 977
dothái 977
oc 977
xệch 977
dé@@ 976
race 976
second 976
sloane 976
strathmore 976
tuận 976
26@@ 975
works 975
xổm 975
bở 974
hal 974
quăn 974
ðây 974
ổi 974
nhang 973
911 972
jackie 972
truyê 972
angel 971
faith 971
katrina 971
bridget 970
cà-phê 970
cạch 970
ded 970
fortune 970
jes@@ 970
riddle 970
bết-lê-hem 969
ttlt 969
tĩu 969
bkhcn 968
boeing 968
comment 968
constantinople 968
gavin 968
keng 968
titan 968
ère 968
nato 967
quidditch 967
ắc 967
kiếng 966
lman 966
oto 966
papa 966
áp-sa-lôm 966
airlines 965
bê-@@ 965
dylan 965
ngắc 965
sei 965
272 964
a-mốt 964
ful 964
lila 964
mọng 964
tong 964
xiv 964
bb 963
constantine 963
má@@ 963
ếm 963
ares 962
haw@@ 962
kv 962
bad 961
bờm 961
marianne 961
meri@@ 961
open 961
reiko 961
sumire 961
thụp 961
must 960
ul 960
finnick 959
gollum 959
jet 959
khàng 959
tỳ 959
1922 958
cui 958
chết. 957
hit 957
nau@@ 957
not@@ 957
pac@@ 957
sue 957
teresa 957
xuống. 957
ille 956
lanka 956
ronald 956
rot@@ 956
„ 956
batman 955
bulgaria 955
jaco@@ 955
kyoto 955
ố@@ 955
angus 954
flu@@ 954
galileo 954
slytherin 954
spar@@ 954
ei 953
gurgi 953
pt@@ 953
pulaski 953
rê@@ 953
squ@@ 953
tara 953
vich 953
cafe 952
càn 952
pad@@ 952
rim 952
vinci 952
giãi 951
yan 951
all@@ 950
nike 950
14-@@ 949
ack 949
indi@@ 949
lance 949
lằm 949
bá@@ 948
darla 948
dell 948
hou@@ 948
ng.@@ 948
rudy 948
xư 948
his@@ 947
mus 947
ster@@ 947
acid 946
aga 946
colo@@ 946
khế 946
đay 946
aureliano 945
kru@@ 945
whitney 945
fudge 944
jamaica 944
lei@@ 944
mích 944
single 944
đui 944
chỏ 943
gos@@ 943
mona 943
nik 943
serbia 943
b-@@ 942
cathy 942
ens@@ 942
hav@@ 942
kle@@ 942
marc 942
mcdonald 942
next 942
pros@@ 942
sậy 942
children 941
que@@ 941
ra-bi 941
burn 940
búi 940
chội 940
henrik 940
-em 939
khứng 939
ote 939
quẫn 939
whiskey 939
ấ@@ 939
1800 938
7873 938
hiu 938
mus@@ 938
biếc 937
hiro 937
lể 937
master 937
la-@@ 936
madame 936
maryland 936
melanie 936
10-11 935
dmitri 935
dunford 935
mè 935
norah 935
samantha 935
those 935
vát 935
eau 934
muỗng 934
mống 934
use 934
đê@@ 934
dặc 933
ear@@ 933
g.@@ 933
mind 933
ralston 933
tn@@ 933
sudan 932
tsukuru 932
vv 932
want 932
eth@@ 931
phillip 931
raxkonikov 931
spirit 931
tive 931
zan@@ 931
114 930
clarke 930
coun@@ 930
lac@@ 930
lexie 930
sandra 930
valley 930
hack 929
pari 929
rey 929
arch@@ 928
bes@@ 928
child 928
ellie 928
get@@ 928
thẹo 928
ực 928
nhừ 927
xii 927
ès 927
niu 926
sis@@ 926
version 926
ges 925
kane 925
nhiếc 925
roz 925
bv@@ 924
dorian 924
gia-@@ 924
illi@@ 924
pl 924
tkv 924
dằng 923
ira 923
lola 923
là@@ 923
osaka 923
santiago 923
tell 923
uhm 923
borg 922
chùn 922
fifa 922
gli@@ 921
johanna 921
mai@@ 921
sượt 921
ì@@ 921
12.@@ 920
asia 920
chúng. 920
giêsu 920
145 919
aqu@@ 919
em. 919
nintendo 919
trọi 919
ture 919
woman 919
ent@@ 918
ethan 918
gurney 918
h.@@ 918
nero 918
roman 918
tennessee 918
yuri 918
-có 917
cồng 917
fil@@ 917
lom 917
lớn. 917
bô-ô 916
sol@@ 916
soo 916
gặng 915
judd 915
khanh 915
luis 915
ngao 915
thiu 915
wynand 915
anda 914
too 914
phillips 913
should 913
vito 913
80@@ 912
fall 912
giôna 912
montgomery 912
qh10 912
team 912
-ông 911
cuả 911
stewart 911
westminster 911
ê-đen 911
1917 910
ges@@ 910
hur@@ 910
jeb 910
lah 910
logan 910
pé@@ 910
132 909
ghẹo 909
lợp 909
pell 909
tier 909
xy 909
case 908
lợm 908
palmer 908
tx@@ 908
between 907
broadway 907
gạc 907
hagen 907
khạc 907
mướt 907
siberia 907
hashi 906
hô@@ 906
hết. 906
joachim 906
nakata 906
xõa 906
ðiều 906
toáng 905
wn 905
ải 905
chau 904
khă 904
phin 904
shi 904
xoàng 904
baltimore 903
ngọ 903
ott 903
proton 903
bee 902
chác 902
nghịu 902
dow 901
hê-@@ 901
ship 901
sophia 901
sô-cô-la 901
theranos 901
fas@@ 900
film 900
mah@@ 900
pippin 900
quinn 900
slide 900
ano@@ 899
pê@@ 899
xèo 899
mohammed 898
ska 898
tv@@ 898
tùm 898
210 897
cain 897
giũa 897
holy 897
húng 897
mobile 897
mtv 897
nepal 897
xép 897
domin@@ 896
edison 896
fair@@ 896
laurent 896
manga 896
part 896
sùi 896
50.000 895
dae 895
detroit 895
lé@@ 895
pedro 895
rốn 895
éc 895
let@@ 894
lọng 894
quạnh 894
al-@@ 893
cairo 893
cleveland 893
dụm 893
oanh 893
ors 893
rưng 893
zac 893
7875 892
dom 892
xốc 892
cộp 891
ghề 891
hách 891
loé 891
marx 891
ê-li-sê 891
bô@@ 890
con. 890
nis 890
rượi 890
temple 890
thót 890
đu@@ 890
dó 889
mani@@ 889
nge 889
tau@@ 888
bli@@ 887
cọt 887
hợm 887
mồn 887
ngông 887
ysác 887
zurich 887
aj@@ 886
chin 886
conway 886
days 886
khâ 886
liverpool 886
mic 886
ngói 886
nhăm 886
pacific 886
tụm 886
êva 886
cocktail 885
eduardo 885
khấn 885
lucia 885
santos 885
sôcôla 885
а@@ 885
elli@@ 884
express 884
grimaud 884
hand 884
о@@ 884
dn 883
judy 883
13-@@ 882
bạn. 882
cứa 882
e-xơ-ra 882
22-@@ 881
eno@@ 881
kia. 881
zoe 881
126 880
bướu 880
ernst 880
tree 880
7897 879
ches 879
cot@@ 879
ichi 879
michelle 879
white@@ 879
bện 878
planchet 878
sậm 878
10,@@ 877
1925 877
naz@@ 877
nguời 877
nhuốc 877
ắ@@ 877
4-6 876
far 876
hun@@ 876
12,@@ 875
6-8 875
juliet 875
xơi 875
evelyn 874
sas@@ 874
2021 873
esti@@ 873
gideon 873
mãng 873
pau@@ 873
pun@@ 873
vãnh 873
ế@@ 873
car 872
county 872
gn@@ 872
kawa 872
madox 872
price 872
ric 872
robbie 872
wu 872
canolles 871
mak 871
miu 871
sọt 871
eman 870
goá 870
sato 870
ipod 869
less 869
theodore 869
thảng 869
bel 868
course 868
dark 868
quyện 868
t.c. 868
18-@@ 867
anti 867
cio 867
duke 867
tenney 867
29@@ 866
iowa 866
o.@@ 866
rag@@ 866
lb 865
marion 865
much 865
mận 865
bím 864
mae 864
như@@ 864
scripture 864
turi 864
tuyền 864
tuếch 864
act 863
blu@@ 863
gô@@ 863
mba 863
sôn 863
ý@@ 863
ders 862
gat@@ 862
iris 862
mun 862
ni-ni-ve 862
nuông 862
yer 862
êt 862
bass 861
blan@@ 861
connecticut 861
lov 861
méxico 861
shin 861
slo@@ 861
aah 860
ack@@ 860
bour@@ 860
darcy 860
f.@@ 860
ishvar 860
nong 860
sandy 860
vere 860
brand@@ 859
chụm 859
delhi 859
leng 859
ryuji 859
wen@@ 859
bangladesh 858
bates 858
biblical 858
boa 858
dai@@ 858
edinburgh 858
gil 858
hn 858
nou@@ 858
êrik 858
117 857
123 857
agnes 857
ates 857
yukawa 857
conor 856
hù 856
awards 855
fro@@ 855
jerome 855
loogan 855
nhòe 855
vào. 855
xốt 855
³ 855
134 854
card 854
nhỏm 854
corporation 853
moóc 853
ñ@@ 853
lot 852
toronto 852
ín 852
bellamy 851
bonnie 851
cún 851
hựu 851
1928 850
22-23 850
dog 850
enne 850
wh@@ 850
côlôse 849
gon 849
jon@@ 849
reel 849
basic 848
geor@@ 848
lene 848
ngâ 848
niv 848
tton 848
136 847
15-16 847
i- 847
janie 847
say@@ 847
vía 847
aurêlianô 846
eter 846
philippe 846
randy 846
1500 845
albania 845
bailey 845
creek 845
ele 845
gằn 845
hai@@ 845
nhem 845
titus 845
■ 845
ander 844
nhoẻn 844
sam-sôn 844
© 844
ati 843
d.c. 843
english 843
nấn 843
plu@@ 843
portland 843
sim 843
sạt 843
xoảng 843
hardy 842
ki-tô 842
quệt 842
soda 842
cour@@ 841
nhọ 841
ni-cô-đem 841
tắn 841
7899 840
bah@@ 840
dominique 840
nhăng 840
under@@ 840
za@@ 840
động. 840
chịt 839
gilbert 839
ủa 839
ch. 838
need 838
18-19 837
cos 837
nhũn 837
patterson 837
powell 837
ẻo 837
1910 836
adri@@ 836
ghe 836
kreacher 836
perenelle 836
tian 836
veek 836
vỉ 836
đa-mách 836
122 835
brien 835
chài 835
diệp 835
mitchell 835
plaza 835
todd 835
chãi 834
exo 834
ghana 834
hab 834
kaw@@ 834
libya 834
regi@@ 834
17-@@ 833
fou@@ 833
gov 833
kimono 833
main 833
micôbơ 833
mà. 833
soa 833
êlisê 833
being 832
byte 832
cht 832
gỏng 832
mina 832
trĩ 832
bnn 831
cook 831
nature 831
nevada 831
qcvn 831
sherman 831
sạc 831
type 831
131 830
cơ@@ 830
gue 830
nê-@@ 830
pratt 830
rex 830
toilet 830
ê-xơ-tê 830
ow 829
quýt 829
you@@ 829
156 828
9-11 828
d-@@ 828
hạc 828
ba-tư 827
zer@@ 827
ahmad 826
cad@@ 826
chat 826
hindu 826
maxim 826
shh 826
swann 826
sủi 826
2. 825
bỡn 825
darrow 825
solo 825
talk 825
atréju 824
christine 824
cindy 824
cười. 824
hòi 824
katniss 824
cav@@ 823
munich 823
mươ 823
dúi 822
nhờn 822
vs 822
ghìm 821
jehovah 821
ole 821
service 821
end@@ 820
jacqueline 820
tch@@ 820
uriah 820
anita 819
bh@@ 819
cùm 819
kara 819
mcmurphy 819
reynolds 819
roque 819
timothy 819
vsd 819
xergei 819
fla@@ 818
forbes 818
lã 818
lê-@@ 818
misen 818
nic 818
anders 817
ches@@ 817
own 817
puerto 817
21-@@ 816
fli@@ 816
guồng 816
qh12 816
sá 816
ales 815
austin 815
byzantine 815
haz@@ 815
ius 815
kenneth 815
sei@@ 815
turing 815
7913 814
ba-anh 814
cage 814
có@@ 814
meyer 814
tòan 814
yoshi@@ 814
chôm 813
ellis 813
eus 813
gomez 813
loét 813
lởn 813
minnesota 813
research 813
sad@@ 813
yu 813
another 812
bà. 812
magnus 812
peggy 812
tw 812
western 812
aria 811
cliff 811
garcia 811
li-@@ 811
nhằng 811
nin@@ 811
s-@@ 811
lina 810
phy@@ 810
sal 810
ý. 810
a-men 809
amin 809
france 809
louisiana 809
same 809
chẻ 808
computer 808
mem@@ 808
vại 808
clip 807
going 807
jaime 807
jules 807
nombeko 807
ươ 807
ở@@ 807
17-18 806
jenner 806
nớt 806
saudi 806
underwood 806
70@@ 805
carthage 805
cưu 805
gali@@ 805
honey 805
quặt 805
stre@@ 805
vac@@ 805
wyatt 805
ats 804
belle 804
không-@@ 804
lynch 804
mira@@ 804
qu 804
saul 804
133 803
body 803
malta 803
mêsi 803
ridge 803
7907 802
ez@@ 802
quắp 802
vanger 802
colum 801
dõng 801
japan 801
murphy 801
raphael 801
rỏi 801
8-10 800
cros@@ 800
fs 800
kman 800
lảnh 800
room 800
rue 800
stevens 800
true 800
francesca 799
indiana 799
jeans 799
khoắn 799
nêm 799
× 799
20-21 798
bad@@ 798
claudia 798
cohen 798
copy 798
croatia 798
dg@@ 798
emp@@ 798
ils 798
joon 798
nàng. 798
qua. 798
af 797
bẽn 797
call 797
dav@@ 797
dow@@ 797
lester 797
lẽn 797
owen 797
phoenix 797
rock@@ 797
sac@@ 797
til@@ 797
àh 797
erudite 796
loren 796
omar 796
zion 796
124 795
ity 795
kel 795
lt@@ 795
lênh 795
meg@@ 795
photo 795
tanner 795
thật. 795
tuýp 795
11,@@ 794
ating 794
giấm 794
guil@@ 794
loẹt 794
mw 794
wind 794
ưỡn 794
ania 793
haven 793
ier 793
modern 793
words 793
đi-@@ 793
blair 792
ello 792
gel@@ 792
lốm 792
myanmar 792
order 792
quắt 792
vởn 792
agi 791
franz 791
isak 791
kai@@ 791
rogers 791
heights 790
lỉnh 790
truân 790
copenhagen 789
cs@@ 789
gao 789
roberts 789
ti-@@ 789
1926 788
7911 788
hóng 788
istanbul 788
polo 788
đo@@ 788
lands 787
múi 787
dorf 786
golden 786
harding 786
whole 786
1890 785
cornelia 785
hd 785
lổ 785
short 785
1921 784
alzheimer 784
hr 784
yar@@ 784
--@@ 783
chặp 783
cl 783
hon@@ 783
la-tinh 783
peri@@ 783
phi-lê-môn 783
xxi 783
akh 782
andrea 782
dar 782
marian 782
ụ@@ 782
152 781
nó@@ 781
nỡ 781
pharaôn 781
ppo 781
saddam 781
trọng. 781
xạc 781
clb 780
gm 780
sli@@ 780
tics 780
bal 779
krystal 779
mark@@ 779
ngạn 779
orik 779
sierra 779
yemen 779
chíp 778
gwydion 778
hag@@ 778
holger 778
hê@@ 778
iner 778
‒ 778
denise 777
dill 777
elinor 777
giê-ri-cô 777
hắn. 777
mario 777
vy 777
ames 776
ator 776
core 776
eland 776
ray@@ 776
sarin 776
3chff1000 775
beau 775
under 775
wen 775
ỉ@@ 775
aa@@ 774
bủa 774
dl 774
donnell 774
hopkins 774
neh 774
shannon 774
sòm 774
thau 774
boyd 773
cupid 773
doyle 773
fur@@ 773
gail 773
jeremiah 773
kes@@ 773
lm 773
miriam 773
nin 773
romano 773
sa-ra 773
thớ 773
tta 773
45@@ 772
bonacieux 772
pam 772
pu 772
sla@@ 772
ðến 772
chat@@ 771
displaystyle 771
monte 771
sê-sa 771
treville 771
3-5 770
alo 770
day@@ 770
kau@@ 770
lag@@ 770
millennium 770
mowgli 770
rap 770
thá@@ 770
vit@@ 770
ỏ@@ 770
eria 769
ete 769
final 769
giê-@@ 769
gằm 769
liban 769
phang 769
ti-vi 769
tle@@ 769
1912 768
a-háp 768
low@@ 768
manuel 768
ng- 768
sđd 768
pécgôti 767
rạ 767
steele 767
thought 767
điếng 767
1923 766
1927 766
cc@@ 766
fleur 766
kon 766
phil@@ 766
sê@@ 766
tiều 766
viettel 766
1905 765
7891 765
app 765
earl 765
hood 765
hurstwood 765
really 765
walsh 765
burton 764
ferdinand 764
fol@@ 764
gg@@ 764
hửng 764
siếc 764
wars 764
force 763
phò 763
pro 763
aw 762
bes 762
fish 762
k-@@ 762
mother 762
sunny 762
taliban 762
xton 762
20.000 761
cles 761
gamma 761
gy 761
nô@@ 761
theta 761
672 760
det@@ 759
friedrich 759
give 759
lilly 759
tura 759
var 759
ên-@@ 759
bea 758
beng 758
btnmt 758
cnn 758
díu 758
madonna 758
pl@@ 758
trảng 758
1-14 757
ast 757
atsuko 757
cả@@ 757
pec@@ 757
ới 757
drive 756
ishigami 756
phới 756
abnegation 755
laurel 755
nor 755
rh@@ 755
xê@@ 755
ò@@ 755
ake 754
aki@@ 754
mama 754
thes@@ 754
417 753
action 753
amber 753
josephine 753
kang 753
kos 753
malachi 753
net@@ 753
ét 753
-vâng 752
coo@@ 752
kohl 752
ni-@@ 752
tay. 752
thom 752
fflewddur 751
nhi@@ 751
nhuệ 751
à-@@ 751
giờ. 750
lê@@ 750
ma-xê-đoan 750
nile 750
sat 750
ta-@@ 750
nôê 749
rần 749
yukiho 749
lảm 748
xvi 748
xê-@@ 748
gion 747
ino@@ 747
maneck 747
mitch 747
tb 747
voldermort 747
adonis 746
bangkok 746
comb@@ 746
dictionary 746
emerson 746
happy 746
nicolas 746
tuâ 746
100@@ 745
175 745
1924 745
fernando 745
future 745
húc 745
int 745
monroe 745
phileas 745
roll 745
tron@@ 745
clement 744
cửa. 744
eyes 744
hard 744
ova 744
ø@@ 744
30-@@ 743
hđ@@ 743
làm. 743
scan 743
weather 743
association 742
baek 742
francesco 742
hs@@ 742
intel 742
kazue 742
pet 742
rt 742
tn 742
zed 742
15-@@ 741
coliseum 741
frida 741
nxb 741
phụt 741
trạch 741
mine 740
noda 740
tas 740
x. 740
240 739
38@@ 739
ax 739
ghẻ 739
giô@@ 739
hear@@ 739
kis@@ 739
zy@@ 739
ậm 739
1870 738
fau@@ 738
hills 738
kentucky 738
lyn@@ 738
manila 738
mountain 738
phê-@@ 738
queo 738
lena 737
capricorn 736
cara 736
hác 736
luc@@ 736
ngoác 736
asyri 735
hebrews 735
loảng 735
muông 735
sì 735
sít 735
third 735
webster 735
apo@@ 734
boo@@ 734
glen 734
hms 734
hẵng 734
med 734
raina 734
wagner 734
buck 733
ipad 733
mir@@ 733
mr 733
nghĩ. 733
000@@ 732
hei@@ 732
ivanovich 732
miy@@ 732
xòa 732
ávila 732
against 731
bolivia 731
renesmee 731
toohey 731
arius 730
guatemala 730
liza 730
miếu 730
l.@@ 729
leonard 729
liz 729
stor@@ 729
came 728
pollyanna 728
tesla 728
v.v. 728
ved 728
az 727
cấn 727
lucius 727
porter 727
tana 727
tanya 727
ường 727
10.@@ 726
20-@@ 726
bristol 726
cap 726
chú@@ 726
cis@@ 726
hak@@ 726
macedonia 726
na-ô-mi 726
plasma 726
sạo 726
ws 726
xtepan 726
ẹp 726
1,2 725
aton 725
birmingham 725
deep 725
enti@@ 725
ernest 725
gmp 725
gơ 725
mill 725
phòng. 725
theological 725
xtrôgôp 725
control 724
gren@@ 724
kap@@ 724
montana 724
truman 724
tróc 724
đọ 724
ế 724
bradley 723
lisbeth 723
photon 723
quentin 723
rad@@ 723
ative 722
chậc 722
ga-@@ 722
huênh 722
tửu 722
chẵn 721
gros@@ 721
help 721
hume 721
khum 721
osa 721
rna 721
1913 720
doli 720
fix 720
keller 720
mô-@@ 720
report 720
aker 719
anto@@ 719
erson 719
knight 719
kno@@ 719
nadia 719
nà 719
ple 719
saw 719
ơng 718
an-ne 717
borgia 717
ly-@@ 717
maxwell 717
shawn 717
bean 716
beaufort 716
empire 716
iv@@ 716
kaylee 716
xoe 716
beatrice 715
bậu 715
newt 715
silas 715
tech@@ 715
én 715
2050 714
billboard 714
bow@@ 714
cer 714
rah 714
sao. 714
arcaditr 713
aux 713
buddy 713
diesel 713
digital 713
family 713
gerry 713
hayes 713
tốt. 713
wei@@ 713
1915 712
alexis 712
hùa 712
húp 712
nhiên. 712
nikki 712
rion 712
sch 712
36@@ 711
century 711
curtis 711
cyrus 711
dj 711
paprika 711
polis 711
woody 711
đom 711
dio@@ 710
ero@@ 710
hỉnh 710
ima@@ 710
kịt 710
ngát 710
nova 710
official 710
phúc-âm 710
sultan 710
test 710
zen@@ 710
gal 709
hoác 709
kutuzov 709
nk 709
nus 709
swift 709
boys 708
carr 708
eisenhower 708
gồng 708
maura 708
quô 708
sé@@ 708
tate 708
xi-@@ 708
iro 707
nhành 707
ola 707
pax 707
sau. 707
yang 707
yoshino 707
147 706
elo@@ 706
nhải 706
cb@@ 705
fr@@ 705
ishido 705
leah 705
vie 705
úa 705
1911 704
bak@@ 704
có. 704
dil@@ 704
dublin 704
dỏm 704
giô-@@ 704
hoen 704
ngham 704
rai@@ 704
reese 704
toyota 704
đt@@ 704
-chúng 703
carmen 703
lêvi 703
reg@@ 703
ẹt 703
alicia 702
barnes 702
bryan 702
bull 702
carey 702
cit@@ 702
each 702
essex 702
hart 702
ide 702
tori@@ 702
ail 701
dio 701
foster 701
huých 701
ics 701
logi@@ 701
ma-thê 701
nad@@ 701
paulo 701
sellitto 701
ced 700
coke 700
cosimo 700
dragon 700
inger 700
kendall 700
quách 700
und 700
aku 699
baba 699
becky 699
huyễn 699
toni 699
wis@@ 699
ía 699
ces@@ 698
connie 698
edo 698
ght 698
hop 698
junior 698
ma-na-se 698
ole@@ 698
stan@@ 698
165 697
coming 697
jong 697
kit 697
network 697
read 697
sáng. 697
w.@@ 697
eh@@ 696
hand@@ 696
nho@@ 696
scot@@ 696
sparta 696
û@@ 696
bên-gia-min 695
care 695
corky 695
học. 695
rwanda 695
centimet 694
easy 694
hoo@@ 694
hughes 694
living 694
martín 694
omi 694
sống. 694
teri@@ 694
thãi 694
xệ 694
adrian 693
ain@@ 693
andré 693
cti@@ 693
ghẽ 693
money 693
à. 693
alu@@ 692
both 692
cv 692
dỏng 692
mri 692
pilar 692
thorn 692
xx@@ 692
deli@@ 691
dewey 691
lải 691
sám 691
vision 691
amaranta 690
amma 690
api@@ 690
eph@@ 690
foundation 690
hùm 690
km2 690
lang@@ 690
trac@@ 690
35-@@ 689
blđtbxh 689
board 689
click 689
dani@@ 689
jorge 689
norfolk 689
vông 689
ði 689
11.@@ 688
ching 688
leamas 688
rossi 688
vuột 688
wang 688
week 688
brook 687
digger 687
gris@@ 687
india 687
tót 687
xy@@ 687
zeus 687
ạch 687
fo 686
html 686
liber@@ 686
người-@@ 686
ora 686
việc. 686
band@@ 685
broad@@ 685
esther 685
gospel 685
guide 685
hazel 685
ll@@ 685
major 685
rs 685
.000 684
burke 684
gui@@ 684
ishi@@ 684
project 684
qlda 684
rê-@@ 684
singer 684
tae 684
whe@@ 684
ā@@ 684
0.@@ 683
142 683
bdm 683
dea 683
gs@@ 683
kingsley 683
mecca 683
mission 683
mv 683
ríu 683
special 683
thuyê 683
zimbabwe 683
around 682
bacon 682
gloria 682
macgơrit 682
micro@@ 682
pot 682
um@@ 682
xviii 682
13,@@ 681
137 681
burger 681
enterprise 681
found 681
kö@@ 681
ngen 681
ov@@ 681
sali@@ 681
shilling 681
shirley 681
§ 681
25-@@ 680
an. 680
eur 680
nav@@ 680
sứa 680
yasuko 680
2a 679
aye 679
eli 679
girls 679
gièm 679
khạo 679
yor@@ 679
12-14 678
aicập 678
beautiful 678
bonaparte 678
chon 678
geisha 678
mei 678
neanderthal 678
pag@@ 678
129 677
7869 677
aco 677
bbs 677
halloween 677
kurt 677
monterey 677
run@@ 677
square 677
vir@@ 677
zon 677
15-17 676
capital 676
enzyme 676
gừng 676
hannibal 676
khẩy 676
mĩm 676
nạng 676
sherry 676
alis 675
butler 675
eden 675
lúp 675
nêhêmi 675
е@@ 675
bi-@@ 674
burnham 674
judith 674
mi-chê 674
non@@ 674
olga 674
produ@@ 674
studios 674
trẫm 674
webb 674
242 673
apa 673
buckingham 673
bud 673
eck 673
klaus 673
oto@@ 673
ps@@ 673
rư 673
sa-đu-sê 673
3. 672
brandy 672
chạc 672
clar@@ 672
dman 672
does 672
khục 672
logical 672
oklahoma 672
tễnh 672
tối. 672
yê 672
143 671
ca-bê-na-um 671
cham 671
europe 671
hủi 671
mck@@ 671
teabing 671
tiger 671
tol@@ 671
148 670
back@@ 670
fos@@ 670
háu 670
khóm 670
lois 670
mali@@ 670
put 670
xô@@ 670
ột 670
190 669
212 669
gold@@ 669
open@@ 669
pos 669
thus 669
mara 668
social 668
thing 668
wan@@ 668
ồm 668
-cô 667
144.000 667
door 667
fl 667
lip@@ 667
aba 666
azkaban 666
encyclopedia 666
greenland 666
jc 666
kde 666
kris@@ 666
lorenzo 666
tới. 666
visa 666
ðừng 666
arkansas 665
dậm 665
fly 665
gerald 665
jose 665
magic 665
morning 665
mèm 665
ruy 665
something 665
ty-rơ 665
ờ@@ 665
146 664
bra 664
ech 664
hoshino 664
isi@@ 664
lôm 664
mili@@ 664
north@@ 664
êxêchiên 664
đật 664
138 663
chuôi 663
energy 663
fy 663
horn 663
omi@@ 663
scho@@ 663
trót 663
xịn 663
² 663
dad 662
flynn 662
mạp 662
nen 662
palace 662
channel 661
charleston 661
choi 661
chớm 661
ction 661
cọt-nây 661
draco 661
hector 661
lỵ 661
map 661
ngáng 661
proust 661
sảy 661
thỏm 661
tucker 661
barrett 660
dge 660
gun 660
ral 660
ways 660
ï@@ 660
ault 659
baghdad 659
bellatrix 659
chạng 659
ement 659
hanna 659
martinez 659
mei@@ 659
rubin 659
ū@@ 659
18-20 658
brom 658
bấn 658
gino 658
stefan 658
tamaru 658
1-16 657
bn 657
calo 657
cilke 657
lizzie 657
thorp 657
u.s. 657
wilhelm 657
yểu 657
ử 657
5-7 656
arti@@ 656
ghton 656
gn 656
háng 656
insulin 656
kre@@ 656
nhão 656
watt 656
yuriko 656
zy 656
154 655
beverly 655
cac@@ 655
marjorie 655
mie 655
nadine 655
starbucks 655
tac@@ 655
vờn 655
zhivago 655
ời 655
230 654
ison 654
kbnn 654
mameha 654
memorial 654
natural 654
ricardo 654
sê-sa-rê 654
uri 654
đời. 654
boling 653
cisco 653
josephus 653
kab@@ 653
nett 653
number 653
nước. 653
vỏn 653
đúng. 653
1- 652
149 652
2-4 652
4.000 652
bệt 652
dian 652
health 652
hebrew 652
lev 652
alle@@ 651
bright 651
gav@@ 651
hi-lạp 651
izzy 651
lịa 651
madagascar 651
seven 651
arixa 650
ert 650
ith 650
ks@@ 650
prim 650
vis 650
axít 649
creation 649
find 649
finn 649
kay@@ 649
trum 649
đơ@@ 649
chuâ 648
fron@@ 648
iso@@ 648
kramer 648
mattia 648
oka 648
singh 648
u.@@ 648
cullen 647
kuwait 647
nhiều. 647
nita 647
swe@@ 647
vol 647
yl@@ 647
lov@@ 646
nhỏ. 646
royce 646
somalia 646
who@@ 646
ứ@@ 646
aco@@ 645
agan 645
bear 645
carnegie 645
cleopatra 645
coast 645
convention 645
ecuador 645
kot@@ 645
marcel 645
maxi@@ 645
pis@@ 645
premier 645
sanchez 645
wisconsin 645
đệch 645
144 644
gột 644
hed@@ 644
heroin 644
lỏm 644
ngton 644
1907 643
frankie 643
kers 643
ono@@ 643
ọ@@ 643
abel 642
bennet 642
bic@@ 642
cking 642
giôsuê 642
goldman 642
kri@@ 642
mót 642
party 642
pes 642
sn@@ 642
sullivan 642
são 642
sẩy 642
thường. 642
tugumi 642
wellington 642
x-quang 642
addison 641
alecxandrovna 641
forest 641
gatsby 641
giô-si-a 641
judah 641
mozart 641
pry@@ 641
tical 641
ubtv@@ 641
vancouver 641
-con 640
aldo 640
enberg 640
lừ 640
shot 640
six 640
sết 640
¶ 640
23-@@ 639
edy 639
eerdmans 639
five 639
hold 639
pierce 639
tiếng. 639
tonks 639
vểnh 639
ươi 639
178 638
4000 638
band 638
brody 638
dexter 638
edith 638
giòng 638
lụng 638
might 638
pauline 638
ret 638
sơ-mi 638
vet 638
ậ@@ 638
ợ 638
237 637
alps 637
carax 637
fell 637
gur@@ 637
hy-bá-lai 637
hóm 637
kathryn 637
pie 637
thơi 637
asu@@ 636
chad 636
chap@@ 636
coronavirus 636
drake 636
fir@@ 636
kolia 636
kun@@ 636
labs 636
mặt. 636
sco@@ 636
đường. 636
14-16 635
della 635
grayson 635
khứu 635
out@@ 635
scathach 635
sons 635
ọp 635
andré-louis 634
gổ 634
leton 634
okinawa 634
saunders 634
scotch 634
suv 634
thút 634
thượt 634
ui 634
usb 634
ăn. 634
đất. 634
brand 633
gàn 633
né@@ 633
1-18 632
africa 632
arrow 632
basta 632
coca-cola 632
kind 632
starr 632
tessa 632
thẫn 632
đã@@ 632
basel 631
cầy 631
een 631
festival 631
peace 631
roberto 631
sethe 631
xoài 631
....... 630
bio@@ 630
chil@@ 630
chong 630
commentary 630
fic@@ 630
villa 630
àm 630
7885 629
avia 629
beatles 629
bơ@@ 629
homer 629
hr@@ 629
oslo 629
tori 629
ub@@ 629
vạng 629
westcliff 629
ỉa 629
dream 628
dộng 628
eb 628
ground 628
khang 628
liesel 628
oằn 628
toanh 628
tour@@ 628
1-17 627
7-9 627
euro@@ 627
gonna 627
rus 627
sá@@ 627
ã@@ 627
ồ@@ 627
15,@@ 626
better 626
gore 626
jae 626
mol 626
tch 626
tiệp 626
tot@@ 626
ace@@ 625
bronx 625
electric 625
fab@@ 625
gt@@ 625
hastings 625
khất 625
ngoi 625
peters 625
tica 625
trãi 625
aud 624
barr 624
chẽn 624
ern@@ 624
ling@@ 624
lorraine 624
pd 624
sô-đôm 624
trâm 624
1916 623
award 623
dot@@ 623
frost 623
guộc 623
jean-@@ 623
late 623
lettie 623
natasha 623
thérèse 623
viet@@ 623
vói 623
ahn 622
different 622
evil 622
freddie 622
full 622
goo@@ 622
gotanda 622
horace 622
isis 622
lab 622
ls@@ 622
tius 622
victra 622
ầy 622
21-22 621
casey 621
logos 621
nhớt 621
plat@@ 621
rận 621
155 620
1908 620
26-27 620
amo 620
april 620
bẳn 620
eur@@ 620
gram@@ 620
hoắt 620
mr@@ 620
spartacus 620
thô-ma 620
alba 619
amb@@ 619
armstrong 619
lor 619
nico@@ 619
thiến 619
tí@@ 619
wendy 619
always 618
clau@@ 618
cõng 618
edgar 618
hõm 618
lặng. 618
ngút 618
salvador 618
settembrini 618
sumer 618
tele@@ 618
tman 618
cd@@ 617
elec@@ 617
erika 617
ers@@ 617
plus 617
sang@@ 617
tner 617
xẹp 617
ô-li-ve 617
đẫy 617
brooks 616
cris@@ 616
mành 616
nhân. 616
pittsburgh 616
randall 616
sm@@ 616
thể. 616
tory 616
toại 616
water@@ 616
wer 616
ão 616
10-12 615
aff@@ 615
cas 615
eville 615
giê-rô-bô-am 615
grusenka 615
luci@@ 615
nic@@ 615
ots 615
stein@@ 615
véo 615
woods 615
1-21 614
14,@@ 614
gap 614
kid 614
kings 614
louvre 614
omaha 614
sound 614
tweet 614
urani 614
ario 613
bourne 613
hat 613
ill@@ 613
language 613
lost 613
mich@@ 613
peregrine 613
phũ 613
ppy 613
ramsay 613
s.c 613
small 613
số@@ 613
vax@@ 613
hampshire 612
savage 612
sur 612
toria 612
wski 612
õ 612
19-@@ 611
90@@ 611
a-na-nia 611
bâng 611
gina 611
kathy 611
ngă 611
phar@@ 611
rochester 611
rày 611
spec@@ 611
stella 611
thốc 611
valdespino 611
virgil 611
về. 611
xerox 611
ừa 611
23-24 610
aten 610
chếch 610
esh 610
ghi@@ 610
hamburger 610
iron 610
kali 610
komatsu 610
luxembourg 610
petr@@ 610
photocopy 610
visi@@ 610
zach 610
aslan 609
cir@@ 609
glaedr 609
khăm 609
maryellen 609
nitơ 609
tanzania 609
xoong 609
151 608
1b 608
6.000 608
antoine 608
drouet 608
oshima 608
phải. 608
robertson 608
soul 608
tctd 608
thênh 608
wi 608
141 607
1880 607
211 607
cromwell 607
flint 607
jen@@ 607
main@@ 607
niết 607
rune 607
clemenza 606
coleman 606
iss@@ 606
lum@@ 606
rươ 606
says 606
study 606
whittaker 606
7855 605
alvin 605
country 605
ein 605
map@@ 605
ou 605
soài 605
xa-@@ 605
ader 604
assad 604
café 604
flora 604
soon 604
thy@@ 604
4. 603
braun 603
dolores 603
father 603
gwendolen 603
gắm 603
jac@@ 603
mg@@ 603
mir 603
nằng 603
sley 603
strat@@ 603
thuồng 603
venkat 603
vince 603
ápram 603
ẹ 603
153 602
cci 602
dj@@ 602
ghan 602
hoffman 602
millard 602
philitin 602
phiệt 602
species 602
thố 602
zondervan 602
13.@@ 601
1860 601
ackađich 601
deen 601
market 601
nghén 601
ngoáy 601
phia 601
phàng 601
thảnh 601
ướ@@ 601
α@@ 601
ailen 600
gimli 600
gotham 600
kissinger 600
max@@ 600
si-la 600
sụ 600
xmerdiakov 600
đó@@ 600
anton 599
bnnptnt 599
development 599
elliott 599
georges 599
hh 599
leonor 599
lian 599
marta 599
riơ 599
rả 599
scor@@ 599
soạng 599
springs 599
walk 599
yen 599
alek@@ 598
aman 598
grand@@ 598
pharaoh 598
sất 598
tră 598
điêng 598
187 597
ality 597
dr@@ 597
gd@@ 597
kolya 597
ltd 597
sed 597
syn@@ 597
tiếp. 597
while 597
zim@@ 597
bron@@ 596
dau@@ 596
hester 596
melissa 596
mới. 596
nguậy 596
patrik 596
xém 596
ều 596
320 595
amoto 595
bor 595
buck@@ 595
chông 595
hir@@ 595
huơ 595
koran 595
lủi 595
palermo 595
platon 595
sburg 595
suô 595
tric@@ 595
õ@@ 595
a-bên 594
abby 594
andre@@ 594
ara@@ 594
corse 594
dine 594
ds@@ 594
glu@@ 594
izzie 594
khi@@ 594
nghệch 594
rệp 594
suze 594
zalachenko 594
đác 594
đựơc 594
mt@@ 593
octavia 593
queens 593
quin 593
richie 593
syl@@ 593
toác 593
vius 593
š@@ 593
brother 592
bô-@@ 592
dôi 592
ents 592
everything 592
fitzgerald 592
hes@@ 592
hit@@ 592
ld@@ 592
lử 592
movie 592
nay. 592
nghĩnh 592
rho@@ 592
silva 592
susie 592
whit@@ 592
độ@@ 592
ỷ 592
cpu 591
doro@@ 591
gel 591
king@@ 591
kít 591
lươn 591
mak@@ 591
mikh@@ 591
nice 591
quar@@ 591
yasu@@ 591
ử@@ 591
a-ram 590
banaba 590
beli@@ 590
emon 590
friedman 590
gant 590
geralt 590
nbc 590
oo 590
pay@@ 590
ass 589
bĩu 589
chel@@ 589
chúa. 589
ect 589
harmony 589
hydro@@ 589
hòan 589
macintosh 589
nian 589
sem 589
tyson 589
đớp 589
ủ@@ 589
-san 588
27-@@ 588
alism 588
còm 588
explorer 588
honda 588
ili 588
lockhart 588
lới 588
magazine 588
nhẩy 588
ugh 588
abi 587
barth 587
carmel 587
chapman 587
fraser 587
harald 587
isi 587
march 587
nà@@ 587
ow@@ 587
petunia 587
skulduggery 587
thro@@ 587
tiế@@ 587
wolfe 587
47@@ 586
buffalo 586
cecil 586
cruz 586
cộm 586
dẹt 586
lt 586
silver 586
thoang 586
tter 586
vinalines 586
willie 586
úrsula 586
bentham 585
budapest 585
date 585
dim 585
diếm 585
fai@@ 585
fat@@ 585
fl@@ 585
ily 585
liếng 585
lucky 585
server 585
soci@@ 585
thoai 585
thor 585
ười 585
ục 585
ー@@ 585
bern@@ 584
bun 584
chiểu 584
dracula 584
kw 584
melbourne 584
metal 584
nino 584
origen 584
public 584
rd 584
schwar@@ 584
vid@@ 584
violin 584
1904 583
emilia 583
hormone 583
lơi 583
ngày. 583
rit 583
thénardier 583
н@@ 583
1850 582
crystal 582
feeney 582
jeffrey 582
kazakhstan 582
kirihara 582
nora 582
pha@@ 582
rab@@ 582
steiner 582
thoăn 582
å@@ 582
‖ 582
18,@@ 581
fuller 581
hart@@ 581
hussein 581
nos 581
rupert 581
đê-@@ 581
46@@ 580
aimee 580
bôn 580
chỏm 580
ein@@ 580
fair 580
french 580
ghết-sê-ma-nê 580
lebanon 580
memphis 580
mạ@@ 580
nn@@ 580
pilon 580
sd 580
shor@@ 580
túa 580
xvii 580
zam@@ 580
ộ@@ 580
-sao 579
1830 579
500@@ 579
chocolate 579
lip 579
machine 579
sha@@ 579
wes 579
a-sy-ri 578
eff@@ 578
nẹp 578
osborne 578
pictures 578
thè 578
tle 578
đaxa 578
đẵng 578
alt 577
bam@@ 577
block 577
bê-tên 577
civic 577
dent 577
mercury 577
neutron 577
phiê 577
pou@@ 577
quy@@ 577
tiếu 577
tễ 577
550 576
any@@ 576
brooke 576
charley 576
dợm 576
esme 576
izumi 576
lay@@ 576
rine 576
shan 576
whis@@ 576
¿ 576
bet 575
hcm 575
hodge 575
hoo 575
kohler 575
poker 575
thấy. 575
tion@@ 575
cle 574
giô-áp 574
hyde 574
jun 574
kt@@ 574
nhụi 574
peik 574
salad 574
slim 574
с@@ 574
brenda 573
fache 573
hên 573
kình 573
lars 573
mallory 573
qg 573
rumani 573
som 573
sure 573
viking 573
đụn 573
ệ 573
2b 572
clifton 572
cotton 572
dilsey 572
eng 572
gestapo 572
juli@@ 572
koch 572
nothing 572
phèo 572
rhine 572
sham@@ 572
tx 572
vietnam 572
xv 572
alli@@ 571
cran@@ 571
dế 571
muốt 571
patri@@ 571
ppa 571
ril@@ 571
ages 570
aid 570
diệm 570
fm 570
goyle 570
jack@@ 570
jus@@ 570
lạ@@ 570
rai 570
romania 570
sabát 570
sasagaki 570
start 570
andro@@ 569
ch-@@ 569
giu@@ 569
mount 569
newman 569
phate 569
sinai 569
south@@ 569
stars 569
tiffany 569
tạnh 569
1-15 568
30.000 568
challenger 568
donna 568
heather 568
kabul 568
norton 568
sonja 568
states 568
sẳn 568
wich 568
ò 568
ür@@ 568
31-@@ 567
chem 567
chron@@ 567
dakota 567
heinrich 567
joyce 567
tly 567
trác 567
ving 567
1906 566
bmw 566
chứ. 566
hoắc 566
ingrid 566
jensen 566
karaoke 566
metro 566
mất. 566
quĩ 566
rockefeller 566
si-nai 566
store 566
sushi 566
trav@@ 566
tạ@@ 566
tọc 566
13-15 565
aceae 565
ades 565
adolf 565
crouch 565
entropy 565
giovanni 565
gle@@ 565
krum 565
motors 565
ngoài. 565
noble 565
ork 565
our@@ 565
playstation 565
pris@@ 565
tino 565
ạt-@@ 565
ề@@ 565
arian 564
enoch 564
javert 564
jol@@ 564
kepler 564
nal 564
rodrigues 564
ths 564
tuỵ 564
uefa 564
1-20 563
asad 563
epson 563
ocean 563
onal 563
aglaia 562
ante 562
denmiris 562
esia 562
francois 562
holland 562
johann 562
kếch 562
ln 562
spo@@ 562
tex@@ 562
zab@@ 562
zan 562
7903 561
agi@@ 561
kumiko 561
namibia 561
qt 561
search 561
voltaire 561
xachari 561
brandon 560
galaxy 560
ita 560
nhuyễn 560
nải 560
orlando 560
otoko 560
róc 560
x-@@ 560
1903 559
akh@@ 559
db 559
evna 559
jacobs 559
limousine 559
marietta 559
mắt. 559
petro@@ 559
storm 559
sua 559
tech 559
tom@@ 559
tuộc 559
unesco 559
url 559
viola 559
bòng 558
chuô 558
corp 558
cover 558
done 558
eliza 558
ensis 558
gar 558
merlin 558
miss@@ 558
nation 558
nier 558
nolan 558
án. 558
24-@@ 557
andrei 557
charity 557
clive 557
daw@@ 557
gondor 557
loát 557
phlôrêntinô 557
strom 557
voice 557
-nhưng 556
airways 556
beethoven 556
biêt 556
cites 556
cồm 556
diên 556
giậu 556
histo@@ 556
matsu@@ 556
minho 556
mề 556
panh 556
schultz 556
than@@ 556
trằn 556
òng 556
40-@@ 555
albus 555
bính 555
bùi 555
dus 555
sec 555
spri@@ 555
ình 555
1909 554
arab 554
author 554
edition 554
ego 554
ellsworth 554
ferguson 554
feynman 554
giô-na-than 554
mormon 554
myers 554
plutarch 554
richmond 554
smo@@ 554
trust 554
típ 554
utah 554
anh-rê 553
cb 553
filch 553
key@@ 553
nhu@@ 553
uya 553
web@@ 553
đên 553
5-8 552
calcifer 552
cott 552
cres@@ 552
gibraltar 552
mic@@ 552
nhâm 552
nhọt 552
tuế 552
đâ@@ 552
к@@ 552
26-@@ 551
bõ 551
công-vụ 551
eds 551
geoffrey 551
ngh 551
7915 550
anh-điêng 550
calpurnia 550
janice 550
năm. 550
nữ@@ 550
qatar 550
rington 550
ssa 550
stream 550
ỏng 550
ager 549
alina 549
allison 549
chart 549
dunbar 549
equ@@ 549
ffer 549
hamburg 549
maisie 549
mouth 549
soóc 549
trevor 549
witnesses 549
antiochus 548
av 548
bree 548
cheng 548
estonia 548
joh@@ 548
mans 548
maycomb 548
naoko 548
nel@@ 548
phễu 548
quờ 548
síp 548
unix 548
uranium 548
xiêm 548
aline 547
fletcher 547
hip 547
marti@@ 547
schmidt 547
stop 547
vánh 547
ợ@@ 547
a- 546
alto 546
apol@@ 546
diamond 546
fast 546
lỗi. 546
pcpnn 546
vigor 546
16,@@ 545
16-18 545
báptít 545
champ@@ 545
frankfurt 545
grande 545
mare 545
nhao 545
vt 545
ngòai 544
oper@@ 544
row@@ 544
scout 544
site 544
tract 544
tủm 544
arsenal 543
aun@@ 543
dock 543
khoé 543
millie 543
nirad 543
ree 543
rosemary 543
tỉm 543
vine 543
arcadio 542
barker 542
caribe 542
cookie 542
eun 542
gô-gô-tha 542
heaven 542
iệ@@ 542
loà 542
severus 542
yama 542
đễnh 542
2- 541
atlas 541
byron 541
chal@@ 541
elf 541
khó@@ 541
khản 541
kiki 541
montreal 541
oi@@ 541
root 541
sty@@ 541
sém 541
........ 540
260 540
crete 540
culture 540
dm 540
dot 540
esa 540
information 540
mellis 540
michel@@ 540
of@@ 540
phu@@ 540
sports 540
upon 540
đỉa 540
158 539
briony 539
cerdic 539
ghê-@@ 539
h-@@ 539
lêu 539
milli@@ 539
moto 539
orange 539
valen@@ 539
yak@@ 539
bowerman 538
burrows 538
liến 538
mack@@ 538
phấp 538
tland 538
đét 538
1,5 537
3a 537
aja 537
bos 537
franco 537
lđ 537
onia 537
rutherford 537
17,@@ 536
a1 536
carson 536
dion 536
ginia 536
paula 536
rạo 536
si-ru 536
tréo 536
wanda 536
ðể 536
ạc 536
ổ@@ 536
dz@@ 535
ew 535
kk 535
large 535
trờ 535
váo 535
wild 535
witt 535
xe. 535
zzi 535
120@@ 534
249 534
270 534
amura 534
bitcoin 534
drew 534
fats 534
gul@@ 534
keiko 534
khong 534
mab 534
manny 534
nhặng 534
once 534
oxi 534
pg 534
publi@@ 534
tov 534
uô 534
village 534
viển 534
wardle 534
yeon 534
yon@@ 534
axel 533
baltic 533
bart 533
basil 533
chên 533
crash 533
ema 533
glucose 533
gì@@ 533
mang@@ 533
nel 533
rez 533
ríp 533
shah 533
¡ 533
ơ-@@ 533
ghs 532
lng 532
muồi 532
mạc-đô-chê 532
n- 532
odette 532
pc@@ 532
ql@@ 532
sag@@ 532
spring 532
ttđb 532
áp@@ 532
ép-ra-im 532
1200 531
cong@@ 531
cữ 531
giô-ên 531
ha-man 531
huy@@ 531
kni@@ 531
mati@@ 531
mikhail 531
original 531
phắc 531
rọt 531
sport 531
tankado 531
201@@ 530
ai. 530
béng 530
change 530
dái 530
illuminati 530
ium 530
lowell 530
mên 530
norris 530
radi@@ 530
rice 530
rông 530
such 530
tania 530
vna 530
a-l@@ 529
bosnia 529
evangeli@@ 529
glenn 529
pink 529
sammy 529
sô@@ 529
sần 529
tg 529
wheeler 529
yorkshire 529
280 528
650 528
a-bi-@@ 528
blah 528
clyde 528
cr 528
dir 528
exp@@ 528
fitz 528
gad@@ 528
gnu 528
lenny 528
nc 528
pao 528
raven@@ 528
roc 528
tomohiko 528
189 527
24-25 527
3m 527
adel@@ 527
ainz 527
api 527
bras@@ 527
dium 527
elin 527
este 527
glover 527
idaho 527
obi 527
table 527
xela 527
authority 526
common 526
domi@@ 526
fam@@ 526
ghềnh 526
imf 526
kiev 526
legolas 526
ngấn 526
ones 526
rand@@ 526
seo 526
shel@@ 526
wade 526
đị@@ 526
acy 525
bed@@ 525
bửu 525
champagne 525
chìu 525
dượt 525
fda 525
nê@@ 525
sel 525
thụng 525
đệt 525
anga 524
anger 524
bble 524
bengal 524
dickon 524
glen@@ 524
himmler 524
morse 524
saeed 524
schaeffer 524
trồ 524
ác@@ 524
ích. 524
aspirin 523
cox 523
hi-@@ 523
koto 523
saruman 523
shan@@ 523
sive 523
thorin 523
ị@@ 523
ọ 523
amar@@ 522
chới 522
ngoai 522
ròi 522
secret 522
tler 522
veri@@ 522
waterloo 522
angelo 521
barbar@@ 521
blvd 521
crown 521
early 521
jeff@@ 521
ket@@ 521
log 521
lỳ 521
marvel 521
mitsuyo 521
montag 521
narnia 521
rảy 521
terri 521
went 521
--- 520
185 520
1901 520
baptist 520
cm@@ 520
color 520
gaz@@ 520
guido 520
hếch 520
lers 520
muller 520
mễ 520
núc 520
quánh 520
quẫy 520
ucsula 520
woo@@ 520
andes 519
baum 519
fta 519
rocky 519
strauss 519
yabril 519
acti@@ 518
corona 518
cx@@ 518
gảy 518
iw@@ 518
kô 518
maxlova 518
michelangelo 518
tin. 518
vogel 518
đôly 518
aifl-@@ 517
alfonso 517
cand@@ 517
cate 517
crowley 517
ha-ba-cúc 517
moh@@ 517
ẽ 517
1-22 516
163 516
1902 516
ado 516
brain 516
foreman 516
gư 516
knowledge 516
lyn 516
marilyn 516
nastasia 516
nhốn 516
rach 516
slade 516
tactus 516
xâ 516
đôra 516
● 516
11-13 515
alby 515
andrews 515
bergen 515
chửa 515
dal 515
fleming 515
ggs 515
khiu 515
mandy 515
ninja 515
pepsi 515
supp@@ 515
sạm 515
tủa 515
vùa 515
† 515
-được 514
000.000 514
5m 514
kei@@ 514
kill 514
kincaid 514
limited 514
nagasaki 514
ngủ. 514
stand@@ 514
tertullian 514
vip 514
yah 514
yet 514
cùn 513
fields 513
fritz 513
hawk 513
holiday 513
jacket 513
kali@@ 513
law@@ 513
lion 513
narumi 513
sansom 513
tr.@@ 513
veronica 513
ôsê 513
bhutan 512
etti 512
harlem 512
nữu 512
olesen 512
penelope 512
tnhh 512
tunisia 512
28-29 511
avatar 511
chuy@@ 511
dp 511
eno 511
essi@@ 511
kerry 511
mcloughlin 511
merete 511
multi@@ 511
nập 511
prometheus 511
seen 511
sz@@ 511
y.@@ 511
ề 511
ện 511
36-@@ 510
academy 510
balkan 510
baxter 510
cói 510
dncx 510
dát 510
hatsumono 510
khụt 510
kiyoshi 510
ludwig 510
nak 510
natri 510
sasha 510
tấy 510
véc 510
whoo 510
xon 510
ôi. 510
48@@ 509
7847 509
ait 509
azerbaijan 509
cocaine 509
covenant 509
descartes 509
gem@@ 509
mm-hmm 509
ony 509
phạn 509
sikh 509
tual 509
v.@@ 509
waters 509
ðại 509
ange 508
battle 508
bloom 508
caine 508
called 508
elton 508
fis@@ 508
goo 508
gothic 508
ici 508
management 508
marsha 508
mên-chi-xê-đéc 508
rọc 508
ses@@ 508
strange 508
tons 508
alex@@ 507
baz@@ 507
eis@@ 507
gạn 507
horst 507
janeiro 507
lồm 507
nộm 507
parti@@ 507
payne 507
phúng 507
umbrella 507
universal 507
was@@ 507
xỉnh 507
ên. 507
ụp 507
banda 506
def@@ 506
gờm 506
stock 506
xbox 506
bain 505
bernarda 505
borough 505
kli@@ 505
pass@@ 505
richards 505
yahoo 505
đười 505
233 504
bốp 504
châ@@ 504
corn@@ 504
deborah 504
ghê-đê-ôn 504
giắt 504
hae 504
hydra 504
larkin 504
lắt 504
minerva 504
một-@@ 504
rom 504
round 504
ệ@@ 504
bêu 503
bộp 503
chét 503
cinna 503
cạy 503
mouse 503
mussolini 503
ngãi 503
pitt 503
rodriguez 503
sci@@ 503
tation 503
wharton 503
wto 503
ém 503
cornwall 502
hell 502
rod 502
tag 502
ud 502
wald 502
witcher 502
xửa 502
ô-tô 502
19-21 501
28-@@ 501
anism 501
bauer 501
công@@ 501
cảu 501
das@@ 501
glasgow 501
glass 501
hee 501
illy 501
levi@@ 501
lone 501
margot 501
mode 501
mủi 501
poster 501
quá. 501
rhodes 501
rigan 501
tâ@@ 501
ure 501
ware 501
ầ@@ 501
belle@@ 500
denis 500
fact 500
jevy 500
left 500
ma-la-chi 500
rỏ 500
sán 500
thé@@ 500
titanic 500
captain 499
christmas 499
cky 499
european 499
fav@@ 499
freddy 499
hk 499
lenin 499
peterson 499
sunday 499
4,5 498
5. 498
btm 498
centre 498
ean 498
mart 498
math@@ 498
mono@@ 498
mousqueton 498
scofield 498
took 498
trịa 498
used 498
vót 498
accađiô 497
alco@@ 497
bino 497
cụng 497
dic 497
dolly 497
elvis 497
niê 497
ôn@@ 497
ết 497
15.@@ 496
164 496
201 496
adrenaline 496
eer 496
lio 496
lund 496
maureen 496
momonga 496
oshi 496
trátđơn 496
warsaw 496
yugawa 496
ẫ@@ 496
ams 495
chái 495
culli 495
cữu 495
feder@@ 495
gonzaga 495
institute 495
lima 495
mariana 495
pom@@ 495
shelley 495
tang@@ 495
tec@@ 495
uro 495
ác. 495
aquinas 494
bourbon 494
chàng. 494
chỉn 494
falls 494
gover@@ 494
jang 494
malkin 494
mauri@@ 494
phộng 494
spanish 494
text 494
venus 494
vn@@ 494
157 493
alecxandrovich 493
boat 493
ee@@ 493
giảo 493
khô@@ 493
kung 493
zap@@ 493
ăng-@@ 493
định. 493
dat@@ 492
fear 492
gaul 492
giạt 492
isa@@ 492
kro@@ 492
lation 492
pine 492
spock 492
spurgeon 492
vega 492
001 491
1600 491
azar 491
chet 491
fied 491
leeds 491
mali 491
medici 491
nhé. 491
ráy 491
salvatore 491
templeton 491
thều 491
tê@@ 491
abdullah 490
aly@@ 490
chus 490
copơphin 490
giới. 490
holt 490
job 490
kar 490
kosovo 490
lộp 490
nghễ 490
ngẩm 490
pixar 490
seminary 490
springfield 490
sterling 490
theo. 490
tơ@@ 490
without 490
xị 490
ích-ma-ên 490
đoản 490
cùng. 489
feel 489
food 489
lives 489
rói 489
thers 489
thpt 489
trành 489
uc@@ 489
wally 489
33-@@ 488
34@@ 488
austr@@ 488
believe 488
daria 488
khoải 488
mile 488
strong 488
syri 488
tun 488
tỏng 488
witz 488
xin@@ 488
л@@ 488
1812 487
citi@@ 487
ernie 487
floyd 487
marvin 487
pasha 487
phos@@ 487
together 487
vie@@ 487
yankee 487
7919 486
barrington 486
cawley 486
copernicus 486
friends 486
jess 486
khoả 486
lisle 486
mick 486
nt@@ 486
par 486
polynesia 486
rutơ 486
spor@@ 486
wozniak 486
đô-@@ 486
192 485
castro 485
contr@@ 485
cut 485
gé@@ 485
kuz@@ 485
making 485
mard 485
mumbai 485
nhụt 485
shall 485
stal@@ 485
trùn 485
turn 485
tuồn 485
yahweh 485
в@@ 485
→ 485
am-môn 484
ark 484
fiji 484
françois 484
guadalcanal 484
mani 484
sta 484
stanton 484
wur@@ 484
acks 483
atsu@@ 483
base 483
bowling 483
boy@@ 483
darius 483
erasmus 483
fus@@ 483
hàu 483
khướt 483
mills 483
morrison 483
slav 483
tional 483
torah 483
volvo 483
176 482
cass 482
gút 482
herald 482
hích 482
mental 482
mordaunt 482
nôm 482
sanders 482
stood 482
sweet 482
áp-ram 482
205 481
330 481
agon 481
andre 481
bai@@ 481
bim 481
bombay 481
combe 481
ech@@ 481
hercules 481
himself 481
kul@@ 481
lard 481
nguô 481
nobu 481
parkinson 481
posi@@ 481
sởn 481
tha@@ 481
thithiên 481
trans 481
yves 481
đia 481
т@@ 481
ớc 481
brutal 480
dah@@ 480
dresden 480
gly@@ 480
gne 480
goethe 480
hermes 480
kamp@@ 480
oxit 480
pliny 480
pru@@ 480
rolling 480
sloan 480
thía 480
toẹt 480
trin@@ 480
trám 480
xẹt 480
-xin 479
168 479
aaa 479
algeria 479
comes 479
front 479
gaza 479
gö@@ 479
heli@@ 479
packard 479
studies 479
vc 479
vùn 479
р@@ 479
ẹo 479
181 478
2,5 478
alistair 478
biế@@ 478
cato 478
christo@@ 478
cuddy 478
ebola 478
guardian 478
jim@@ 478
minis@@ 478
mith@@ 478
neo@@ 478
ppe 478
ql 478
tap@@ 478
adam@@ 477
agliè 477
chambers 477
chum 477
dài. 477
hem@@ 477
hyper@@ 477
looked 477
murakami 477
rama 477
tribune 477
tôi@@ 477
ahl 476
chàm 476
damon 476
fuk@@ 476
paulie 476
quạng 476
seine 476
stru@@ 476
wri@@ 476
êsau 476
0.000 475
ady 475
borneo 475
cael 475
cey 475
chor@@ 475
dới 475
hendri@@ 475
lacey 475
lego 475
phệ 475
300@@ 474
cbs 474
cis 474
coulson 474
crabbe 474
cơ-@@ 474
europa 474
ht@@ 474
irs 474
kb 474
martini 474
ngủn 474
patty 474
quark 474
rahel 474
schi@@ 474
ald 473
boo 473
ffe 473
gunther 473
habacúc 473
hô-@@ 473
kathleen 473
kitami 473
reuben 473
a-cha 472
arôn 472
choai 472
cơ-đốc-nhân 472
enna 472
freedom 472
ounce 472
phecmina 472
play@@ 472
tain 472
willy 472
bhtn 471
chột 471
mandela 471
near 471
nut 471
schopenhauer 471
sle@@ 471
speed 471
spin@@ 471
tarahumara 471
tuất 471
tyersall 471
vươ 471
ươn 471
39@@ 470
caspian 470
chau@@ 470
davi@@ 470
denixov 470
gener@@ 470
gắp 470
hack@@ 470
landry 470
mackenzie 470
neg@@ 470
nhởn 470
phê@@ 470
qh14 470
rel 470
systems 470
thin 470
viktor 470
antonia 469
asi 469
aul@@ 469
aviv 469
brent 469
caddy 469
ché 469
dallben 469
gian. 469
grisha 469
justine 469
maría 469
poppy 469
sgdck 469
shima 469
trôn 469
ành 469
éc@@ 469
199@@ 468
200.000 468
365 468
alam@@ 468
bjurman 468
bẹt 468
chio 468
cum 468
deblass 468
emi 468
gruzia 468
moor 468
pope 468
punk 468
rain 468
rôi 468
sl@@ 468
tango 468
way@@ 468
161 467
32-@@ 467
cast 467
felton 467
financial 467
gay@@ 467
mers 467
ngoằng 467
rah@@ 467
southern 467
vivian 467
xuýt 467
......... 466
........@@ 466
ako 466
cairns 466
chapter 466
cholesterol 466
fedor 466
fumero 466
graciela 466
ib 466
kang@@ 466
kath@@ 466
lana 466
lea 466
noyce 466
parvaneh 466
princess 466
rắp 466
scre@@ 466
thank 466
ðúng 466
ất-@@ 466
ằng 466
-thế 465
1-31 465
belarus 465
bủn 465
cath@@ 465
dứa 465
göring 465
gườm 465
person 465
publishing 465
scan@@ 465
spin 465
tời 465
brutus 464
deal 464
engel 464
mass 464
moni@@ 464
pep@@ 464
respon@@ 464
ubcknn 464
vec@@ 464
xan 464
yon 464
át. 464
agri@@ 463
atic 463
beetee 463
chrysler 463
croce 463
cyclo@@ 463
dag@@ 463
then@@ 463
wak@@ 463
ât 463
ùng 463
ật. 463
al-qa 462
gutfreund 462
hotel 462
mccarthy 462
nhép 462
nick@@ 462
ruổi 462
4a 461
acker 461
bahrain 461
cfs 461
ewell 461
ibn 461
io@@ 461
library 461
mess@@ 461
pal 461
reli@@ 461
return 461
theory 461
watney 461
zeke 461
ăng. 461
đạ@@ 461
37@@ 460
antony 460
ging 460
hê-nóc 460
hấu 460
i-- 460
jeanne 460
kcn 460
mariuytx 460
mẹ. 460
peabody 460
talmud 460
vaxili 460
adele 459
aver@@ 459
bowman 459
butter@@ 459
dạc 459
guar@@ 459
hiềm 459
hé@@ 459
jenkins 459
laing 459
lex 459
ngà@@ 459
phineas 459
rohan 459
ronnie 459
russ 459
rộp 459
td 459
thy 459
tncn 459
yas@@ 459
ô-nê-sim 459
č@@ 459
ự 459
13-16 458
1895 458
ahh 458
bati@@ 458
gb 458
marine 458
nhám 458
planet 458
sama 458
sự. 458
ất 458
1865 457
abi@@ 457
abu@@ 457
august 457
charlemagne 457
ebay 457
evening 457
fontaine 457
hôsê 457
húi 457
locke 457
mean 457
mons 457
mà@@ 457
nati@@ 457
nemo 457
ngay. 457
paraguay 457
ptolemy 457
sylvia 457
vố 457
yates 457
297 456
a-ra-@@ 456
alf 456
antichrist 456
aron@@ 456
belli@@ 456
economic 456
everest 456
gdđt 456
goldmund 456
hedwig 456
hẫng 456
itunes 456
muriel 456
nations 456
ral@@ 456
regina 456
rodney 456
rịt 456
sỏ 456
ọc 456
.org 455
0x 455
buendía 455
cadillac 455
cameroon 455
cing 455
fit@@ 455
lette 455
pai@@ 455
pavlovich 455
sụn 455
angelina 454
ayane 454
bordeaux 454
bp 454
gou@@ 454
hê-li 454
jilly 454
korea 454
luy@@ 454
marie-laure 454
nicaragua 454
nokia 454
oromis 454
pass 454
pen 454
quest 454
sịt 454
tiễu 454
veo 454
èo 454
3- 453
atp 453
bà@@ 453
d.c 453
haley 453
hermann 453
oney 453
ricky 453
ttle 453
user 453
yoon 453
ácnét 453
công. 452
liga 452
lòng. 452
meredith 452
mũm 452
nheim 452
nigel 452
ninive 452
owens 452
rip 452
sters 452
truth 452
vander@@ 452
ờ. 452
christianity 451
cloud 451
evgeni 451
knox 451
koh 451
mcnamara 451
musk 451
phan@@ 451
rise 451
sicilia 451
têsalônica 451
ây@@ 451
ận. 451
21,@@ 450
ae@@ 450
break 450
ekstrom 450
jima 450
l.a 450
nạm 450
tay@@ 450
uruguay 450
vanessa 450
weston 450
zar 450
đêm. 450
166 449
dawn 449
kemal 449
lister 449
please 449
д@@ 449
← 449
99@@ 448
ammu 448
babbage 448
chy 448
cody 448
dei 448
krit 448
neumann 448
oái 448
seal 448
trip 448
ẽ@@ 448
14.@@ 447
209 447
aram 447
assembly 447
dre 447
if@@ 447
keep 447
lâu. 447
lườm 447
md 447
petra 447
rene 447
versailles 447
1896 446
400@@ 446
abo 446
ama@@ 446
bali 446
benedict 446
brussels 446
eastern 446
evolution 446
faramir 446
griffin 446
jaw@@ 446
kawashima 446
kgb 446
nee 446
nez 446
rờn 446
samsôn 446
thre@@ 446
177 445
cari@@ 445
cohn 445
croft 445
diotallevi 445
gee 445
harley 445
kari 445
ket 445
piper 445
tâm. 445
7-10 444
747 444
anti-christ 444
area 444
aztec 444
bismarck 444
caitlin 444
ddy 444
dialogue 444
fris@@ 444
garza 444
gibson 444
institu@@ 444
john-paul 444
lao-đi-xê 444
lebedev 444
melan@@ 444
pd@@ 444
sigma 444
tằm 444
xdcb 444
ương. 444
ết@@ 444
6-9 443
amar 443
khúm 443
lần. 443
nhẹp 443
peterburg 443
pickering 443
secu@@ 443
shell 443
thóp 443
tone 443
torres 443
trelawney 443
willi@@ 443
wyn 443
ỳ 443
1898 442
annette 442
bowl 442
bên-@@ 442
ede 442
estha 442
fern 442
hục 442
ios 442
match 442
metho@@ 442
mặ@@ 442
quite 442
saddleback 442
tăn 442
ườn 442
162 441
17-19 441
algorithm 441
bili@@ 441
ctions 441
fication 441
gióng 441
mk 441
seamus 441
simmons 441
ste 441
top@@ 441
ượ@@ 441
1-19 440
18.@@ 440
1840 440
aron 440
bravo 440
kyohei 440
lý. 440
mắm 440
nov 440
nylon 440
pier 440
pirate 440
poor 440
ranieri 440
salem 440
đa-@@ 440
1815 439
canxi 439
chiện 439
elias 439
gman 439
kaoru 439
láp 439
oe 439
wad@@ 439
winky 439
yle 439
ữ@@ 439
1868 438
aus 438
dellray 438
german 438
jeanine 438
lằng 438
ngải 438
psy@@ 438
rien 438
rườm 438
verse 438
zh@@ 438
1899 437
2,3 437
angola 437
apache 437
eira 437
gông 437
kem@@ 437
kou@@ 437
lennon 437
lexington 437
láy 437
nar 437
neill 437
newcastle 437
ngỗ 437
thoắng 437
uu@@ 437
đúp 437
ẹt-@@ 437
ịa 437
avari 436
helsing 436
justice 436
listen 436
montaigne 436
nghịt 436
ngừi 436
omega 436
phelps 436
scha@@ 436
tj 436
trinity 436
xồm 436
angie 435
christi@@ 435
chúng@@ 435
clayton 435
filippovna 435
gaulle 435
ghê@@ 435
ical 435
inca 435
iểm 435
lizaveta 435
lton 435
ngoạm 435
nim 435
nol@@ 435
oli 435
rance 435
rù 435
shi-shmi 435
25-26 434
ads 434
beyond 434
bingley 434
brennan 434
bõm 434
ind@@ 434
ingram 434
mbo 434
metro@@ 434
percey 434
rip@@ 434
sense 434
sted 434
stro@@ 434
thur@@ 434
zia 434
17.@@ 433
blackwell 433
bronwyn 433
bua 433
bươm 433
chenko 433
dv@@ 433
erie 433
fried@@ 433
gờ-réc 433
hl@@ 433
hurst 433
indian 433
jed 433
jihad 433
moss 433
ontario 433
patsy 433
sharp 433
vốc 433
wah@@ 433
zombie 433
ướm 433
ụ. 433
1897 432
430 432
arafat 432
bol 432
camp 432
dopamine 432
genève 432
giê-hu 432
gos 432
hamish 432
masako 432
oy 432
pren@@ 432
si-na-i 432
su-@@ 432
tex 432
tuck 432
yp@@ 432
1848 431
55@@ 431
anov 431
arts 431
attp 431
box@@ 431
championship 431
dpi 431
elia 431
gis 431
greek 431
sain@@ 431
0,000 430
1.500 430
215 430
87@@ 430
ango 430
avenue 430
bat 430
bertie 430
close 430
hinh 430
ich 430
midori 430
sbury 430
sắn 430
ta-lâng 430
takumi 430
temp@@ 430
trẽn 430
twe@@ 430
ı@@ 430
ʹ@@ 430
1-24 429
agustin 429
brah@@ 429
coffey 429
eter@@ 429
flower 429
lgbt 429
một@@ 429
okada 429
pháp. 429
ãn 429
ậy 429
ẳng 429
22,@@ 428
7921 428
a-ghê 428
angelis 428
dềnh 428
fine 428
nelly 428
phô@@ 428
picasso 428
pv 428
tres 428
ue 428
wolf@@ 428
ăc 428
adel 427
bie 427
divergent 427
dẩn 427
epc 427
gei@@ 427
hole 427
hì 427
laden 427
matthews 427
micha@@ 427
nghẽo 427
paolo 427
pas 427
pixma 427
rates 427
rhys 427
sman 427
tạt-sơ 427
xầm 427
yokohama 427
được@@ 427
1-25 426
1889 426
259 426
ays 426
bliss 426
boom 426
brad@@ 426
cold 426
cậ@@ 426
danube 426
delaney 426
dúm 426
gơ@@ 426
hard@@ 426
ké@@ 426
logistics 426
macmillan 426
means 426
million 426
pre 426
record 426
rhe@@ 426
rov 426
santo 426
thụi 426
vity 426
-vậy 425
brockbank 425
các@@ 425
frey 425
ivan@@ 425
levi 425
lolita 425
mana 425
matic 425
moretti 425
nả 425
petrovich 425
rasheed 425
smi@@ 425
tasmania 425
tuổi. 425
а 425
� 425
195 424
anas@@ 424
aris@@ 424
bertram 424
dixon 424
essen@@ 424
ethics 424
fairfax 424
fortu@@ 424
nakajima 424
nhảu 424
pati@@ 424
sake 424
salt 424
stock@@ 424
welch 424
aj 423
aldaya 423
battista 423
bone 423
ctr@@ 423
cùa 423
eusebius 423
fru@@ 423
fé@@ 423
hơ@@ 423
ird 423
na-than 423
ng-- 423
shop 423
wise 423
ẩ@@ 423
-nó 422
159 422
amp 422
bhu@@ 422
dington 422
ema@@ 422
ghi-@@ 422
hansen 422
lins 422
misa 422
ord@@ 422
richter 422
sor 422
taj 422
toshi@@ 422
tria 422
visual 422
167 421
188 421
202 421
aoyama 421
bris@@ 421
cep@@ 421
frankenstein 421
gauss 421
hein@@ 421
joo 421
kafka 421
kếp 421
mig 421
notes 421
sari 421
sid 421
sp 421
style 421
wave 421
wu@@ 421
áo. 421
đi-văng 421
ا@@ 421
a-lô 420
bertrand 420
codex 420
donnie 420
dậy. 420
faw@@ 420
hanson 420
heli 420
jakarta 420
ked 420
nicolai 420
palo 420
qs 420
quebec 420
sdale 420
-thưa 419
-đó 419
1863 419
7-11 419
8-11 419
arin 419
bi-a 419
birgitta 419
dic@@ 419
dyn@@ 419
effie 419
giả@@ 419
imaeda 419
kirby 419
lô-@@ 419
morphine 419
mov 419
ngố 419
raw@@ 419
rỗ 419
scrimgeour 419
sướt 419
thatcher 419
thết 419
thỉ 419
ē@@ 419
ỵ 419
174 418
1885 418
21-23 418
ahu@@ 418
arc@@ 418
beca 418
btttt 418
chề 418
demerest 418
disp@@ 418
doris 418
gallon 418
hamlet 418
jofre 418
lean 418
lind@@ 418
linger 418
lõ 418
myrtle 418
natalia 418
nhẹt 418
niki 418
nm 418
phon 418
rid@@ 418
vasquez 418
àn 418
183 417
197 417
bic 417
building 417
bush@@ 417
carolyn 417
chuy 417
chuyện. 417
francon 417
gle 417
ig 417
laxarơ 417
macy 417
rina 417
rogojin 417
sụa 417
una 417
vè 417
winters 417
wong 417
yt 417
đơm 417
2m 416
40.000 416
aprile 416
ard@@ 416
boromir 416
chipenden 416
cậu. 416
earth@@ 416
giầu 416
giập 416
hawking 416
illing 416
kê-@@ 416
lac 416
ngoắc 416
olivier 416
pier@@ 416
rae 416
scriptures 416
ở. 416
7883 415
bolt 415
bublanski 415
cba 415
cip@@ 415
deb 415
digan 415
francs 415
glory 415
illo 415
kilôgam 415
lier 415
mini@@ 415
nhnn@@ 415
nhông 415
nhột 415
nica 415
phốt 415
piggy 415
st.@@ 415
tim@@ 415
valencia 415
wed@@ 415
34-@@ 414
apos@@ 414
christians 414
cng 414
edge 414
elaine 414
khoằm 414
museum 414
nghe. 414
richelieu 414
rousseau 414
sarawak 414
software 414
ssi@@ 414
đẹp. 414
ặc 414
aháp 413
beat 413
cation 413
cornelius 413
dson 413
flam@@ 413
gottfried 413
jabba 413
katerina 413
khơ 413
meh@@ 413
picnic 413
scu@@ 413
serena 413
sit 413
suyễn 413
tahiti 413
thêm. 413
timor 413
tul@@ 413
winthrop 413
át-@@ 413
aven@@ 412
cler@@ 412
galleon 412
hanh 412
mad 412
masters 412
mmy 412
personal 412
present 412
religion 412
rique 412
rôm 412
save 412
shadow 412
shed 412
àng. 412
ềnh 412
aph@@ 411
chev@@ 411
command 411
fat 411
herman 411
iberia 411
konakawa 411
nanon 411
nashville 411
president 411
sofia 411
vau@@ 411
vet@@ 411
wo 411
đư@@ 411
τ@@ 411
171 410
ask 410
barbicane 410
blu 410
chard 410
com-lê 410
darren 410
galilê 410
har 410
hyun 410
inf@@ 410
iế@@ 410
jenna 410
karate 410
mags 410
philippine 410
pius 410
rath 410
soli@@ 410
vức 410
winchester 410
xit 410
ẫn 410
1892 409
66@@ 409
beirut 409
cynthia 409
example 409
gard 409
giòi 409
gogh 409
hampton 409
lannister 409
mila 409
move 409
mozambique 409
ra-chên 409
rupi 409
som@@ 409
weekly 409
-cái 408
11-14 408
1m 408
bé. 408
carlson 408
circle 408
enter 408
evich 408
gaga 408
hẩm 408
ichi@@ 408
iri 408
koster 408
langley 408
razumikhin 408
release 408
savi@@ 408
sian 408
sorry 408
thể@@ 408
xus 408
đuô 408
để@@ 408
ại 408
219 407
325 407
ba-la-am 407
chêm 407
enzym 407
glas@@ 407
greenwich 407
lhq 407
minnie 407
miquel 407
nguỵ 407
quan@@ 407
rest 407
rịa 407
si-mê-ôn 407
thia 407
track 407
vọng. 407
xoi 407
ản 407
but@@ 406
bả@@ 406
chim@@ 406
clarence 406
eux 406
flow 406
gaia 406
hớ 406
marena 406
mond 406
ont 406
pyth@@ 406
roth 406
saint-germain 406
sym@@ 406
uzbekistan 406
vd 406
½ 406
ép@@ 406
ðông 406
óp 406
м@@ 406
ộc 406
a-bô-lô 405
a-si 405
akes 405
amốt 405
angeli@@ 405
baden 405
bạ@@ 405
friend 405
hàng. 405
kirwill 405
magi@@ 405
mẩy 405
ngộp 405
seri@@ 405
shelly 405
spiri@@ 405
tằn 405
tố@@ 405
vựa 405
wii 405
-cậu 404
15.000 404
4-7 404
49@@ 404
6000 404
acxinhia 404
bellona 404
boni@@ 404
cene 404
eline 404
gardner 404
klein 404
leone 404
lini 404
n1 404
nikov 404
nêvađa 404
ober@@ 404
sep@@ 404
snitch 404
thồ 404
und@@ 404
volturi 404
xd 404
zin 404
-chào 403
29-@@ 403
331 403
ational 403
b1 403
chí@@ 403
dick@@ 403
doña 403
fili@@ 403
genes 403
gone 403
historical 403
k.@@ 403
liberia 403
nệ 403
season 403
sugar 403
thal 403
uma 403
-và 402
amos 402
chũi 402
costello 402
dus@@ 402
ethical 402
garage 402
graph@@ 402
gô-@@ 402
jab@@ 402
learning 402
lizzy 402
lựng 402
masa 402
n-- 402
oắt 402
quít 402
ribbon 402
roe 402
sicilian 402
station 402
vista 402
zoom 402
ë@@ 402
ôliu 402
ông@@ 402
1871 401
50-@@ 401
ago@@ 401
arabia 401
dwight 401
eros 401
guam 401
heidi 401
lux 401
manu@@ 401
pei 401
plo@@ 401
rhode 401
thánh. 401
ι@@ 401
ọe 401
の@@ 401
a2 400
arabella 400
bian 400
dolokhov 400
niger 400
sợ. 400
đế@@ 400
ẹ@@ 400
ệch 400
6. 399
candy 399
choang 399
cntt 399
ester 399
hiromi 399
kingship 399
malawi 399
motorola 399
oblonxki 399
pazzi 399
pper@@ 399
self 399
semi@@ 399
slovakia 399
stur@@ 399
wil 399
địt 399
ồi 399
.- 398
1886 398
222 398
ather@@ 398
bayern 398
bĩnh 398
cell 398
fitchner 398
god@@ 398
holocaust 398
mate 398
nba 398
nêbucátnếtsa 398
saf@@ 398
xtiếcphoóc 398
ền 398
ởi 398
16.@@ 397
20,@@ 397
addy 397
bagman 397
cassandra 397
cept 397
davenport 397
emb@@ 397
háy 397
ica 397
lix 397
mah 397
matthieu 397
onic 397
phelan 397
shane 397
shit 397
tito 397
wide 397
yoo 397
át@@ 397
41-@@ 396
banner 396
bazin 396
buzz 396
clear 396
cỏn 396
fire@@ 396
grad 396
keynes 396
kowski 396
northern 396
ome 396
rith 396
shing 396
tage 396
tariq 396
va-li 396
xập 396
zio 396
169 395
196 395
275 395
asahara 395
avy 395
cine 395
juliana 395
lạ. 395
note 395
papua 395
phot@@ 395
phố. 395
roslin 395
ushi@@ 395
ích-@@ 395
ít@@ 395
đêvit 395
7.000 394
ao-@@ 394
cern 394
clutter 394
geller 394
iri@@ 394
ito 394
jonah 394
minneapolis 394
mvp 394
reading 394
scandinavia 394
sos 394
12-15 393
alexandre 393
bl 393
blockchain 393
buênđya 393
caribbean 393
engine 393
fuji@@ 393
level 393
nebraska 393
nghèn 393
otte 393
portugal 393
pô 393
schwartz 393
show@@ 393
songs 393
tcvm 393
ł@@ 393
-bà 392
213 392
25,@@ 392
3,4 392
anselm 392
b2 392
cordell 392
design 392
frances 392
gronevelt 392
kẽo 392
lestrade 392
lôgic 392
monte@@ 392
pher@@ 392
player 392
quẩy 392
seneca 392
sius 392
smart 392
tr. 392
ích@@ 392
ầm. 392
ộng 392
abdul 391
ape 391
archi@@ 391
blackberry 391
c1 391
class 391
ffy 391
glenarvan 391
gp 391
hoắm 391
illian 391
johannesburg 391
kelsey 391
later 391
lennie 391
litva 391
merrill 391
merton 391
porsche 391
pyle 391
rig@@ 391
talbot 391
thững 391
vali@@ 391
ðược 391
đỏm 391
ο@@ 391
1-23 390
194 390
221 390
235 390
anato@@ 390
bkh 390
derman 390
dutch 390
embry 390
experi@@ 390
h2@@ 390
jennings 390
julio 390
kle 390
lines 390
lington 390
nard 390
ngửng 390
oline 390
phen@@ 390
salon 390
si-chem 390
unds 390
ved@@ 390
wiki@@ 390
xan@@ 390
ê-li-@@ 390
1888 389
193 389
afri@@ 389
bđ@@ 389
chảng 389
dam 389
deo 389
gl@@ 389
hawkins 389
kano 389
known 389
lav 389
liberty 389
nã@@ 389
pha-@@ 389
rain@@ 389
savannah 389
thebes 389
told 389
understand 389
vat 389
vâng. 389
wn@@ 389
ô-liu 389
ặ@@ 389
bg 388
boyle 388
chir@@ 388
giươ 388
hex@@ 388
jour@@ 388
knew 388
nhom 388
nành 388
nơ-ron 388
osanai 388
pole 388
pov 388
sình 388
vos@@ 388
1700 387
1893 387
380 387
according 387
albright 387
alekx@@ 387
chỉa 387
cincinnati 387
cricket 387
damascus 387
duarte 387
eti 387
etz@@ 387
fes@@ 387
honduras 387
hubble 387
ick@@ 387
naomi 387
nguy@@ 387
nil@@ 387
o2 387
ook 387
putin 387
ration 387
scatty 387
trường. 387
11-15 386
186 386
46-@@ 386
850 386
acts 386
ahara 386
att 386
cdo 386
chểnh 386
explo@@ 386
fin 386
ga-ra 386
hiện. 386
introduction 386
limo 386
nhú 386
olenska 386
phy 386
rufus 386
stead 386
stern 386
technology 386
wins 386
ĩ@@ 386
ş@@ 386
ất. 386
14-17 385
198@@ 385
anh-@@ 385
asian 385
dấm 385
enin 385
ine@@ 385
matter 385
mav 385
speak 385
sạp 385
tl 385
trét 385
tư@@ 385
vợi 385
vừng 385
xen@@ 385
đầ@@ 385
ảrập 385
45-@@ 384
adi 384
ants 384
bang@@ 384
beo@@ 384
chổng 384
ekaterina 384
fouquet 384
gerard 384
giô-ách 384
greene 384
hai. 384
hoover 384
lườn 384
oil 384
onitsuka 384
phô-@@ 384
ques 384
quạc 384
ri-@@ 384
thương. 384
tyndale 384
zone 384
ước. 384
19,@@ 383
armansky 383
bach@@ 383
bis 383
bèo 383
canyon 383
cở 383
dn@@ 383
fischer 383
iss 383
jax 383
jody 383
lisbon 383
mordor 383
reuters 383
rik 383
spot 383
só@@ 383
tudor 383
aurora 382
dẽ 382
eron 382
gger 382
goth 382
jur@@ 382
nardo 382
oth@@ 382
queensland 382
sheri@@ 382
tehran 382
terson 382
toni@@ 382
ðã 382
204 381
2x 381
alison 381
chiba 381
cóp 381
dae@@ 381
enron 381
etz 381
ites 381
kad@@ 381
karma 381
lư@@ 381
mira 381
munro 381
newport 381
opal 381
path@@ 381
vidal 381
wei 381
zhang 381
úi 381
217 380
atlantis 380
bavaria 380
community 380
corn 380
cron@@ 380
cunningham 380
ferrari 380
gania 380
hà@@ 380
isha 380
jiro 380
kô@@ 380
lat 380
lows 380
lất 380
ma-na 380
petya 380
pharaon 380
plas@@ 380
shinjuku 380
sten@@ 380
tokita 380
zation 380
zuckerman 380
ắn. 380
8. 379
acet@@ 379
adelaide 379
ana@@ 379
bastille 379
cz@@ 379
eko 379
eries 379
giô-sa-phát 379
gypsy 379
jé@@ 379
le-@@ 379
mitsu@@ 379
moral 379
nhựt 379
sayuri 379
sollozzo 379
watch@@ 379
watchtower 379
zambia 379
ün@@ 379
ừng 379
-thật 378
10-13 378
enough 378
evie 378
hiroshima 378
ican 378
info 378
inside 378
mỹ. 378
parthia 378
tati@@ 378
théoden 378
thích. 378
tial 378
zzo 378
ài 378
đố@@ 378
172 377
1820 377
atari 377
burns 377
caballo 377
fitz@@ 377
fur 377
hang@@ 377
henrietta 377
kiku@@ 377
menu 377
nghêu 377
odin 377
ovich 377
profile 377
stadt 377
tab 377
ux 377
vặc 377
within 377
п@@ 377
ắt. 377
182 376
196@@ 376
abbott 376
ancient 376
buntaro 376
enni@@ 376
eong@@ 376
eson 376
fidel 376
himalaya 376
horse 376
kaiser 376
kev 376
lú 376
marcia 376
mếch 376
neon 376
nikol@@ 376
thượng-đế 376
viêc 376
wir@@ 376
10,000 375
1867 375
barack 375
chaplin 375
ew@@ 375
g-@@ 375
ghts 375
grim@@ 375
gấm 375
hear 375
hùn 375
iu@@ 375
justi@@ 375
lp 375
mn@@ 375
nah 375
ony@@ 375
vermont 375
ọi 375
angels 374
apple@@ 374
brigham 374
craft 374
dec 374
gertrude 374
gian@@ 374
ined 374
kellogg 374
kino 374
lett 374
letter 374
makoto 374
nhíp 374
oki 374
translation 374
vas 374
xt@@ 374
êđôm 374
ầu 374
199 373
andi 373
auschwitz 373
biệt. 373
blogger 373
công-@@ 373
didn 373
drag@@ 373
hiko 373
kahn 373
kendrick 373
kobe 373
kron@@ 373
lead 373
nathaniel 373
ped@@ 373
peg 373
russia 373
shu 373
spears 373
sq 373
sê-đê-kia 373
tm@@ 373
ð 373
ña 373
480 372
7. 372
annika 372
aris 372
aryan 372
barton 372
cedar 372
giê-sa-bên 372
graff 372
ippolit 372
islam 372
jas@@ 372
klamm 372
latvia 372
lockwood 372
mall 372
nguyê 372
parks 372
philát 372
pion 372
rudolf 372
sili@@ 372
sinskey 372
vy@@ 372
................@@ 371
2d 371
401 371
caster 371
f-@@ 371
hilạp 371
lita 371
merlyn 371
mitsuru 371
méc 371
oakland 371
pid 371
randolph 371
rồ@@ 371
saxon 371
sergei 371
seti 371
tock 371
warri@@ 371
wycliffe 371
è 371
đtm 371
-phải 370
22-24 370
alberto 370
ards 370
behind 370
bgdđt 370
bát-sê-ba 370
cay@@ 370
during 370
hella 370
jal@@ 370
leningrad 370
month 370
nairobi 370
osiris 370
phê-lít 370
plan 370
ru-bên 370
sne@@ 370
spaghetti 370
survi@@ 370
sven 370
tore 370
turgut 370
tó@@ 370
ươ@@ 370
1879 369
armand 369
ay. 369
balô 369
bath 369
cathcart 369
claudius 369
cove 369
flowers 369
ginger 369
host 369
laze 369
luông 369
print 369
script 369
sr 369
varenca 369
vă 369
weiss 369
ðáng 369
ẽ. 369
179 368
1894 368
25.000 368
calcutta 368
clorua 368
cornell 368
cw 368
generation 368
hillary 368
híp 368
idea 368
kazuko 368
khui 368
lamp@@ 368
mania 368
minas 368
ngưu 368
nây 368
oà 368
pike 368
rodrigo 368
sellito 368
sey@@ 368
spiritual 368
tha-@@ 368
une 368
vector 368
weber 368
á-u 368
ét@@ 368
29-30 367
aly 367
antiốt 367
cool 367
dley 367
esp@@ 367
gang@@ 367
h30 367
hau 367
hec@@ 367
looking 367
macarthur 367
maru 367
murat 367
orn 367
others 367
raisa 367
rang@@ 367
remix 367
rô-@@ 367
sars 367
shauna 367
thúi 367
tk@@ 367
wonder 367
ρ@@ 367
ị. 367
-một 366
.......... 366
9-12 366
aar@@ 366
anic 366
avan 366
chấy 366
database 366
fredri@@ 366
kham@@ 366
kristen 366
libby 366
luster 366
macdonald 366
mister 366
rec@@ 366
robby 366
ror@@ 366
rosalind 366
rosamund 366
shimamura 366
singo 366
tiên. 366
voyager 366
ères 366
ôt 366
ỉm 366
ỏ 366
25-27 365
2500 365
ballet 365
buy 365
carla 365
chình 365
chút. 365
constantin 365
daimyo 365
fannie 365
half 365
irenaeus 365
irving 365
khali@@ 365
lenz 365
lissy 365
ló@@ 365
maz@@ 365
mccullough 365
pol 365
rocco 365
rothschild 365
rr@@ 365
sni@@ 365
turin 365
vsattp 365
watts 365
xa. 365
yton 365
đắk 365
........................@@ 364
1861 364
3-6 364
baldwin 364
cov 364
cườm 364
ffin 364
free@@ 364
fres@@ 364
gabe 364
ivo 364
koh@@ 364
kurd 364
ngợ 364
nhk 364
normandy 364
oun@@ 364
sởi 364
tiền. 364
uh@@ 364
vat@@ 364
197@@ 363
206 363
argen@@ 363
edwin 363
germain 363
hiểu. 363
macri 363
mikael 363
nê-mô 363
sakh-el-bahr 363
segundo 363
tke 363
wool@@ 363
ẹc 363
amal@@ 362
clemen@@ 362
dore 362
eton 362
gers 362
guy@@ 362
hill@@ 362
jec@@ 362
mellery 362
muốn. 362
nă@@ 362
past 362
sadako 362
willard 362
andolini 361
bologna 361
bolshevik 361
bres@@ 361
buntruc 361
cash 361
chner 361
demo 361
fargo 361
gill 361
government 361
gạ 361
hin 361
isbn 361
kellan 361
kiko 361
lìn 361
magellan 361
mortimer 361
morwena 361
nhạn 361
ra-háp 361
seg@@ 361
soft 361
stevenson 361
swan 361
tea 361
vara 361
vari@@ 361
ãi 361
ơi. 361
27-28 360
cicero 360
discovery 360
ection 360
f.c. 360
henderson 360
nhản 360
rich@@ 360
rid 360
saw@@ 360
sheila 360
stil@@ 360
suy@@ 360
winter@@ 360
ỗ@@ 360
1891 359
aks 359
allen@@ 359
assyria 359
buffet 359
eles 359
emmanuel 359
fang 359
fully 359
given 359
hess 359
ila 359
ilia 359
mori 359
nơ@@ 359
ols 359
pounds 359
questions 359
ravenclaw 359
ràn 359
transltr 359
ái. 359
î@@ 359
a4 358
ahmed 358
bum 358
champions 358
chõ 358
gic 358
gượm 358
hđbt 358
ily@@ 358
khỏ@@ 358
quot@@ 358
stylus 358
tiberius 358
uý@@ 358
ε@@ 358
1789 357
1814 357
198 357
75@@ 357
aq@@ 357
baron 357
benson 357
cao. 357
christ. 357
dum 357
ft@@ 357
gcnkncm 357
jj 357
leong 357
motor 357
nim@@ 357
sexy 357
world@@ 357
μ@@ 357
1884 356
bog@@ 356
bòn 356
esse 356
euph@@ 356
higgs 356
hể 356
interview 356
kiss 356
la-ban 356
lund@@ 356
prague 356
py 356
republic 356
shak@@ 356
tribu@@ 356
urgal 356
đồ@@ 356
anson 355
aster 355
bto 355
grave 355
hecta 355
hếp 355
kilomet 355
mội 355
ngườ@@ 355
nhẫy 355
phóc 355
pomp@@ 355
professor 355
s.h.i.e.l.d. 355
scientific 355
tress 355
wilder 355
ắc-@@ 355
,000 354
albany 354
am-@@ 354
cheryl 354
complete 354
credit 354
dwt 354
emil 354
estr@@ 354
leg@@ 354
ngụp 354
nổi. 354
oracle 354
otsuka 354
pepper 354
pico 354
stencils 354
xim@@ 354
ân-@@ 354
đổi. 354
ết-@@ 354
-đúng 353
andreas 353
arms 353
atus 353
chinese 353
chịu. 353
df 353
doctor 353
ems 353
ik 353
image 353
important 353
jade 353
krishna 353
lucania 353
mẩm 353
netflix 353
nitrat 353
polycarp 353
skye 353
thelma 353
tile 353
wal-mart 353
walmart 353
á-@@ 353
éomer 353
-ừ 352
586 352
catholic 352
elisabeth 352
enburg 352
ggins 352
hy-@@ 352
khar@@ 352
kikuji 352
kn@@ 352
leen 352
lyndon 352
ney@@ 352
ngót 352
senba 352
septuagint 352
skeeter 352
tures 352
wick@@ 352
won@@ 352
xam 352
ổ. 352
1887 351
1c 351
214 351
aljaska 351
bê-tha-ni 351
chis@@ 351
crow@@ 351
ebo 351
eunice 351
ferris 351
frei@@ 351
genoa 351
ghost 351
giép 351
isto@@ 351
khov 351
leipzig 351
olivetti 351
portella 351
shockley 351
source 351
suez 351
1864 350
akov 350
cartwright 350
delacroix 350
delaware 350
hằm 350
hẵn 350
klee 350
lai@@ 350
levy 350
macao 350
merri@@ 350
neal 350
quác 350
shap@@ 350
tata 350
vasseur 350
xĩnh 350
ộ 350
among 349
amy@@ 349
boro 349
cdc 349
cin 349
coin 349
crow 349
eân 349
fad@@ 349
graffiti 349
hrer 349
hậm 349
issa 349
iếc 349
jeeves 349
kata 349
lic 349
moriarty 349
spa 349
sud@@ 349
ttr 349
utc 349
volume 349
zza 349
ịu 349
1873 348
300.000 348
8.000 348
bara 348
brunei 348
cello 348
chlo@@ 348
elman 348
emer@@ 348
hống 348
hội. 348
mathê 348
meer@@ 348
ministry 348
oswald 348
qaeda 348
quèn 348
rớm 348
tctcvm 348
though 348
íc 348
31-32 347
59@@ 347
bc@@ 347
chỉ@@ 347
etienne 347
etsu 347
gor 347
griphook 347
jewish 347
ki-@@ 347
lenet 347
petrus 347
sao@@ 347
saturn 347
sten 347
tamil 347
yh@@ 347
ắc. 347
1862 346
84@@ 346
bolton 346
britain 346
collie 346
council 346
dane 346
eg 346
gag@@ 346
gauvain 346
kenyon 346
kitôgiáo 346
lagos 346
loy 346
magdal@@ 346
mis 346
okonkwo 346
on. 346
powers 346
pur 346
raf 346
rage 346
rif@@ 346
sho 346
watanabe 346
đĩnh 346
α 346
290 345
aby@@ 345
amad@@ 345
brandt 345
diony@@ 345
ebook 345
education 345
giá@@ 345
heh 345
hilton 345
interpol 345
kristoll 345
lesson 345
pion@@ 345
planck 345
regu@@ 345
tọt 345
written 345
đề@@ 345
у@@ 345
ạc-ríp-ba 345
-người 344
19.@@ 344
333 344
a-thên 344
ation@@ 344
barceló 344
boss 344
clovis 344
có-@@ 344
district 344
dition 344
dă 344
eiffel 344
erman 344
gis@@ 344
granger 344
gustav 344
htx 344
kav@@ 344
kland 344
lucien 344
mikhailovna 344
niệu 344
nô-@@ 344
pendle 344
peso 344
phiu 344
setsuko 344
traynor 344
tậu 344
verde 344
vé@@ 344
xer@@ 344
đênh 344
ược 344
ẩy 344
1881 343
20-22 343
24,@@ 343
achi@@ 343
aire 343
athy 343
bagheera 343
dolarhyde 343
double 343
gyeong@@ 343
heath 343
hegel 343
hey@@ 343
ini@@ 343
joanna 343
ley@@ 343
lucifer 343
lốn 343
maudie 343
mor 343
oly@@ 343
rafael 343
reason 343
seri 343
sù 343
target 343
thân. 343
vnd 343
yeong 343
yne 343
zuckerberg 343
íp 343
ai-@@ 342
bois 342
brendan 342
c- 342
dowd 342
este@@ 342
fah@@ 342
francis@@ 342
goal 342
iề@@ 342
lềnh 342
matilda 342
message 342
morocco 342
nhau@@ 342
nhạnh 342
nicôđem 342
pool 342
prime 342
quanh. 342
rant 342
rights 342
some@@ 342
tery 342
thếch 342
wy 342
ại. 342
12-17 341
1869 341
augus@@ 341
bahamas 341
beckett 341
billi@@ 341
birds 341
busan 341
edna 341
galapagos 341
goodman 341
joanne 341
johanssen 341
kaki 341
lidia 341
lạn 341
lỏn 341
mach@@ 341
ramon 341
rolls 341
russ@@ 341
shield 341
since 341
stra@@ 341
sã 341
tren@@ 341
ult 341
vangiăng 341
vể 341
yer@@ 341
éc-@@ 341
ệt 341
12-16 340
218 340
alliance 340
atu@@ 340
audi 340
autriche 340
bec 340
bn@@ 340
cứ@@ 340
domino 340
falcon 340
grimalkin 340
guinness 340
hull 340
juana 340
lh@@ 340
makes 340
mammy 340
organ 340
pasteur 340
power@@ 340
qur 340
sar 340
sô-pha 340
tct@@ 340
thừ 340
tú@@ 340
vick@@ 340
và-@@ 340
zaki 340
203 339
atar 339
ayan 339
bahr 339
bose 339
devon 339
diếp 339
eriko 339
heard 339
hây 339
jaguar 339
kowalski 339
luộm 339
moira 339
mênchixêđéc 339
nỏ 339
oecd 339
phót 339
rada 339
rakitin 339
rochefort 339
saunière 339
sumatra 339
tad@@ 339
universe 339
vend@@ 339
zack 339
á. 339
ène 339
ë 339
ình@@ 339
ỵ@@ 339
301 338
arte 338
ba-bên 338
doo 338
index 338
man-@@ 338
nhễ 338
niken 338
ollie 338
pa-lét-tin 338
psycho@@ 338
réc 338
sauron 338
taro 338
ute 338
ww@@ 338
ôp 338
độp 338
ảng 338
1400 337
1m@@ 337
361 337
6a 337
akura 337
bones 337
chevy 337
colle@@ 337
fed 337
gres@@ 337
hawksley 337
hỏ@@ 337
industries 337
kyung 337
lèn 337
mashiba 337
newfoundland 337
nul@@ 337
pa-@@ 337
pect 337
phê-tu 337
prize 337
susannah 337
zburg 337
ä 337
ưở@@ 337
1882 336
anglo 336
army 336
caer 336
cauvignac 336
even@@ 336
eves 336
eye 336
fox@@ 336
fr 336
giorgio 336
gir@@ 336
heinrici 336
iên 336
lower 336
ma-đi-an 336
mato@@ 336
mavis 336
morton 336
nana 336
petr 336
qh@@ 336
reich 336
slovenia 336
tcph 336
tomo@@ 336
tulip 336
vale 336
yoshio 336
ß@@ 336
ì. 336
òn 336
÷ 336
ợt 336
39-@@ 335
85@@ 335
bender 335
bring 335
calab@@ 335
chro@@ 335
count 335
cultural 335
devil 335
eguchi 335
gnos@@ 335
hibi@@ 335
marks 335
mccartney 335
mcmurdo 335
nestlé 335
nghỉm 335
phùng 335
quành 335
range 335
sac 335
six@@ 335
sméagol 335
sơmi 335
trish 335
uố@@ 335
woodell 335
đông. 335
acha 334
blon@@ 334
bàn. 334
crowe 334
câ@@ 334
dartmouth 334
dras 334
gamble 334
hom@@ 334
hum@@ 334
hèm 334
hình. 334
log@@ 334
naga 334
ngoét 334
nhận. 334
phôn 334
rac 334
rea 334
robbins 334
shock 334
step 334
student 334
thames 334
turned 334
tuýt 334
vio 334
vắc-xin 334
woolf 334
xa-chê 334
ác-@@ 334
ẻ@@ 334
aspanu 333
basque 333
brow@@ 333
curi@@ 333
ente 333
experience 333
hokkaido 333
kag@@ 333
kazunari 333
kiết 333
la. 333
lav@@ 333
lit 333
ller 333
lữa 333
malaya 333
mộ@@ 333
nhụa 333
phui 333
phét 333
rặt 333
valerie 333
xuể 333
yorker 333
ùng. 333
24-27 332
256 332
3b 332
apo 332
appro@@ 332
bakers@@ 332
buff@@ 332
chechnya 332
ckh@@ 332
dame 332
fenoglio 332
fs@@ 332
gorbachev 332
leroy 332
oppenheimer 332
ril 332
shasta 332
siegel 332
sụm 332
thuộm 332
thùa 332
uh-huh 332
von@@ 332
đùn 332
access 331
albuquerque 331
aling 331
ava 331
barclay 331
ced@@ 331
cru 331
daryl 331
electronic 331
eller 331
enko 331
facts 331
gould 331
greyback 331
guire 331
gáp-ri-ên 331
lansky 331
lodge 331
marina 331
munger 331
ngle 331
nl 331
oster 331
perfect 331
ress 331
shō@@ 331
steroid 331
sunni 331
thành. 331
vh@@ 331
wennerstrom 331
xvyajxki 331
xè 331
191 330
anden 330
báptem 330
compar@@ 330
douglass 330
dwell 330
dả 330
esus 330
giê-hô-gia-@@ 330
hancock 330
huê 330
hộ@@ 330
ignatius 330
ivy 330
karamazov 330
miyashita 330
mund 330
ngưòi 330
oxytocin 330
ptnt 330
rơ@@ 330
taiko 330
theon 330
thế@@ 330
twain 330
tẹt 330
tợ 330
valentina 330
vana 330
zig 330
đá@@ 330
00-@@ 329
216 329
3,5 329
69@@ 329
alone 329
ba. 329
bok 329
burt 329
cini 329
damien 329
few 329
fuku@@ 329
giant 329
glau@@ 329
hotch 329
literature 329
lutheran 329
những@@ 329
pac 329
qúa 329
reggie 329
rou 329
sund@@ 329
sượng 329
takahashi 329
thinking 329
tược 329
êu 329
êxêchia 329
ìn 329
đủi 329
avi 328
blues 328
bottom 328
carver 328
coe 328
continu@@ 328
enka 328
georgetown 328
giuseppe 328
heavy 328
herodotus 328
hl 328
kochamma 328
lancaster 328
leyte 328
michê 328
naxarét 328
nhắt 328
pretty 328
ramée 328
rỉa 328
sing@@ 328
thúng 328
tmann 328
trees 328
tếu 328
wiki 328
wp 328
yêu. 328
õi 328
ả. 328
173 327
312 327
abigail 327
adan 327
amen@@ 327
asaki 327
bard 327
bắ@@ 327
capulet 327
chantal 327
clifford 327
complex 327
côdét 327
doe 327
dua 327
eon 327
felt 327
glock 327
goebbels 327
grammy 327
havard 327
hbs 327
heim 327
jai 327
linnet 327
mod 327
montenegro 327
pasadena 327
radley 327
s.t.a.@@ 327
simp@@ 327
tammy 327
tully 327
ultra 327
± 327
đm 327
ン@@ 327
1-26 326
500.000 326
chuckles 326
chịch 326
cà@@ 326
defin@@ 326
down@@ 326
dream@@ 326
dóc 326
eon@@ 326
euler 326
feli@@ 326
graphy 326
ik@@ 326
kov@@ 326
laurie 326
mary@@ 326
middle 326
monaco 326
nađia 326
noãn 326
obser@@ 326
samoa 326
sev 326
señora 326
tench 326
việ@@ 326
vẻo 326
30-31 325
araminta 325
ballad 325
britannica 325
chang@@ 325
ckle 325
concert 325
dome 325
lc 325
rano 325
reno 325
roffe 325
security 325
simôn 325
sno@@ 325
stones 325
suit 325
taru 325
till 325
tiếm 325
toàn. 325
ub 325
âu-á 325
õng 325
................................................................@@ 324
aden 324
aylor 324
beauty 324
bermuda 324
c2 324
catalog 324
ceres 324
chernobyl 324
constantinopolis 324
cord 324
dalton 324
gallagher 324
guin@@ 324
hoth 324
hó@@ 324
meli@@ 324
myriam 324
nately 324
nellie 324
pli@@ 324
quạu 324
rib@@ 324
shanker 324
svensson 324
tera 324
tte 324
êđen 324
ðan 324
ỹ 324
1875 323
253 323
acher 323
bren@@ 323
cic@@ 323
dur 323
giôên 323
guer@@ 323
held 323
innocent 323
lama 323
lock@@ 323
midge 323
ngựa. 323
pb 323
rate 323
suc@@ 323
thousand 323
vel 323
walden 323
ò. 323
đây@@ 323
ờm 323
amir 322
animal 322
ayama 322
believers 322
blanchard 322
bry@@ 322
eagle 322
eustace 322
franck 322
hap@@ 322
khấp 322
loe 322
mê-đi 322
nai@@ 322
nhẹm 322
oprah 322
phor@@ 322
pus 322
pyjama 322
roche 322
tct 322
ton. 322
wai@@ 322
σ@@ 322
1883 321
5-11 321
56@@ 321
agawa 321
associ@@ 321
aziz 321
berengar 321
bern 321
chạn 321
deutsche 321
divine 321
eok 321
esis 321
evangelical 321
evo 321
ht 321
jodie 321
konrad 321
lavender 321
lens 321
lolly 321
nhtm 321
ost 321
preaching 321
quen@@ 321
risti@@ 321
stic 321
sukhvinder 321
swat 321
swindoll 321
title 321
touch 321
wal 321
đúa 321
ạt. 321
44-@@ 320
520 320
5a 320
agh@@ 320
bohemia 320
character 320
cortez 320
cẫng 320
cời 320
evidence 320
forever 320
ght@@ 320
hare 320
is-@@ 320
itha 320
kinh-thánh 320
kiri@@ 320
northu@@ 320
paper 320
rabbi 320
rev@@ 320
rol 320
thir@@ 320
train 320
tu-@@ 320
1776 319
18-21 319
2.500 319
acqu@@ 319
ai-len 319
aldi 319
algérie 319
aver 319
bưởi 319
escobar 319
fantasy 319
flight 319
gái. 319
ibid 319
karlsson 319
krebs 319
kyo@@ 319
lopez 319
lên@@ 319
mut 319
nei@@ 319
nine 319
raphaël 319
scotty 319
sko@@ 319
sub 319
vậ@@ 319
đen. 319
ất@@ 319
ần 319
238 318
54@@ 318
anselmo 318
benedi@@ 318
bride 318
carlyle 318
dhar@@ 318
dominic 318
elen 318
ethanol 318
flan@@ 318
hopper 318
lad@@ 318
light@@ 318
lius 318
luc 318
often 318
oid 318
orion 318
orrin 318
pyo 318
rhun 318
seymour 318
sw 318
sâ 318
trấu 318
tày 318
từ@@ 318
umb@@ 318
èn 318
ơn. 318
ừng. 318
2-5 317
5-9 317
alta 317
ambrose 317
anatol 317
cino 317
demosthenes 317
echo 317
eis 317
eisman 317
federal 317
knu@@ 317
kura 317
lich 317
mansfield 317
mble 317
mits 317
montr@@ 317
phanes 317
pisa 317
pk 317
plymouth 317
rison 317
rochelle 317
rợp 317
sculley 317
soviet 317
stay 317
syn 317
sấn 317
thới 317
valls 317
vi-rút 317
ðộ 317
ớ@@ 317
ục. 317
-nếu 316
58@@ 316
boggs 316
build 316
camila 316
carbone 316
cause 316
charisse 316
derby 316
edle 316
etto 316
four@@ 316
hari 316
ie@@ 316
kare 316
marsh 316
mera 316
modem 316
question 316
ritz 316
ró 316
saud 316
shelton 316
spinoza 316
steel 316
sylar 316
tèo 316
tút 316
yoda 316
èm 316
ích-ca-ri-ốt 316
ơm 316
a3 315
amer 315
analy@@ 315
ched 315
chrestomanci 315
chy@@ 315
cắc 315
dini 315
gupta 315
gít 315
hands 315
havana 315
head@@ 315
lec@@ 315
liv@@ 315
lụn 315
mur 315
mạnh. 315
napoli 315
photo@@ 315
position 315
process 315
robespierre 315
scn 315
sv 315
to. 315
tõm 315
wrote 315
xem. 315
xịch 315
és 315
êli@@ 315
ún 315
ăm 315
б@@ 315
310 314
311 314
acre 314
ague 314
andra 314
auto 314
emmy 314
guerrero 314
heikichi 314
hoóc 314
hêli 314
inn 314
jennie 314
kids 314
kom@@ 314
nfl 314
origami 314
penélope 314
rapper 314
russian 314
sap@@ 314
si-đôn 314
ucla 314
xía 314
zin@@ 314
5,6 313
a-ga 313
adora 313
aurus 313
candor 313
castel@@ 313
cian 313
coch@@ 313
càm 313
else 313
ental 313
euclid 313
everett 313
graf 313
hiểm. 313
huỵch 313
hụ 313
ims 313
inno@@ 313
lipp@@ 313
mid 313
mort@@ 313
mundungus 313
một. 313
nacional 313
nath@@ 313
nichols 313
ollivander 313
ory 313
peeves 313
prokofievna 313
pô@@ 313
quer@@ 313
rev 313
rober@@ 313
scrip@@ 313
teri 313
trek 313
trinidad 313
volu@@ 313
wig@@ 313
òi 313
15-20 312
1876 312
19-22 312
26,@@ 312
32@@ 312
340 312
bed 312
bố@@ 312
caes@@ 312
dunia 312
elrond 312
emia 312
enigma 312
ggy 312
guan@@ 312
hlv 312
iec 312
japanese 312
kettering 312
lander 312
nagoya 312
nghển 312
obli@@ 312
ono 312
phere 312
pping 312
quil 312
ready 312
rera 312
roo@@ 312
smithsonian 312
stone@@ 312
tanaka 312
telegraph 312
toé 312
tq 312
turk 312
vul@@ 312
webber 312
xong. 312
xìu 312
º 312
êtiên 312
ườ@@ 312
bê-rê 311
cai-phe 311
concor@@ 311
conne@@ 311
dies 311
donia 311
eleseus 311
focus 311
giằm 311
home@@ 311
isengard 311
jude 311
khoen 311
kiềng 311
nico 311
nâ 311
phyllis 311
pixel 311
rius 311
salo@@ 311
skype 311
stacy 311
sổ. 311
thuy@@ 311
tow@@ 311
trô@@ 311
vam@@ 311
wine 311
ể 311
ự@@ 311
3-8 310
alist 310
ander@@ 310
aouda 310
athanasius 310
became 310
cherokee 310
chic@@ 310
chạ 310
clin@@ 310
cé@@ 310
cư@@ 310
cạt 310
dog@@ 310
exchange 310
gent 310
hol 310
incre@@ 310
kley 310
lorn 310
lô-gic 310
nakamura 310
nhoẹt 310
phnom 310
quir@@ 310
quặp 310
sack 310
skyler 310
sv@@ 310
ting@@ 310
tôi-@@ 310
tẩn 310
tằng 310
vik 310
xụp 310
1-28 309
13-17 309
15-18 309
agger 309
arm 309
att@@ 309
celt 309
conference 309
dul@@ 309
geographic 309
in-@@ 309
jestine 309
johns 309
ladi@@ 309
lawson 309
odyssey 309
oso 309
ques@@ 309
rivi@@ 309
salvation 309
sforza 309
shia 309
sulamít 309
terran@@ 309
wang@@ 309
window 309
ạn 309
-tại 308
241 308
amine 308
bd 308
challenge 308
eld 308
fed@@ 308
goldstein 308
hades 308
hum 308
lu-@@ 308
mildred 308
nghiễm 308
shear@@ 308
sô-@@ 308
ucbinô 308
vish@@ 308
vàng. 308
xếch 308
zing 308
¥ 308
ít-@@ 308
đh 308
ợc 308
184 307
950 307
aan 307
achi 307
berman 307
binet 307
bov 307
eley 307
fie 307
ged 307
hufflepuff 307
int@@ 307
inui 307
jump 307
kah@@ 307
night@@ 307
phẩu 307
praha 307
reng 307
rené 307
stadium 307
tier@@ 307
tép 307
wait 307
wings 307
xerxes 307
youth 307
ô-xia 307
1872 306
20.@@ 306
208 306
27,@@ 306
4-8 306
4b 306
alvito 306
anything 306
begin 306
bertha 306
cassette 306
cavalli 306
chemi@@ 306
chemical 306
chỏng 306
cker@@ 306
cụi 306
dges 306
dir@@ 306
do. 306
ently 306
exten@@ 306
fitzpatrick 306
janine 306
kl 306
macx 306
manson 306
mayo 306
metropolitan 306
na-a-man 306
oon 306
put@@ 306
scienti@@ 306
sus@@ 306
turbo 306
understanding 306
waldo 306
ộp 306
13-18 305
1858 305
aang 305
already 305
amaz@@ 305
baanh 305
boli@@ 305
bundes@@ 305
cassian 305
clan@@ 305
darrell 305
davies 305
eck@@ 305
fay@@ 305
granit 305
hammer 305
islands 305
kijima 305
letters 305
lie@@ 305
mph@@ 305
personality 305
tactar 305
testosterone 305
thal@@ 305
thanks 305
vani 305
áp-@@ 305
ć 305
34-35 304
ability 304
agatha 304
bros 304
bson 304
clo 304
creta 304
daddy 304
ell@@ 304
ghetto 304
hoc 304
iegoruska 304
krendler 304
leopold 304
mix 304
mớm 304
nigh@@ 304
noriko 304
novel 304
nun 304
oak 304
paul@@ 304
poi@@ 304
saab 304
seven@@ 304
spain 304
urs 304
vely 304
vette 304
windsor 304
wolfgang 304
xt 304
ạo 304
ấc 304
ốt-@@ 304
9,10 303
aoka 303
asis 303
booth 303
champ 303
check 303
chotas 303
climpt 303
dit 303
goes 303
heller 303
heskow 303
iler 303
ink 303
jen 303
lore@@ 303
marfa 303
nassau 303
sheldon 303
sonia 303
stand 303
townsend 303
trong@@ 303
wers 303
wic@@ 303
zal@@ 303
1813 302
9-13 302
agra 302
along 302
audience 302
augusta 302
brock 302
canterbury 302
cities 302
dodo 302
foreign 302
gc@@ 302
gets 302
inches 302
joni 302
kinson 302
laban 302
least 302
linus 302
lotte 302
ord 302
police 302
pomfrey 302
rus@@ 302
sô-phô-ni 302
tok 302
vái 302
walton 302
xxx 302
zwingli 302
ễn 302
-1 301
1874 301
6,7 301
arc 301
aru 301
benz 301
blttds 301
củ@@ 301
danvers 301
dez 301
digi@@ 301
exơra 301
fen 301
fredo 301
gata 301
hailey 301
hero 301
instagram 301
johnston 301
july 301
maker 301
mn 301
nikita 301
petro 301
portsmouth 301
reich@@ 301
rocket 301
rua 301
sher 301
sĩ. 301
sơ@@ 301
tari@@ 301
thorpe 301
trudy 301
vaccine 301
yeltsin 301
đá. 301
đán 301
ễu 301
68@@ 300
audio 300
chiế@@ 300
choa 300
cous@@ 300
digory 300
dish 300
disneyland 300
epa 300
etch 300
fernanda 300
finney 300
hồ. 300
ilo 300
medical 300
mùn 300
olsen 300
romero 300
sions 300
sivert 300
tchq 300
thra@@ 300
thô@@ 300
thư@@ 300
trê 300
uki 300
ushima 300
vice 300
wren 300
xà-@@ 300
út-@@ 300
232 299
arri@@ 299
dũa 299
elissande 299
es. 299
felipe 299
foot@@ 299
forks 299
giulia 299
gum 299
hidro 299
ima 299
infin@@ 299
local 299
manager 299
mathe@@ 299
na-hum 299
rory 299
sev@@ 299
sign 299
thê-@@ 299
vano@@ 299
vinny 299
đct 299
ỗ 299
ờng 299
1300 298
245 298
607 298
archive 298
barb 298
bonzo 298
cheo 298
ests 298
etic 298
fisk 298
jeo@@ 298
mako 298
mauritius 298
micheal 298
nựng 298
on-@@ 298
sergio 298
tráp 298
zanoni 298
zon@@ 298
ủn 298
20-23 297
42-@@ 297
avignon 297
barbie 297
beat@@ 297
brick 297
bụp 297
condé 297
cặm 297
dover 297
edu@@ 297
giônơx 297
haru 297
herac@@ 297
ike 297
jelks 297
khách. 297
marzak 297
mson 297
mustang 297
nhúa 297
orr 297
patric 297
plastic 297
rật 297
rặn 297
salim 297
shore 297
sioux 297
wealth 297
willis 297
æ@@ 297
у 297
12.000 296
1877 296
207 296
abad 296
agen 296
amparo 296
ayumi 296
bikini 296
cuỗm 296
eber 296
eileen 296
en-@@ 296
ences 296
evsky 296
ffa 296
freeman 296
grimm 296
gô-mô-rơ 296
hayashi 296
honolulu 296
https 296
ishi 296
jou@@ 296
kami@@ 296
lowe 296
lã@@ 296
malo 296
nging 296
nhố 296
nicaea 296
parsons 296
path 296
qumran 296
raven 296
requi@@ 296
sof@@ 296
somerset 296
tations 296
value 296
vand@@ 296
vicky 296
whitcomb 296
yong@@ 296
đ.@@ 296
đụ 296
ẩn. 296
1-27 295
1878 295
64@@ 295
bryce 295
celtic 295
chẹt 295
crazy 295
dac@@ 295
dc@@ 295
dh 295
hemingway 295
javier 295
keys 295
lakes 295
lof@@ 295
marla 295
rabbit 295
real@@ 295
rosen@@ 295
rọ 295
samsa 295
trial 295
vr 295
worldwide 295
yvonne 295
ôc 295
đốp 295
10000 294
1866 294
23,@@ 294
amis 294
balt 294
become 294
chamberlain 294
commer@@ 294
dil 294
dry 294
eger 294
elon 294
garamond 294
goa 294
greatest 294
hana 294
hếp-rôn 294
hồ@@ 294
inter 294
lag 294
lem@@ 294
loo 294
lx 294
lủn 294
maroc 294
moran 294
máy. 294
naphta 294
ngel 294
nghi@@ 294
overby 294
paradise 294
preston 294
pyotr 294
ramsey 294
rodin 294
role 294
rõ. 294
shang 294
xov 294
young@@ 294
ình-@@ 294
9. 293
ade@@ 293
alai 293
arriane 293
bradshaw 293
brighton 293
ch00ffff 293
chea 293
ckey 293
deu@@ 293
direc@@ 293
doi 293
flitwick 293
ies 293
kline 293
mach 293
maddox 293
marlene 293
newark 293
nur@@ 293
penicillin 293
românia 293
sakh 293
sinh. 293
stin@@ 293
stoddard 293
suzuki 293
tings 293
tá@@ 293
vằng 293
xô-@@ 293
áp-ne 293
ội. 293
195@@ 292
57@@ 292
awi 292
brisbane 292
bẹ 292
ca-lép 292
chacko 292
coll 292
conf@@ 292
của@@ 292
dah 292
eliot 292
emann 292
forth 292
gardens 292
giăm 292
gym 292
illustr@@ 292
iser 292
ished 292
jr. 292
judas 292
leu@@ 292
livingston 292
mõ 292
ne. 292
người@@ 292
oskar 292
pia 292
ruỗng 292
saladin 292
sb 292
sx@@ 292
tô-@@ 292
uber 292
upper 292
varsity 292
xtơ 292
xờm 292
-đi 291
0000@@ 291
440 291
amity 291
beaumont 291
chễm 291
chệ 291
dare 291
department 291
egan 291
frame 291
geissler 291
gô-li-át 291
kira 291
kiễng 291
kr@@ 291
ké 291
meme 291
nạnh 291
oman 291
pher 291
population 291
pped 291
ramesses 291
rat@@ 291
rozzoli 291
schel 291
schumann 291
tec 291
tles 291
tokugawa 291
vers@@ 291
virut 291
xáp 291
yogi 291
-đừng 290
anni 290
ardo 290
azi 290
camelot 290
cec@@ 290
celia 290
compos@@ 290
cò@@ 290
cồ 290
dickens 290
doing 290
dol 290
dung@@ 290
elbe 290
engineering 290
fighter 290
ition 290
jav@@ 290
kumi 290
mata 290
meth@@ 290
mhz 290
philips 290
program 290
rằm 290
sacramento 290
ships 290
tnct 290
tora@@ 290
trg 290
trong. 290
tọng 290
vp 290
xie 290
xnk 290
yamamoto 290
zho@@ 290
ê-li-sa-bét 290
đarya 290
đừ 290
................................@@ 289
1859 289
77@@ 289
aar 289
aberforth 289
ases 289
bathilda 289
bethany 289
bre 289
cry@@ 289
desktop 289
dino 289
egypt 289
excel 289
farber 289
farid 289
iển 289
kilo@@ 289
kiyama 289
kun 289
lors 289
medina 289
messiah 289
nette 289
nhưỡng 289
niedermann 289
num 289
organization 289
pod 289
sidney 289
superman 289
wanna 289
xp 289
xô-rô-ba-bên 289
ũ@@ 289
ẻ. 289
ữ 289
1790 288
1851 288
ahan 288
atin 288
berto 288
briggs 288
bungari 288
cherry 288
climb 288
cocain 288
dgers 288
dứ 288
gavroche 288
gieny 288
hayek 288
helsinki 288
i-xơ-ra-ên 288
instru@@ 288
janey 288
khắng 288
kiế@@ 288
leave 288
lorenza 288
loã 288
lé 288
markus 288
mossad 288
powerpoint 288
sẩm 288
tou 288
tóp 288
u.s 288
wire 288
working 288
zai 288
ân. 288
κ@@ 288
23-25 287
aer@@ 287
afc 287
aos 287
bongo 287
bono 287
book@@ 287
bép 287
cally 287
eous 287
erich 287
fun 287
games@@ 287
igor 287
katy 287
khoắt 287
lak 287
mish@@ 287
montague 287
mountains 287
mơcxtôn 287
ngue 287
pietro 287
pryor 287
raham 287
ru-@@ 287
rịn 287
sberg 287
shelby 287
shizuko 287
teu@@ 287
unicef 287
until 287
vexlovxki 287
walgreens 287
ơ-phơ-rát 287
-2 286
alexei 286
angle 286
asked 286
boxing 286
cnc 286
cot 286
cts 286
davidson 286
dence 286
dìa 286
eder@@ 286
emperor 286
eping 286
fg 286
globe 286
gụ 286
iz@@ 286
janelle 286
lê-a 286
lúi 286
maranzano 286
melinda 286
mika 286
mimi 286
mp3 286
oss 286
remember 286
rivas 286
snap@@ 286
song@@ 286
switch 286
syd 286
t- 286
talleyrand 286
trẻ. 286
uh-@@ 286
vey 286
váp 286
âng 286
ễnh 286
ỡn 286
11-9 285
720 285
999 285
archaeo@@ 285
bap@@ 285
belize 285
bourg 285
cf 285
cha-@@ 285
demiris 285
dimitri 285
el-@@ 285
elo 285
enkov 285
f1 285
falcone 285
flying 285
gallery 285
ipo 285
iu 285
iệt. 285
lúc. 285
mauchly 285
mber@@ 285
movement 285
nhe@@ 285
pack@@ 285
plant 285
ring@@ 285
rốc 285
sami 285
sputnik 285
spy@@ 285
stown 285
sẵng 285
tit@@ 285
uy-@@ 285
vla@@ 285
xoẹt 285
đa-ri-út 285
ằ@@ 285
1832 284
43-@@ 284
8,9 284
alen 284
athen 284
aura 284
bram@@ 284
chief 284
chiro 284
collection 284
command@@ 284
coni 284
dimen@@ 284
dodge 284
erra 284
eto@@ 284
figu@@ 284
franky 284
fredrik 284
fuck 284
ghiền 284
giannini 284
grade 284
grey@@ 284
hash@@ 284
hathaway 284
humanity 284
iể@@ 284
kei 284
kimberly 284
lya 284
ma-đơ-len 284
machi 284
manche 284
mk@@ 284
nem 284
penh 284
porfiri 284
reen 284
refle@@ 284
stott 284
strickland 284
thức. 284
universi@@ 284
vôn 284
xel 284
zobrist 284
ễ@@ 284
≥ 284
-mẹ 283
across 283
alie 283
ampa 283
arn 283
aul 283
based 283
belinda 283
cave 283
chloro@@ 283
crassus 283
dra 283
ento 283
fish@@ 283
galt 283
ghi-ta 283
gho@@ 283
gộc 283
kazan 283
korn 283
ligh@@ 283
loud 283
marseille 283
nhài 283
psychology 283
ramón 283
rashid 283
rushworth 283
secre@@ 283
suzanne 283
tenberg 283
tet@@ 283
utsumi 283
valenti@@ 283
vlad 283
vê@@ 283
yehonala 283
28-30 282
adama 282
chỗi 282
custer 282
eccle@@ 282
ected 282
firenze 282
gc 282
gustave 282
hekate 282
jaff@@ 282
kas 282
kiền 282
lamb 282
lumin@@ 282
mea 282
moment 282
selma 282
trư@@ 282
uffe 282
vulgate 282
word@@ 282
đoá 282
60.000 281
alon@@ 281
aman@@ 281
appli@@ 281
br 281
bud@@ 281
chman 281
cyril 281
fund 281
gd 281
hóp 281
irwin 281
lucinda 281
malo@@ 281
mele@@ 281
narcissa 281
octa@@ 281
ohh 281
pak@@ 281
philo 281
redwood 281
revolution 281
ruiz 281
sears 281
thủi 281
vert 281
work@@ 281
zel 281
án@@ 281
đình. 281
-các 280
229 280
254 280
30,@@ 280
390 280
420 280
abri@@ 280
achren 280
bolk 280
daz@@ 280
deep@@ 280
delphi 280
ecu@@ 280
garner 280
jay@@ 280
kumar 280
lose 280
lôtariô 280
mercy 280
mikey 280
ngư@@ 280
nishi@@ 280
opus 280
porto 280
raj@@ 280
saeki 280
sỗ 280
thậ@@ 280
xãy 280
xăng-@@ 280
yte 280
ãy 280
ấ 280
ẳm 280
1-40 279
1844 279
aghê 279
bardo 279
bber 279
continental 279
copy@@ 279
cora 279
cow@@ 279
lệ. 279
midd@@ 279
miều 279
rather 279
rist 279
services 279
seville 279
trix 279
tur 279
tế. 279
views 279
zoo@@ 279
óc@@ 279
λ@@ 279
ễ 279
ực. 279
a-ma-léc 278
aha 278
angi@@ 278
constan@@ 278
dero 278
genya 278
gigi 278
gno@@ 278
godric 278
growth 278
hamp@@ 278
inus 278
jel@@ 278
karkaroff 278
ln@@ 278
lẻm 278
lờn 278
nypd 278
para 278
pere 278
picture 278
python 278
rail@@ 278
sometimes 278
strategy 278
suff@@ 278
thần. 278
ttlkck 278
uta 278
yel@@ 278
zak 278
г@@ 278
ẳ@@ 278
ệt. 278
acs 277
alber@@ 277
americ@@ 277
aming 277
ariana 277
blessing 277
broad 277
casanova 277
cognac 277
custo@@ 277
doub@@ 277
eor@@ 277
esi@@ 277
events 277
janssen 277
khê 277
luzon 277
mizu@@ 277
mòi 277
ngùn 277
pcr 277
pear@@ 277
prix 277
procter 277
quez 277
shad@@ 277
stage 277
sách. 277
sát. 277
television 277
tsagaglalal 277
tsukahara 277
wara 277
winterfell 277
yermolov 277
ày 277
ỷ@@ 277
≤ 277
223 276
303 276
alberta 276
andr 276
ater 276
corinna 276
elva 276
gave 276
giường. 276
hor 276
indianapolis 276
ivanov 276
kudo 276
leicester 276
lindsay 276
mariko-san 276
midway 276
na-tha-na-ên 276
nazi 276
ngi 276
psal@@ 276
rö@@ 276
sebas 276
serotonin 276
share 276
shibuya 276
sôđôm 276
to-@@ 276
total 276
trâng 276
venture 276
whitby 276
1804 275
228 275
arab@@ 275
bươn 275
cele@@ 275
chân. 275
col 275
confir@@ 275
eper 275
fujiko 275
giôsia 275
ketty 275
khênh 275
lá@@ 275
moldova 275
nhât 275
nr 275
nữ. 275
onne 275
parvati 275
pneu@@ 275
raw 275
sand 275
trá@@ 275
tuỷ 275
vis@@ 275
vpcp 275
xk@@ 275
ês@@ 275
ìu 275
đễ 275
aikido 274
alan@@ 274
beam 274
caltech 274
cancer 274
cke 274
coli 274
dger 274
eduard 274
ener 274
hafid 274
idi@@ 274
kka 274
leaf 274
lk 274
mberland 274
mph 274
nhắp 274
nhợ 274
quincy 274
sergey 274
sic 274
tessio 274
vlncn 274
volkswagen 274
xoang 274
xán 274
êrênhđira 274
òm 274
ập. 274
722 273
abo@@ 273
barak 273
bernad@@ 273
chiaki 273
civil 273
commission 273
crew 273
danton 273
fonseca 273
giôđanh 273
gui 273
hearts 273
ign@@ 273
joffrey 273
kak@@ 273
mium 273
mura@@ 273
ners 273
nun@@ 273
pach@@ 273
pollock 273
pompey 273
rek 273
rởm 273
san-chê-ríp 273
thuấn 273
thúy 273
tradi@@ 273
tục. 273
wyoming 273
êp 273
ν@@ 273
ỉ. 273
ốc. 273
adobe 272
amador 272
belfast 272
beo 272
bus@@ 272
chas@@ 272
cii 272
colombo 272
cà-vạt 272
diggory 272
doge 272
dáo 272
elijah 272
evi@@ 272
huđơ 272
hypo@@ 272
hênh 272
john@@ 272
julien 272
l.a. 272
lausanne 272
malacca 272
mber 272
nghiệp. 272
pay 272
phút. 272
port@@ 272
proctor 272
proper@@ 272
retrieved 272
risto@@ 272
shankar 272
suite 272
sworth 272
tau 272
trị. 272
verdurin 272
ér@@ 272
ìm 272
1806 271
1849 271
250.000 271
ao. 271
aur 271
bj 271
bụm 271
casa 271
colt 271
concer@@ 271
dge@@ 271
esi 271
giuđe 271
helm 271
hn@@ 271
hogsmeade 271
horus 271
houten 271
ille@@ 271
kyu 271
loy@@ 271
lưa 271
nghĩ@@ 271
ngụt 271
nielsen 271
nr@@ 271
nứa 271
perspective 271
physics 271
pop@@ 271
quantico 271
qúy 271
shaker 271
thomson 271
tomás 271
trap@@ 271
trey 271
trắng. 271
urban 271
verona 271
violon 271
vits 271
wallis 271
ø 271
ùi 271
đợi. 271
11201 270
370 270
7,8 270
agoras 270
bapti@@ 270
barbados 270
bf 270
brittany 270
buster 270
bố. 270
corin@@ 270
cũ. 270
diết 270
felten 270
ffer@@ 270
fère 270
galli@@ 270
geon 270
git 270
hiều 270
họat 270
ides 270
jung@@ 270
marsh@@ 270
meta 270
mundo 270
nh.@@ 270
nio 270
oặt 270
phụ@@ 270
rawls 270
selia 270
size 270
staff 270
terra 270
đồ. 270
1805 269
1853 269
1854 269
38-@@ 269
98@@ 269
aol 269
asar 269
avis 269
cambodia 269
chos@@ 269
césar 269
doug@@ 269
essler 269
gertrud 269
giáo. 269
granite 269
grindelwald 269
honor 269
illes 269
itz 269
jena 269
katsu@@ 269
laws 269
lida 269
lur@@ 269
lúm 269
micah 269
mio 269
moncrieff 269
monsieur 269
perth 269
pont 269
samp@@ 269
scotia 269
sinatra 269
socola 269
stam@@ 269
triễn 269
trumpet 269
vent 269
vulcan 269
wired 269
yevich 269
ạn. 269
ần-@@ 269
37-@@ 268
adelaida 268
anemone 268
arséne 268
asher 268
atsu 268
biển. 268
bárbara 268
bẫm 268
chippingham 268
chow 268
cial 268
cleo@@ 268
common@@ 268
desmond 268
edon 268
ester@@ 268
gaston 268
gori@@ 268
halle 268
hans@@ 268
ist@@ 268
jör@@ 268
knightley 268
kor 268
kō@@ 268
lagu@@ 268
lep@@ 268
lực. 268
medlock 268
mino 268
neva 268
nú@@ 268
olympics 268
pira@@ 268
playing 268
pleas@@ 268
siôn 268
skin 268
snowden 268
tered 268
tonic 268
vô@@ 268
wickham 268
-này 267
17-21 267
add 267
ang. 267
asure 267
australian 267
bcn 267
beginning 267
bug 267
bur 267
chita 267
coffee 267
crane 267
fellow 267
flannaghan 267
giai-ru 267
goya 267
gustavo 267
hori@@ 267
humphrey 267
hến 267
irish 267
kichi 267
kẻ-mà-ai-cũng-biết-là-ai-đấy 267
nhard 267
physical 267
rangers 267
rùm 267
stormy 267
sêgunđô 267
tsc@@ 267
tại. 267
veronika 267
victory 267
viol@@ 267
wl 267
yev 267
zawa 267
ãng 267
đờm 267
1-32 266
14-18 266
7a 266
aber@@ 266
agh 266
amon 266
anatolia 266
betsy 266
christie 266
dak@@ 266
dulles 266
foods 266
gins 266
haus 266
kal 266
kháo 266
kjv 266
kuala 266
lei 266
lili@@ 266
mabel 266
myra 266
ride 266
roxanne 266
saturday 266
stevie 266
trailer 266
trĩnh 266
tường. 266
vi-@@ 266
walters 266
wrong 266
ầ 266
ỗi 266
178@@ 265
aircraft 265
am-nôn 265
anas 265
covered 265
dwarf 265
ends 265
frederi@@ 265
gai@@ 265
guru 265
gôgôtha 265
ivanovitr 265
koinonia 265
lace 265
lights 265
lla 265
masuo 265
melina 265
newsweek 265
nót 265
phat 265
phả@@ 265
poe 265
regan 265
rey@@ 265
rê-bê-ca 265
rằn 265
swin@@ 265
sếu 265
terly 265
tolstoy 265
try@@ 265
ờ-@@ 265
-họ 264
1793 264
atta 264
batư 264
bedford 264
beth@@ 264
bửa 264
ca-na 264
crookshanks 264
descri@@ 264
eddy 264
edmon@@ 264
ere@@ 264
flag@@ 264
frederic 264
hel 264
idris 264
kongre 264
litt@@ 264
modig 264
moe 264
nazar@@ 264
pareto 264
pn 264
ranger 264
rush 264
señor 264
talks 264
teleborian 264
tequila 264
thầm. 264
toledo 264
trẹo 264
wheaton 264
xibir 264
zz 264
ớp 264
ởn 264
african 263
albi@@ 263
alph@@ 263
anu@@ 263
canh-đê 263
chầy 263
colbert 263
communi@@ 263
diềm 263
due 263
eman@@ 263
epistle 263
ether 263
fauchelevent 263
fee 263
hammurabi 263
héc 263
ion@@ 263
jah 263
kindle 263
kova 263
lorna 263
lít-trơ 263
montelepre 263
monty 263
muni@@ 263
obaydi 263
por 263
push 263
reality 263
ror 263
rừ 263
samar@@ 263
schol@@ 263
ultimate 263
vanh 263
vietgap 263
về@@ 263
ựng 263
-ta 262
305 262
31,@@ 262
aam 262
animation 262
bernoulli 262
bm 262
caldwell 262
cale@@ 262
cen 262
chiêng 262
cođơ 262
crypto 262
desig@@ 262
ehr@@ 262
gry@@ 262
het@@ 262
holo@@ 262
hom 262
hoáy 262
interpre@@ 262
isaiah 262
kelley 262
kimber@@ 262
milimét 262
ming@@ 262
mù@@ 262
ngưởng 262
oter 262
parc 262
published 262
senegal 262
thín 262
uv 262
ảnh. 262
ấy@@ 262
ẻm 262
article 261
atr@@ 261
attack 261
bei@@ 261
bertino 261
buchanan 261
bảo. 261
cag@@ 261
choice 261
cimourdain 261
eps 261
genovese 261
ghinh 261
giô-ram 261
gny 261
heisenberg 261
herbie 261
huxley 261
ilich 261
insi@@ 261
korean 261
kus@@ 261
lle@@ 261
md@@ 261
mega@@ 261
nax@@ 261
ngáo 261
ores 261
pick@@ 261
piece 261
press@@ 261
production 261
raleigh 261
reston 261
ruthie 261
ryn 261
sd@@ 261
soup 261
sẽ@@ 261
talis 261
thunder@@ 261
thứ@@ 261
volkheimer 261
wifi 261
xl 261
yong 261
ân@@ 261
-ký 260
1.200 260
12,13 260
1810 260
7887 260
advanced 260
akin 260
ameri@@ 260
bannister 260
bjorck 260
brubaker 260
casting 260
cken 260
cket 260
dag 260
dle 260
edie 260
ibrahim 260
jap@@ 260
kv@@ 260
lywood 260
mellon 260
mindy 260
need@@ 260
nùi 260
parminder 260
poseidon 260
pus@@ 260
roth@@ 260
sardinia 260
travers 260
ulysses 260
vay@@ 260
vier 260
wataya 260
zuki 260
í. 260
ắng. 260
1.5 259
38-39 259
410 259
abên 259
adidas 259
anny 259
cannes 259
chanel 259
destin 259
dory 259
ensky 259
eskimo 259
ghita 259
hobbes 259
jedi 259
keef 259
lish 259
lovely 259
là-@@ 259
musashi 259
mướp 259
nord@@ 259
nõn 259
nắc 259
oro@@ 259
philo@@ 259
prof@@ 259
roussard 259
stapleton 259
suri@@ 259
tee 259
thứ. 259
tr.cn 259
tō@@ 259
worship 259
xoè 259
zhen@@ 259
ýt 259
ăm. 259
1833 258
6-10 258
a-qui-la 258
alix 258
aves 258
bells 258
boeun 258
brady 258
brin@@ 258
burgundy 258
circuit 258
cuố@@ 258
cơ-rết 258
eral 258
getting 258
grady 258
heidelberg 258
herney 258
ià 258
jenn 258
jeod 258
lies 258
madam 258
madeline 258
mav@@ 258
mccain 258
mcgregor 258
ond 258
oro 258
qủa 258
reu@@ 258
rục 258
sr@@ 258
suồng 258
trick 258
uses 258
wat 258
yev@@ 258
ấn-@@ 258
ỗng 258
-ca 257
251 257
65@@ 257
above 257
bjorn 257
celestine 257
cit 257
cologne 257
committee 257
dead@@ 257
demp@@ 257
dice 257
disco 257
emin@@ 257
engelbart 257
farmer 257
georg 257
gras@@ 257
ives 257
kawana 257
kendra 257
khuê 257
kên 257
lit@@ 257
meister 257
missy 257
moshe 257
mott 257
mundt 257
nhanh. 257
này@@ 257
nư@@ 257
pain@@ 257
pơ 257
rosen 257
rule 257
sươ 257
tash@@ 257
teng 257
trotsky 257
turkmenistan 257
tự-@@ 257
urgals 257
uria 257
vồn 257
wanted 257
willow 257
wing@@ 257
ênh 257
đại. 257
€ 257
a-ri-@@ 256
ariel 256
arry 256
barbro 256
bloom@@ 256
charis@@ 256
commodore 256
daniels 256
dobson 256
gabby 256
giá. 256
gày 256
habsburg 256
ix@@ 256
judo 256
kand@@ 256
kerr 256
khều 256
lak@@ 256
lambert 256
ml@@ 256
mếu 256
neau 256
opp@@ 256
phẩn 256
pods 256
ppi@@ 256
silver@@ 256
sángthếký 256
tiss 256
vass@@ 256
wisdom 256
wt 256
-đây 255
6-11 255
7-12 255
7000 255
7881 255
9-14 255
ahi@@ 255
airbus 255
anos 255
aut 255
barnabás 255
branson 255
chesney 255
courtney 255
denburg 255
drama 255
erre 255
estown 255
evileye 255
ffs 255
gáo 255
hip@@ 255
kaplan 255
lap 255
lếch 255
mckin@@ 255
merwe 255
mueller 255
quet 255
rot 255
sach@@ 255
simon@@ 255
tila 255
tley 255
tàm 255
vah 255
xerioja 255
ying 255
đk@@ 255
ơ. 255
-ra-@@ 254
-ôi 254
11,12 254
1750 254
alma 254
ature 254
brunswick 254
commen@@ 254
corps 254
dang@@ 254
dermott 254
dius 254
dron 254
dynam@@ 254
economist 254
ely@@ 254
epis@@ 254
epps 254
fit 254
forrest 254
fowler 254
giê-hô-gia-kim 254
giồi 254
godolphin 254
guys 254
hammer@@ 254
holm 254
identi@@ 254
jed@@ 254
khấm 254
lotus 254
methyl 254
mongo@@ 254
mot 254
nefer@@ 254
nói- 254
petit 254
pong 254
pour 254
publications 254
rotterdam 254
rv 254
tish 254
uae 254
vil 254
volga 254
watergate 254
wild@@ 254
write 254
π@@ 254
ر@@ 254
007 253
08@@ 253
16-19 253
1857 253
22.@@ 253
252 253
47-@@ 253
aic 253
ango@@ 253
baby@@ 253
bull@@ 253
cbi 253
churches 253
chã 253
chị. 253
cock 253
description 253
diệc 253
donovan 253
ees 253
esian 253
gascogne 253
giong 253
grim 253
jamal 253
judgment 253
karin 253
kras@@ 253
m1 253
maud 253
milwaukee 253
mum 253
môáp 253
neptune 253
patton 253
pers 253
phạc 253
qué@@ 253
rhy@@ 253
sander 253
sartre 253
sit@@ 253
situation 253
sos@@ 253
starcraft 253
sằng 253
ta-ma 253
tội. 253
unit 253
viện. 253
vou@@ 253
wley 253
xắt 253
ápđia 253
ít. 253
ẳn 253
334 252
5,000 252
analysis 252
andersen 252
au-@@ 252
bag 252
beatty 252
bio 252
caius 252
dier 252
er. 252
essie 252
fp 252
gabri@@ 252
hanover 252
imperial 252
journey 252
katavaxov 252
lange 252
lombard 252
magna 252
nilon 252
odysseus 252
post@@ 252
rawlins 252
rep@@ 252
rugby 252
rémy 252
sakigake 252
southampton 252
styx 252
sáng-thế 252
thuôn 252
thếp 252
trou@@ 252
tưởng. 252
veda 252
51-@@ 251
anxelmô 251
bell@@ 251
brain@@ 251
cesar 251
cet 251
democra@@ 251
emile 251
essen 251
fate 251
fiedler 251
genevieve 251
genia 251
goldberg 251
hammond 251
heritage 251
hiro@@ 251
incheon 251
isse 251
jing@@ 251
koku 251
massage 251
moun@@ 251
mớ@@ 251
nasb 251
neigh@@ 251
oleg 251
punjab 251
quaker 251
reau 251
rệu 251
salu@@ 251
saurus 251
scandal 251
sturmhond 251
sõng 251
tak 251
ticus 251
tivo 251
uo 251
venezia 251
viên. 251
wag@@ 251
weinberg 251
wrentmore 251
wulf 251
zeno 251
ến 251
ểu 251
16,17 250
1855 250
2nd 250
338 250
aes@@ 250
alla 250
aven 250
basti@@ 250
beast 250
botswana 250
cations 250
chuồi 250
creative 250
curry 250
darryl 250
eat 250
erve 250
gul 250
hụp 250
inuit 250
joad 250
kaede 250
kangaroo 250
kimura 250
ladin 250
lao@@ 250
lash 250
lòm 250
lơ@@ 250
lẹt 250
meet 250
pack 250
rn 250
sabah 250
sổng 250
thọt 250
tonight 250
tuabin 250
wimber 250
xml 250
yoshi 250
zard 250
zol@@ 250
zulu 250
´ 250
ê-thi-ô-bi 250
ướng 250
ạnh 250
ếu 250
13,14 249
43@@ 249
5-10 249
ada@@ 249
alexandros 249
anta 249
archimedes 249
associated 249
bôô 249
cannot 249
ch00c1e5ec 249
di-@@ 249
eler 249
fantine 249
giônathan 249
grew 249
hark 249
hos@@ 249
hubert 249
jee 249
kash@@ 249
linkedin 249
maldives 249
marge 249
nhoạng 249
ool 249
ott@@ 249
perkins 249
q. 249
quad 249
sati@@ 249
seleukos 249
shen 249
sigur@@ 249
somali 249
standing 249
suresh 249
sè 249
taw@@ 249
trố@@ 249
tưởi 249
wake 249
well@@ 249
xang 249
óc. 249
annu@@ 248
apec 248
bải 248
da-@@ 248
doll 248
dong@@ 248
duk 248
eco 248
enne@@ 248
environ@@ 248
germany 248
gia. 248
giao-ước 248
guard 248
hrt 248
jura 248
leibniz 248
linc 248
lud@@ 248
nol 248
nubia 248
papias 248
political 248
reach 248
senior 248
smal@@ 248
speci@@ 248
spence 248
tali@@ 248
thier 248
tigris 248
tilli@@ 248
trand 248
truớc 248
virút 248
vous 248
xẩm 248
yankees 248
م@@ 248
ịch. 248
1-29 247
1852 247
640 247
active 247
annenberg 247
bonne 247
bow 247
brin 247
buy@@ 247
casablanca 247
chance 247
damasso 247
fellowship 247
fran 247
frode 247
griffith 247
howie 247
hy-văn 247
kremlin 247
lil 247
loá 247
lớ@@ 247
mcgill 247
ochiba 247
oke 247
oko 247
oor 247
ortho@@ 247
peck 247
peo@@ 247
phị 247
renee 247
rill 247
rô-bốt 247
rằ@@ 247
stace 247
stad 247
tani 247
tristan 247
u-ri 247
vasco 247
vá@@ 247
vị. 247
zed@@ 247
ã. 247
đóan 247
ğ@@ 247
-rôn 246
21.@@ 246
aero@@ 246
audi@@ 246
bir 246
caribê 246
cliffe 246
corner 246
debut 246
deut@@ 246
dhabi 246
dorado 246
download 246
dồ 246
eight 246
enh@@ 246
espresso 246
galloway 246
hippie 246
hiệ@@ 246
ilya 246
laughing 246
line@@ 246
lle 246
loè 246
lumpur 246
lí@@ 246
lợ 246
monet 246
pavel 246
peter@@ 246
pf@@ 246
raccoon 246
richon 246
rite 246
shone 246
sion@@ 246
snyder 246
throughout 246
thẩy 246
vue 246
đen@@ 246
′ 246
-ai 245
14,15 245
60-@@ 245
actions 245
actually 245
ael 245
aries 245
ba-ra-ba 245
beña 245
chặc 245
clean 245
cobb 245
enjolras 245
godfrey 245
hassan 245
hong@@ 245
huvênan 245
hãi. 245
hập 245
ide@@ 245
lehman 245
marriage 245
mble@@ 245
murdoch 245
musc@@ 245
philly 245
phùn 245
phục. 245
purpose 245
qt@@ 245
rollo 245
russo 245
shaw@@ 245
sheeran 245
shiva 245
skinner 245
sler 245
span 245
tat 245
thên 245
tok@@ 245
toong 245
trade 245
turn@@ 245
z. 245
zerimski 245
đrô 245
đù 245
đứ@@ 245
ي@@ 245
5- 244
alaga@@ 244
application 244
ason 244
bari 244
bers 244
bomb 244
chính. 244
chóe 244
copa 244
douin 244
edvard 244
electronics 244
enos 244
giô-xép 244
herb 244
hz 244
itali@@ 244
josef 244
khrushchev 244
khỏang 244
merck 244
nhoà 244
nhậ@@ 244
ong@@ 244
orléans 244
pcp 244
rubio 244
sancia 244
shū 244
sunshine 244
truỵ 244
tusc@@ 244
vian 244
vện 244
vục 244
xềnh 244
yi@@ 244
ắm 244
7909 243
altair 243
antonius 243
atan 243
authori@@ 243
break@@ 243
bê-rít-sin 243
bạnh 243
cale 243
chapel 243
faithful 243
font 243
fundam@@ 243
georgette 243
giving 243
gringotts 243
hair 243
harbor 243
hardwick 243
hecsêbom 243
hq 243
icus 243
insu@@ 243
irkuxk 243
iếu 243
luyê 243
lửa. 243
mết 243
ngừơi 243
nik@@ 243
nái 243
pray 243
roper 243
tip 243
tonia 243
ubuntu 243
ura@@ 243
virgi@@ 243
xanadu 243
yedo 243
zachary 243
ça 243
ính 243
10-14 242
10-15 242
1847 242
6- 242
600@@ 242
achilles 242
bơn 242
chez 242
chùy 242
cki@@ 242
coma 242
delia 242
erian 242
gai-út 242
grun@@ 242
helm@@ 242
hiromatsu 242
jk 242
khóc. 242
lain 242
metan 242
nomin@@ 242
palau 242
pf 242
pluto 242
practi@@ 242
scipio 242
strait 242
taken 242
ubs 242
vichy 242
welland 242
wendell 242
zier 242
δ@@ 242
ụi 242
.-- 241
188@@ 241
194@@ 241
327 241
451 241
8000 241
agre@@ 241
amin@@ 241
asha 241
aziza 241
ba-lô 241
bagration 241
bah 241
bethlehem 241
birgit 241
blas@@ 241
breton 241
bát-@@ 241
ccn 241
centimét 241
collagen 241
craven 241
destiny 241
diff 241
dori@@ 241
dreams 241
etc 241
giần 241
gulf 241
hits 241
january 241
jä@@ 241
kitchen 241
làm@@ 241
lổn 241
maman 241
maximus 241
mcqueen 241
mics 241
niten 241
nmđhn 241
ox 241
pathfinder 241
peti@@ 241
phine 241
problem 241
rủn 241
svetlana 241
sán@@ 241
tein 241
tonga 241
vitch 241
xavier 241
xk 241
xúy 241
ê-li-hu 241
đọan 241
11-16 240
1100 240
1843 240
1st 240
315 240
8-12 240
a-li-@@ 240
arden@@ 240
assu@@ 240
benno 240
bey 240
chá@@ 240
chếnh 240
cole@@ 240
communications 240
dominica 240
elohim 240
ernesto 240
feed 240
hwa 240
hêrốt 240
idol 240
ilar 240
inte@@ 240
jasmine 240
jet@@ 240
johan 240
kingston 240
lipid 240
loch 240
lyle 240
mahatma 240
mbe 240
mberg 240
nicholl 240
ood 240
ope@@ 240
siberi 240
sims 240
sinclair 240
sse@@ 240
stifler 240
tajikistan 240
talking 240
thiết. 240
woodhouse 240
xuyết 240
yokosuka 240
ép-@@ 240
ðê 240
ño 240
ót 240
đấ@@ 240
đằm 240
-thôi 239
1795 239
1845 239
alvarez 239
arch 239
baroque 239
began 239
britney 239
dō 239
ersson 239
fifth 239
gage 239
giê-hô-@@ 239
giế@@ 239
goi 239
heinz 239
hg 239
iah 239
lô-gíc 239
lẹm 239
malone 239
martyr 239
mcnaughton 239
mình@@ 239
navajo 239
nng 239
nus@@ 239
philosophy 239
pudding 239
river@@ 239
sae 239
sheffield 239
sic@@ 239
skaya 239
stories 239
surrey 239
thoreau 239
thực. 239
tto 239
vích 239
yourself 239
ởng 239
-làm 238
1831 238
angelini 238
anian 238
baptiste 238
bubba 238
cai@@ 238
cassie 238
cg 238
clou@@ 238
console 238
dạ@@ 238
fail 238
firefox 238
greater 238
hg@@ 238
janus 238
juni@@ 238
korsak 238
mand 238
nation@@ 238
navi@@ 238
ngậy 238
nk@@ 238
pez 238
places 238
remy 238
rence 238
royall 238
serie 238
sheikh 238
ssd 238
stem 238
sạt-đe 238
tusk 238
vail 238
vectơ 238
vnđ 238
ài. 238
ôi-@@ 238
ال@@ 238
239 237
264 237
3x 237
7863 237
amenhotep 237
bazơ 237
bei 237
boulogne 237
buick 237
cad 237
cated 237
chrome 237
conser@@ 237
eless 237
fleet 237
forward 237
gazef 237
gula 237
h00 237
hyatt 237
jfk 237
jolie 237
jonny 237
kimmy 237
knorr 237
lise 237
loop 237
maho@@ 237
mamiya 237
maxine 237
memory 237
mingott 237
morstan 237
paz 237
phim@@ 237
rad 237
rái 237
rề 237
samaritan 237
sequ@@ 237
strasser 237
trc 237
tti 237
tính. 237
uni 237
ăng-ten 237
й 237
ạp 237
ịch 237
aurelius 236
azaki 236
carvahall 236
deloitte 236
dun 236
factor 236
heal@@ 236
indus@@ 236
khệnh 236
kiri 236
know@@ 236
konstantin 236
ktth 236
leaves 236
lomb@@ 236
lug@@ 236
maia 236
master@@ 236
mmel 236
moto@@ 236
nay@@ 236
neri 236
osis 236
ped 236
redmayne 236
refer@@ 236
rush@@ 236
stel@@ 236
survey 236
suyển 236
tain@@ 236
tav@@ 236
terman 236
themselves 236
trên. 236
trệch 236
wessex 236
yers 236
êu-@@ 236
ū 236
ắn 236
ẻng 236
ề. 236
2022 235
323 235
515 235
acu@@ 235
aden@@ 235
aea 235
anxi@@ 235
archie 235
arina 235
bich 235
bludger 235
brinkerhoff 235
brought 235
cha. 235
cheon 235
chủ. 235
crisis 235
cue 235
doro 235
dunn 235
eaux 235
every@@ 235
flanders 235
fram@@ 235
gallup 235
golem 235
hư@@ 235
independent 235
kavkaz 235
kishi@@ 235
kubo 235
lae 235
lberg 235
lithium 235
lockheed 235
mahal 235
mcgra@@ 235
mix@@ 235
ppi 235
pulitzer 235
rabi 235
reader 235
rox@@ 235
ryu@@ 235
seleu@@ 235
soe 235
sookie 235
tale 235
toba 235
trym 235
uc 235
¢ 235
ần. 235
.tôi 234
22-25 234
arawn 234
bv 234
bú@@ 234
chacal 234
cây. 234
diner 234
dioxide 234
es-@@ 234
hi-bá-lai 234
hideyoshi 234
itself 234
killed 234
krupp 234
krypton 234
kyrgyzstan 234
leader 234
mili 234
military 234
muse 234
november 234
năm@@ 234
obi@@ 234
pam@@ 234
quette 234
riel 234
ryland 234
si-miệc-nơ 234
slow 234
tornado 234
tì@@ 234
update 234
vassell 234
vation 234
vẻn 234
yusuf 234
ðặng 234
ăn-@@ 234
được-@@ 234
ững 234
1610 233
265 233
a-can 233
accessed 233
acio 233
angorian 233
ashin 233
austen 233
berg@@ 233
bỉu 233
chườm 233
clair 233
december 233
ers-@@ 233
excel@@ 233
follow 233
fusae 233
hickock 233
hideaway 233
hilda 233
hầy 233
kháu 233
kito 233
mcdermott 233
myr@@ 233
mởn 233
nestor 233
pang@@ 233
percival 233
pert 233
pisto@@ 233
raz@@ 233
razor 233
singleton 233
sole@@ 233
thườn 233
tiberi@@ 233
trợt 233
vasili 233
âu. 233
イ@@ 233
-rơ 232
24-26 232
aubrey 232
beak 232
chọe 232
corinthians 232
cía 232
cơva 232
dieu 232
doc@@ 232
dù@@ 232
dớ 232
enterprises 232
equi@@ 232
esha 232
evin 232
fordshire 232
hockey 232
hã@@ 232
ign 232
loire 232
lun 232
mnet 232
ngoẹo 232
nitr@@ 232
otta 232
performance 232
popper 232
re-@@ 232
re. 232
rinpoche 232
sawyer 232
teros 232
thin@@ 232
thât 232
tico 232
twice 232
vus 232
walther 232
xemi@@ 232
xenophilius 232
ưm 232
ʹ 232
ạch. 232
1,3 231
16-20 231
248 231
5b 231
alain 231
anie 231
archibald 231
aristo@@ 231
augustin 231
bian@@ 231
bly 231
browning 231
comb 231
concerto 231
coy 231
cỡn 231
derick 231
dex 231
dric 231
expo 231
geeta 231
hepburn 231
inspi@@ 231
jaz 231
laun@@ 231
lijaong 231
mcl@@ 231
mechan@@ 231
medicine 231
mirage 231
nuremberg 231
physi@@ 231
pig@@ 231
prophecy 231
psyche 231
ric@@ 231
sarajevo 231
schle@@ 231
smith@@ 231
soho 231
taco 231
tranh. 231
tun@@ 231
un-@@ 231
ventures 231
xam@@ 231
yak 231
yam 231
yang@@ 231
ê-li-pha 231
đêôn 231
з@@ 231
ỉu 231
ọng 231
ối. 231
ừ. 231
000đ 230
4- 230
a-bi-mê-léc 230
a-san 230
arlington 230
asu 230
atsumi 230
bianco 230
bius 230
bro 230
bỡ 230
campus 230
chevreuse 230
chh@@ 230
claus 230
content 230
csi 230
dap 230
dda 230
dear 230
dele@@ 230
dosto@@ 230
having 230
huntington 230
inberg 230
liner 230
maid 230
maori 230
moon@@ 230
neuron 230
pagford 230
parts 230
pps 230
prendergast 230
rein@@ 230
sampson 230
secon@@ 230
sins 230
sms 230
thê@@ 230
trọ@@ 230
tôt 230
u-á 230
uno 230
using 230
wana 230
yaku@@ 230
zelda 230
âm. 230
ā 230
ợn 230
1846 229
490 229
ashraf 229
beccanti 229
blin@@ 229
brüder 229
bâu 229
bọng 229
confi@@ 229
côn@@ 229
det 229
ects 229
edelmira 229
effect 229
emoti@@ 229
estra 229
films 229
gillenormand 229
gía 229
harney 229
hindi 229
issi@@ 229
kyra 229
labrador 229
logarit 229
loway 229
lus@@ 229
meier 229
milken 229
motion 229
myth 229
narziss 229
ngật 229
nhay 229
nê-a 229
philli@@ 229
pit 229
ryu 229
samar 229
scope 229
sebastien 229
sica 229
strand 229
tcpht 229
tives 229
tral 229
tries 229
vester 229
weaver 229
wm 229
-cháu 228
1834 228
aaaa@@ 228
audrey 228
bam 228
bebe 228
bếtlêhem 228
cili@@ 228
coco 228
comminger 228
communication 228
cortisol 228
covey 228
crixus 228
dogs 228
dà@@ 228
eminem 228
eni 228
estes 228
happened 228
ices 228
insight 228
isman 228
katsumata 228
khạng 228
leg 228
linh. 228
loki 228
lop 228
lorentz 228
mayer 228
mex@@ 228
mằn 228
n2 228
naoki 228
nius 228
nuria 228
nịu 228
pelli@@ 228
penang 228
phay 228
rheingold 228
ritchie 228
shah@@ 228
sl 228
sleep 228
someone 228
tccn 228
thuẩn 228
thùm 228
thướt 228
tours 228
www.jw.org 228
yd 228
ần@@ 228
ắc@@ 228
322 227
4-9 227
86@@ 227
aeg@@ 227
ales@@ 227
atures 227
bunyan 227
chos 227
chul 227
conan 227
culus 227
d2 227
deri 227
dụng. 227
elling 227
giêrôbôam 227
hotep 227
hsđ@@ 227
humbert 227
illiard 227
jekyll 227
modi@@ 227
monde 227
nazir 227
ngờ. 227
nhớn 227
omi-san 227
ort 227
p2 227
period 227
principles 227
right@@ 227
smita 227
socrate 227
summers 227
toon 227
tottenham 227
travel 227
trướ@@ 227
unintelligible 227
ush 227
uých 227
voan 227
voir 227
è. 227
ðối 227
đk 227
ưởng 227
ấn. 227
ặt. 227
ể@@ 227
-ri 226
1492 226
1809 226
29,@@ 226
ajax 226
akers 226
alexios 226
andal 226
are@@ 226
asiri 226
athers 226
battle@@ 226
bora 226
bullock 226
chevrolet 226
choắt 226
chur@@ 226
chíp-rơ 226
eks 226
emili 226
emmet 226
gatan 226
gumb 226
illard 226
latimer 226
lder 226
leadership 226
life@@ 226
lly 226
made@@ 226
maxime 226
minister 226
mitka 226
muố@@ 226
nig@@ 226
nãi 226
nơi. 226
pendleton 226
petrov 226
phô-mai 226
rais@@ 226
random 226
rer 226
rolex 226
romans 226
sias@@ 226
stav@@ 226
sỉa 226
tomas 226
tse@@ 226
tình. 226
u.s.@@ 226
uẩn 226
vene@@ 226
vez 226
ylon 226
ðương 226
û 226
đor 226
1.1 225
17-20 225
1807 225
1821 225
404 225
511 225
88@@ 225
ake@@ 225
almost 225
andalu@@ 225
antwerp 225
aristoteles 225
asami 225
augsburg 225
awn 225
baggins 225
cedric 225
chronicle 225
chẹn 225
collet 225
colson 225
dollars 225
emen 225
fman 225
genericname 225
giê-xu. 225
hartley 225
inh@@ 225
inv@@ 225
kton 225
lafayette 225
lator 225
lori 225
lsd 225
magne@@ 225
nex@@ 225
noboru 225
odessa 225
popular 225
premi@@ 225
quali@@ 225
quạch 225
raj 225
scot 225
smolensk 225
squad 225
stu 225
sáng-@@ 225
sâm-banh 225
terri@@ 225
thôma 225
tini 225
tíu 225
wentworth 225
wife 225
wre@@ 225
yellowstone 225
àng 225
ôgarep 225
ς 225
-chúa 224
-còn 224
150@@ 224
ación 224
adachi 224
animals 224
birthday 224
brahman 224
bretagne 224
broken 224
bunny 224
caterina 224
ché@@ 224
cmktnn 224
cock@@ 224
cp@@ 224
denny 224
eben 224
fiat 224
fielding 224
fry 224
gazette 224
gea 224
gur 224
honor@@ 224
hwi 224
images 224
imo 224
is. 224
iz 224
kaliayev 224
kiểng 224
loren@@ 224
marcos 224
mem 224
mọ@@ 224
nap 224
nazareth 224
nhà@@ 224
ously 224
oux 224
phantom 224
ponti@@ 224
rak 224
ranov 224
raul 224
rever@@ 224
ridley 224
ripley 224
savoy 224
sche@@ 224
sical 224
stant 224
taire 224
vargas 224
venantius 224
wyn@@ 224
zoro@@ 224
àn. 224
ẻ 224
ền. 224
ỵt 224
1801 223
2483 223
26-28 223
algonquin 223
aphrodite 223
arable 223
big@@ 223
caucasus 223
chopin 223
clas@@ 223
colum@@ 223
conquer 223
danu 223
dop@@ 223
doy 223
escu 223
federico 223
fuchur 223
gala 223
gally 223
greavy 223
hempstock 223
herblay 223
ile@@ 223
immari 223
kaa 223
khoắng 223
kim@@ 223
kola 223
lax@@ 223
lonia 223
lucille 223
maccab@@ 223
marin@@ 223
matriona 223
mington 223
mác-xít 223
nao@@ 223
ngor 223
nơron 223
origin 223
orsini 223
philêmôn 223
pollux 223
rựa 223
shift 223
sidhe 223
siri@@ 223
sn 223
soccer 223
sussex 223
tae@@ 223
taglia 223
tàu. 223
uke 223
versi@@ 223
vimana 223
wander@@ 223
xác. 223
yellow 223
óm 223
ọt 223
ời-@@ 223
ỡ 223
247 222
32,@@ 222
335 222
abbey 222
appe@@ 222
atl 222
avengers 222
avon 222
blandish 222
bẹt-găm 222
chiron 222
cid 222
comple 222
coomer 222
cyprus 222
diderot 222
downers 222
durant 222
enie 222
ericsson 222
ezra 222
farm 222
fresh 222
friend@@ 222
glew 222
homo@@ 222
humvee 222
jam 222
kikuco 222
kodak 222
lụp 222
mcclane 222
miro 222
mose 222
moxcva 222
mugich 222
mã@@ 222
newland 222
nex 222
olmsted 222
sapporo 222
sby 222
section 222
severinus 222
silent 222
sính 222
sớ 222
tomorrow 222
trag@@ 222
ulrich 222
vins 222
vitz 222
vić 222
vật. 222
wid@@ 222
xì-gà 222
ü 222
100,000 221
1819 221
aban@@ 221
amun 221
amus 221
aristote 221
arns 221
axia 221
boast 221
cosmo@@ 221
en. 221
esses 221
essions 221
fabian 221
figuerola 221
giỗ 221
gí@@ 221
ivana 221
jō 221
kensington 221
ksson 221
lexi@@ 221
lite 221
lyich 221
lắ@@ 221
magnum 221
mation 221
maynard 221
milimet 221
mitsubishi 221
ngưới 221
ngọng 221
panteley 221
para@@ 221
phecnanđa 221
prepar@@ 221
prescott 221
rara 221
recogni@@ 221
rett 221
rây 221
rêbêca 221
sistine 221
steph@@ 221
time@@ 221
ty. 221
tê-@@ 221
wr@@ 221
xvidrigailov 221
đang@@ 221
đổng 221
─ 221
231 220
612 220
8a 220
ahi 220
amount 220
artemis 220
bentley 220
brecht 220
caul 220
cayhall 220
chs 220
ddin 220
eme 220
ethel 220
ga-ba-ôn 220
gemma 220
helene 220
hybálai 220
hạ@@ 220
hứ 220
iki@@ 220
imer 220
inten@@ 220
khú 220
leblanc 220
legend 220
marisela 220
marlboro 220
mitochondrial 220
ngs@@ 220
nhéo 220
nhẳng 220
pak 220
pod@@ 220
quel 220
reddit 220
rens 220
ridates 220
rihanna 220
rob@@ 220
rubi@@ 220
sana 220
snow@@ 220
speaking 220
stat@@ 220
takes 220
tiu 220
tran 220
tzer 220
tênh 220
u-rơ 220
wh 220
ðang 220
539 219
666 219
aberdeen 219
ables 219
agas@@ 219
azi@@ 219
colo 219
cq@@ 219
crispr 219
cảm. 219
epicurus 219
everybody 219
evey 219
forces 219
giuđê 219
guggenheim 219
heads 219
huyê 219
jame 219
karasawa 219
leona 219
loni@@ 219
lun@@ 219
mace 219
micrô 219
milk 219
mok@@ 219
mê-phi-bô-sết 219
nhn 219
nhậy 219
october 219
patroni 219
pheebs 219
phé 219
pizarro 219
reve@@ 219
saipan 219
sales 219
tamar 219
torie 219
towers 219
trol@@ 219
trô-ách 219
veg@@ 219
vời. 219
zor@@ 219
áp-đia 219
ž@@ 219
18-22 218
255 218
299 218
605 218
alette 218
bagger 218
boot 218
brunner 218
buzan 218
charac@@ 218
commons 218
constance 218
delta-@@ 218
drich 218
dustin 218
dx 218
elio 218
erd@@ 218
glick 218
hailsham 218
hoff 218
hua 218
icôrinhtô 218
indus 218
izu 218
johnnie 218
khẩm 218
larsen 218
laurence 218
mascara 218
mena 218
mys 218
môtô 218
nuột 218
octavian 218
provence 218
quist 218
remus 218
rô-bô-am 218
salgado 218
schwei@@ 218
smar@@ 218
sox 218
thoại. 218
tis@@ 218
u- 218
xăng@@ 218
zoya 218
zuko 218
ũi 218
大@@ 218
16-21 217
25.@@ 217
3-7 217
460 217
49-@@ 217
alise 217
aper 217
aragon 217
aram@@ 217
ardali@@ 217
ashe 217
atten@@ 217
bana 217
billie 217
birth 217
blade 217
chess 217
chiều. 217
created 217
dani 217
eci@@ 217
ener@@ 217
estrogen 217
fumiko 217
ged@@ 217
gert 217
gia-vê 217
gudbrand 217
herr 217
house@@ 217
kad 217
kst 217
lata 217
lead@@ 217
liano 217
lorena 217
mail@@ 217
mishima 217
mony 217
mêhicô 217
nal@@ 217
nghé 217
nid 217
omo 217
osaurus 217
pavlovna 217
pho-mát 217
portman 217
prior 217
reali@@ 217
rôli 217
samuelson 217
sansa 217
sien 217
sook 217
steri@@ 217
tad 217
thuỳ 217
thự@@ 217
toro 217
whitman 217
wilkinson 217
ö 217
า@@ 217
10,11 216
1824 216
abrams 216
aca 216
aida 216
armando 216
bali@@ 216
beats 216
betxi 216
bu-@@ 216
bếp. 216
chol@@ 216
compton 216
diocle@@ 216
direct 216
edric 216
emen@@ 216
fedex 216
fenner 216
gaius 216
hertz 216
ici@@ 216
ise@@ 216
joker 216
khon 216
komako 216
lati@@ 216
lim@@ 216
lindsey 216
linson 216
lọai 216
mallinson 216
mca 216
molotov 216
mpy 216
mx@@ 216
mở. 216
nas 216
nhưng@@ 216
nzt 216
ody 216
olo@@ 216
phơ@@ 216
psi 216
rovere 216
shaoyen 216
sila 216
stafford 216
tax 216
teria 216
the-@@ 216
thá 216
ticism 216
triton 216
tsin 216
williamson 216
xốn 216
ũ 216
ữ. 216
1828 215
1836 215
1856 215
19,20 215
357 215
800@@ 215
alpa 215
annes 215
ather 215
barrow 215
bryant 215
carroll 215
chê@@ 215
dacia 215
deci@@ 215
demo@@ 215
deri@@ 215
dietrich 215
durham 215
dw@@ 215
edman 215
ellidyr 215
ellison 215
forum 215
frag@@ 215
gani@@ 215
harker 215
hẽm 215
icô-rinh-tô 215
linear 215
macar@@ 215
mam 215
mbs 215
meaning 215
milo@@ 215
mohamed 215
mong@@ 215
mê-léc 215
ngý@@ 215
pard 215
phin@@ 215
phon@@ 215
policy 215
probably 215
program@@ 215
results 215
scytale 215
sentinel 215
si-lô 215
suk 215
thang. 215
uto 215
vre 215
wel 215
wish 215
wonder@@ 215
xẵng 215
ðất 215
ăt 215
đỏ. 215
2,4 214
algiers 214
amoniac 214
andros 214
aug@@ 214
ay-@@ 214
basa 214
baskerville 214
bibli@@ 214
blanc 214
btđt 214
báo. 214
bó@@ 214
bết-sai-đa 214
capra 214
casy 214
colonel 214
con-@@ 214
dres@@ 214
díaz 214
faraday 214
galen 214
gerda 214
gá 214
halifax 214
heathrow 214
jeju 214
johansson 214
leman 214
lich@@ 214
lorin 214
lovegood 214
lr 214
lành. 214
mcpherson 214
mulus 214
na-xi-rê 214
narra@@ 214
nhẩn 214
nichol@@ 214
node 214
notre 214
orden 214
phỗng 214
region 214
rhodesia 214
shinozuka 214
silic 214
simone 214
tượng. 214
vớ@@ 214
wimbledon 214
xnet 214
zuka 214
zuru 214
êng 214
đônôgan 214
я 214
ậu 214
1792 213
1796 213
411 213
a-léc-@@ 213
akbar 213
alian 213
ampton 213
azyr 213
aï 213
bcc 213
browne 213
ceph@@ 213
choảng 213
claren 213
ctive 213
của-@@ 213
decisions 213
diaz 213
doba 213
drop 213
dủ 213
eldunarí 213
eling 213
enza 213
er-@@ 213
exeter 213
felicia 213
gorilla 213
gracie 213
gross 213
hoa-kỳ 213
isles 213
kami 213
kemp 213
le. 213
lg@@ 213
lombar@@ 213
lovelace 213
luân-đôn 213
marquis 213
mere 213
nton 213
oce@@ 213
otis 213
pennington 213
plo 213
polk 213
separ@@ 213
settle 213
sik 213
tami@@ 213
tartar 213
teaching 213
tering 213
tice 213
togashi 213
tripoli 213
tulsa 213
tupperware 213
tức. 213
verti@@ 213
vơ@@ 213
why@@ 213
xíp 213
yun@@ 213
zzy 213
đoạ 213
đđ 213
ī@@ 213
ứ. 213
-sê-@@ 212
-vì 212
2-6 212
295 212
a-sa 212
agency 212
aza 212
beings 212
bqlda 212
c3 212
carly 212
cates 212
cingle 212
clapton 212
clericuzio 212
critical 212
cueil 212
cổ. 212
disc@@ 212
dác 212
eran 212
famili@@ 212
feng 212
foun@@ 212
françoise 212
gham 212
gullberg 212
gutenberg 212
gọ@@ 212
hook 212
hoằn 212
hungry 212
hành. 212
iverson 212
js 212
jutta 212
kimmel 212
lution 212
luốc 212
malley 212
mica 212
monster 212
noman 212
obispo 212
pansy 212
peyton 212
plutoni 212
primi@@ 212
sche 212
singles 212
sprout 212
stilgar 212
tchen 212
tern 212
theme 212
tucson 212
té@@ 212
valse 212
verne 212
viscos 212
vị@@ 212
zes 212
¹ 212
đó.@@ 212
ồng. 212
2c 211
530 211
atron 211
balth@@ 211
cali 211
caracas 211
digest 211
dink 211
dirk 211
ered 211
fight 211
gma 211
hospital 211
illon 211
islam@@ 211
kavax 211
killer 211
lets 211
mendel 211
module 211
mình.@@ 211
mứa 211
nissan 211
ours 211
outside 211
pelagius 211
polymer 211
presbyterian 211
publishers 211
sagan 211
scher 211
silence 211
spac@@ 211
ssl 211
stereo 211
sylvania 211
thalia 211
tinus 211
tnt 211
tot 211
toulouse 211
trev@@ 211
tư. 211
vọ 211
woz 211
yoshitaka 211
ás 211
đă@@ 211
ảy 211
1797 210
1842 210
19-23 210
276 210
bane 210
bangalore 210
beri@@ 210
beu@@ 210
bod@@ 210
cera 210
chrysaor 210
cible 210
clough 210
consu@@ 210
dak 210
dori 210
dous 210
dreyfus 210
dến 210
erickson 210
fb 210
filename 210
giê-trô 210
goblin 210
goliath 210
groups 210
ikea 210
ira@@ 210
isal 210
jocelyn 210
jpl 210
lazarus 210
leanne 210
leila 210
licklider 210
lỗ@@ 210
manus 210
mi-sa 210
millenni@@ 210
mitry 210
ngùi 210
nucor 210
nơm 210
nạy 210
prokofievich 210
rabin 210
rac@@ 210
recor@@ 210
redu@@ 210
rider 210
rillo 210
rượu. 210
sa-phi-ra 210
saga 210
scheherazade 210
sdr 210
ship@@ 210
sigmund 210
streets 210
ström 210
tyre 210
ural 210
vicen@@ 210
xim 210
yau 210
ầng 210
-tớ 209
1,6 209
124@@ 209
258 209
262 209
336 209
400.000 209
540 209
` 209
accor@@ 209
amazon@@ 209
antioch 209
argos 209
aun 209
ayrton 209
bernstein 209
bil 209
brede 209
brendon 209
capi@@ 209
chê-ru-bin 209
colfax 209
colleen 209
cruvic 209
cryp@@ 209
diva 209
duty 209
dá@@ 209
ective 209
enter@@ 209
eto 209
fabio 209
fabri@@ 209
frieda 209
fré@@ 209
fury 209
gioan 209
graves 209
gtvt 209
haha 209
heathcliff 209
hour 209
hạn. 209
hẳn. 209
initi@@ 209
jd 209
kati@@ 209
lancelot 209
lyons 209
ngoe 209
nhùng 209
nhữ@@ 209
olaf 209
otic 209
oun 209
partners 209
pian 209
playboy 209
poincaré 209
pradesh 209
prop@@ 209
rahman 209
repres@@ 209
shack@@ 209
smoit 209
stable 209
stannis 209
tama 209
tax@@ 209
tter@@ 209
vern 209
wilde 209
đã. 209
đề. 209
о 209
ằn 209
1841 208
6m 208
abra 208
although 208
ances@@ 208
angeli 208
barley 208
bloomberg 208
chalcedon 208
chauchat 208
ckley 208
cule 208
declan 208
dicaprio 208
dle@@ 208
dys 208
enus 208
essel 208
foli@@ 208
georgie 208
gibbons 208
giu-@@ 208
giêricô 208
ids 208
ike@@ 208
jondrette 208
juli 208
kiribati 208
lcd 208
lxx 208
macondo 208
matteo 208
metternich 208
mitri@@ 208
monique 208
nch 208
nhổn 208
nox 208
nũng 208
papi 208
patel 208
petrelli 208
pter@@ 208
qa 208
quào 208
quẻ 208
rana 208
related 208
rối. 208
seo@@ 208
sholto 208
strasbourg 208
stry 208
tf 208
tuileries 208
vos 208
độ. 208
ưới 208
ặm 208
-bố 207
-những 207
1803 207
2.5 207
`@@ 207
agafia 207
alon 207
angustin 207
astri@@ 207
berta 207
bkhđt 207
brilliant 207
catalogue 207
chành 207
cny 207
cry 207
downey 207
em-ma-út 207
ented 207
everyone 207
fidelity 207
friday 207
fuku 207
iliusa 207
inta 207
interest 207
jai@@ 207
jp 207
khá@@ 207
kler 207
koshi 207
kozaburo 207
legi@@ 207
lint 207
marcion 207
mcgin@@ 207
miễu 207
máu. 207
nahum 207
neutrino 207
nock 207
och@@ 207
olo 207
olympia 207
panther 207
phê-ni-xi 207
productions 207
pré@@ 207
ravka 207
revealed 207
riêng. 207
rn@@ 207
rommel 207
rosasharn 207
sedan 207
several 207
siemens 207
stad@@ 207
thớm 207
thờ. 207
tríu 207
tử. 207
venera 207
wwe 207
xyanua 207
ío 207
đối. 207
и 207
ẫm 207
10. 206
1802 206
2h 206
32-33 206
6-12 206
740 206
9000 206
aegean 206
aia 206
akob 206
ansson 206
ashima 206
aviation 206
bae 206
basili@@ 206
bera 206
canberra 206
carlotta 206
certain 206
consider 206
ctor 206
cái. 206
cửi 206
dọi 206
enthal 206
eval 206
gangster 206
gid 206
gillian 206
hamamoto 206
heroes 206
ika 206
jit@@ 206
lmann 206
mee@@ 206
mitage 206
móp 206
ology 206
pace 206
pail 206
quả. 206
relationship 206
reyes 206
ràm 206
ràng. 206
seasons 206
sov 206
supre@@ 206
sword 206
sái 206
thưc 206
tik 206
tik@@ 206
trump@@ 206
tên@@ 206
ual 206
uỵch 206
vaughan 206
vig@@ 206
ynn 206
ộ. 206
................................................................................................................@@ 205
24.@@ 205
257 205
7895 205
a-lịch-sơn 205
alamos 205
aran 205
arkham 205
atheri@@ 205
ayer 205
beyoncé 205
bên@@ 205
cannon 205
chọt 205
commu@@ 205
cũn 205
cầu. 205
[...]
