. 15308288
, 13763003
của 4668431
và 4570012
&quot; 4231907
là 4037001
có 3984246
một 3737979
không 3546060
tôi 2814761
người 2685041
được 2563650
đã 2417099
- 2411295
trong 2392244
những 2329074
ta 2255630
cho 2233572
các 2050988
với 2050073
? 1811056
đó 1748187
thể 1660121
chúng 1645842
ra 1584371
sự 1558023
này 1540708
như 1483338
: 1459456
làm 1433067
về 1419224
sẽ 1412814
phải 1403791
đến 1398105
để 1393046
lại 1370954
nói 1335556
khi 1289573
ở 1288772
anh 1256296
vào 1179053
ông 1124908
mà 1105110
gì 1082809
đi 1071788
Tôi 1041424
con 1017354
việc 1009132
thế 984116
định 982374
mình 982253
họ 957415
công 956733
từ 932764
đầu 923720
nó 914824
biết 898115
điều 892527
Chúa 890771
cũng 879717
nào 869852
thấy 865604
bạn 856079
thì 855872
cô 837682
theo 822756
cả 820913
trên 804502
chỉ 801919
quan 800422
; 796444
bị 794255
rằng 791480
đang 788919
thành 762760
nhà 760906
năm 722539
! 721764
khác 721588
ấy 712041
nhưng 692082
cái 688387
hơn 678899
cách 677153
vì 674427
lên 649238
hiện 642429
động 639445
chính 637998
tại 635920
đây 631473
rồi 631332
còn 629427
số 622247
thực 618737
sau 617860
nhận 613968
ngày 608768
nhân 600740
Đức 586784
nhiều 577772
muốn 560609
hành 556463
tin 554722
trước 550703
lý 539562
nhất 536786
nước 533903
học 532662
giờ 530233
eos 529022
hợp 528743
sao 514926
hai 511921
Anh 510666
cùng 507704
vậy 501767
cơ 498701
thời 498336
rất 494556
) 488535
hàng 487610
qua 487032
́ 486133
sống 479994
nghĩ 475794
ý 474942
bằng 473263
em 465853
đối 462176
nên 460330
tự 459418
( 458877
dụng 457697
đồng 455805
thứ 451072
1 449507
lời 445738
nhìn 443934
hay 443004
Nhưng 439556
Trời 438397
hoặc 435250
Ngài 429550
cần 427967
nữa 426992
gia 422369
chuyện 420987
quy 420350
tay 418922
mặt 405741
vụ 404366
bản 401860
̀ 401004
Chúng 396564
trở 395895
thật 394134
tư 392739
bảo 391290
mọi 390534
hình 388018
thông 384779
chức 381184
tới 380976
bao 378287
cảm 377108
Và 376965
mới 376855
đề 375107
Không 373268
cuộc 368845
bà 365874
Điều 365423
do 362782
trường 362056
... 359368
nếu 357795
trình 355386
tiếp 353293
bắt 351720
vẫn 349367
phát 344727
2 341992
quyền 341284
vị 340701
dân 340696
nhiên 337550
hỏi 335094
Có 334897
lúc 333738
ai 333003
cậu 329206
tìm 328891
yêu 328027
toàn 327917
giá 327354
cầu 326422
viên 324627
bộ 324237
kết 322875
sử 322852
nơi 322282
phần 322020
quá 319496
hội 319286
thường 317517
cấp 317320
gian 315267
Một 314771
pháp 313135
bên 309398
kinh 308479
lớn 307929
sinh 307165
nhau 307064
phòng 306370
sản 304178
tâm 304092
/ 301278
năng 300389
tính 299957
Ông 299510
xuất 297414
lần 296941
tiếng 296682
quyết 296517
nghiệp 296039
câu 295702
đường 295602
bất 293521
giải 293484
đều 293150
tình 293032
tất 292316
nghe 292003
tế 291860
̣ 291209
tháng 291051
đâu 285637
chưa 285006
đời 282431
chẳng 282077
giới 280584
điểm 278574
tài 278066
thức 277881
hết 277302
tiền 275031
thích 274686
xem 273159
Trong 272441
chứng 272371
Thánh 270763
liên 270239
trọng 269706
cứ 269655
ngoài 269625
Cô 267943
tạo 266542
đổi 264959
nghĩa 263493
3 263485
vật 262539
báo 260447
bởi 259293
chủ 259161
xuống 258454
hiểu 258227
ăn 257956
tổ 257731
chết 256517
tiên 256076
giáo 255842
sách 255735
tốt 252764
chiếc 251625
Nếu 251348
gọi 251170
khỏi 250578
thuộc 250472
lấy 250182
lòng 248797
lập 248073
đất 246772
Khi 244003
cao 243604
thay 241861
đưa 241168
cứu 239831
đồ 239096
quả 238571
ban 237650
tên 236415
đại 236311
hoàn 236288
Các 236132
hệ 236086
lực 234873
trị 231816
sáng 230696
ngay 230571
ba 230457
mắt 228545
nhiệm 228136
đúng 228087
trả 228035
từng 227973
doanh 227702
bỏ 227467
độ 227423
dự 227104
cửa 226898
kẻ 226347
vấn 222299
luật 222082
giúp 221723
Những 221709
cố 221465
xe 220861
phương 220592
thôi 220473
thân 220151
hắn 219854
xác 218987
mẹ 218635
thương 217286
tác 216573
án 216473
đấy 215497
dẫn 214655
a 212508
hoạt 211395
giữa 210693
i 209885
… 209778
nay 209427
trung 209004
loại 207263
tưởng 207206
sát 206478
thiết 204635
chuyển 204049
thống 203193
kỳ 202546
vi 201850
lượng 201750
biệt 201727
rõ 200771
máy 199919
sở 199753
Nó 199532
lẽ 199409
quản 199382
thu 198475
phía 197540
dùng 197062
mất 196650
chi 196124
bình 195973
tội 195634
hóa 195517
Bộ 195142
Người 195085
c 194720
̉ 194537
chất 194055
dịch 194034
hiệu 193800
chiến 193718
kiểm 193400
– 193351
tiêu 193116
đạo 192879
phép 192829
nhỏ 192743
phục 192398
dựng 191962
giao 191857
gần 191696
tra 191657
giống 191485
cảnh 191054
điện 190472
đánh 190035
đơn 189881
văn 189709
gặp 189242
tập 188991
luôn 188719
vô 188590
tục 188486
vừa 188015
liệu 187321
phạm 186559
4 186407
hạn 186123
y 185922
đủ 185081
&apos; 184754
bố 184706
hướng 184274
chịu 183946
dưới 182269
đặt 181922
quốc 181540
hãy 181449
kể 181444
Họ 181190
mục 180724
địa 180625
Kinh 179094
chắc 178596
kế 178123
cá 177373
vẻ 177199
triển 175870
tượng 175677
ảnh 174890
chứ 174699
đứng 174150
5 173571
tối 173162
trí 172727
cuối 172081
bàn 171491
phân 171267
thần 170808
mạnh 170626
trẻ 170159
giữ 168854
bước 167928
an 167904
đầy 167884
ký 166992
đặc 165631
nàng 165455
chân 165190
trưởng 164987
Đó 163975
thêm 163264
vài 162521
xảy 162485
đáng 162365
sĩ 162212
lỗi 162078
mang 162051
phụ 161081
chế 160979
n 160691
sức 160252
ng 160099
bé 160093
khiến 159574
chỗ 159296
xây 159270
ứng 159194
mỗi 159034
tương 158706
phẩm 158080
mở 158025
biến 158002
truyền 157550
kia 156945
bệnh 156724
khó 156672
nguyên 156048
Vì 155853
tín 155608
tiến 155563
Con 155329
dù 154613
Hãy 154328
quay 153785
viết 153414
Giê 152619
va 152363
thanh 152314
nhớ 151370
cười 150275
khoản 150247
bài 150158
t 149411
ty 149191
Hội 149089
khu 148648
cáo 148595
giả 148538
cổ 148283
toán 147471
phủ 147432
thuật 147079
xa 146877
sơ 146483
ngồi 146304
trách 146279
phố 145260
kiện 144416
Em 144093
nhập 144018
nghiệm 143694
tranh 143685
thị 143570
nữ 143318
chí 142874
khách 142609
bán 142518
xin 142246
mức 141996
đình 141615
xã 140758
diện 140429
cha 140361
thánh 140267
Thế 140129
chú 139572
thư 139126
ít 138896
dài 138693
hữu 138548
xử 138333
xét 138100
chọn 137045
vực 136062
Vậy 135993
lệ 135852
đàn 135840
vui 135581
Nam 135326
gái 135196
quân 135078
hoạch 134963
Sau 134891
hồ 134465
tham 133285
cây 133007
vọng 132088
sợ 131993
lợi 131600
ngươi 131092
Đấng 130904
chị 130864
ơn 129996
phí 129712
chàng 129566
Đây 129453
trang 129295
diễn 129054
vốn 128922
minh 128873
tử 128406
6 128282
khai 128227
mô 128139
thi 127858
kiến 127375
danh 126755
nhóm 126025
mua 125976
Chính 125885
thủ 125732
trời 125479
10 125471
lâu 125361
khả 124843
vệ 124554
tuổi 124198
b 123429
mặc 122503
đôi 122220
nổi 122078
trái 121635
dạy 121075
khoảng 120925
Bạn 120817
luận 119713
la 119227
chạy 119162
% 119067
hô 117933
áo 117812
thẩm 117601
Sự 117495
càng 116680
tức 116321
sư 115937
thuế 115661
chuẩn 115302
áp 115229
tăng 115209
bay 115190
khẩu 114965
quanh 114673
suy 114600
yếu 114333
chơi 114128
chút 114055
Công 114040
nội 113543
trai 113517
trợ 113511
Ta 113452
gồm 113165
Cậu 113076
duy 111924
màu 111873
căn 111749
nghị 111645
gây 111627
đứa 111607
lãnh 111461
đảm 111165
sai 110899
đáp 110672
ghi 110641
đọc 110312
Christ 110062
phản 109900
đoạn 109830
lắm 109815
khí 108751
đẹp 108705
cung 108693
linh 108669
ngài 108474
tinh 108392
trò 108363
̃ 108146
à 108035
riêng 107736
nằm 107726
hưởng 107527
dễ 107320
nhanh 107120
lo 106879
hiểm 106629
lao 106571
chương 106293
mấy 106034
tàu 106027
giết 105850
Nhà 105453
chung 105248
Việt 105012
chấp 104971
tích 104473
đau 104012
hôm 103780
lịch 103385
nghệ 103342
dung 102903
7 102690
to 102536
giấy 102344
tuyệt 102312
thiên 101808
vùng 101798
kỹ 101554
sang 101287
quý 101110
đức 100599
đội 100125
phá 100053
đóng 100035
Bà 99886
chắn 99884
thuốc 99644
mối 99630
cụ 99131
nguồn 98815
thú 98747
trực 98699
bức 98636
lễ 97743
tỏ 97438
— 97351
trông 97171
ca 96600
thờ 96589
Cơ 96520
nghiên 96433
cháu 96395
bọn 96287
tỉnh 95636
kiếm 95222
000 95095
bác 94895
12 94737
bóng 94265
Tuy 94197
hầu 94056
nầy 94031
vận 94009
cánh 93932
tiết 93677
Chỉ 93666
cạnh 93570
hộ 93556
dành 93424
đêm 93372
lưu 92668
chuyên 92634
ràng 92541
8 92517
buổi 92267
biểu 92255
lạ 92214
chống 92089
nguyện 92041
ngủ 91646
tớ 91543
thuyết 91493
thử 91246
Trung 91033
hồi 90846
giác 90826
mạng 90592
ngoại 90575
biển 90346
ánh 90299
kỷ 89905
đa 89695
độc 89317
khoa 89154
hơi 89112
Thông 88926
đấu 88729
dục 88132
u 87697
vợ 87678
Tại 87229
rộng 87075
vòng 86983
loài 86712
âm 86470
bây 86395
đá 86060
thúc 86034
môi 85717
nỗi 85592
đăng 85590
sẵn 84871
kéo 84673
sâu 84640
ước 84429
gửi 84228
Mỹ 83896
Thật 83891
dấu 83610
đông 83539
hề 83288
ích 83104
chia 82721
Quốc 82432
đích 82195
sắp 82178
tôn 82172
9 82116
tổng 81976
trạng 81883
Tất 81849
hôn 81635
đoán 81585
đạt 81437
ma 81311
phán 80988
vua 80819
đợi 80527
hại 80358
vai 80330
viện 80081
môn 79825
dữ 79721
tuần 79647
cộng 79588
thái 79561
ngân 79173
mày 79137
thẳng 78449
giảng 78360
trừ 77910
Được 77853
dụ 77767
nghi 77701
đem 77655
ngành 77417
phù 77226
thiếu 77200
di 77151
lạc 77140
suốt 77134
giám 76979
ngữ 76914
gắng 76791
phút 76712
da 76659
đô 76335
the 76325
11 76218
so 76078
tấm 75806
chờ 75409
thầy 75392
đám 74985
Cái 74927
sứ 74767
cuốn 74609
hạ 74556
Giê-xu 74429
buộc 74377
tai 74231
chồng 74061
Để 73942
đen 73941
gã 73698
bổ 73686
Nghị 73433
cư 73178
giọng 73063
ngôi 72824
Rồi 72813
bày 72741
thoại 72680
15 72519
thất 72497
m 72370
Ở 72277
Như 72201
Do 72158
kính 72041
Cha 71669
cực 71476
giảm 71415
khăn 71200
tả 71094
mẫu 70994
sửa 70846
chữ 70629
Làm 70257
vũ 70156
thuận 70089
cập 69777
Việc 69662
rời 69628
20 69528
triệu 69502
Phải 69486
xúc 68988
lắng 68597
Còn 68564
Hắn 68481
tri 68204
mười 68168
đoàn 67858
vàng 67848
khá 67793
hẳn 67777
nhắc 67701
đừng 67671
mật 67481
Xin 67265
mong 67245
quen 67213
dậy 67196
bốn 66944
thậm 66878
phê 66701
# 66534
nền 66465
tố 66361
đốc 66178
Luật 66089
lệnh 65888
kêu 65859
lành 65778
in 65609
nhờ 65522
dòng 65463
coi 65336
Từ 65260
mươi 65258
uống 65133
nạn 64957
tắc 64796
tiện 64437
soát 64328
lớp 64300
chữa 64279
ngờ 64235
&#91; 64157
lặng 64147
tờ 64120
khổ 63998
nguy 63841
&#93; 63839
hy 63792
Sao 63791
Linh 63400
nhạc 63199
Đối 63112
nghề 62831
Đừng 62593
cơn 62522
Đại 62291
kiểu 62273
lão 62244
d 62190
hoàng 62189
giản 62101
thù 62068
phạt 62036
thắng 61898
cầm 61858
Đúng 61572
sung 61569
thuê 61561
đổ 61542
xấu 61513
hạnh 61506
vượt 61441
Hai 61359
sắc 61346
lộ 61308
hòa 61294
Mẹ 61181
sàng 61120
_ 61033
hậu 60716
s 60669
buồn 60651
sổ 60632
tồn 60606
nộp 60508
quần 60380
trải 60375
tận 59996
lựa 59965
lai 59836
tệ 59832
phong 59613
chăm 59338
yên 59198
trận 59076
đỡ 59061
hoa 58956
phim 58714
ạ 58706
niềm 58705
tái 58592
Chủ 58460
thoát 58446
trì 58261
tấn 58213
Ai 57931
of 57778
tường 57707
nặng 57641
ngạc 57466
dầu 57436
băng 57380
tha 57295
Ban 57062
ác 56923
dạng 56902
niên 56893
lĩnh 56870
hứa 56835
khắp 56658
lối 56519
tránh 56425
thằng 56332
Tổng 56325
đẩy 56137
tộc 56113
Lời 56007
Trường 55981
xếp 55768
lửa 55682
Theo 55655
mừng 55649
trắng 55468
phối 55458
thở 55427
trăm 55354
đảo 55323
ngăn 55240
Y 55048
khắc 55005
nắm 54906
bí 54891
nghiêm 54804
bánh 54668
rối 54619
máu 54582
Vào 54496
quên 54494
chiều 54372
ổn 54275
giận 54219
niệm 54149
phiếu 54045
dừng 53966
dây 53950
Cho 53898
cải 53883
mơ 53803
hỗ 53742
tuyên 53599
cũ 53540
hải 53535
nông 53535
A 53441
cử 53439
đào 53423
nh 53409
chặt 53344
thủy 53266
miệng 53234
bại 53114
ô 53009
ghế 52799
bạc 52790
lẫn 52781
Bây 52772
nhiêu 52763
nghỉ 52707
Thái 52653
rượu 52644
thăm 52626
lá 52592
o 52543
Harry 52467
thiện 52419
phi 52400
đột 52384
xong 52297
Ngày 52272
tầng 52266
Pháp 52251
tóc 52241
phúc 52165
hồn 52077
dần 51847
14 51832
Giờ 51692
xuyên 51619
mời 51584
Ý 51573
lầm 51540
nuôi 51487
sa 51101
lạnh 51091
dường 51063
xanh 51043
rừng 51006
Mọi 50930
hoá 50929
ngang 50857
co 50846
nhé 50801
tạm 50766
già 50743
thập 50709
Trước 50673
nửa 50649
ân 50623
e 50577
13 50548
may 50456
Vâng 50440
chỉnh 50359
đỏ 50270
dựa 50241
ngựa 50184
hát 50123
Ba 50085
tao 50070
mùa 49909
mái 49883
thưa 49726
tòa 49684
khủng 49589
30 49581
sân 49534
nhu 49452
ngôn 49421
tướng 49369
nhẹ 49346
tải 49330
Chẳng 49243
Giáo 49220
thảo 49211
Năm 49026
tầm 48908
thịt 48836
lương 48825
thỏa 48686
súng 48579
xứ 48475
thấp 48468
xung 48461
cấu 48381
kích 48278
tù 48266
Lúc 48249
thừa 48221
Thủ 48180
chiếu 48163
biện 48118
trụ 48095
16 47921
Tây 47862
S@@ 47838
cắt 47815
thác 47672
su 47618
Tài 47581
chào 47537
Phao-lô 47400
Nói 47388
-@@ 47342
du 47329
khám 47198
món 47057
phóng 47047
Ðức 47044
nhằm 46997
khởi 46828
nợ 46811
kê 46660
đòi 46603
rơi 46550
hủy 46390
phận 46383
khích 46256
mãi 46186
dàng 46169
Với 46167
mắc 46141
Tổ 46035
núi 45986
ngắn 45902
vời 45899
hả 45859
sớm 45701
luyện 45681
mại 45657
lục 45529
rút 45505
lưng 45343
biên 45260
Thực 44970
Dù 44889
sông 44854
tỷ 44789
Bản 44577
đo 44532
ngược 44528
binh 44497
giai 44430
ơi 44419
im 44314
thận 44169
Giấy 43951
điên 43945
Bởi 43895
nối 43873
dõi 43830
Ngay 43756
Nàng 43650
Chắc 43540
thang 43520
họp 43486
Hoa 43485
bầu 43483
tạp 43425
khóa 43400
gốc 43395
bắn 43341
chậm 43302
tịch 43125
nam 43092
ly 43075
huy 43024
kèm 42979
sạch 42938
ưu 42886
sáu 42831
18 42767
túi 42724
ngừng 42678
bật 42549
nhảy 42475
and 42445
khôn 42283
dỗ 42277
tim 42214
đuổi 42118
nóng 42026
bữa 41953
giường 41919
A@@ 41908
chuyến 41795
góp 41788
17 41777
duyệt 41773
dối 41744
vinh 41742
Cũng 41730
Chị 41678
khỏe 41660
lái 41617
Đốc 41607
đương 41384
p 41323
chối 41303
gương 41285
châu 41087
ẩn 41064
Đi 41032
19 41023
B@@ 40950
vết 40700
Là 40648
ngoan 40638
che 40581
chừng 40571
lính 40567
thầu 40529
ấn 40506
vay 40495
ví 40486
đèn 40475
Câu 40450
Cứu 40440
Ủy 40409
thưởng 40375
chứa 40291
T@@ 40175
Jêsus 40085
hút 40065
mê 39974
cu 39863
họa 39837
thơ 39818
trao 39807
New 39672
tắt 39562
cậy 39502
I 39309
nổ 39286
mai 39275
giàu 39223
chiếm 39048
tan 38980
Mục 38919
tô 38887
na 38859
suất 38705
Cả 38541
nâng 38438
cận 38270
liền 38064
điển 38055
chóng 38045
Tớ 37852
đựng 37844
tiểu 37837
cất 37525
vững 37497
Thượng 37425
miễn 37415
nhỉ 37407
hạt 37400
Ngân 37386
quỹ 37299
Bố 37285
Cảm 37264
tàn 37226
The 37175
sóc 37109
gắn 37053
tĩnh 37048
Nhân 36951
thí 36858
Phi 36795
Mình 36776
hãi 36771
phái 36766
cục 36673
khuôn 36659
phổ 36616
hiển 36592
mã 36585
nêu 36566
cháy 36545
lô 36363
dứt 36353
M@@ 36349
khuyên 36339
vâng 36232
25 36186
não 36184
song 35999
01 35918
nhiệt 35871
ư 35852
loạn 35848
trại 35816
gió 35751
24 35674
chó 35654
Kỳ 35645
nhật 35642
Đến 35584
Về 35565
thuyền 35546
bang 35541
ngã 35528
giây 35489
pha 35431
dâng 35414
trốn 35238
khóc 35216
hài 35205
Nhiều 35131
Tin 34983
trọn 34945
Quyết 34939
bảy 34935
ghét 34870
Trên 34867
CP 34866
can 34862
dưỡng 34862
bờ 34837
ngón 34810
kho 34754
kim 34732
hiệp 34712
cân 34684
Bắc 34537
tuyến 34466
đập 34407
Mỗi 34370
Căn 34369
ương 34332
sẻ 34295
chạm 34126
thầm 34114
Cuối 34113
Mặc 34089
quán 34043
thách 33990
C@@ 33907
chăng 33900
K@@ 33692
màn 33670
H@@ 33654
mẽ 33599
G@@ 33578
Quy 33508
cẩn 33336
vẽ 33313
mũi 33256
kịp 33246
cặp 33180
tốc 33144
vỡ 33050
D@@ 33039
Ôi 32978
khoán 32794
ngàn 32789
đê 32701
mùi 32544
Ước 32506
chấm 32406
diệt 32342
Thứ 32337
bảng 32284
Chuyện 32277
ngọn 32259
Khoản 32245
điệp 32217
Thời 32215
21 32207
dám 32195
tước 32161
bào 32083
L@@ 32071
xưa 32068
* 32052
quảng 32032
hộp 31989
Đầu 31987
đền 31963
phó 31932
bậc 31782
khối 31751
lang 31728
góc 31714
cứng 31701
^ 31673
nghèo 31665
tách 31611
mi 31535
giấc 31414
Nhật 31368
chim 31325
-- 31057
Cháu 31050
quái 31032
100 30950
22 30922
tá 30866
Này 30834
lược 30821
Liên 30819
trống 30787
Thi 30767
chép 30762
rỗi 30578
50 30461
Tiếng 30417
trúc 30344
liệt 30294
thượng 30236
đài 30215
phước 30177
Chương 30135
P@@ 30105
quyển 30037
cà 30030
Ồ 30027
miền 30012
hoang 29984
bạo 29948
sót 29943
chu 29936
Đông 29923
kém 29857
Cục 29833
phiên 29780
ên 29716
giấu 29684
Đế 29650
chảy 29615
Tên 29553
tán 29517
tu 29505
bồi 29501
ám 29450
hư 29420
đón 29398
bãi 29346
hấp 29296
bối 29293
đằng 29224
NĐ 29221
no 29196
mỉm 29186
vang 29153
Nghe 29139
ống 29053
sóng 29044
căng 29029
Giăng 29010
trần 29009
khiển 29003
se 28981
Rất 28950
N@@ 28908
vĩ 28889
mảnh 28882
+ 28872
kín 28798
ngại 28752
vội 28697
trấn 28672
cai 28613
hạng 28570
La 28568
E@@ 28510
V@@ 28506
23 28458
nhiễm 28429
Chào 28421
thiệu 28409
nhấn 28386
gật 28369
cỏ 28251
Đã 28240
trồng 28222
Nước 28189
huấn 28168
thải 28096
đế 28085
bò 28081
phức 28032
vương 27999
trưng 27988
vườn 27955
Bọn 27931
John 27881
phượng 27880
ủng 27831
gỗ 27816
Thiên 27813
lũ 27774
O@@ 27767
Văn 27747
Phần 27714
hứng 27591
mến 27555
I@@ 27547
trích 27490
kịch 27350
sắt 27311
Sở 27309
nhánh 27271
thảm 27270
ninh 27240
kì 27232
dương 27230
nghịch 27202
lắc 27096
Mày 27082
lỗ 27081
Hay 27079
bè 27042
cam 27039
thụ 27006
mệt 26996
Cách 26993
♪ 26991
nỗ 26963
tổn 26945
lừa 26941
khiếp 26940
Ê 26922
Hình 26910
thê 26900
tròn 26887
mềm 26857
ngu 26721
bận 26614
Bên 26581
Mặt 26572
Sa 26528
ch 26527
Chi 26518
lâm 26517
khốn 26485
khen 26423
ga 26400
tảng 26388
nhẫn 26378
Chàng 26370
Y-sơ-ra-ên 26338
R@@ 26334
mãn 26316
rao 26286
kiên 26279
tùy 26244
khảo 26236
sàn 26204
Ngoài 26184
hào 26170
khuyến 26170
lát 26150
Hải 26135
bi 26115
siêu 26107
săn 26019
trữ 25999
tuân 25999
giỏi 25986
sánh 25980
cưới 25892
À 25802
khát 25718
cớ 25700
hằng 25698
làng 25669
đống 25638
hoảng 25595
dọc 25575
ấm 25555
Thôi 25526
ủy 25522
óc 25519
hàm 25497
trú 25476
Hy 25471
gấp 25442
Giám 25427
nô 25425
Đôi 25407
thả 25396
say 25368
mưa 25360
hảo 25328
đớn 25322
Nhìn 25287
Cứ 25242
lùng 25239
ném 25225
dị 25208
xu 25190
xưng 25135
Cuộc 25061
đói 25055
Ừ 24996
xương 24984
bếp 24947
Bác 24940
ngợi 24906
mộ 24832
cấm 24822
cảng 24807
cờ 24771
xứng 24770
lan 24749
28 24746
dáng 24711
vẹn 24683
ôm 24679
quỷ 24642
Thành 24641
gợi 24620
ro 24612
Thương 24589
đ 24500
Âu 24465
Nga 24454
York 24388
Tư 24387
đe 24354
chụp 24266
tiệc 24258
than 24213
phiền 24194
tám 24189
chăn 24166
giơ 24142
bề 24126
Bảo 24100
cãi 24080
ko 24003
26 23932
tiếc 23909
mệnh 23805
Hoàng 23798
hẹn 23789
Chú 23760
răng 23728
Kế 23707
II 23664
tràn 23643
Tao 23611
Chứng 23592
khứ 23569
mờ 23550
hối 23515
chúa 23492
viễn 23463
de 23452
dọa 23436
hương 23408
điệu 23404
tuyển 23392
C 23391
tuy 23369
lôi 23364
tung 23328
đùa 23290
run 23263
truy 23259
thói 23225
40 23201
giày 23196
xoay 23176
ngực 23168
chớ 23103
Phụ 23093
mắn 23093
dao 23086
thiệt 23075
on 23031
Trái 23013
Thưa 22992
huống 22970
lông 22958
chuộc 22916
đỉnh 22902
nụ 22889
dĩ 22793
đãi 22787
Ấn 22779
Bất 22769
tồi 22763
cám 22749
ti 22706
hổ 22684
lí 22678
Vua 22647
khô 22638
sốt 22599
Thay 22568
Thầy 22567
Số 22552
hùng 22545
27 22538
hầm 22533
mạch 22500
tặng 22438
Lần 22412
chán 22387
ho 22360
đeo 22353
chằm 22326
thao 22257
ha 22245
chặn 22234
đạn 22210
trôi 22202
cường 22201
bụng 22174
rắc 22168
hét 22114
bội 22101
Tân 22086
thợ 22063
lưới 22051
g 22043
trùng 22017
cúi 22006
Tốt 22000
lồ 21995
cản 21963
bèn 21952
mũ 21952
thiểu 21943
loạt 21927
lơ 21811
tắm 21811
F@@ 21799
ngốc 21781
cướp 21772
bụi 21671
0 21623
xâm 21622
treo 21606
ngon 21603
hồng 21598
Phát 21595
mù 21585
thôn 21574
Mà 21570
đĩa 21565
2015 21524
khung 21498
dư 21482
ơ 21463
thoảng 21405
lặp 21403
t@@ 21385
quang 21377
vắng 21364
Thần 21300
31 21284
chìa 21270
hè 21257
thoải 21193
rủi 21173
sanh 21154
khẳng 21134
Ví 21112
sạn 21099
khổng 21095
Nha 21053
Nội 21037
nhắm 20995
Bằng 20992
nét 20984
sợi 20976
Kết 20876
D 20858
chín 20825
giành 20809
miếng 20807
khải 20800
huyết 20795
U@@ 20783
Hồ 20751
thiêng 20742
Truy 20692
ngập 20598
Kiểm 20576
Phúc 20547
Gia 20521
Mã 20496
2010 20446
dịu 20423
Tình 20420
chủng 20418
giật 20376
mưu 20360
Hôm 20348
gác 20347
lộn 20317
dính 20282
gói 20248
nhuận 20245
tỉ 20234
phỏng 20187
tây 20172
ép 20171
Phòng 20162
Dân 20137
dọn 20129
phu 20129
B 20120
Đồng 20103
Jesus 20098
đốt 20086
hi 20042
tóm 20038
nhục 20037
buôn 20017
Điểm 20006
Đ@@ 20005
Chiến 19971
Xây 19960
móc 19952
mụ 19946
chở 19885
29 19884
khúc 19830
Danh 19815
đàng 19794
cổng 19752
trào 19738
khái 19704
bỗng 19679
thảy 19631
dò 19630
rắn 19609
.. 19532
cán 19531
nát 19526
tươi 19454
Nên 19448
Cộng 19435
tuyết 19422
Sáng 19404
thổ 19403
Hoặc 19381
li 19381
mực 19362
Hàng 19358
Quản 19345
mỏi 19343
quà 19341
Sẽ 19326
tật 19259
dày 19246
2013 19238
triết 19176
Ch@@ 19159
muộn 19146
kháng 19127
hỏng 19123
Hơn 19108
canh 19106
gối 19095
Gã 19093
Độ 19092
giam 19072
rửa 19063
Giống 19058
trầm 19015
chiên 18995
Âm 18994
hiếm 18990
tứ 18954
địch 18943
rãi 18922
cột 18850
Ngươi 18847
dặm 18845
Bài 18844
chìm 18813
Lan 18795
Vụ 18793
Dĩ 18763
chúc 18709
hiến 18707
liêng 18701
Cựu 18691
Ma 18684
lò 18666
Hồi 18648
Gi 18636
trưa 18622
túc 18585
đấng 18585
chai 18550
bắc 18541
đồi 18532
cú 18485
lưỡi 18463
Châu 18436
lãi 18411
diệu 18394
ung 18393
Mat 18382
mét 18308
tiềm 18300
ghê 18292
thẻ 18278
vải 18194
Thanh 18157
thai 18136
2011 18134
cương 18032
xinh 18009
mát 17971
ảo 17954
thuần 17916
• 17912
x 17899
X@@ 17897
d@@ 17888
lượt 17873
đươ 17825
Lành 17795
tựa 17750
lãng 17726
W@@ 17712
phấn 17708
tụi 17679
s@@ 17668
nghìn 17643
khoác 17627
lui 17627
trộm 17624
đẳng 17604
ưa 17580
Cám 17573
gỡ 17530
bông 17497
trật 17497
đâm 17475
Báo 17449
ngưỡng 17398
TT 17384
m@@ 17357
uy 17348
khẩn 17336
man 17324
Rõ 17320
nhượng 17287
2008 17281
rẽ 17279
Môi 17262
= 17260
vơ 17259
ức 17246
Quan 17236
nhàng 17180
huyện 17147
Oh 17146
CỦA 17121
khẽ 17118
Giao 17117
lắp 17082
gọn 17066
kìa 17035
ngục 17028
bão 17022
tốn 17006
2012 16978
cỡ 16941
n@@ 16922
bám 16915
ngắm 16915
ngũ 16898
Tòa 16797
Nguyên 16793
xạ 16774
leo 16767
Lạp 16717
Đơn 16703
2014 16693
lăm 16692
Kẻ 16676
quát 16674
chợt 16671
gà 16664
khiếu 16645
sướng 16640
cưỡng 16637
Tiếp 16623
Bình 16622
tủ 16614
mạo 16594
trừng 16570
nho 16521
mò 16517
thề 16517
hoại 16516
Xem 16500
quí 16457
thoáng 16435
xót 16424
ủi 16417
Viện 16399
bực 16388
nhắn 16335
is 16328
khấu 16305
mì 16275
h 16267
lẻ 16249
2007 16215
má 16195
rác 16194
dắt 16183
dại 16179
ngươ 16163
năn 16160
rào 16155
bền 16148
trương 16147
quê 16141
Phương 16129
Hỡi 16127
k 16090
Qua 16074
Chiếc 16071
Cảnh 16019
đậu 16009
đai 15994
lấp 15985
Đất 15975
Phao 15970
Thậm 15966
liếc 15949
Chưa 15947
ham 15923
Giá 15919
thùng 15897
mồ 15895
hung 15893
Hầu 15873
Lại 15847
đua 15845
thước 15833
gi 15803
l 15802
làn 15802
bom 15794
David 15768
Liệu 15739
Giê-hô-va 15738
gánh 15728
Đa-vít 15702
thô 15670
ngầm 15656
vỗ 15646
tụ 15634
nọ 15628
chuột 15625
c@@ 15618
đồn 15614
huyền 15600
thua 15587
2006 15551
nại 15535
Ron 15521
thiệp 15518
2009 15516
Giải 15516
thăng 15515
Tiến 15512
dịp 15509
nở 15501
trượt 15499
Hiệp 15478
02 15474
tia 15431
as 15426
VÀ 15408
mây 15408
cuồng 15404
Phaolô 15382
đắn 15367
Y@@ 15344
Dự 15340
e@@ 15312
l@@ 15304
soạn 15304
dâm 15302
cốc 15299
Vấn 15290
trăng 15263
thèm 15241
Hà 15239
tí 15237
Khu 15230
J@@ 15221
tăm 15209
nhạt 15208
Ro 15199
nảy 15199
nhầm 15192
lùi 15188
mạc 15183
thổi 15136
bó 15135
lê 15127
hòn 15089
cốt 15080
60 15075
nắng 15073
&amp; 15066
ri 15034
Lu 15019
Quỹ 15016
sụp 14908
mèo 14903
tàng 14869
hãng 14842
chuỗi 14837
O 14803
ái 14798
đáo 14796
Giêxu 14776
es 14771
Z@@ 14743
Tự 14714
Lão 14709
Hệ 14708
chôn 14684
2016 14664
ve 14634
trục 14625
trạm 14624
cởi 14613
Tối 14606
hẹp 14590
triều 14587
dãy 14582
Học 14552
khinh 14539
táo 14527
xóa 14519
ch@@ 14494
hỗn 14493
gõ 14492
khía 14479
buông 14469
bấy 14469
tháp 14458
Mấy 14446
Hợp 14404
bá 14402
kiêu 14398
thâ 14380
bia 14345
trà 14345
bù 14319
ng@@ 14284
vây 14265
đệ 14263
rơ 14255
soi 14233
phẫu 14207
bẩn 14198
tuệ 14183
Á 14164
Doanh 14136
Cong 14131
bớt 14124
Hiện 14076
Mary 14066
nhường 14058
Phi-e-rơ 14056
03 14007
khiết 13992
Al@@ 13984
thỉnh 13978
tháo 13962
Mar@@ 13957
k@@ 13948
lệch 13947
ả 13935
Lý 13934
nề 13930
dược 13922
ngự 13892
rô 13870
g@@ 13848
nhịp 13828
nan 13813
lăn 13788
xám 13759
b@@ 13754
khói 13746
ngọt 13744
vĩnh 13694
mỏ 13672
Phạt 13654
tiệt 13653
đạp 13651
kiếp 13634
32 13618
Trông 13611
chả 13605
lánh 13595
bê 13589
hôi 13588
đuối 13576
lờ 13571
vỏ 13568
đâ 13560
bầy 13556
chuông 13556
Kể 13546
thốt 13541
500 13537
Sứ 13514
35 13496
khoảnh 13490
cụm 13472
Quả 13453
Paul 13451
cuộn 13417
T 13388
bốc 13387
i@@ 13382
tang 13370
Thì 13364
pháo 13355
lướt 13354
George 13329
khao 13328
nhóc 13320
Cười 13310
thám 13257
ngẫu 13249
video 13236
gạt 13235
x@@ 13227
cắp 13212
Uỷ 13211
đếm 13203
chục 13197
khiêm 13165
quỉ 13158
kiệm 13136
bọc 13133
nha 13113
nhở 13063
Mười 13062
nghiêng 13057
Toàn 13054
Michael 13026
80 13022
Nào 13020
đinh 12990
Peter 12987
sữa 12967
2000 12966
nhãn 12949
ngột 12946
thắc 12926
Giọng 12921
ướt 12919
mau 12872
lọc 12862
liều 12855
nút 12835
it 12834
Jack 12832
05 12823
at 12816
bơi 12815
h@@ 12815
Ar@@ 12805
trứng 12805
Giê-ru-sa-lem 12800
James 12798
bút 12792
Paris 12791
Tom 12784
Đa 12733
Địa 12712
rũ 12677
Gì 12676
gen 12671
Gi@@ 12662
E 12659
Henry 12654
en 12654
Hermione 12632
tà 12622
hít 12611
v 12597
thấu 12593
Tr@@ 12550
Thằng 12515
rực 12514
Quý 12497
Vài 12476
khoan 12435
Edward 12399
70 12386
Cập 12386
33 12363
th@@ 12354
Đường 12346
khoáng 12339
cát 12335
v@@ 12312
Thụy 12306
Langdon 12296
ôn 12288
đuôi 12285
hỏa 12266
Tập 12248
khéo 12243
lật 12233
mọc 12230
bì 12223
thắt 12220
hoà 12214
tạ 12214
Thống 12193
2005 12192
mộng 12192
rung 12192
dốc 12188
dạo 12179
ong 12170
trúng 12164
Th@@ 12145
Vị 12100
tỏa 12100
xăng 12100
Hành 12085
that 12060
Truyền 12039
truyện 12039
Đề 12037
N 12036
Đồ 12018
đụng 12007
chinh 12004
Rachel 12001
gián 11999
200 11997
QĐ 11973
Đưa 11970
Ngoại 11969
sắm 11966
2020 11963
tống 11961
Ngôi 11960
nấu 11960
đặng 11935
u@@ 11933
tánh 11932
ruột 11918
Sinh 11908
Khoa 11906
đô-la 11902
đảng 11884
châm 11879
Cùng 11847
non 11846
chốt 11839
biê 11837
rủa 11829
kênh 11824
r@@ 11823
rỡ 11823
rốt 11821
al 11806
váy 11802
vít 11801
vã 11794
be 11781
Song 11772
chợ 11772
nhặt 11763
45 11756
đàm 11754
dội 11751
90 11749
hà 11739
bùng 11733
Alice 11728
âu 11726
trán 11723
Trưởng 11688
thuẫn 11654
tr@@ 11636
Nơi 11635
vâ 11630
vân 11622
đam 11621
by 11615
p@@ 11609
Ra 11607
ru 11602
London 11600
khoái 11583
túy 11582
tò 11568
Môi-se 11564
choàng 11555
sếp 11552
ổ 11550
Lễ 11543
thoả 11537
ốm 11536
hoài 11528
tân 11516
Trách 11503
An 11501
y@@ 11490
me 11489
buồng 11471
hệt 11455
lau 11455
phe 11454
kiệt 11416
Biết 11412
quãng 11409
Vỗ 11406
chớp 11401
Chết 11400
us 11394
Sĩ 11390
nộ 11390
miêu 11389
thuỷ 11386
Internet 11372
tơ 11372
Sam 11350
Robert 11346
nhăn 11345
dán 11334
for 11301
xích 11292
cõi 11290
vở 11283
er 11281
quận 11263
nhi 11260
ed 11254
dạ 11244
Ro@@ 11237
cắn 11225
Tiên 11212
ngắt 11211
vé 11206
Đảng 11197
Lạy 11178
câ 11172
rỗng 11159
Es 11152
bến 11151
thạch 11140
Đấy 11124
mỏng 11121
ao 11116
Quân 11104
M 11095
lường 11086
Quyền 11073
Quá 11070
muôn 11059
Giô 11054
thâm 11045
Ít 11035
mòn 11032
chốc 11030
III 11022
gan 11020
2001 11018
cạn 11014
Của 11012
sô 10999
X 10993
nghiện 10987
mượn 10981
giáng 10975
ồn 10972
Gần 10950
le 10937
ngạo 10936
o@@ 10934
bẩm 10898
Thường 10897
S 10896
sơn 10891
xé 10883
khuynh 10857
Tuyệt 10855
vuốt 10853
ngơi 10848
Sách 10842
mỹ 10841
Vả 10833
khe 10828
nâu 10819
rẻ 10815
Thư 10812
giáp 10810
chọc 10804
P 10785
trễ 10779
giọt 10773
toà 10771
há 10768
nuốt 10768
ti@@ 10763
lỏng 10760
Dương 10746
qui 10746
đáy 10733
34 10726
Israel 10724
dã 10722
lồng 10713
He 10692
ICo 10687
36 10673
en@@ 10673
phú 10667
thịnh 10660
bưu 10659
mẻ 10659
mạn 10647
vê 10646
súc 10632
tiệm 10632
lưỡng 10613
nhạy 10608
ngụ 10597
trộn 10574
Bill 10569
Tay 10569
a@@ 10566
tùng 10557
cay 10547
hang 10538
dồn 10530
Co@@ 10529
bắp 10525
Viên 10518
Ký 10506
hoạn 10501
tụng 10495
trùm 10479
cong 10470
Thomas 10469
si 10467
Mo@@ 10464
VỀ 10450
Giu-đa 10448
nh@@ 10448
chánh 10447
khán 10425
2003 10417
thiêu 10412
hận 10404
ghé 10395
nhã 10393
Car@@ 10390
len 10378
Tiền 10373
web 10371
vả 10370
dì 10355
móng 10351
vong 10341
Yêu 10336
Cầu 10317
Định 10315
bồn 10306
Xã 10301
Nhờ 10300
thét 10294
Thẩm 10288
manh 10285
Minh 10280
ranh 10274
Áp 10273
lúa 10270
Lẽ 10267
khuất 10267
bạch 10266
Đào 10248
Đạo 10237
sôi 10228
Vương 10217
chấn 10177
túng 10176
bồ 10166
rộn 10163
kĩ 10155
vạch 10154
hạch 10153
2017 10145
hoan 10128
đạc 10125
An@@ 10109
đẻ 10104
â 10096
Tính 10078
Khoảng 10077
Đặc 10076
rồ 10059
Charles 10048
bẫy 10047
bơ 10045
phụng 10039
Nữ 10038
Nhanh 10034
Re@@ 10022
am 10008
gào 9993
quầy 9985
hò 9963
2002 9959
khiêu 9959
Nông 9934
úy 9932
Dầu 9931
hưu 9931
Nhóm 9927
luồng 9927
37 9923
Mẫu 9919
hở 9910
mẩu 9909
dũng 9904
lạy 9901
Phân 9895
cự 9892
Ca 9882
Vẫn 9870
cỗ 9869
đợt 9866
Nghĩa 9864
ni 9859
lều 9853
nhủ 9839
Sử 9832
gớm 9810
toa 9800
Cổ 9782
râu 9780
5@@ 9779
gươm 9776
Bắt 9770
vờ 9767
Tạo 9765
nản 9754
ph@@ 9741
Cần 9731
mồi 9731
răn 9728
f 9717
cừu 9710
nãy 9701
đỗ 9701
ri@@ 9700
kẹt 9689
kỉ 9680
nga 9671
Tháng 9670
ngước 9660
Eragon 9659
vươn 9650
Trừ 9647
ổng 9640
Lao 9633
hoãn 9631
thép 9628
cắm 9622
ghen 9617
Phó 9616
ghép 9616
an@@ 9608
thản 9600
luân 9597
báu 9587
rồng 9572
khuyết 9568
trắc 9559
Đêm 9551
Hoàn 9550
tê 9547
tởm 9540
Ga 9539
hái 9535
nhún 9534
khơi 9530
xóm 9524
San 9514
ào 9507
gãy 9505
quét 9500
quyến 9493
Đáng 9481
Bo@@ 9478
nhấc 9476
ĐỊNH 9466
dinh 9455
chê 9450
Bị 9445
xuân 9439
km 9437
Be@@ 9436
li@@ 9432
38 9426
De@@ 9425
gìn 9419
1999 9416
khăng 9416
êm 9409
ầm 9407
gầm 9400
khôi 9394
dàn 9387
Cơ-đốc 9377
Tìm 9376
Ấy 9369
el 9365
z@@ 9356
2004 9352
To@@ 9352
củng 9350
nhọc 9345
Ha 9343
go 9337
Chúc 9311
dẫy 9308
Nghiên 9306
đ@@ 9302
.... 9299
đấm 9288
Hóa 9277
muối 9275
nàn 9249
nếp 9235
Xác 9234
họng 9231
chẽ 9223
Co 9221
đoan 9217
Ho@@ 9214
trá 9213
đoạt 9207
Dường 9197
di@@ 9192
Đội 9192
rưỡi 9183
vẫy 9176
Kim 9144
Đọc 9142
Lu@@ 9131
mông 9124
Ph@@ 9119
đắc 9109
William 9108
r 9106
nhựa 9099
Bao 9094
Thấy 9094
Tương 9094
giục 9089
khớp 9078
lo@@ 9058
f@@ 9044
khoẻ 9044
viếng 9037
Xô 9036
béo 9035
4@@ 9016
Frank 9014
mâu 9011
nồng 8994
bát 8993
Phật 8983
men 8977
sờ 8975
đắt 8968
niêm 8966
gạch 8964
Di@@ 8960
Dưới 8958
đắm 8952
Mắt 8943
rỉ 8927
Ả 8927
Bar@@ 8922
điê 8919
you 8918
tẩy 8899
re@@ 8893
căm 8889
Muốn 8887
màng 8879
Chà 8872
Le@@ 8869
Yeah 8868
sưởi 8859
tiê 8858
vuông 8850
tiễn 8844
nướng 8838
V 8828
Sáu 8824
in@@ 8822
$ 8819
vách 8818
Washington 8816
bột 8811
Sa-tan 8810
Vừa 8808
đứt 8800
te 8777
Su@@ 8776
gũi 8775
xô 8775
ki 8761
Elizabeth 8755
Lo@@ 8751
sườn 8751
ar@@ 8746
1998 8742
ôi 8740
đòn 8729
Ô 8716
hèn 8715
ván 8711
lũng 8705
vu 8705
gởi 8686
sỹ 8678
In@@ 8672
bô 8670
hố 8666
dập 8664
{ 8653
U 8651
Tạm 8642
th 8640
BTC 8634
gi@@ 8628
sương 8624
Giả 8623
quỳ 8623
Phục 8616
tro 8613
Mac 8605
Hồng 8604
van 8586
ẩm 8584
lặn 8577
xưởng 8572
xoa 8558
bóp 8552
bách 8542
lợn 8539
nôn 8536
Bốn 8527
đực 8520
Con@@ 8515
nhét 8505
Đánh 8503
ngộ 8497
Hướng 8495
dở 8490
ngẫm 8485
Đang 8485
mép 8478
dẹp 8474
6@@ 8461
Giu 8459
Mô 8429
39 8423
đắng 8423
Thêm 8418
cựu 8415
R 8386
kha 8373
lỡ 8373
gieo 8370
rẩy 8370
xà 8368
Trình 8360
chui 8355
California 8351
tiêm 8349
lân 8347
Phu 8340
thình 8326
khỉ 8322
300 8318
SỐ 8316
nhát 8316
Bệnh 8309
gậy 8307
ngây 8307
trơ 8302
Ma@@ 8301
lam 8300
Li@@ 8289
Tới 8287
Điện 8284
nương 8270
Tiêu 8266
khuẩn 8264
Bảy 8260
ngoái 8247
Sản 8242
vạn 8239
Mức 8219
Lập 8215
rít 8213
mãnh 8209
Du@@ 8206
2018 8201
Eph 8200
son 8194
lẩm 8193
Cố 8183
Ánh 8182
Mới 8169
to@@ 8169
cài 8168
nhâ 8159
Chánh 8155
cóc 8153
L 8146
Tội 8146
rên 8144
Bu@@ 8138
thơm 8137
xíu 8118
vứt 8093
bỏng 8092
xức 8091
Martin 8090
trèo 8088
Máy 8085
long 8085
Bước 8080
er@@ 8079
Nguồn 8072
Giáng 8071
sảnh 8067
Chờ 8063
kỵ 8063
Thuế 8045
Lấy 8034
Artagnan 8033
chốn 8033
đũa 8031
.@@ 8027
lem 8020
lót 8019
Dumbledore 8001
Sh@@ 7999
Si@@ 7999
ke 7989
06 7973
42 7965
gai 7961
ngưng 7961
Qu@@ 7960
dâu 7959
ê 7957
cành 7953
khoá 7953
vướng 7952
bừng 7947
ne 7943
Loại 7920
Nick 7918
Tử 7918
\ 7916
giãn 7911
ton 7892
nén 7889
ngó 7888
đu 7884
nguyền 7880
9@@ 7879
F 7876
huynh 7869
rách 7869
mớ 7867
bớ 7841
Nhận 7840
chước 7829
Mike 7819
7@@ 7815
dặn 7811
lạm 7800
ngọc 7792
Chân 7777
Đứng 7766
ớt 7761
Lòng 7760
Chu 7755
huỷ 7746
khoang 7743
tông 7735
đà 7734
Ysơraên 7706
tị 7699
mổ 7698
ar 7697
nhạo 7694
he 7687
côn 7679
ngả 7677
Thu 7669
sói 7668
thiếp 7662
bo 7661
lăng 7661
vớ 7659
reo 7652
voi 7650
Hàn 7648
khoe 7644
ka 7643
as@@ 7641
le@@ 7637
ốc 7633
Tác 7631
chư 7620
ra@@ 7620
thọ 7618
chén 7617
kí 7614
trói 7612
lìa 7604
Suốt 7597
cống 7588
De 7583
Gióp 7557
z 7554
băn 7551
nốt 7551
phô 7551
Emma 7548
Kh@@ 7545
khoăn 7541
rễ 7541
Napoleon 7533
Tâm 7533
Emily 7532
hiền 7527
tể 7527
Anna 7512
Sửa 7499
điếu 7488
nài 7479
album 7477
Canada 7473
cưng 7471
al@@ 7460
Na 7458
Mi@@ 7457
lu 7457
Thị 7456
Daniel 7449
dải 7445
8@@ 7444
gục 7439
Tuần 7435
Ri@@ 7432
chói 7426
pho 7419
đè 7418
Lãnh 7412
Har@@ 7410
ngẩn 7402
vú 7401
điền 7401
tráng 7380
um 7374
Hết 7372
đúc 7371
khoát 7365
Thân 7364
mồm 7357
sáp 7354
suối 7351
bổn 7343
was 7341
Sophie 7335
Thiết 7332
Khải 7330
Bỏ 7326
đắp 7319
CÔNG 7312
láng 7310
Thể 7304
uế 7303
God 7300
Xét 7298
quấy 7294
Mở 7293
xi 7293
mập 7288
Simon 7284
bể 7283
CÁC 7276
et 7276
vặt 7270
suýt 7255
đăm 7250
Mc@@ 7248
thoái 7246
Se@@ 7238
vặn 7238
00 7237
san 7231
gắt 7223
ngừa 7219
Cửa 7218
48 7213
44 7210
trinh 7206
rèn 7200
sưu 7199
May 7194
Mi 7194
we 7193
tần 7191
đẽ 7185
Kh 7166
Thí 7154
nhịn 7154
Vợ 7150
đành 7150
kh@@ 7149
viê 7149
á 7148
kem 7143
buýt 7133
xen 7124
điềm 7123
Buổi 7122
43 7117
Cá 7115
nói. 7112
át 7106
cáu 7096
Bảng 7084
Tiểu 7082
41 7080
sốc 7072
phổi 7071
H 7068
bẻ 7065
Hey 7064
ia 7063
with 7060
Hoạt 7052
lây 7049
trân 7048
vẩn 7047
ts 7041
nấy 7038
bùn 7024
ngào 7019
ngô 7015
A. 7004
chuồng 7003
QUY 6999
thung 6994
đày 6986
phun 6982
hăng 6978
04 6964
Áo 6964
cối 6962
xông 6952
thính 6945
lọt 6942
Richard 6931
Nhiệm 6922
kề 6916
ven 6910
Ni@@ 6906
gay 6902
Biên 6901
vụn 6899
lõi 6892
cược 6890
xách 6881
Mu@@ 6875
bộc 6870
kiêng 6862
nến 6860
Đoàn 6860
Sống 6857
Hẳn 6856
dê 6852
phẳng 6850
đầm 6849
Phía 6828
lâ 6828
mă 6818
K 6817
Do@@ 6815
hiếp 6815
Okay 6809
Coi 6808
Đám 6806
kiềm 6794
So@@ 6790
cau 6790
ngớ 6790
hãnh 6784
do@@ 6772
mo 6765
nắp 6755
múa 6749
léo 6747
Vi 6744
1@@ 6742
nhơn 6741
Maria 6740
16@@ 6739
Mark 6738
Cao 6731
cơm 6726
kệ 6724
Vi@@ 6719
duyên 6718
Thổ 6711
thấm 6710
15@@ 6706
lề 6706
Úc 6700
Áp-ra-ham 6699
quấn 6696
Tín 6691
Toà 6688
lũy 6688
lột 6684
gặt 6683
hiếu 6672
kẹp 6672
CH@@ 6666
bã 6666
hãm 6660
khép 6641
chuyền 6631
re 6630
Dừng 6623
Go@@ 6618
Mác 6616
Nhất 6616
Mor@@ 6610
on@@ 6607
gấu 6605
trươ 6603
Bồ 6596
Will 6596
Xe 6591
ấu 6590
Holmes 6587
tuôn 6585
dời 6583
Giữa 6581
Sư 6581
nhấp 6581
ro@@ 6565
Par@@ 6558
xá 6557
46 6555
lãm 6533
rải 6531
hoạ 6528
gầy 6524
thối 6523
07 6519
thẳm 6518
or 6514
nom 6512
Cấp 6508
đậm 6507
der 6506
Ờ 6506
đính 6502
hiê 6501
hao 6497
cưỡi 6496
choáng 6492
rà 6489
rau 6478
bấm 6474
ngẩng 6469
es@@ 6450
Me@@ 6449
lượn 6446
chật 6436
đậy 6434
chen 6431
hông 6430
xí 6424
Joe 6422
CHÍNH 6420
Cô-rinh-tô 6416
nhị 6410
51 6406
Cor@@ 6402
Chí 6401
TV 6400
HÀNH 6396
TTg 6387
lách 6385
Hu@@ 6382
Ti@@ 6377
thà 6374
báp 6370
chênh 6370
Hê 6368
vất 6355
Ngược 6345
dỡ 6344
pin 6341
Per@@ 6332
Mexico 6329
Quảng 6326
is@@ 6324
Hiểu 6322
chuyê 6320
Gu@@ 6319
đặn 6319
Tim 6317
rạng 6312
G 6300
1990 6298
Xuất 6298
244 6296
No@@ 6294
55 6288
Bức 6286
ngửi 6286
w@@ 6286
tím 6283
chì 6268
Jacob 6267
So 6266
vầy 6266
Ben 6259
hưng 6255
one 6253
phơi 6249
ấp 6249
Dịch 6245
bar 6244
Ngồi 6233
2@@ 6232
Lưu 6222
chua 6221
sắng 6221
Eve 6220
rùng 6220
xuôi 6219
Kho 6214
xì 6213
rạp 6210
ley 6204
Charlie 6201
giếng 6201
Dan 6197
Kate 6194
ah 6194
75 6186
IV 6183
uỷ 6180
Christian 6178
kẹo 6178
lay 6178
v.v 6173
nháy 6171
Đợi 6166
LÝ 6164
Cây 6161
eo 6160
Khách 6154
xao 6152
rầu 6151
sét 6150
lình 6141
Vũ 6137
USD 6133
Long 6131
Điển 6126
đan 6122
3@@ 6117
phàn 6115
Cơn 6114
ruộng 6114
quăng 6113
Giới 6101
bìa 6097
Lee 6093
Cung 6090
phác 6089
Tàu 6088
Thỉnh 6084
nê 6084
el@@ 6083
ngư 6080
Mùa 6069
chẩn 6067
si@@ 6067
C. 6066
game 6066
Tụi 6065
GTGT 6059
TH@@ 6058
bă 6053
nhào 6050
nhọn 6043
Biển 6036
yết 6030
Louis 6027
nhứt 6024
nư 6020
Năng 6017
ngần 6016
triệt 6014
loa 6009
Vô 6008
Xu 6003
uốn 5999
thẹn 5995
xế 5991
Bàn 5990
siết 5990
đó. 5985
} 5984
Bấy 5977
Man@@ 5977
cạo 5977
mi@@ 5975
Xử 5972
Đâu 5972
vọt 5971
com 5964
NĂM 5960
sững 5957
que 5955
vấp 5955
muô 5953
Ko@@ 5951
Thử 5944
Đoạn 5944
sùng 5934
47 5926
Nh@@ 5923
bệ 5919
are 5915
cọ 5914
độn 5911
hốc 5909
Quay 5906
Tháp 5903
Cánh 5902
Ngũ 5894
♫ 5892
am@@ 5891
tu@@ 5884
Ne@@ 5879
Jean 5874
Đền 5874
Phong 5871
Ch 5866
52 5864
nhốt 5862
273 5860
qu@@ 5860
400 5855
Giữ 5854
nghiệt 5850
Da 5848
xôi 5846
lén 5844
xua 5844
49 5834
1997 5818
0@@ 5817
Chicago 5815
lanh 5813
World 5812
nạp 5812
mảng 5811
Google 5805
ni@@ 5802
Ber@@ 5796
Trang 5790
Jim 5789
hê 5788
gom 5785
Càng 5783
Ng@@ 5772
Nhớ 5770
B. 5769
tít 5767
Alex 5761
Cụ 5760
at@@ 5754
Ăn 5751
Đời 5750
dạn 5748
Rhyme 5746
tựu 5746
all 5738
OK 5733
nghiền 5732
Satan 5728
chiêm 5727
les 5724
ngủi 5721
lu@@ 5718
Ghi 5717
Chữ 5715
Phối 5713
Lịch 5703
hân 5703
Ru@@ 5689
Rập 5684
đố 5682
Mon@@ 5680
co@@ 5669
En@@ 5667
chóc 5665
lầu 5662
vòm 5656
Vùng 5655
sừng 5655
Đôn 5652
tọa 5649
lùn 5644
Động 5643
trọ 5640
nứt 5638
Tham 5637
mu 5623
gót 5619
10@@ 5612
giặt 5612
hước 5612
then 5610
ĐỘNG 5604
Steve 5601
ria 5600
ad@@ 5595
lung 5595
Tờ 5594
vi@@ 5594
báng 5592
đạm 5592
nhì 5591
17@@ 5590
ODA 5589
bỉ 5589
Hạ 5584
Đài 5582
Sch@@ 5580
bành 5580
Her@@ 5576
vung 5576
1980 5571
Sa@@ 5567
Pi@@ 5562
ner 5561
Bob 5558
vác 5556
Im 5553
hé 5550
hất 5545
lúng 5544
HIV 5543
rệt 5543
ya 5542
Laura 5540
đẫm 5539
ter 5536
têm 5534
Khoan 5531
ngất 5531
thỉu 5530
lận 5526
Biểu 5523
virus 5518
Al 5512
MỘT 5512
chă 5512
ana 5509
chồn 5505
Chuẩn 5498
gò 5497
ers 5491
đùi 5491
phiêu 5487
đới 5482
Triều 5478
Giê-su 5477
nạ 5476
65 5475
chà 5467
Trắng 5465
trơn 5465
tâ 5464
FBI 5455
os 5455
bọt 5450
IICo 5449
« 5437
Mối 5436
Chớ 5431
mỡ 5431
He@@ 5429
nhũng 5427
rê 5425
Đương 5423
bầm 5422
kìm 5419
Q@@ 5411
Buộc 5409
trút 5409
cằm 5407
CHƯƠNG 5403
224 5401
Tăng 5398
heo 5397
cước 5395
nấm 5383
vịnh 5380
nhõm 5374
tôi. 5367
den 5365
Catherine 5361
rót 5361
hòm 5356
Tu@@ 5351
mốc 5348
Đột 5347
mình. 5336
Jane 5333
Parker 5333
Ðấng 5331
Đứa 5327
túm 5321
ac@@ 5317
nếm 5316
Chỗ 5312
Dạ 5312
150 5307
or@@ 5305
Thiếu 5300
No 5299
lụa 5298
53 5297
from 5296
sen 5288
noi 5287
j@@ 5285
email 5281
khoanh 5279
hiên 5278
rã 5275
chạp 5274
sập 5273
phế 5271
ráp 5267
đệm 5265
tuỳ 5263
Bi@@ 5259
Los 5256
xơ 5256
Xa 5255
et@@ 5255
roi 5254
Tess 5247
văng 5247
quặc 5245
xộn 5244
nhích 5243
nín 5241
vượng 5238
nè 5229
Jobs 5222
khùng 5222
Va 5221
Nghĩ 5216
hạm 5212
sỉ 5212
ma@@ 5210
Lên 5206
ắt 5206
Giêhôva 5203
ing 5202
hốt 5201
bén 5199
sửng 5196
se@@ 5194
xả 5191
thào 5190
tam 5187
Lu-ca 5186
bóc 5182
vo 5175
1970 5171
Smith 5169
NƯỚC 5164
TRONG 5164
lửng 5160
Trở 5159
bón 5159
giễu 5159
khước 5151
ck 5149
Giúp 5139
ne@@ 5138
bu@@ 5137
Anne 5136
Ða 5136
Trả 5133
phiến 5128
xẻ 5128
Cuốn 5127
SỰ 5127
08 5124
Rằng 5124
Scott 5124
Gia-cơ 5123
bi@@ 5119
Du 5117
tui 5112
phẫn 5107
Adam 5105
NGÀY 5104
hụt 5093
Sau-lơ 5092
lon 5092
Thủy 5090
Ba-by-lôn 5087
thâu 5083
Viết 5082
khâu 5082
Dùng 5078
khoai 5077
cào 5076
đãng 5075
phồng 5074
TC 5070
bọ 5070
mầm 5067
Hòa 5065
rậm 5065
Gia-cốp 5064
nhức 5063
ab@@ 5061
dưng 5057
vụt 5057
A-@@ 5049
Lực 5049
võ 5048
mầu 5045
Hiệu 5036
Chất 5026
thắn 5021
Sachs 5017
Ừm 5011
né 5009
hễ 5008
St@@ 5007
Gọi 5000
nhô 4996
thò 4994
xoáy 4994
Quỷ 4993
Tóm 4991
Mời 4988
VI 4988
sáo 4986
Trump 4983
os@@ 4980
− 4979
vành 4975
Tỷ 4974
Quận 4972
not 4969
Ki@@ 4966
ră 4965
lầy 4962
toan 4959
vòi 4959
Kar@@ 4958
bổng 4955
ad 4954
ngai 4953
nhiê 4945
VIỆC 4942
Tránh 4938
de@@ 4938
lư 4933
vạt 4933
Si 4931
Po@@ 4927
phường 4924
kèn 4923
ròng 4919
El@@ 4918
Hậu 4916
dệt 4915
đôla 4913
Rô-ma 4911
Suy 4904
cáp 4900
Vật 4895
nhổ 4895
sả 4895
it@@ 4893
đọng 4893
Dòng 4889
Chuyển 4888
điếm 4886
ĐIỀU 4884
này. 4881
trêu 4881
Pha 4880
xăm 4880
tản 4878
ag@@ 4877
lịnh 4877
Alexander 4875
bênh 4871
nheo 4868
Pro@@ 4867
NGƯỜI 4863
vắt 4859
Nhĩ 4857
ách 4855
thự 4848
his 4841
vùi 4841
cợt 4837
Chạy 4833
Dance 4833
Ku@@ 4815
lọ 4815
ngửa 4811
Tony 4808
đục 4802
ngâm 4796
thạnh 4794
Oliver 4793
lấn 4788
câm 4784
Mas@@ 4779
robot 4776
hâm 4775
lụt 4769
Di 4768
Buffett 4766
ak@@ 4761
Giô-sép 4753
Bá 4752
miên 4751
ine 4743
Tà 4739
Hi 4738
Loài 4737
giềng 4736
58 4735
95 4729
ho@@ 4728
xướng 4726
Hỏa 4718
chổi 4716
Phản 4715
Tokyo 4711
lẫy 4708
1995 4704
Or@@ 4704
chiêu 4703
Carl 4699
lẩn 4696
nữa. 4693
a. 4690
Pe@@ 4689
liễu 4689
A-đam 4681
chửi 4673
bơm 4672
thỏ 4672
góa 4671
1996 4669
é@@ 4663
lẽo 4661
Sức 4660
Mê 4659
dấy 4656
1960 4654
gạo 4651
búa 4650
Gặp 4647
ngạch 4644
rầm 4644
DỤNG 4643
ate 4643
găng 4642
bong 4640
đơ 4639
J 4638
chải 4635
□ 4631
dật 4629
Hi@@ 4621
Đô 4619
14@@ 4618
thạo 4618
Cu@@ 4616
Mụ 4615
lộng 4614
bịt 4611
Trẻ 4607
hổn 4605
buồm 4604
ap@@ 4603
kẽ 4601
Min@@ 4600
Nầy 4599
ter@@ 4596
Châm 4589
HÀNG 4585
quở 4585
bu 4584
mốt 4580
Nỗi 4578
ky 4577
nhợt 4577
Don 4572
ngơ 4572
phím 4570
Angeles 4567
nhược 4562
Đỏ 4562
Chế 4560
vãn 4554
Canh 4550
54 4547
Bal@@ 4547
díp 4547
Le 4546
Luân 4544
Sarah 4543
neo 4540
cụt 4537
1994 4535
Luke 4534
cuô 4533
taxi 4533
xỉ 4533
Nê 4525
Phierơ 4516
la@@ 4515
Đặt 4515
chĩa 4514
Josh 4510
logic 4509
Khả 4503
Johnson 4500
Hitler 4498
lậu 4495
Danny 4494
váng 4489
59 4486
Rome 4485
bùa 4485
56 4477
Billy 4474
phì 4473
Đăng 4472
Hê-bơ-rơ 4469
QUẢN 4469
i-@@ 4467
Chức 4466
Bí 4463
250 4460
Luôn 4459
rét 4459
banh 4458
cu@@ 4456
DNA 4453
J. 4447
1992 4446
Thuyết 4446
tràng 4444
13@@ 4442
w 4442
Bóng 4435
09 4434
City 4433
thừng 4429
You 4428
bế 4423
» 4423
ey 4421
sẫm 4420
Cas@@ 4414
VỚI 4414
hển 4414
ak 4411
64 4408
Jordan 4407
Gie 4406
sầu 4404
rành 4403
nghiến 4399
57 4398
cúng 4398
Mau 4393
Hỏi 4390
Kiểu 4390
Từng 4390
náo 4389
dè 4387
Tinh 4378
Levin 4374
ce 4372
ngõ 4372
còi 4371
Shi@@ 4370
Scarlett 4369
hă 4366
mo@@ 4366
lóc 4361
NHÀ 4359
khuya 4347
IGi 4345
Ivan 4345
ot@@ 4345
no@@ 4337
bàng 4333
náu 4333
mâ 4325
Andrew 4324
Vượt 4324
ê@@ 4322
Lê 4316
Sơn 4314
gáy 4314
so@@ 4313
sọ 4311
ngặt 4310
sủa 4309
Jo@@ 4308
Mạng 4308
Arthur 4307
Susan 4305
Ð@@ 4302
sầm 4300
this 4300
đôn 4300
nhện 4299
xoắn 4298
63 4293
IPhi 4292
Texas 4292
cằn 4290
ồ 4290
ủ 4288
ngượng 4287
Gray 4284
sỏi 4284
méo 4283
rớt 4282
KHÔNG 4280
TK 4280
Eddie 4277
hàn 4274
And 4270
gh@@ 4267
Bán 4264
1993 4261
La-mã 4261
chầm 4261
St 4260
Niềm 4255
TƯ 4253
chéo 4247
In 4242
Web 4241
Ba@@ 4230
gán 4229
il@@ 4229
Môise 4225
xê 4224
chiê 4220
trội 4216
TR@@ 4214
lôn 4213
Claire 4205
cửu 4205
Lucy 4203
ru@@ 4199
ỏi 4197
MỤC 4193
khiếm 4193
Tôn 4191
Tưởng 4188
Hans 4187
THÁNG 4186
ruồi 4182
nhơ 4180
nhồi 4178
quật 4177
Boston 4176
mắng 4176
Helen 4175
Van 4175
vò 4169
dơ 4168
tem 4168
dẫu 4165
Ver@@ 4164
my 4164
Tengo 4163
Jennifer 4162
sẹo 4157
thắp 4157
Iraq 4154
hoi 4154
Hiến 4152
chém 4147
rìa 4147
thủng 4146
Fred 4144
su@@ 4143
lự 4142
hổng 4137
CHỨC 4135
Ki 4134
Mac@@ 4131
vỉa 4128
Độc 4128
600 4125
khuấy 4125
a-@@ 4124
nhiễu 4124
99 4117
Ju@@ 4114
Trận 4114
lóe 4114
CÓ 4113
Mĩ 4111
Scotland 4110
Apple 4103
THỰC 4100
rầy 4100
Francisco 4097
ent 4095
gẫm 4094
mộc 4093
Cải 4091
khan 4091
tuột 4089
Snape 4085
lứa 4085
củi 4079
Robin 4077
Ben@@ 4072
had 4072
viêm 4066
rập 4065
thiền 4063
Đủ 4063
đỗi 4063
KINH 4059
des 4059
Tỉnh 4058
phớt 4057
Ra@@ 4056
nhúc 4056
nhai 4052
vụng 4051
Hagrid 4050
San@@ 4048
Mal@@ 4045
huệ 4044
Tướng 4042
Pal@@ 4041
đờ 4038
72 4037
ting 4036
Ảnh 4033
khốc 4032
Thuốc 4027
dang 4027
ă 4026
NG@@ 4025
Pha-ri-si 4025
con@@ 4023
Lũ 4021
Berlin 4018
feet 4016
Ad@@ 4015
tẻ 4011
ng-@@ 4008
66 3999
oán 3994
chót 3991
Cal@@ 3990
Ros@@ 3990
út 3989
Times 3987
un@@ 3980
Khuôn 3978
kiê 3976
Vốn 3975
xảo 3973
điêu 3972
kg 3971
ler 3967
đư 3967
Cảng 3965
Trò 3964
&#124; 3961
Park 3961
dai 3961
1950 3960
Giai 3960
rể 3960
Wal@@ 3958
KH@@ 3957
ray 3954
Iran 3952
nấp 3950
land 3949
cấy 3946
CN 3943
King 3942
cẩm 3942
háo 3942
Chọn 3941
Nghệ 3937
Te@@ 3937
Ápraham 3937
Ê-phê-sô 3936
củ 3935
chơn 3934
báp-têm 3933
Joseph 3932
Đàn 3932
ưng 3929
TCN 3926
ngạt 3924
have 3921
Bri@@ 3917
mu@@ 3917
Đan 3917
D. 3916
radio 3912
khống 3909
BỘ 3907
râ 3904
Chồng 3901
85 3898
For@@ 3898
chùm 3897
tre 3896
thềm 3888
ten 3887
Hơi 3886
bịnh 3884
ran 3884
đần 3883
ập 3883
lượm 3878
Chi@@ 3877
hằn 3874
doạ 3873
Can@@ 3868
TS 3867
Virginia 3866
Lớn 3863
mỉa 3862
° 3860
té 3857
Carrie 3854
Ireland 3852
rơm 3849
Đằng 3849
61 3848
Am@@ 3846
Gar@@ 3846
ngụm 3846
sục 3846
Rô 3845
măng 3845
te@@ 3845
rèm 3836
Môn 3833
cọc 3833
Cực 3831
Palestine 3831
Xong 3829
chậu 3824
field 3822
Saphira 3821
they 3819
Vui 3817
mm 3817
ĐỐI 3816
dồi 3815
thốn 3812
sưa 3811
Harvard 3809
lội 3809
Mê-si-a 3808
Khá 3806
chèo 3806
miệt 3806
st@@ 3804
dấn 3803
Cổng 3802
Thập 3802
Núi 3800
Phù 3800
me@@ 3799
Yên 3798
líu 3798
mài 3797
nóc 3793
Chấp 3792
rảnh 3790
au 3789
nỉ 3789
tột 3789
chướng 3787
Biến 3786
Đavít 3786
giang 3785
hức 3785
nức 3785
Ma-ri 3781
I. 3779
hắt 3778
Peeta 3777
chuộng 3777
Bỗng 3775
Tám 3775
hẻm 3774
way 3769
CƠ 3768
em@@ 3766
tát 3766
nghẹn 3763
ci@@ 3762
om 3761
Đen 3761
W 3760
Phạm 3757
Ti-mô-thê 3757
thuở 3756
Jackson 3753
vệt 3753
Leo 3751
Ah 3750
Howard 3750
Taran 3750
két 3750
đốm 3750
Khai 3748
Hỗ 3745
bịch 3745
dột 3745
nhe 3743
rồi. 3741
trỏ 3740
Tuyên 3739
bôi 3739
chùi 3739
xiết 3737
xoá 3737
lố 3734
Rốt 3730
hỡi 3730
Sal@@ 3726
Ex@@ 3725
i. 3723
Giô-suê 3722
Pri@@ 3722
ĩ 3719
League 3715
gập 3714
au@@ 3711
Dì 3710
Bur@@ 3708
việt 3708
Singapore 3707
trù 3706
120 3704
Max 3704
ry 3704
Ma-thi-ơ 3703
NH@@ 3703
Kennedy 3701
Nash 3701
Wi@@ 3701
12@@ 3699
tấp 3692
K. 3690
ô@@ 3688
nhậm 3687
Mất 3686
Potter 3685
Hol@@ 3682
ds 3682
protein 3679
chộp 3676
ang 3674
toát 3674
Đa-ni-ên 3673
well 3672
cày 3671
Jones 3668
Giết 3665
Ab@@ 3664
bâ 3664
Donald 3661
Tức 3661
Brazil 3660
Kiến 3659
ờ 3659
nón 3658
Gabriel 3656
Riêng 3656
bẩy 3656
Duy 3655
Bella 3652
quyên 3651
Ray 3650
It 3649
giở 3649
Lối 3647
Khó 3646
xáo 3644
bạ 3642
Strike 3641
Bre@@ 3639
nồi 3633
xuẩn 3633
rọi 3631
thêu 3631
quẩn 3629
táng 3628
vịt 3625
62 3624
CA 3624
Thú 3622
Cẩn 3618
bừa 3617
rinh 3617
đả 3617
Au@@ 3613
Wall 3611
chày 3609
mạ 3606
Colin 3603
Stephen 3601
séc 3601
Mang 3595
lười 3595
Wil@@ 3594
Kelly 3593
côi 3593
nơ 3590
cò 3587
Ti 3585
Hal@@ 3583
ano 3579
our 3577
yếm 3576
Athos 3575
khàn 3575
Chuyến 3571
nhung 3571
1991 3570
rụt 3569
Char@@ 3568
Bel@@ 3566
hăm 3566
Trí 3564
We@@ 3561
Vận 3557
cốp 3557
tivi 3556
Ngôn 3550
mách 3547
Phê 3546
ft 3546
ừ 3546
Lệnh 3544
chặng 3542
hoán 3542
Rừng 3541
Thuyền 3539
per@@ 3538
Lợi 3537
ng. 3536
bướm 3531
TED 3530
Gal@@ 3528
ra. 3528
vét 3528
Ê-sai 3528
Dựa 3527
Bra@@ 3524
Mer@@ 3524
Mai 3523
sút 3522
Chris 3516
sấm 3516
ge 3515
2019 3513
Lincoln 3511
Sa-lô-môn 3508
Kính 3506
Lâu 3504
muội 3504
chiết 3502
Luther 3501
xắn 3499
úp 3496
ker 3495
Gương 3491
Chịu 3489
ta@@ 3489
Chiều 3486
giỏ 3486
68 3482
Sẵn 3479
ali@@ 3477
trụi 3476
NHỮNG 3475
lại. 3475
THÔNG 3472
nghẹt 3469
Val@@ 3468
Weasley 3467
Hả 3466
TỔ 3464
Amazon 3462
Tấm 3459
biếng 3459
sê 3459
vũng 3459
Chiên 3457
Na@@ 3454
VỤ 3454
CHO 3451
Bê 3450
marketing 3441
but 3436
bạt 3435
ngụy 3434
Gra@@ 3433
nhàu 3431
1-@@ 3430
Nạn 3430
bục 3430
bo@@ 3429
Nợ 3428
ted 3428
vần 3425
Nate 3424
búp 3424
kin 3424
cồn 3420
Nguyện 3418
khử 3418
camera 3416
QUAN 3412
Phố 3411
vóc 3409
khuỷu 3408
Jefferson 3407
Triết 3405
hi@@ 3405
cm 3403
phàm 3402
Uh 3399
é 3399
1000 3398
đờn 3398
Ted 3396
Ân 3395
Ơ 3394
ina 3392
trừu 3391
Bữa 3390
Johnny 3389
TÀI 3389
mải 3381
Ke@@ 3380
Taylor 3380
tầu 3378
Eric 3377
ling 3377
Khốn 3374
ĐẦU 3373
chập 3372
ed@@ 3371
loáng 3371
Victoria 3368
tỉa 3365
CIA 3364
Tam 3364
Huynh 3363
Ok 3361
Kỹ 3359
vớt 3358
Ngựa 3357
SẢN 3355
nhúng 3354
sưng 3352
Sar@@ 3350
ji 3347
Aomame 3345
800 3344
Lai 3344
eo@@ 3343
Ly@@ 3341
Teddy 3340
TRÌNH 3337
AIDS 3333
Walter 3333
Yu@@ 3333
Ford 3332
lữ 3332
E. 3331
ation 3331
Nằm 3328
thục 3327
Facebook 3324
kiêm 3323
quàng 3322
ganh 3320
tạc 3318
được. 3314
Morgan 3311
go@@ 3310
Sân 3307
House 3306
1.@@ 3302
don 3300
diễu 3297
viền 3296
84 3295
CT 3294
Ổng 3294
ITi 3293
sộ 3292
Annabelle 3291
Ha@@ 3291
du@@ 3289
Tùy 3287
av@@ 3285
mỉ 3284
ver@@ 3282
j 3281
gượng 3279
ngh@@ 3277
tr 3277
Grand 3273
Mong 3272
Nền 3272
cớm 3269
Bell 3268
BẢO 3266
Einstein 3265
pi@@ 3265
Gre@@ 3263
Màu 3262
Afghanistan 3259
m3 3257
Exe 3256
Sê 3255
bịa 3255
tợn 3255
Sara 3254
Win@@ 3252
Hiển 3251
day 3251
ans 3250
be@@ 3250
lốc 3250
Máu 3248
ko@@ 3248
Luận 3247
Matt 3247
xổ 3245
Nâng 3244
AN 3243
Francis 3242
her 3242
Đ 3241
xịt 3240
sh@@ 3239
ngậm 3238
Nor@@ 3237
Microsoft 3236
liếm 3236
rủ 3235
CEO 3233
st 3233
râm 3228
lă 3226
ara 3224
will 3220
ane 3219
rình 3219
Kevin 3215
Dẫu 3214
nhẹn 3213
đùng 3213
Fu@@ 3209
ki@@ 3208
DOANH 3206
Lửa 3202
HIỆN 3201
Lâm 3199
Caroline 3196
67 3195
dằn 3195
NGHIỆP 3193
hoành 3193
tụy 3192
Sy@@ 3190
Mạch 3188
Fer@@ 3185
ff 3185
HOẠT 3184
Winston 3181
Tóc 3180
Porthos 3178
gu@@ 3178
ex@@ 3177
im@@ 3176
tôm 3176
khay 3175
NASA 3174
La@@ 3173
tú 3173
lẳng 3171
1945 3167
Is@@ 3166
Ko 3166
luồn 3166
Kìa 3165
za 3164
out 3163
Jimmy 3161
Giê-rê-mi 3159
Thuật 3157
Trọng 3156
website 3156
Quần 3153
han 3149
vun 3149
HƯỚNG 3144
Phước 3144
tẩu 3144
Giêrusalem 3143
My@@ 3142
Tu 3141
ghiếc 3136
ol@@ 3136
dào 3133
Far@@ 3131
quạt 3131
Phi-líp 3130
Bổ 3129
dốt 3127
tụt 3127
Thoạt 3124
dâ 3124
Chín 3123
Hộ 3118
Uy 3118
ngỡ 3118
đi. 3116
tươ 3115
Black 3113
man@@ 3113
ÁN 3113
Wilson 3112
ráo 3112
BHXH 3111
chay 3108
Malfoy 3104
71 3103
Nô 3101
Pa@@ 3101
duỗi 3101
nòng 3098
kỉnh 3095
nhan 3095
Sổ 3092
Chừng 3088
Larry 3086
Gió 3085
Ian 3083
Nhu 3083
ard 3083
Thức 3082
chô 3082
Hắc 3079
nhí 3078
n. 3076
tua 3076
Chó 3075
quất 3075
Dấu 3074
vậy. 3074
rôn 3072
Ursula 3070
ai@@ 3070
Man 3069
Roran 3066
bin 3066
m. 3065
Phép 3064
Ổn 3061
nguội 3060
243 3059
mìn 3059
quyê 3057
nhảm 3056
rú 3056
Str@@ 3054
dẫm 3053
Ram@@ 3051
Sơ 3049
gàng 3048
po@@ 3048
Windows 3047
sặc 3047
lẻn 3046
Chả 3045
Guiliano 3042
đanh 3039
Ni 3037
Ren@@ 3035
ngóng 3034
gừ 3033
Florida 3032
Mat@@ 3031
up 3029
cưa 3028
Hứa 3023
ram 3023
nhuộm 3021
vút 3021
Đáp 3021
bới 3020
As@@ 3019
n-@@ 3019
Hằng 3018
cuống 3018
ani 3016
xay 3016
Luca 3014
Sp@@ 3013
rợn 3013
mầy 3012
ngỏ 3010
Ste@@ 3007
đốn 3007
ant 3006
LPG 3005
91 3004
un 3004
quáng 3003
Astrid 3000
Ender 3000
Vòng 2999
nạt 2998
Tiệc 2996
ta. 2996
tor 2996
nghênh 2991
69 2990
xuồng 2990
lảng 2989
truồng 2986
AR@@ 2984
Mãi 2983
car@@ 2983
Hy@@ 2982
Cesare 2981
cỏi 2980
hu@@ 2979
von 2978
Đo 2978
Graham 2977
giã 2976
Tước 2975
thoa 2975
Khác 2973
diêm 2973
Ty@@ 2972
ster 2972
Joel 2971
Đệ 2971
Bánh 2969
78 2968
ay 2968
Arkady 2966
Ser@@ 2966
96 2965
Diễn 2965
ten@@ 2963
vầng 2961
ảm 2961
mịt 2958
Vẻ 2956
were 2952
Triển 2948
Báp-tít 2943
73 2942
Pan@@ 2942
S. 2942
ay@@ 2942
t-@@ 2942
tưới 2941
Aramis 2938
tì 2934
Patrick 2933
mênh 2933
khóe 2932
Mua 2929
cẩu 2927
phung 2927
Hôn 2925
-Tôi 2923
á@@ 2922
1-2 2921
xui 2921
il 2919
vá 2918
Đấu 2917
boong 2916
Tuyết 2915
sụt 2915
trợn 2915
Phiên 2913
ber@@ 2913
sép 2913
Cam 2912
ie 2911
Tai 2908
Vàng 2908
tes 2904
Giuđa 2903
inch 2903
phanh 2903
Bro@@ 2902
Bắn 2901
Đình 2901
1989 2900
Do-thái 2897
khỏa 2895
Bầu 2893
Ed 2893
chuồn 2891
sòng 2891
92 2890
West 2890
Ca@@ 2889
Fi@@ 2889
Lin@@ 2889
Sho@@ 2889
CHÚA 2887
Dean 2887
rè 2887
vắc 2886
Argentina 2884
Sto@@ 2884
chồm 2884
Saint 2883
oxy 2883
ford 2879
pe@@ 2879
Sắp 2878
az@@ 2873
Indonesia 2869
nể 2869
SỬ 2862
ale 2860
net 2859
Rosie 2858
Xanh 2857
Albert 2856
rạch 2856
88 2854
H. 2854
oai 2854
rĩ 2854
Mùi 2853
nhiếp 2853
Ê-díp-tô 2853
Tế 2851
ếch 2848
est 2845
GI@@ 2844
KHẨU 2844
Thờ 2842
432 2840
Lewis 2840
Jake 2839
M. 2838
blog 2838
đă 2838
DẪN 2835
Jamie 2835
eg@@ 2835
ell 2834
Ađam 2832
bần 2829
dẻ 2829
đút 2828
cẳng 2826
Meg 2825
Press 2825
sải 2824
&gt; 2823
Viễn 2821
TIN 2819
cua 2818
id 2817
nung 2817
choạng 2816
86 2815
tus 2813
dẻo 2811
mấu 2811
Ross 2810
nắn 2810
gene 2809
Ca-na-an 2807
CẤP 2806
Darwin 2803
xít 2802
Đá 2801
ff@@ 2800
Olivia 2799
xài 2799
us@@ 2797
Bruce 2796
Red 2796
rãnh 2795
vãi 2795
Gen@@ 2794
Tor@@ 2794
cộ 2794
xở 2793
American 2792
Men@@ 2792
ville 2790
Brown 2789
Dar@@ 2788
bự 2787
Đẩy 2787
Lựa 2785
t. 2784
ken 2782
Ac@@ 2780
nai 2779
98 2778
NHNN 2778
cúp 2777
tic 2777
Lara 2776
lít 2776
giỡn 2775
ì 2775
Lục 2774
Piotr 2771
mặn 2771
nhấm 2771
rụng 2771
Ai@@ 2769
Cam@@ 2769
Dave 2768
xấp 2768
Pu@@ 2763
Ter@@ 2762
Jason 2761
chi@@ 2761
lim 2761
nhàm 2761
Bor@@ 2760
aw@@ 2759
cặn 2759
sấp 2758
Je@@ 2755
còng 2755
ada 2754
Barry 2752
IITi 2749
nhói 2749
Tar@@ 2746
lên. 2746
Sai 2744
ADN 2741
El 2739
Nghiêm 2738
Vệ 2738
Pen@@ 2737
PH@@ 2736
Bible 2735
Gửi 2733
Giop 2732
Hễ 2732
Uống 2732
hu 2731
rong 2731
Mag@@ 2730
XUẤT 2730
Nicholas 2728
Roger 2728
tru 2726
nhác 2724
Frodo 2723
more 2720
ngấm 2720
Marcus 2719
y. 2719
nham 2718
lì 2717
Sếp 2713
Đẹp 2711
chọi 2710
nhíu 2710
rổ 2710
R. 2709
ngoa 2709
hơ 2706
Đảo 2706
110 2705
gt 2705
nện 2705
rì 2705
700 2704
Nghi 2701
F. 2699
par@@ 2699
Ove 2698
hờ 2698
mó 2698
lin 2697
tuý 2697
lia 2693
83 2690
mb@@ 2690
ngán 2690
wood 2690
Tầm 2689
bả 2689
mịn 2688
óng 2688
1930 2687
Sa-ma-ri 2686
War@@ 2686
miện 2685
rợ 2685
kh 2683
Blomkvist 2682
trọt 2682
CO@@ 2680
United 2680
tanh 2680
Trùm 2679
@ 2677
Đóng 2677
Sa-mu-ên 2676
for@@ 2676
thoạt 2676
Katie 2675
87 2674
CHẾ 2673
Syria 2673
Rebecca 2672
ngoặt 2671
Bãi 2670
Reilly 2670
ks 2670
Món 2669
giầy 2669
ny 2669
gài 2668
ding 2666
ck@@ 2664
Charlotte 2663
Hoang 2662
Ngọn 2662
khác. 2662
sồi 2662
cho@@ 2661
79 2660
Khuyến 2660
nghếch 2660
Big 2659
1940 2657
nới 2656
Sc@@ 2654
xuô 2649
Cặp 2647
Crawford 2645
2.@@ 2644
Santa 2644
Chậm 2643
Mel@@ 2643
Greta 2642
Warren 2641
Brian 2639
and@@ 2639
CD 2638
keo 2638
lằn 2637
phông 2636
mẫn 2635
bồng 2634
dép 2634
Mil@@ 2633
ly@@ 2633
rước 2633
Clay 2632
ND 2624
Trăng 2624
mer 2624
UBND 2622
THỦ 2621
buốt 2619
hơn. 2619
toang 2619
Bưu 2618
gâ 2617
gen@@ 2616
Ka@@ 2615
dưa 2615
NAM 2614
ấy. 2614
She@@ 2611
nực 2611
Cat 2610
ngo 2609
ons 2608
tz 2608
Khung 2606
Young 2606
gă 2604
ach@@ 2602
gân 2601
AS@@ 2597
Ai-cập 2594
Well 2593
láo 2593
ngoạn 2593
ló 2592
77 2591
ino 2591
phâ 2591
Miễn 2590
Cán 2589
trướng 2587
xỏ 2587
1986 2586
m2 2586
đun 2584
Wow 2583
age 2583
É@@ 2583
Bang 2581
Q 2581
luyến 2581
bốt 2578
74 2574
Chuck 2573
Tiết 2570
Rôma 2569
Ê@@ 2569
Calvin 2568
LÀ 2567
Moody 2567
GDP 2565
men@@ 2564
GIÁ 2563
Phiếu 2563
Tak@@ 2563
khiêng 2563
phắt 2563
Tri@@ 2559
ic@@ 2559
Huyền 2557
ửng 2557
Salander 2556
Đổi 2556
81 2554
ang@@ 2554
Tô 2553
Sam@@ 2551
cúc 2551
rìu 2550
Grace 2549
ơ@@ 2549
1985 2547
Ho 2545
PHÁP 2545
1-3 2544
Matthew 2543
den@@ 2543
nít 2543
thế. 2543
cươ 2541
pro@@ 2541
1987 2540
Pakistan 2537
Voldemort 2536
Gordon 2534
89 2533
Tommy 2532
Dễ 2530
nháp 2530
phả 2530
Am 2529
Cup 2529
thán 2529
Dor@@ 2528
Lisa 2528
loạng 2528
Hor@@ 2527
c.@@ 2527
Nè 2526
NHẬP 2524
1988 2522
Jo 2522
uh 2522
nhàn 2520
Marie 2519
chao 2518
rưởi 2518
cộc 2517
huýt 2516
Cụm 2515
bướng 2515
low 2515
Oxford 2513
ou@@ 2513
nao 2511
Jessica 2510
Toranaga 2509
í@@ 2508
Ga-li-lê 2506
lút 2505
Fran@@ 2504
mar@@ 2504
RA 2503
ms 2503
Hollywood 2499
BAN 2498
ĐƯỢC 2498
xiềng 2497
gặm 2494
Sông 2492
Julia 2488
bit 2485
time 2485
Ô@@ 2485
76 2484
Col@@ 2484
xù 2483
Dana 2481
Manhattan 2480
Giảng 2479
dãi 2478
res@@ 2478
bịp 2476
vàn 2476
Ưu 2476
nệm 2475
Ger@@ 2474
nó. 2474
1984 2473
ja 2472
thong 2472
dượng 2471
họ. 2471
Er@@ 2469
Mật 2468
rặng 2468
Vronxki 2467
Cat@@ 2465
Latin 2465
NA@@ 2463
Nửa 2463
MI@@ 2462
ngùng 2462
u-@@ 2462
quạ 2460
Ngủ 2459
Sirius 2459
moi 2458
Edmond 2457
Moskva 2457
Tha 2457
thây 2457
CA@@ 2455
xỉn 2455
Sợ 2454
Jeff 2452
đoái 2452
Mad@@ 2451
20@@ 2450
ama 2450
Hel@@ 2449
RO@@ 2449
she 2448
Bay 2445
der@@ 2445
ngời 2445
ỉ 2444
Quên 2443
Street 2443
piano 2442
ves 2442
Thích 2441
93 2440
NG 2439
nết 2437
thinh 2437
Pre@@ 2436
eri@@ 2436
Australia 2435
lọi 2435
rương 2435
Name 2434
Nhạc 2434
phất 2433
HỘI 2431
KIỂM 2431
ông. 2431
Philippines 2430
Rose 2430
ir@@ 2429
TA 2428
Elsa 2426
IS@@ 2425
kép 2422
nhộn 2422
Ðoạn 2422
điếc 2422
Lào 2421
khiên 2420
225 2418
THUẾ 2417
internet 2417
ron 2417
Trị 2416
Martha 2413
St. 2413
ati@@ 2412
rin 2411
Vincent 2410
kiều 2409
Victor 2408
GIA 2407
LI@@ 2406
ITe 2404
ren 2403
quẳng 2402
ĐỔI 2401
Allen 2400
Tít 2400
Hạt 2399
bặt 2399
Ban@@ 2398
sky 2398
trũng 2398
Lucas 2396
NHÂN 2396
muỗi 2396
ngỗng 2396
My 2395
1975 2394
Vịnh 2394
TT@@ 2392
Khỉ 2389
hon 2389
rứt 2389
tion 2389
héo 2388
Trạm 2387
At@@ 2386
TẠI 2386
Quyển 2385
Lớp 2384
Cap@@ 2383
Watson 2383
nhằn 2383
tro@@ 2382
Chim 2380
Fermín 2380
97 2379
Phú 2379
PHỦ 2378
Chơi 2377
Cuba 2377
khờ 2377
Amy 2376
Philip 2376
Sir 2376
ger 2376
Phổ 2375
Jem 2374
3.@@ 2373
quỵ 2373
Cooper 2372
PHÁT 2372
nào. 2372
rền 2372
Ê-li 2371
Tyler 2369
ec@@ 2369
them 2365
trìu 2365
Clare 2364
giẫm 2364
One 2363
Ta@@ 2362
Alan 2361
Nu@@ 2359
Z 2359
Guinea 2358
QUYỀN 2358
W. 2356
súp 2356
Mái 2355
Cecilia 2354
Gri@@ 2352
82 2351
National 2351
Tracy 2350
Siêu 2349
quai 2349
SC 2347
Neil 2346
TÔI 2344
lóng 2344
nặc 2343
phào 2343
hòng 2341
ise 2340
gốm 2339
đít 2339
SS 2338
quậy 2338
giàn 2337
lòa 2337
biếm 2336
him 2336
Tệ 2334
Lỗi 2333
Thung 2331
119 2330
Vai 2330
like 2330
3D 2329
Disney 2329
Kỷ 2329
hời 2328
ốt 2328
Cầm 2327
thôi. 2326
dặt 2325
vư 2324
ens 2322
there 2321
Columbia 2320
Lương 2319
mon 2318
giương 2316
toả 2313
VIỆT 2311
toét 2311
Vườn 2310
golf 2310
loan 2309
Khí 2308
Băng 2307
ala 2307
phật 2306
thịch 2306
Bỉ 2305
ISa 2303
Lưỡi 2303
nấc 2303
Trần 2302
ĐẾN 2302
Bé 2299
Dẫn 2299
MA@@ 2299
sệt 2299
HỌC 2297
chè 2296
ắp 2296
who 2295
AI 2294
Chia 2294
IVua 2294
~ 2293
Miệng 2292
what 2292
ei@@ 2291
vắn 2291
phai 2289
Côrinhtô 2285
Gregory 2285
ber 2285
Ninh 2284
Y-sác 2284
tơi 2284
Dạy 2281
lừng 2281
Louise 2279
We 2279
nhếch 2279
Anderson 2278
mướn 2278
oải 2278
uý 2278
anh. 2277
ite 2277
ll 2277
Khán 2276
Video 2275
nhè 2275
2030 2273
ella 2273
q@@ 2273
Geneva 2272
Ngón 2271
II@@ 2270
NHIỆM 2270
Mia 2268
Baker 2267
mánh 2267
ph 2267
Connor 2265
trổ 2265
Thỏa 2262
bời 2262
vạ 2262
bưng 2261
tri@@ 2260
TSCĐ 2256
ry@@ 2256
South 2253
ade 2253
Tái 2252
giùm 2252
min 2252
gù 2251
fi@@ 2250
What 2249
gãi 2249
rock 2249
ốp 2249
Com@@ 2248
Lan@@ 2248
dan 2247
elle 2247
hắng 2247
mann 2247
ngu@@ 2246
ney 2245
International 2244
ướp 2244
Loan 2242
Mis@@ 2242
Me 2241
P. 2240
Fre@@ 2239
đuốc 2239
BẠN 2238
Davis 2238
chanh 2237
Joey 2235
lở 2235
ah@@ 2234
Harvath 2233
cả. 2233
ngoảnh 2232
Hill 2231
min@@ 2231
1982 2230
nhoáng 2230
QU@@ 2229
THÀNH 2229
ngòi 2229
uy@@ 2229
1944 2228
Hy-lạp 2228
khịt 2226
LÀM 2225
file 2225
rống 2225
Kitty 2223
quyệt 2223
Da@@ 2222
1968 2221
DỰ 2221
Newton 2221
Ruth 2220
Blue 2218
Marshall 2218
ls 2218
Miller 2217
Thảo 2216
Đạt 2215
Hêbơrơ 2213
ary 2213
Center 2210
gộp 2208
Kitô 2207
sofa 2207
4.@@ 2206
khâm 2206
Ralph 2205
White 2204
ùa 2204
Vegas 2203
ii 2203
Katherine 2202
Star 2200
Ngành 2199
Thả 2199
T. 2197
thu@@ 2196
trườn 2196
Grant 2195
1973 2194
Lo 2194
gì. 2193
lộc 2193
nhút 2193
Campuchia 2192
Khởi 2192
about 2192
bus 2192
Đà 2192
Eu@@ 2191
bít 2191
Zealand 2190
ạt 2190
chảo 2189
Hall 2188
NHẬN 2188
nã 2188
phôi 2187
Dis@@ 2186
hột 2186
xào 2186
Gro@@ 2185
lẹ 2183
xát 2183
Ginny 2182
Nụ 2182
Ge@@ 2181
Ham@@ 2181
king 2180
Kiếm 2176
chát 2176
ke@@ 2175
pe 2175
Niên 2174
ngoãn 2174
nguôi 2174
Jersey 2173
Kong 2173
Ru 2170
dy 2170
nhòm 2170
ráng 2170
Đau 2170
suê 2169
Beth 2168
Gor@@ 2166
trĩu 2166
ment 2165
Saulơ 2164
chần 2164
tạng 2164
ili@@ 2163
nguyệt 2163
1979 2162
Nathan 2162
5-@@ 2160
Lá 2160
đc 2160
To 2159
Hẹn 2158
ren@@ 2158
rùa 2158
your 2157
Stone 2156
lảo 2156
Por@@ 2155
ps 2155
Monica 2154
nhướng 2153
THU 2152
kè 2152
hoả 2151
thọc 2151
Dan@@ 2148
càu 2148
Andy 2147
Han@@ 2147
giư 2147
into 2147
Ellen 2146
TI@@ 2145
per 2145
Kan@@ 2144
1,@@ 2143
Jerry 2143
khom 2143
thuyên 2143
94 2141
Augustus 2141
Fe@@ 2140
hươu 2140
Ái 2139
Đảm 2139
3-@@ 2137
Margaret 2136
pa 2136
Brooklyn 2135
cội 2135
ev@@ 2135
trỗi 2135
máng 2133
ắng 2132
CHỨNG 2131
ngà 2131
.com 2130
Giang 2130
ning 2130
Vinh 2129
sọc 2129
Jerusalem 2128
Xung 2128
hót 2128
rò 2128
trặc 2128
Lili 2127
Pierre 2127
ns 2126
bứt 2123
1920 2122
Huân 2121
· 2120
nhẵn 2119
phao 2119
IBM 2118
1969 2117
Hogwarts 2117
line 2117
RE@@ 2116
kẻo 2116
Phil 2115
Hê-rốt 2113
ari@@ 2113
ette 2112
mạt 2112
người. 2112
Tạp 2110
q 2110
1983 2109
1974 2108
tt 2108
which 2108
But 2106
PHẠM 2106
TẾ 2106
sảo 2106
fax 2105
L. 2104
let 2104
180 2103
ku@@ 2103
1914 2102
thă 2101
Tuân 2097
rúc 2097
their 2097
Khối 2096
RI@@ 2095
dạt 2095
phiếm 2095
vôi 2095
huyên 2093
ov 2093
able 2091
tho@@ 2091
mp@@ 2089
Atticus 2088
Hừm 2088
Sim@@ 2088
ze 2088
Linda 2087
Olympic 2087
aka 2087
axit 2087
Stanford 2084
Bon@@ 2083
gin 2083
ừm 2083
Dick 2082
Cro@@ 2081
Kông 2081
Mũi 2081
Rượu 2081
chan 2081
-s@@ 2080
bậy 2080
sủng 2080
e-@@ 2078
Ashley 2076
Lupin 2076
Thơ 2076
ẩu 2075
1972 2074
US 2074
1942 2071
Bas@@ 2070
Gates 2070
lùa 2070
sp@@ 2070
1971 2069
Tri 2069
Tạ 2069
sảng 2068
thẫm 2068
1981 2067
Bru@@ 2067
del 2067
gô 2067
FC 2064
Julián 2064
nươ 2064
pizza 2064
Os@@ 2063
ena 2063
Karl 2062
Ken@@ 2061
cóng 2061
Tranh 2060
mọn 2060
nhau. 2060
NI@@ 2058
lin@@ 2057
Carlisle 2055
Juan 2055
Nobel 2054
Philadelphia 2054
mẹo 2054
1965 2053
Roy 2053
í 2053
Chứ 2052
North 2052
Lạ 2050
ae 2050
chưng 2050
vẹo 2050
Hawaii 2049
ca@@ 2047
Bernard 2046
nhặn 2045
we@@ 2044
gio 2043
ù 2041
Bou@@ 2040
Stan 2040
he@@ 2040
Khái 2039
berg 2039
Abraham 2038
Màn 2038
chuối 2036
luống 2036
Dần 2035
DỊCH 2035
mão 2035
ek 2034
tròng 2034
ĐỨC 2034
Williams 2033
Ken 2032
Lily 2032
phiện 2032
sin 2031
Ang@@ 2030
ER@@ 2030
Freud 2030
News 2029
Isabel 2028
chích 2028
ire 2028
Lê-vi 2026
Ryan 2026
ac 2026
rán 2026
trượng 2026
Kay 2022
Life 2022
Lord 2022
mảy 2022
châ 2021
tủy 2021
Ag@@ 2020
Giôsép 2019
Pennsylvania 2018
Roarke 2018
ố 2018
Tạng 2016
Thừa 2015
đây. 2015
Caesar 2014
Malaysia 2014
bú 2014
Don@@ 2013
lus 2013
Giacốp 2012
Percy 2011
RA@@ 2011
hí 2011
Nhập 2010
Florence 2009
IIVua 2009
QUỐC 2008
Nar@@ 2007
cúm 2007
mượt 2004
rạn 2004
MA 2003
thiê 2002
Gary 2000
tặc 2000
Alecxei 1998
Tê-sa-lô-ni-ca 1998
vest 1997
tan@@ 1994
AN@@ 1993
Twitter 1993
2-@@ 1991
Jonathan 1991
TRIỂN 1991
chực 1991
Ứng 1991
Lượng 1990
Bờ 1989
Nancy 1989
bert 1989
ō 1989
Mông 1988
Time 1988
Carolina 1987
Thợ 1987
giê 1987
Chung 1986
vén 1986
CHI 1985
Starling 1985
ami 1985
ea 1985
chu@@ 1983
chùng 1982
sa@@ 1982
bẹp 1981
bói 1980
rêu 1980
TRƯỜNG 1979
Thẻ 1979
Ê-va 1979
Gandalf 1976
Virgin 1976
Hạnh 1971
Lawrence 1970
mím 1970
Biện 1968
ep@@ 1968
siêng 1968
báp-tem 1967
ghim 1967
7871 1966
THEO 1966
ăng 1966
găm 1965
LE@@ 1964
lươ 1964
Bush 1963
ge@@ 1963
Russell 1961
ngo@@ 1961
Hungary 1960
hacker 1960
mé 1960
HỢP 1959
khắt 1959
ok 1959
rảo 1959
Gian 1957
18@@ 1954
Thuộc 1953
mút 1953
G. 1952
Hannah 1952
Tuổi 1952
Green 1951
Vatican 1951
mon@@ 1951
lỏi 1950
ngáy 1950
chơ 1949
ó 1949
․ 1949
cứt 1948
Sa-bát 1947
na@@ 1947
1976 1946
Hòn 1946
cựa 1944
să 1944
Franklin 1943
ve@@ 1943
1943 1942
4-@@ 1942
Alaska 1942
Jasper 1942
electron 1942
Travis 1941
1967 1940
Douglas 1940
Phí 1940
Chu@@ 1937
uyên 1936
Music 1935
die 1935
TỤC 1934
giẻ 1934
Inter@@ 1933
Xuống 1933
chắp 1933
off 1933
Isabelle 1930
eu@@ 1930
giằng 1930
đái 1930
Kéo 1929
dĩa 1928
Lamã 1926
Aliosa 1925
Cambridge 1924
Rich 1924
mer@@ 1924
Einar 1923
Trại 1922
University 1922
dẳng 1922
hớn 1922
Blo@@ 1921
ba@@ 1921
ani@@ 1919
ó@@ 1919
US@@ 1918
bái 1917
if 1917
đấy. 1917
Fanny 1916
aki 1913
ela 1913
lác 1913
nhó 1913
zi@@ 1913
Dee 1912
Jace 1912
Bô 1910
Kê 1910
chóp 1910
All 1909
Es@@ 1909
Testament 1909
bập 1909
oh 1909
ua 1909
Dun@@ 1908
toạc 1908
Stalin 1907
Wales 1906
wa 1906
Nguyễn 1905
PHÍ 1905
Vết 1905
Huy 1904
QUYẾT 1902
Chuyên 1901
bềnh 1900
1978 1899
bặm 1899
XÂY 1898
ot 1898
carbon 1897
lủng 1897
would 1897
Ed@@ 1895
Sun@@ 1894
nghía 1894
Hữu 1893
lốp 1893
236 1892
CO2 1892
Neville 1892
May@@ 1891
Samuel 1891
ce@@ 1891
said 1891
130 1889
Nô-ê 1889
kov 1889
ur@@ 1888
sành 1887
Ci@@ 1885
Maggie 1885
BÁO 1884
Bạch 1884
HÌNH 1884
Pas@@ 1884
Un@@ 1884
huân 1883
vẩy 1883
Mo 1882
ance 1882
gien 1881
nua 1881
nang 1880
nhả 1880
ini 1879
bon 1877
cừ 1876
Địch 1876
Huấn 1875
Kho@@ 1875
Quí 1875
lả 1875
see 1874
Nigeria 1873
af@@ 1873
nhá 1873
DỰNG 1872
Lệ 1872
IISu 1871
uể 1871
bích 1870
chằng 1870
Moore 1869
A.@@ 1868
Clark 1868
Dược 1868
Adams 1867
ngáp 1867
phết 1867
thươ 1867
IIPhi 1866
dí 1865
trọc 1865
SA@@ 1863
ys 1862
Cấu 1861
tóe 1861
5.@@ 1860
Nekhliudov 1860
Rock 1860
diều 1860
Sharon 1859
nă 1859
tấu 1859
Pete 1858
dong 1858
hú 1858
pi 1858
Annie 1857
BHYT 1856
Old 1856
Caleb 1855
Del@@ 1855
PHẦN 1854
Timôthê 1854
đung 1854
Capitol 1853
nger 1852
rúm 1852
Binh 1851
T.C 1851
Isaac 1849
ü@@ 1849
đâu. 1848
Carter 1846
buột 1846
1-4 1845
phỉ 1845
Cát 1844
ion 1843
rát 1843
toe 1841
Dữ 1840
J.@@ 1840
103 1839
Benjamin 1839
nẩy 1839
1941 1838
rạc 1838
Holly 1837
900 1836
Cre@@ 1836
chửng 1836
quặng 1836
Lau@@ 1835
Luce 1835
Vic@@ 1835
phách 1835
NSNN 1834
Sel@@ 1834
Ba-na-ba 1833
BYT 1832
Yếu 1832
Clinton 1831
TRA 1831
MS 1830
Res@@ 1829
Fal@@ 1828
ax@@ 1827
sực 1827
Kor@@ 1826
when 1826
THỂ 1824
dơi 1824
xúi 1824
Fri@@ 1823
oo@@ 1822
XỬ 1821
níu 1821
úng 1820
NGHỊ 1819
Peru 1819
vin 1819
6-@@ 1818
THI 1818
ata 1817
ul@@ 1817
A-si-ri 1816
ble 1816
its 1815
líp 1815
CON 1814
know 1814
ser@@ 1814
Arya 1813
Shakespeare 1813
Diego 1812
Diện 1812
Lô 1812
da@@ 1811
-Không 1810
Pegasus 1810
THÁNH 1810
dà 1810
101 1808
NGOÀI 1808
gôn 1808
ngàng 1808
Gil@@ 1807
Pra@@ 1807
Su 1807
Thất 1807
Whoa 1807
ir 1807
Love 1806
TỰ 1806
phà 1806
trau 1806
BÀI 1805
núp 1805
KẾT 1804
Phi-lát 1804
Phoebe 1804
Vân 1802
giâ 1802
ski 1802
Đem 1801
Kì 1800
Trợ 1800
Finch 1799
Jessie 1798
LO@@ 1798
Yo@@ 1798
dor 1798
pp@@ 1794
nia 1793
tạt 1793
xước 1793
7-@@ 1792
ku 1792
rắm 1792
Ann 1791
Cà 1790
LUẬT 1790
NS@@ 1790
bết 1790
Nét 1789
chừ 1789
rộ 1789
hóc 1788
què 1788
Đèn 1788
Ali 1787
C.@@ 1787
Phim 1787
xi@@ 1787
Henri 1786
Kenya 1786
lấm 1786
yeah 1785
1964 1783
Kat@@ 1783
Ven@@ 1783
loanh 1782
Christina 1780
Pearl 1780
bỉnh 1780
hỉ 1779
nghiê 1779
ris@@ 1778
Hen@@ 1777
Ga-la-ti 1776
lún 1775
Des@@ 1774
AI@@ 1773
Georgia 1773
Solomon 1773
rẫy 1773
lọn 1772
mác 1772
Walker 1771
book 1771
dươ 1771
Hmm 1770
Tho@@ 1770
đao 1770
Day 1768
nhoài 1768
2,@@ 1767
Lam@@ 1767
Ơn 1766
6.@@ 1765
Sydney 1765
aya 1765
giăng 1765
Jesse 1764
ghì 1763
chèn 1762
ven@@ 1762
105 1761
hói 1760
-Anh 1759
Allan 1759
Câ 1759
Julie 1759
Perry 1759
len@@ 1759
Blackthorne 1758
Chống 1758
sỡ 1758
dìu 1757
http 1757
p. 1757
1.000 1756
only 1756
yến 1755
Bobby 1754
khánh 1754
1977 1753
Amelia 1753
Buồn 1753
HOẠCH 1753
Tod 1753
Cra@@ 1752
KÝ 1752
Quán 1752
uất 1751
Phá 1750
Sil@@ 1750
res 1750
Chăm 1749
DANH 1749
mường 1749
Venice 1748
ene 1748
nhẩm 1748
Journal 1746
ari 1745
DI@@ 1744
bệch 1744
hững 1744
Mathiơ 1743
Vin@@ 1743
gợn 1743
Sean 1742
Tru@@ 1742
Eleanor 1741
ath@@ 1741
1962 1740
Mel 1740
toái 1740
burg 1739
Lót 1738
Stephanie 1738
Lát 1737
1966 1736
Chăn 1736
Var@@ 1736
Castorp 1735
los 1735
mị 1735
Dorothy 1734
GIẢI 1734
TIÊU 1734
Trải 1734
Em@@ 1733
Ghê 1733
NGÂN 1733
ji@@ 1733
9-@@ 1732
Gregor 1732
sâm 1732
thon 1732
túp 1732
Ngô 1731
VII 1731
hẻo 1731
vẳng 1731
Blake 1730
Mos@@ 1730
ess 1730
Che@@ 1729
bar@@ 1729
phẩy 1729
thìa 1729
vồ 1729
Anthony 1728
Fin@@ 1728
Hãng 1728
suôn 1728
..... 1727
11@@ 1727
c-@@ 1727
pre@@ 1727
General 1726
Moscow 1726
ú@@ 1726
Cameron 1725
Pablo 1725
bung 1724
oan 1724
sey 1724
Khẩu 1723
trâu 1723
sh 1722
Flo@@ 1719
op@@ 1719
Đê 1719
hờn 1718
núm 1718
quì 1716
Becca 1715
Xuân 1715
ach 1715
als 1715
people 1715
ts@@ 1715
vựng 1715
Leon 1713
ngứa 1713
nuối 1713
avi@@ 1712
ngớt 1712
lie 1711
Khảo 1710
bảnh 1710
sk 1710
Cou@@ 1709
ig@@ 1709
ran@@ 1709
Sin@@ 1708
10.000 1707
sen@@ 1707
ASEAN 1706
Clary 1706
Xuyên 1705
ath 1705
set 1705
LẠI 1704
vali 1704
Ale@@ 1703
Dành 1703
giếm 1703
Cri@@ 1702
hoe 1702
Cos@@ 1701
Cử 1701
Vo@@ 1701
chừa 1701
Callie 1700
right 1699
History 1698
c. 1698
Đầy 1697
Vĩnh 1696
ian 1696
trệ 1695
Athens 1694
Mitia 1694
cuốc 1694
Ga@@ 1693
vo@@ 1693
Alfred 1691
Augustine 1691
SỞ 1691
tịnh 1691
Fo@@ 1690
has 1689
kiệu 1689
Hugo 1688
Seth 1688
ä@@ 1688
rữa 1687
Justin 1686
liê 1686
www.@@ 1686
tết 1685
kho@@ 1684
khuếch 1684
nghẽn 1684
Đàng 1684
Bos@@ 1683
V. 1683
Vạn 1683
1963 1682
Êli 1682
Nay 1681
Trụ 1679
ươ 1679
Khóa 1678
Ê-xê-chi-ên 1678
Tur@@ 1677
red 1677
Molly 1676
Napoléon 1676
Paelen 1676
dể 1676
mui 1676
tráo 1676
Sherlock 1675
chang 1675
har@@ 1675
ngách 1675
phích 1675
Britt-Marie 1674
Den@@ 1674
Greg 1674
Huyết 1673
Mưa 1673
Quang 1673
Raymond 1673
1948 1672
lẻo 1672
pa@@ 1672
IISa 1671
TRANG 1671
Arkwright 1670
ol 1670
Êsai 1670
PS 1669
Vĩ 1669
Cho@@ 1668
Dem@@ 1668
NQ 1668
Rick 1668
SI@@ 1668
Kích 1667
cùi 1667
been 1666
hỏi. 1665
Angela 1664
Mason 1664
Kent 1663
yo@@ 1663
cỡi 1662
mỳ 1662
triền 1662
1939 1661
DC 1661
Hoá 1661
cy 1661
TOÁN 1660
ev 1660
nấng 1660
không. 1659
Hugh 1658
mả 1658
Câm 1657
cù 1657
This 1655
nhót 1655
giông 1654
lù 1654
ớn 1653
An-ti-ốt 1651
Pol@@ 1651
TỪ 1651
Dr. 1650
Khổng 1650
Salomon 1650
ĐỘ 1650
Myron 1649
Ru-tơ 1649
Mal 1648
duệ 1648
Camille 1647
gra@@ 1647
va@@ 1647
zo 1647
buô 1646
cher 1646
à@@ 1646
Dallas 1644
Marius 1644
Roosevelt 1644
ase 1644
lựu 1644
pu@@ 1644
thửa 1644
PA 1643
Than 1643
MIT 1642
pen@@ 1642
Harold 1640
BẢN 1639
AL@@ 1638
Sw@@ 1638
ug@@ 1637
zer 1637
Christopher 1636
sch@@ 1636
Plato 1635
TO@@ 1635
khiê 1635
world 1635
José 1634
sũng 1634
Massachusetts 1633
led 1633
Daphne 1632
chệch 1632
ka@@ 1632
Mari@@ 1630
khít 1630
How 1628
Mau@@ 1628
Sylvie 1628
diê 1628
lan@@ 1627
thiển 1627
Giảm 1626
Sicily 1626
nhổm 1626
25@@ 1625
top 1625
Seoul 1623
old 1623
Bol@@ 1622
Morris 1622
mail 1622
Ash@@ 1621
chòm 1620
Can 1618
Latinh 1618
mor@@ 1618
huyệt 1617
Comp@@ 1616
Cross 1616
Meggie 1616
Phái 1616
lar 1616
America 1615
Chìa 1615
Natasa 1615
Monk 1614
Rio 1614
Sen@@ 1614
lồi 1614
Milady 1613
Ngọc 1612
PC 1612
nhoi 1612
Nắm 1611
PHAO-LÔ 1611
cút 1611
ins 1611
phịch 1611
áng 1611
Hă 1610
Ran@@ 1610
lum 1610
First 1609
lõm 1609
Sát 1608
bri@@ 1608
gả 1608
lạp 1608
Cy@@ 1607
Lecter 1607
Nhiệt 1607
can@@ 1607
chờn 1607
fu@@ 1607
Island 1606
ack 1606
nh. 1606
xó 1606
ated 1604
pp 1604
Ker@@ 1603
YouTube 1603
giô 1603
okay 1603
òa 1603
NỘI 1602
SE@@ 1602
Tal@@ 1602
chuốt 1602
eli@@ 1601
ss@@ 1600
áy 1600
stein 1599
1961 1598
Sô 1598
tành 1598
â@@ 1598
Aristotle 1597
Má 1597
võng 1597
Si-môn 1596
GIAO 1595
Già 1595
Madrid 1595
nặn 1595
ĐỂ 1595
Seattle 1594
Thâ 1594
ôtô 1594
Great 1593
Hạm 1593
ami@@ 1593
nhối 1593
rúp 1593
Little 1592
nọc 1592
Ư@@ 1592
Sài 1591
nẻo 1591
quầng 1591
đéo 1591
Doug 1590
226 1589
Fox 1589
Trực 1588
pop 1588
Bir@@ 1587
SÁCH 1587
SA 1586
Craig 1585
could 1585
ist 1585
1956 1584
HÓA 1584
Vâ 1584
thiếc 1583
Sevro 1582
biếu 1582
u. 1582
Terry 1581
Mừng 1580
str@@ 1580
GIẤY 1579
Nella 1579
ngoặc 1579
tía 1579
víu 1579
thệ 1578
vợt 1578
1946 1577
Cấm 1577
chòi 1577
m-@@ 1577
nhúm 1577
Betty 1576
Robinson 1575
nịnh 1575
nôi 1574
Jared 1573
dửng 1573
Colombia 1572
Felicity 1572
Frederick 1572
BỔ 1571
Hong 1571
phỉnh 1571
BI@@ 1570
DE@@ 1570
ations 1570
lởm 1570
Bụi 1569
Lùi 1569
din 1569
ze@@ 1569
Đư 1569
BBC 1568
ato@@ 1568
ence 1568
gỉ 1568
DVD 1567
very 1567
ón 1567
Amanda 1566
HÃY 1566
Ol@@ 1566
Phàm 1566
rie 1565
Tan@@ 1564
lẫm 1564
ngừ 1564
Alec 1562
Met@@ 1562
rén 1562
Mur@@ 1561
ets 1561
new 1560
Miền 1559
Tịch 1559
kíp 1559
xẻng 1559
Bul@@ 1558
Julian 1558
nes 1558
nhại 1558
trổi 1558
yn@@ 1558
Daisy 1557
hán 1557
1-11 1556
112 1556
ous 1556
LA@@ 1555
over 1555
Air 1554
ann@@ 1554
ere 1554
HO@@ 1553
Jon 1553
LỜI 1553
Súng 1553
Xám 1553
ver 1553
rúng 1552
vẹt 1552
Kusanagi 1551
giu 1551
win 1551
xo 1551
Nat 1550
Cole 1549
Pin@@ 1549
đóa 1549
1-5 1548
Điên 1548
CHẤT 1547
Red@@ 1547
ally 1547
cáng 1547
mít 1547
xiên 1546
1958 1545
báptêm 1545
chip 1545
oth 1545
Alexandra 1544
Cút 1544
Góc 1544
Wayne 1544
good 1544
Joan 1543
Mack 1543
lết 1543
Tit 1542
đĩ 1542
Las 1541
SO@@ 1541
Giấc 1540
Grigori 1540
Py@@ 1540
140 1539
liêu 1539
xéo 1539
Lar@@ 1538
nhỡ 1538
Cận 1537
Nixon 1537
Tra 1537
chùa 1537
ters 1537
tie 1537
1947 1536
Kin@@ 1536
Lính 1536
nie 1536
7845 1535
Ushikawa 1535
Fogg 1534
Mr. 1534
ha@@ 1534
ye 1534
lạch 1533
nhẽ 1533
táp 1533
tưng 1533
bét 1532
thuô 1532
thóc 1532
Blood 1531
Ohio 1531
S.C. 1531
ư@@ 1531
pic 1530
Rút 1529
Italy 1528
NE@@ 1528
Gios 1527
OS 1527
1949 1526
BCT 1526
CÁO 1526
Houston 1526
Kal@@ 1526
Seung 1526
ash@@ 1526
ngầu 1526
Mont@@ 1525
111 1524
ISO 1524
SỬA 1524
rón 1523
ế 1523
3,@@ 1521
Fiona 1521
Howl 1521
Kam@@ 1521
ú 1520
Pon@@ 1519
ato 1519
Tr 1517
thắm 1517
Ali@@ 1516
phăng 1516
ĐỒNG 1516
Becker 1515
Nikolai 1515
Nẵng 1515
Norman 1514
Pamela 1514
XX 1514
160 1512
Mak@@ 1512
sác 1512
Queen 1511
Thiệt 1511
Bối 1510
Êphêsô 1510
Cư 1509
Harris 1508
Khám 1508
VI@@ 1508
fe@@ 1508
Barney 1506
ồng 1506
Lillian 1505
ngấu 1505
the@@ 1505
1957 1504
Carlo 1504
Manchester 1504
Society 1503
Sớm 1503
THẾ 1503
Điê 1503
bư 1502
rích 1502
xược 1501
Ê-@@ 1501
đầu. 1501
Babylôn 1500
Bồi 1500
Album 1499
Bat@@ 1499
Milan 1499
lụi 1499
nhũ 1499
ạ. 1499
Chandler 1498
Dạo 1498
Wor@@ 1498
back 1498
cacbon 1498
Apollo 1497
Quái 1497
Royal 1497
Uganda 1497
thụt 1497
ẹt 1496
Kỵ 1495
khuy 1495
rưới 1495
down 1494
ty@@ 1494
wi@@ 1494
-t@@ 1493
Hobbit 1493
chường 1493
vế 1493
Giô-na 1492
sti@@ 1492
mền 1491
Harper 1490
Toby 1490
Tốc 1490
ju@@ 1490
Pat@@ 1489
Wells 1488
Book 1487
Gale 1486
LẬP 1486
Nổi 1485
Wolf 1485
est@@ 1485
TC@@ 1483
Ani 1482
Tiếc 1482
Tường 1482
els 1482
hun 1482
ile 1482
trịnh 1482
ải 1482
McGonagall 1481
THỨC 1481
xâu 1481
Raoul 1480
now 1480
chởm 1479
Haymitch 1478
Kihôtê 1478
Stu@@ 1478
e. 1478
rang 1478
đong 1478
Chấm 1477
That 1477
ĐỀ 1477
Ana 1476
Irene 1476
Yossarian 1476
bai 1476
vịn 1476
e-mail 1475
Hank 1474
bươ 1474
East 1472
Tuyến 1472
xén 1472
ị 1472
1959 1471
Dubai 1471
Karen 1471
nán 1471
phập 1470
xiếc 1469
FI@@ 1468
Gòn 1468
Shin@@ 1468
1-6 1467
Jenny 1467
NH 1467
SUNG 1467
THƯƠNG 1467
BỊ 1466
Hay@@ 1466
Thói 1466
first 1466
ron@@ 1466
5.000 1465
Carol 1465
hắc 1465
sandwich 1465
TE@@ 1464
jo 1464
soạt 1464
Ama@@ 1463
Cassius 1463
Eli@@ 1463
gở 1463
lặt 1463
nách 1463
Aum 1462
lòe 1461
Ari@@ 1460
Ye@@ 1460
nạo 1460
ên@@ 1460
Nhảy 1459
hớp 1459
lâng 1458
sson 1458
Bab@@ 1457
come 1457
30@@ 1456
New@@ 1456
Mol@@ 1454
Tam@@ 1454
xỉa 1454
Chile 1453
Mạnh 1453
thun 1453
7843 1452
Chuộc 1451
ash 1451
cật 1451
00@@ 1450
giặc 1450
rờ 1450
Ara@@ 1449
Cú 1449
TẬP 1449
y-@@ 1449
Pha-ra-ôn 1448
Dauntless 1447
Kiên 1447
Nan@@ 1447
Sab@@ 1447
Theo@@ 1447
tỵ 1446
Avery 1445
KẾ 1445
Post 1445
just 1445
ties 1445
Diana 1444
Ay@@ 1443
England 1443
Rapids 1443
Xê 1443
chổ 1443
ngs 1443
p-@@ 1443
đẫn 1442
Eng@@ 1441
Tobias 1441
tel 1441
CS@@ 1440
Kur@@ 1440
bộn 1440
ngác 1440
yểm 1440
Hylạp 1439
dis@@ 1438
Church 1437
Giơ 1437
Kháng 1437
ines 1437
Eva 1436
PHẨM 1436
dô 1436
khư 1436
phủi 1436
show 1436
Mul@@ 1435
Ngừng 1435
dầm 1435
thé 1435
đoa 1435
Cac 1434
ona 1434
pan@@ 1434
1-7 1433
Dudley 1433
Mam@@ 1433
oi 1433
thòng 1432
CC 1431
Dây 1431
Nê-hê-mi 1431
love 1431
ring 1431
vù 1431
xoăn 1431
Anti@@ 1430
Hàm 1430
PA@@ 1430
TÁC 1430
fan 1430
Alexandria 1429
Cắt 1429
Jay 1429
1954 1428
Steven 1428
Tận 1428
Wel@@ 1428
tru@@ 1428
tuồng 1428
2.000 1427
Kas@@ 1427
Đích 1427
Cle@@ 1426
Roark 1426
sc@@ 1426
Banks 1425
cỗi 1425
foot 1425
tt@@ 1425
Dre@@ 1424
ao@@ 1424
trề 1424
gar@@ 1423
quây 1422
khuây 1421
mas@@ 1421
where 1421
1955 1420
Covid 1420
ett 1420
liêm 1420
▪ 1420
Ambra 1419
Bishop 1419
Khiến 1419
Phán 1419
mơn 1419
other 1419
ứa 1419
106 1418
Chuông 1418
Andrey 1417
BA 1417
dụi 1417
khét 1417
key 1416
HS 1415
Miranda 1415
o. 1415
Beach 1414
luâ 1414
4,@@ 1413
Kansas 1413
Kat 1413
Go 1412
Winter 1412
lar@@ 1412
tuốt 1412
vãng 1412
8-@@ 1411
cháo 1411
Tắt 1409
ese 1409
sò 1409
Dou@@ 1408
Lạnh 1408
TP 1408
Obama 1407
PHƯƠNG 1407
dừa 1407
ick 1407
Atlanta 1406
Gryffindor 1406
Nhằm 1405
xòe 1405
Á@@ 1405
Os 1404
Trích 1404
row 1404
DS 1403
Diane 1403
Ma-@@ 1403
On 1403
Sand@@ 1403
sel@@ 1403
xo@@ 1403
Bilbo 1402
Jeremy 1402
Super 1402
làu 1402
đọa 1402
bury 1401
hoă 1401
ây 1401
Cất 1400
104 1399
24@@ 1399
Coraline 1399
GIÁO 1399
cus 1399
tuông 1399
tâu 1399
Chuột 1398
Michigan 1398
Oscar 1398
tòi 1397
DA@@ 1396
Lydia 1396
Phấn 1396
how 1396
lóa 1396
nh-@@ 1396
trát 1396
kèo 1395
little 1395
Cer@@ 1394
Phi-li-tin 1394
ght 1394
hâ 1394
thoi 1394
chúi 1393
McCaleb 1392
mửa 1392
Khắp 1391
nhòa 1391
nu@@ 1391
è@@ 1391
CI@@ 1390
Ja@@ 1390
DO@@ 1389
Kant 1389
XIX 1389
sing 1389
vấy 1389
Êdíptô 1389
Otto 1388
also 1388
nhà. 1388
sấu 1388
trụy 1388
Uni@@ 1387
5,@@ 1386
Hạn 1386
Thompson 1386
get 1386
Grey 1385
Pic@@ 1385
chuốc 1385
Um 1384
vượn 1384
NGUYÊN 1383
Sav@@ 1383
Thạch 1383
Tấn 1383
cô. 1382
3-4 1381
Nhắc 1381
Rita 1381
Yi 1381
hợt 1381
Ðó 1381
...... 1380
Roma 1380
through 1380
7,@@ 1379
KI@@ 1379
Ngon 1379
Lạc 1378
Vernon 1378
lùm 1378
Kon@@ 1377
end 1377
ngoạc 1377
tề 1377
Ny@@ 1376
Yam@@ 1376
nép 1376
some 1376
7853 1375
suông 1375
hươ 1374
jean 1374
BC 1372
Bla@@ 1372
Hán 1372
Ur@@ 1372
my@@ 1372
nần 1372
9-10 1371
CHỦ 1371
Dur@@ 1371
Ukraina 1371
gu 1371
Ann@@ 1370
Tầng 1370
Cô-lô-se 1369
ạ@@ 1368
Aaron 1367
EVN 1367
Ky@@ 1367
dầy 1367
nu 1367
Noel 1366
loang 1366
mõm 1366
yl 1366
Thuỷ 1365
Belbo 1364
tin@@ 1364
Black@@ 1363
Brad 1363
CHÚNG 1363
Mariko 1363
Huyện 1362
Shar@@ 1362
Ze@@ 1362
ale@@ 1362
awa 1362
dề 1362
ná 1362
phình 1362
rụi 1362
ain 1361
109 1360
Edmund 1360
TIỀN 1359
XÃ 1359
ame 1358
nanh 1358
tar@@ 1358
Biệt 1357
lõa 1357
mar 1356
trịch 1356
Joshua 1355
Nelson 1354
Rhett 1354
gara 1354
Boris 1353
TRÁCH 1352
anna 1352
Án 1352
1952 1351
dùi 1351
KKT 1350
oh@@ 1350
oni@@ 1350
ụ 1350
Mississippi 1349
air 1349
guitar 1349
ston 1349
uyển 1349
1919 1348
mẫm 1348
Beck 1347
Polly 1347
mứt 1347
chợp 1346
ness 1345
DÂN 1344
ngấy 1344
Dung 1343
Giu-đê 1343
Sti@@ 1343
cks 1343
Brothers 1342
Oregon 1342
cuồn 1342
ras@@ 1342
Ak@@ 1341
Stanley 1341
Ư 1341
LƯỢNG 1340
Xương 1340
sion 1340
xới 1340
Elliot 1339
Pandora 1339
Pat 1339
ee 1339
ĐIỆN 1339
108 1338
Ando 1338
Astorre 1338
tẩm 1338
Bank 1337
Bay@@ 1337
6,@@ 1336
Hamilton 1336
Hunt 1336
Thà 1336
giòn 1336
Harriet 1335
Nguy 1335
ose 1335
State 1334
container 1334
Haiti 1333
Đoán 1333
ses 1332
water 1332
đát 1332
MT 1331
PHÒNG 1331
Star@@ 1331
Toán 1331
VIII 1331
Vittoria 1331
mòng 1331
vin@@ 1330
xỉu 1330
Ối 1330
Khỏi 1329
Ngài. 1329
Thê 1329
CHỈ 1328
Sor@@ 1328
dùm 1328
lán 1328
ments 1328
ore 1328
Carlos 1327
KHI 1327
Tsu@@ 1327
ngóc 1326
these 1326
China 1325
Margo 1325
Mết-si-a 1325
Phóng 1325
1953 1324
KIỆN 1324
SINH 1324
Valjean 1324
cker 1324
Ne 1323
Thiền 1322
huỳnh 1322
ram@@ 1322
trồi 1322
Dậy 1321
ré 1321
Cru@@ 1320
Jill 1320
nhẽo 1320
118 1319
19@@ 1319
Ba-@@ 1319
DA 1319
Ei@@ 1319
vơi 1319
˝ 1319
Harvey 1318
lốt 1318
Cur@@ 1317
Hoan 1317
Nasuada 1317
loãng 1317
Giỏi 1316
Wesley 1316
Galbatorix 1315
Walt 1315
Huế 1314
ero 1314
tè 1313
xia 1313
For 1312
Mus@@ 1312
Sonya 1312
sờn 1312
jo@@ 1311
Ivanovna 1310
mọt 1310
núng 1310
thít 1310
Hudson 1309
ō@@ 1309
Jan@@ 1308
Jung 1308
Wallace 1308
lis 1308
West@@ 1307
Hung 1306
Sol@@ 1306
Triệu 1306
nhen 1306
D.@@ 1305
Mosca 1305
TY 1305
nhớp 1305
trố 1305
BT 1304
ngợp 1304
tis 1304
xẻo 1304
Ottoman 1303
Trent 1303
ct 1303
fer@@ 1303
mẩn 1303
rám 1303
tảo 1303
Gillette 1302
tum 1302
Hô 1301
Maya 1301
Giô-đanh 1299
tine 1299
Dal@@ 1298
Muggle 1298
1938 1297
khua 1297
oang 1297
Cab@@ 1296
Is 1296
Ji@@ 1295
xói 1295
Cai 1294
Kia 1294
des@@ 1294
Ép 1294
Keith 1293
Mazarin 1293
SC@@ 1293
s. 1293
125 1292
23@@ 1292
Lynn 1292
dìm 1292
Tứ 1291
Lis@@ 1290
khựng 1290
HẠN 1289
Mes@@ 1289
Tỉ 1289
lụy 1289
tho 1289
DO 1288
Stuart 1288
Thuận 1288
Bastian 1287
CN@@ 1287
Há 1287
Nộp 1287
Phẩm 1287
chững 1287
Mộc 1286
Chelsea 1285
Hưng 1285
PPP 1285
Luna 1284
ST 1284
T.@@ 1283
vn 1283
Adler 1282
Inc 1282
Las@@ 1282
Net@@ 1282
ez 1282
ker@@ 1282
kins 1282
kén 1282
sột 1282
xốp 1282
350 1281
8.@@ 1281
Conrad 1281
Milo 1281
Samuên 1281
mí 1280
xúp 1280
Li 1279
Rizzoli 1279
Tân-Ước 1279
102 1278
1918 1278
Sonny 1278
THỜI 1278
chận 1278
PE@@ 1277
Robie 1277
Vance 1277
Cửu 1276
Miguel 1276
Town 1275
ö@@ 1275
chầu 1274
gẫu 1274
truất 1274
trô 1274
KH 1273
giũ 1273
hừng 1273
Wit@@ 1272
tos 1272
Archer 1271
trư 1271
ée 1271
Na-xa-rét 1270
TCVN 1270
adi@@ 1270
hy@@ 1270
Nê-bu-cát-nết-sa 1269
Sang 1269
ake 1269
fo@@ 1269
Ward 1268
Zu@@ 1267
nhôm 1267
thẩn 1267
33@@ 1266
Khan 1266
NW 1266
Olive 1266
nòi 1266
radar 1266
sus 1266
ur 1266
ward 1266
yo 1266
Saint-@@ 1265
Ten@@ 1265
ashi@@ 1265
lam@@ 1265
stone 1265
VÀO 1264
gh 1264
điểu 1264
Antonio 1263
Hat@@ 1263
ic 1263
wan 1263
British 1262
Socrates 1262
dale 1262
mương 1262
200@@ 1261
CÁCH 1261
búng 1261
ism 1261
phi@@ 1261
quằn 1261
Chilton 1260
Hạng 1260
LAO 1260
giun 1260
nhĩ 1260
via 1260
ọc 1260
Bệ 1259
LA 1259
íp 1259
Bi 1258
lìm 1258
ros 1258
Cosette 1256
Kra@@ 1256
Roman@@ 1256
ori 1256
xẩy 1256
Luciano 1255
Giêrêmi 1254
Janet 1254
Miami 1254
liềm 1254
bợ 1253
MO@@ 1252
Umbridge 1252
Valentine 1252
múc 1252
nốc 1252
rian 1252
NC@@ 1251
worth 1251
Samurai 1250
kes 1250
kềnh 1250
trớn 1250
ture 1250
Nhi 1249
Thám 1249
gọng 1249
trăn 1249
vênh 1249
Group 1248
PO@@ 1248
Vol@@ 1248
hổi 1248
Ê-tiên 1248
Ngươ 1247
ON 1247
Poli@@ 1247
lời. 1247
toi 1247
Đươ 1247
Barbara 1246
Club 1246
illa 1246
Bách 1245
gội 1245
sy@@ 1245
Ả-rập 1245
Kyle 1244
Med@@ 1244
PO 1244
ever 1244
org 1244
Gau@@ 1243
dông 1243
hoay 1243
Chris@@ 1242
Italia 1241
Sun 1241
TRỜI 1241
Yuichi 1241
trẻo 1241
Moses 1240
lè 1240
Chester 1238
EU 1237
PHẢI 1237
dd@@ 1237
teo 1237
ố@@ 1236
Brasil 1235
Ul@@ 1235
thui 1235
5-6 1234
Tre@@ 1234
tennis 1234
Mao 1233
Thu@@ 1233
khoét 1233
VA 1232
Wol@@ 1232
era 1232
ngoắt 1232
nhất. 1232
TOÀN 1231
Vil@@ 1231
nguệch 1231
quại 1231
Ác 1231
Nhỏ 1230
Thịt 1230
Wes@@ 1230
bấu 1230
hủ 1230
mư 1230
thớt 1230
Gam@@ 1229
Lor@@ 1229
ep 1229
Churchill 1228
Green@@ 1228
AT 1227
Derek 1227
Mit@@ 1227
life 1227
đểu 1227
AM 1226
TRÊN 1226
gáp 1226
khêu 1226
pound 1226
&lt; 1225
PHÉP 1225
hám 1225
thạc 1225
ĐẠI 1225
che@@ 1224
1900 1223
VỆ 1223
lắm. 1223
qui@@ 1223
Colorado 1222
Kos@@ 1222
đếch 1222
2-3 1221
Gây 1221
NĂNG 1221
Tá 1221
luỹ 1221
quắc 1221
Armenia 1220
Bezos 1220
Gus 1220
dáy 1220
loay 1220
ổi 1220
Chao 1219
gas 1219
ille 1219
tive 1219
zi 1219
Barcelona 1218
Pos@@ 1218
THUỘC 1218
Xứ 1218
cal@@ 1218
quẹo 1218
Central 1217
Cưng 1217
Gol@@ 1217
Petersburg 1217
hydro 1217
Lãi 1216
THỐNG 1216
Paige 1215
Pháo 1215
gram 1215
war@@ 1215
ĐĂNG 1215
Ok@@ 1214
cia 1214
THẨM 1213
asa 1213
cent 1213
mat@@ 1213
xạo 1213
Cúp 1212
ói 1212
BO@@ 1211
Dobby 1211
Thắng 1211
nhướn 1211
o-@@ 1211
tệp 1211
mào 1210
ột 1210
2025 1208
Cal 1208
Sally 1208
Helena 1207
Megan 1207
NSA 1207
tel@@ 1207
thõng 1207
éo 1207
0-@@ 1206
Dante 1206
Hunter 1206
9,@@ 1205
Kir@@ 1205
fa 1205
ick@@ 1205
ngoằn 1205
tions 1205
Lyon 1204
rượt 1204
― 1204
Anjin-san 1203
Flamel 1203
PHÊ 1203
VỰC 1203
ruồng 1203
Sy-ri 1202
bàu 1202
bịu 1202
ùng 1202
0,@@ 1201
PR 1201
ass@@ 1200
tã 1200
Amsterdam 1199
Hương 1199
Pharisi 1199
com@@ 1199
sis 1199
thỏi 1199
trối 1199
Ê-sau 1199
đáp. 1199
hấn 1198
ris 1198
xki 1198
Mệnh 1197
Ry@@ 1197
opera 1197
thi@@ 1197
Collins 1196
Columbus 1196
Ned 1196
Phủ 1196
hũ 1196
town 1196
ét 1196
đẽo 1196
Dra@@ 1195
Hale 1195
Lady 1195
Ly 1195
Princeton 1195
THANH 1195
Af@@ 1194
Garrett 1194
Has@@ 1194
Orleans 1194
1-8 1193
chòng 1193
khố 1193
mes 1193
Ras@@ 1192
Top 1192
Xa-cha-ri 1192
Bề 1191
Laila 1191
Nêu 1191
bợm 1191
ok@@ 1191
side 1191
◆ 1191
Cli@@ 1190
amp@@ 1190
khập 1190
biết. 1189
dăm 1189
xộc 1189
Lou@@ 1188
Nicky 1188
rướn 1188
ser 1188
Hon@@ 1187
réo 1186
www 1186
COVID 1185
Cu 1185
Pippi 1185
inh 1185
kilômét 1185
4-5 1184
Entertainment 1184
Rà 1184
cọng 1184
ros@@ 1184
Im@@ 1183
Bruno 1182
VỐN 1182
Yabu 1182
khứa 1182
Làn 1181
Snow 1181
100.000 1180
TA@@ 1180
art 1180
ely 1180
nhuần 1180
Nghỉ 1178
Ori@@ 1178
Pisciotta 1178
Spe@@ 1178
char@@ 1178
Erik 1177
Genesis 1177
MỨC 1177
mía 1177
NO@@ 1176
dỗi 1176
lơn 1176
tịt 1176
ả@@ 1176
9.@@ 1175
TRUNG 1175
Wo@@ 1175
dan@@ 1175
ori@@ 1175
Pet@@ 1174
mỏm 1174
sho@@ 1174
Bát 1173
Carlton 1173
Yale 1173
băm 1173
ill 1173
xôn 1173
16-17 1172
Now 1172
R.@@ 1172
ish 1172
11-12 1171
Wright 1171
Your 1171
las 1171
8-9 1170
Chloe 1170
VẬT 1170
cy@@ 1170
Dennis 1169
Elena 1169
Mêsia 1169
cor@@ 1169
meo 1169
1935 1168
Bun@@ 1168
GIỚI 1168
eth 1168
logy 1168
ĐÃ 1168
5000 1167
Gabrielle 1167
IX 1167
Pap@@ 1167
VIÊN 1167
laser 1167
môt 1167
quế 1167
vồng 1167
̀ 1167
gẫy 1166
Marin 1165
Romeo 1165
Venezuela 1165
ban@@ 1165
kị 1165
Maurice 1164
zen 1164
107 1163
Az@@ 1163
TÍN 1163
kham 1163
oni 1163
Bò 1162
Canon 1162
liệm 1162
mồng 1162
tắp 1162
tốp 1162
Iceland 1161
Muhammad 1161
Rồng 1161
sấy 1161
vữa 1161
Ir@@ 1160
Leonardo 1160
bre@@ 1160
115 1159
Đành 1159
Khủng 1158
Wood@@ 1158
săm 1158
xuyến 1158
7889 1157
Canaan 1157
Good 1157
Johannes 1157
LIỆU 1157
Leslie 1157
Van@@ 1157
Vianne 1157
chắt 1157
chồi 1157
kềm 1157
lòi 1157
135 1156
Jos@@ 1156
Salômôn 1155
Bo 1154
Felix 1154
Hil@@ 1154
Irina 1154
Jun@@ 1154
Pil@@ 1154
Shaw 1154
ces 1154
170 1153
7.@@ 1153
IC@@ 1153
Kèm 1153
Schu@@ 1153
hực 1153
light 1153
mấp 1153
ăng@@ 1153
Blu@@ 1152
eri 1152
id@@ 1152
nịch 1152
7879 1151
Kel@@ 1151
Marco 1151
Rosa 1151
Zarathustra 1151
ực 1151
Bật 1150
Thở 1150
Nietzsche 1149
Ragnar 1149
Isabella 1148
Olympus 1148
sào 1148
Summer 1147
hão 1147
won 1147
ngạnh 1146
vạm 1146
xúm 1146
ey@@ 1145
i.@@ 1145
khảm 1145
òng 1145
́ 1145
ầy 1145
8,@@ 1144
Berkeley 1144
Hou@@ 1144
ast 1144
ess@@ 1144
miê 1144
CP@@ 1143
Madison 1143
Tí 1143
iPhone 1143
tal 1143
thổn 1143
Hope 1142
Art 1141
gang 1141
Xantrô 1140
eda 1140
3000 1139
Cul@@ 1139
Yes 1139
Đaniên 1139
Kaz@@ 1138
Spi@@ 1138
đèo 1138
ươm 1138
1936 1137
Arizona 1137
Bến 1137
Dodd 1137
GPS 1137
Ngã 1137
Pearson 1137
ben@@ 1137
etta 1137
fer 1137
Jacques 1135
Lái 1135
Hát 1134
bal@@ 1134
po 1134
thoắt 1134
139 1133
6-7 1133
Alabama 1133
Linux 1133
Suỵt 1133
TRỢ 1133
oto 1133
Cõi 1132
KHAI 1132
Mars 1132
chưởng 1132
gồ 1132
nhuốm 1132
1951 1131
Cl@@ 1131
Mun@@ 1131
Poirot 1131
trầy 1131
Lữ 1130
đôm 1130
Fort 1129
Pres@@ 1129
trạc 1129
zz@@ 1129
360 1127
Pit@@ 1127
79@@ 1126
Mir@@ 1126
QH13 1126
Roland 1126
nhử 1126
yn 1126
1937 1125
Panama 1125
nĩa 1125
tấc 1125
Lĩnh 1124
Michel 1124
Mickey 1124
Nag@@ 1124
Shu@@ 1124
Theresa 1124
ashi 1124
xắc 1124
đò 1124
-r@@ 1123
Ca-in 1123
khuỵu 1123
Amen 1122
Division 1122
pri@@ 1122
tẹo 1122
ut 1122
vằn 1122
xuâ 1122
ùn 1122
B.@@ 1121
KT 1121
bụa 1121
mont 1121
shi@@ 1121
ối 1121
Leo@@ 1120
Mari 1120
diễm 1120
tuyê 1120
ôxy 1120
BS 1119
Game 1119
GÌ 1119
Richardson 1119
Wikipedia 1119
lõng 1119
trệt 1119
vó 1119
Claude 1118
Gwen 1118
Milton 1118
Trai 1118
Turner 1118
did 1118
liệng 1118
sto@@ 1118
Cột 1117
Harrison 1117
Tia 1117
cạm 1117
Lukas 1116
Reagan 1116
nhãi 1116
Dec@@ 1115
Ele@@ 1115
Merry 1115
227 1114
CHUYỂN 1114
Lauren 1114
ful 1114
ại 1114
ứ 1114
Gh@@ 1113
Sebastian 1113
mụn 1113
pos@@ 1113
Duncan 1112
Mercedes 1112
Tượng 1112
Varden 1112
alo@@ 1112
thòi 1112
ă@@ 1112
Ẩn 1112
Aragorn 1111
Company 1111
Coo@@ 1111
phơ 1111
22@@ 1110
Gun@@ 1110
Ukraine 1110
nhái 1110
vảy 1110
đẩu 1110
Thuỵ 1109
here 1109
1933 1108
7841 1108
78@@ 1108
Giêng 1108
Lạt 1108
P.@@ 1108
Reacher 1108
Ruby 1108
Ryrie 1108
asi@@ 1108
her@@ 1107
nhă 1107
đóm 1107
Ngữ 1106
Trời. 1106
121 1105
Ap@@ 1105
mùng 1105
yu@@ 1105
ĐIỂM 1105
giựt 1104
vèo 1104
234 1103
og@@ 1103
Alô 1102
Nic@@ 1102
Thình 1102
mâm 1102
TH 1101
Tris 1100
eno@@ 1100
om@@ 1100
13-14 1099
CỨU 1099
Elder 1099
Jonas 1099
Tích 1099
cen@@ 1099
hen 1099
ming 1099
ẻo 1099
DUNG 1098
Tĩnh 1098
ĐI 1098
50@@ 1097
DUYỆT 1097
Gon@@ 1097
Jupiter 1097
dollar 1097
Fel@@ 1096
Hộp 1096
MẪU 1096
Ngăn 1096
Rê 1096
Tựa 1096
app@@ 1096
ries 1096
trước. 1096
Kil@@ 1095
că 1095
fi 1095
ras 1095
vitamin 1095
head 1094
oli@@ 1094
ường 1094
Mou@@ 1093
micro 1093
Đu 1093
guốc 1092
nhãng 1092
Hos@@ 1091
Kiku 1091
Miss 1091
TNDN 1091
Sy 1090
elli 1090
Bết 1089
CẢNH 1089
lẩy 1089
ANH 1088
Vũng 1088
sy 1088
Anastasia 1087
Nam@@ 1087
Sur@@ 1087
lững 1087
soái 1087
Babylon 1086
Kenny 1086
Naples 1086
Stark 1086
xấc 1086
eta 1085
gọt 1085
hội-thánh 1085
quệ 1085
ÂN 1085
Liệt 1084
Ngạc 1084
cs 1084
1. 1083
xu@@ 1083
ới 1083
Malcolm 1082
Office 1082
Rus@@ 1082
sà 1082
xống 1082
đượm 1082
Buông 1081
Murray 1081
Rou@@ 1081
bằm 1081
nt 1081
Alecxandrovitr 1080
Radio 1080
Wilbur 1080
del@@ 1080
gờ 1080
ngái 1080
tour 1080
ÁP 1080
Ổ 1080
Kit@@ 1079
Natalie 1079
ham@@ 1079
đến. 1079
dia 1078
mân 1078
1929 1077
Cape 1077
Plan@@ 1077
bấp 1077
ken@@ 1077
12-@@ 1076
Colette 1076
GT 1076
Não 1076
Doc 1075
HỆ 1075
Louisa 1075
Mô-áp 1075
ans@@ 1075
ngoèo 1075
tỏi 1075
ắc 1075
Nhã 1074
nịt 1074
Dru@@ 1073
Werner 1073
hãn 1073
loi 1073
nhầy 1073
nhậu 1073
quặn 1072
try 1072
ếm 1072
Long@@ 1071
OR@@ 1071
Revelation 1071
7901 1070
Julius 1069
Mariam 1069
Tour 1069
lịm 1069
nes@@ 1069
tươm 1069
Giles 1068
Hoyt 1068
Ing@@ 1068
Jr 1068
gam 1068
Baby 1067
Nhãn 1067
ngổn 1067
tý 1067
MP 1066
Sương 1066
ars 1066
bẽ 1066
kền 1066
én 1066
ĐƠN 1066
Cạnh 1065
Gát 1065
Hau@@ 1065
Khmer 1065
Tel@@ 1065
Prince 1064
miết 1064
ÔNG 1064
App@@ 1063
They 1063
Alesandra 1062
Fukaeri 1062
Mạc 1062
Samsung 1062
Vienna 1062
nghê 1062
ngòm 1062
ì@@ 1062
cabin 1061
11-@@ 1060
450 1060
Slughorn 1060
even 1060
Cen@@ 1059
Riley 1059
S.@@ 1059
dấp 1059
Benny 1058
Theology 1058
franc 1058
Alpha 1057
CẦU 1057
Herbert 1057
Jan 1057
Khiếu 1057
lock 1057
Ass@@ 1056
Giacơ 1056
Tolland 1056
anda 1056
por@@ 1056
quâ 1056
Ã 1056
ẵm 1056
Nan 1055
PHÂN 1055
THỨ 1055
TIẾT 1055
Trinh 1055
Trà 1055
laptop 1055
met 1055
rum 1055
trớ 1055
ô-@@ 1055
ĐƯỜNG 1055
Bet@@ 1054
Momo 1054
khè 1054
14-15 1053
19-20 1053
Illinois 1053
Len@@ 1053
les@@ 1053
sia 1053
úa 1053
10-@@ 1052
Cởi 1052
Kern 1052
ghém 1052
lét 1052
mura 1052
mịch 1052
Mê-@@ 1051
Răn 1051
esti@@ 1051
nháo 1051
ote 1051
CTNH 1050
Lionel 1050
bor@@ 1050
chấu 1050
ních 1050
Ô-@@ 1050
1-10 1049
Hùng 1049
Tower 1049
ail 1049
cal 1049
dòm 1049
mủ 1049
two 1049
ồi 1049
Lev@@ 1048
Ron@@ 1048
vu@@ 1048
ành 1048
Costa 1047
hem 1047
triê 1047
ye@@ 1047
Miles 1046
anti@@ 1046
lạo 1046
Clara 1045
Haw@@ 1045
IITe 1045
Madeleine 1045
Troy 1045
khiễng 1045
tron 1045
Camp@@ 1044
Dawson 1044
NT 1044
Page 1044
Son@@ 1044
Lang 1043
Painter 1043
Point 1043
hộc 1043
Bau@@ 1042
Berkshire 1042
Sắc 1042
ngăm 1042
náy 1042
1-13 1041
27@@ 1041
Had@@ 1041
Partridge 1041
any 1041
ny@@ 1041
128 1040
Kitti 1040
Live 1040
TÌNH 1040
iii 1040
lép 1040
A-rôn 1039
Rob 1039
oc@@ 1039
zu 1039
ère 1039
Arena 1038
Dursley 1038
Nicole 1038
Ung 1038
kie 1038
AM@@ 1037
BXD 1037
Huh 1037
anus 1037
bur@@ 1037
xiêu 1037
Hin@@ 1036
logo 1036
Hủy 1035
Keating 1035
make 1035
Pel@@ 1034
There 1034
nd@@ 1034
1932 1033
Media 1033
cót 1033
mói 1033
cas@@ 1032
vảng 1032
Orc 1031
Spencer 1031
hĩnh 1031
hớt 1031
thuâ 1031
ê-@@ 1031
ò 1031
BGTVT 1030
Chase 1030
Delta 1030
ago 1030
toạ 1030
Khỏe 1029
TẠO 1029
agu@@ 1029
enne 1029
gie 1029
uổng 1029
£ 1029
LIÊN 1028
Tro@@ 1028
away 1028
By@@ 1027
Guy 1027
Amaia 1026
Earth 1026
HIỂM 1026
Land@@ 1026
pper 1026
ther@@ 1026
1-12 1025
Patricia 1025
Pho@@ 1025
cer 1025
giò 1025
think 1025
tics 1025
wick 1025
Do-Thái 1024
ISu 1024
3.000 1023
Allah 1023
Sienna 1023
Sta@@ 1023
Stepan 1023
Trans@@ 1023
ali 1023
cat@@ 1023
ngợm 1023
Evans 1022
Gandhi 1022
Gru@@ 1022
Sri 1022
Stockholm 1022
tủi 1022
zu@@ 1022
ỐI 1022
Ah@@ 1021
Bod 1021
Denver 1021
School 1021
casino 1021
don@@ 1021
ế@@ 1021
220 1020
Emmett 1020
ngốn 1020
116 1019
Debbie 1019
Nhơn 1019
Ath@@ 1018
Holder 1018
Missouri 1018
Venetia 1018
eu 1018
rier 1018
series 1018
ệ 1018
AC 1017
KHÁC 1017
QH11 1017
Sa-@@ 1017
Sexton 1017
Tể 1017
kWh 1017
28@@ 1016
Arthos 1016
N. 1016
UFO 1016
kẽm 1016
Dol@@ 1015
HẢI 1015
и@@ 1015
Av@@ 1014
Murtagh 1014
aku@@ 1014
Ê-đôm 1014
College 1013
ben 1013
Pascal 1012
Rời 1012
Sahara 1012
luộc 1012
léc 1012
van@@ 1012
Khánh 1011
cũi 1011
tre@@ 1011
Fedorovich 1010
Gio 1010
La-xa-rơ 1010
TRỊ 1010
Trao 1010
June 1009
Noelle 1009
TỔNG 1008
chít 1008
Edwards 1007
Eo 1007
Ê-xê-chia 1007
Galati 1006
yer 1006
Lake 1005
Machiavelli 1005
giụa 1005
và@@ 1005
ĐẤT 1005
Liam 1004
Lầu 1004
Tết 1004
Xếp 1004
choán 1004
lèo 1004
thím 1004
đìa 1004
EM 1003
EN 1003
Roxtov 1003
Tran@@ 1003
háp 1003
Ô-sê 1003
AC@@ 1002
Bernie 1002
Rad@@ 1002
Rosalie 1002
VĂN 1002
War 1002
after 1002
1934 1001
40@@ 1001
Penn 1001
Vladimir 1001
ais 1001
127 1000
As 1000
Asakawa 1000
Buenos 1000
Eugene 1000
NGHĨA 1000
lah 1000
nẻ 1000
ã 1000
Clarice 999
Hello 999
SÁT 999
ded 999
kẹ 999
ura 999
35@@ 998
Arnold 998
Fisher 998
Nhẫn 998
ates 998
od 998
phừng 998
Jê-sus 997
ER 996
Football 996
Philíp 996
Warner 996
rết 996
đềm 996
ẹp 996
Atlantic 995
High@@ 995
Hài 995
Hừ 995
Mê-si 995
Neely 995
Rol@@ 995
Răng 995
khảnh 995
mal@@ 995
1-9 994
HAI 994
Sabine 994
Tui 994
ei 994
giãy 994
ino@@ 994
wor@@ 994
CT@@ 993
Campbell 993
Ong 993
Sou@@ 993
Whi@@ 993
ớ 993
Athena 992
aci@@ 992
cel@@ 992
ction 992
khỉnh 992
mic 992
riết 992
Dọc 991
Eilonwy 991
Ethiopia 991
Show 991
YÊU 991
ng.@@ 991
7-8 990
Cừu 990
Marty 990
Simpson 990
XX@@ 990
cap@@ 990
thó 990
Abu 989
CL@@ 989
luẩn 989
113 988
ME@@ 988
XI 988
ef 988
láu 988
xóc 988
ĐỊA 988
16-@@ 987
Congo 987
KHU 987
Pav@@ 987
Si-ôn 987
TM 987
kệch 987
online 987
phồn 987
vers 987
Dụng 986
ander 986
dra@@ 986
khuân 986
sie 986
ừ@@ 986
Medi@@ 985
Thiện 985
1931 984
quơ 984
xối 984
Corleone 983
Lucrezia 983
Rei@@ 983
khò 983
phảng 983
rell 983
Giu-đe 982
sài 982
IP 981
XÁC 981
lói 981
nhón 981
đuợc 981
Silicon 980
Sung 980
quẹt 980
60@@ 979
750 979
AO 979
Erica 979
Sony 979
When 979
giậm 979
tă 979
val 979
¯ 979
Aires 978
Bennett 978
ace 978
name 978
sex 978
vich 978
đản 978
ƯU 978
12-13 977
xệch 977
Mai@@ 976
Strathmore 976
Mid@@ 975
Sloane 975
ping 975
sum 975
trứ 975
xổm 975
26@@ 974
dãn 974
tâng 974
tòng 974
vodka 974
Almanzo 973
Bond 973
Bầy 973
TIẾP 973
tar 973
zo@@ 973
ín 973
911 972
E.@@ 972
Sảnh 972
Tê 972
ga@@ 972
phờ 972
SỐNG 971
tal@@ 971
VN 970
Yun 970
cụp 970
jan 970
tra@@ 970
ù@@ 970
Beau@@ 969
Jackie 969
Nhấn 969
PL 969
Zo@@ 969
sub@@ 969
tĩu 969
whisky 969
BKHCN 968
Xưa 968
gí 968
hởi 968
many 968
nano 968
thằn 968
wn 968
Fan@@ 967
Gavin 967
HI@@ 967
Phe 967
TTLT 967
Tù 967
cre@@ 967
ç@@ 967
Boeing 966
Constantinople 966
Katrina 966
Lloyd 966
Rủi 966
Samari 966
Tou@@ 966
bíp 966
quăn 966
IQ 965
Kirsch 965
Lắng 965
Science 965
272 964
Bạc 964
Noah 964
PHỤ 964
Reid 964
feld 964
Best 963
Gran@@ 963
Sum@@ 963
Vinci 963
got 963
mus 963
nhang 963
Bết-lê-hem 962
Dylan 962
Phili@@ 962
ngắc 962
tuô 962
ăm 962
Reiko 961
Riddle 961
Sumire 961
bẵng 961
n.@@ 961
Constantine 960
Hoà 960
Marianne 960
Pur@@ 960
phen 960
BA@@ 959
Cham@@ 959
Finnick 959
Stre@@ 959
jazz 959
nhím 959
1922 958
A-mốt 958
Bridget 958
khàng 958
mọng 958
Hir@@ 957
Men 957
Sàn 957
io 957
xuống. 957
Sâu 956
Tuyển 956
dd 956
ĐẢM 956
„ 956
Teresa 955
Wy@@ 955
thặng 955
Android 954
Batman 954
Il@@ 954
Power 954
iro 954
ès 954
ỨNG 954
Bis@@ 953
NÀO 953
HP 952
Pulaski 952
Slytherin 952
ger@@ 952
las@@ 952
Đuôi 952
Angus 951
Homo 951
Mand@@ 951
Quidditch 951
Sau@@ 951
THUẬT 951
Vel@@ 951
Bulgaria 950
14-@@ 949
Air@@ 949
Airlines 949
Cel@@ 949
Fle@@ 949
Kyoto 949
PI@@ 949
Sky@@ 949
thụp 949
Darla 948
High 948
Lila 948
Ronald 948
human 948
BÁN 947
Gurgi 947
LỆ 947
Scar@@ 947
kiếng 947
ole 947
Ob@@ 946
ju 946
Aureliano 945
CHUẨN 945
Galileo 945
Jaco@@ 945
M.@@ 945
Ya@@ 945
ut@@ 945
đi@@ 945
Java 944
bro@@ 944
bở 944
chết. 944
tuận 944
ẹ 944
Nina 943
TÍNH 943
Wa@@ 943
ời 943
Business 942
HS@@ 942
THỊ 942
Trồng 942
chỏ 941
euro 941
tuấn 941
Phi-@@ 940
Pot@@ 940
Rudy 940
Suýt 940
bra@@ 940
by@@ 940
chội 940
trâ 940
wo@@ 940
Clo@@ 939
Daily 939
FA 939
Reed 939
Samantha 939
Serbia 939
khứng 939
1800 938
7873 938
AD@@ 938
Giê@@ 938
Henrik 938
QUẢ 938
Von 938
Whitney 938
cạp 938
Kênh 937
sên 937
Bậc 936
Cathy 936
Fudge 936
Night 936
PDF 936
din@@ 936
eck 936
form 936
giãi 936
tor@@ 936
10-11 935
Cờ 935
Dmitri 935
Dunford 935
Good@@ 935
Marc 935
Melanie 935
tical 935
Báp 934
Lỗ 934
Nak@@ 934
Pla@@ 934
TRƯỞNG 934
HĐ@@ 933
Jamaica 933
Kêu 933
Lông 933
Ralston 933
ches 933
ấ@@ 933
Thor@@ 932
tors 932
vát 932
yoga 932
ĐOẠN 932
Prin@@ 931
Raxkonikov 931
Tsukuru 931
lể 931
114 930
Bông 930
McDonald 930
mè 930
CD@@ 929
Sul@@ 929
THIẾT 929
Clarke 928
Dy@@ 928
Khắc 928
Lanka 928
Lexie 928
Norah 928
Phillip 928
XIII 928
cio 928
kin@@ 928
lot@@ 928
quẫn 928
Hồn 927
Records 927
Sắt 927
Thù 927
dặc 927
eman 927
ert 927
teen 927
xẩu 927
Chụp 926
hiu 926
mini 926
Cô@@ 925
Maryland 925
ill@@ 925
sin@@ 925
CH 924
Sudan 924
TKV 924
keng 924
lằm 924
uni@@ 924
Đều 924
Nai 923
Sher@@ 923
liu 923
ỉa 923
MÔI 922
because 922
dằng 922
nhừ 922
đui 922
Johanna 921
Tim@@ 921
Tàng 921
ther 921
tỳ 921
12.@@ 920
Treo 920
ish@@ 920
mel@@ 920
thẹo 920
tô@@ 920
145 919
Lùn 919
Nhiên 919
aga 919
illi@@ 919
nhiếc 919
EL@@ 918
Ellie 918
Giêsu 918
Home 918
Jes@@ 918
chùn 918
house 918
muỗng 918
sượt 918
ATM 917
Gurney 917
Tông 917
anh@@ 917
trọi 917
var@@ 917
úc 917
Bô-ô 916
GS 916
Tennessee 916
Tào 916
cạch 916
dri@@ 916
CM@@ 915
Dorian 915
EN@@ 915
Got@@ 915
Nghiệp 915
Nghề 915
Nike 915
Nintendo 915
Osaka 915
Santiago 915
Standard 915
Trân 915
Trạng 915
Wynand 915
ery 915
ĐÁNH 915
ES@@ 914
Judd 914
thiu 914
Math@@ 913
Nỗ 913
Si-@@ 913
80@@ 912
Comment 912
QH10 912
ano@@ 912
búi 912
dy@@ 912
ĂN 912
Der@@ 911
ME 911
Madame 911
Mem@@ 911
Quin@@ 911
Who 911
cha@@ 911
cồng 911
eria 911
ges 911
ler@@ 911
lớn. 911
mống 911
ned 911
xư 911
1917 910
Ada 910
And@@ 910
chúng. 910
em. 910
face 910
132 909
Luis 909
MP@@ 909
Yuri 909
eau 909
ghẹo 909
gặng 909
phin 909
sậy 909
ẫn 909
Games 908
Gla@@ 908
Les@@ 908
Montgomery 908
Palmer 908
Westminster 908
bờm 908
eh 908
ering 908
jin 908
Logan 907
gs 907
ẻ 907
IN@@ 906
Joachim 906
Lou 906
Nakata 906
cuả 906
fin@@ 906
rin@@ 906
CHI@@ 905
Giôna 905
Lắm 905
Phillips 905
Stewart 905
TW 905
lợm 905
ors 905
toáng 905
Ê-đen 905
Mèo 904
hết. 904
py@@ 904
Ethan 903
Fortune 903
Nhắm 903
Tai@@ 903
eng@@ 903
lợp 903
ré@@ 903
vạc 903
BẰNG 902
Jeb 902
Of 902
Roz 902
bel@@ 902
ngao 902
nghịu 902
Bão 901
Dev@@ 901
Mori@@ 901
Port 901
mướt 901
ss 901
truyê 901
ạc 901
Baltimore 900
Berger 900
Broadway 900
Chén 900
Roman 900
Siberia 900
shire 900
Penny 899
THUỐC 899
Theranos 899
Tố 899
Yan@@ 899
đay 899
Global 898
H.@@ 898
Vito 898
210 897
Chap@@ 897
Han 897
Lola 897
MI 897
Pippin 897
Pun@@ 897
biếc 897
hin@@ 897
Ðiều 897
Hân 896
LỰC 896
Mmm 896
XII 896
bas@@ 896
cli@@ 896
kan 896
50.000 895
Jam@@ 895
Quinn 895
Thang 895
eb@@ 895
xép 895
Vớ 894
ats 894
ele@@ 894
lat@@ 894
Gollum 893
Mohammed 893
Mot@@ 893
NN 893
Pedro 893
ault 893
cin@@ 893
sùi 893
tùm 893
Ðây 893
7875 892
Cairo 892
Dina 892
MTV 892
Trật 892
VỊ 892
Fon@@ 891
Nepal 891
ders 891
ghề 891
hey 891
Ê-li-sê 891
Cỏ 890
Detroit 890
Edison 890
Fen@@ 890
Pell 890
Thuê 890
ci 890
khạc 890
kman 890
quạnh 890
rượi 890
ầu 890
dis 889
dụm 889
giũa 889
loé 889
lọng 889
ÔN 889
CO 888
CÂU 888
FIFA 888
Hashi 888
Kệ 888
rưng 888
thót 888
Đỉnh 888
Hagen 887
Hít 887
Laurent 887
bs 887
tur@@ 887
Conway 886
NGHỆ 886
Ysác 886
khă 886
mồn 886
22-@@ 885
Books 885
Sợi 885
tụm 885
xoàng 885
Đồi 885
Grimaud 884
Santos 884
cui 884
thày 884
xõa 884
xốc 884
Đồn 884
đô@@ 884
ắ@@ 884
Eduardo 883
Liverpool 883
Marx 883
Moon 883
Phượng 883
Tô@@ 883
chác 883
13-@@ 882
NA 882
Thoát 882
Vit@@ 882
Zurich 882
cra@@ 882
met@@ 882
rốn 882
ía 882
E-xơ-ra 881
Judy 881
Lucia 881
Tâ 881
boy 881
mit 881
sứt 881
126 880
cà-phê 880
kia. 880
mos 880
7897 879
Ernst 879
Ha-@@ 879
ụ@@ 879
PHỤC 878
PM 878
Planchet 878
bạn. 878
10,@@ 877
1925 877
Pacific 877
khấn 877
sậm 877
4-6 876
ABC 876
Castle 876
Cựu-Ước 876
SƠ 876
cứa 876
look 876
nhuốc 876
12,@@ 875
6-8 875
XIV 875
Yos@@ 875
cuội 875
hợm 875
GE 874
GM 874
She 874
ado@@ 874
lom 874
2021 873
Gideon 873
Michelle 873
Nhịp 873
anime 873
lot 873
Tần 872
Union 872
nhăm 872
val@@ 872
Canolles 871
Glo@@ 871
Juliet 871
ngói 871
place 871
Evelyn 870
Madox 870
Robbie 870
SH@@ 870
must 870
vãnh 870
T.C. 869
Thách 869
aux 869
bện 869
hách 869
onal 869
wing 869
xèo 869
Êva 869
ậm 869
Om 868
càn 868
hack 868
18-@@ 867
BOT 867
Pari 867
cer@@ 867
less 867
rat 867
29@@ 866
Cô-dắc 866
GIÁM 866
Hun@@ 866
Iowa 866
TN 866
Tenney 866
born 866
eter 866
hâu 866
i- 866
link 866
Ful@@ 865
Sai@@ 865
ca-@@ 865
d. 865
mg 865
gạc 864
ngông 864
quyện 864
ất 864
If 863
México 863
Quanh 863
là@@ 863
ott 863
tz@@ 863
Express 862
Jar@@ 862
họ@@ 862
Nero 861
VAN 861
ãi 861
Cali@@ 860
HỒ 860
Ishvar 860
Theodore 860
Trương 860
lov 860
ra-@@ 860
tier 860
Connecticut 859
Delhi 859
Không. 859
Ni-ni-ve 859
Ném 859
VẬN 859
Wei@@ 859
With 859
êt 859
đươc 859
Cúi 858
Epi@@ 858
Phê-@@ 858
goá 858
ota 858
tle@@ 858
117 857
123 857
DI 857
Dãy 857
Yukawa 857
dó 857
sôn 857
Êrik 857
CHIẾN 856
Ryuji 856
Be 855
Bám 855
Conor 855
Edinburgh 855
Loogan 855
Marion 855
Sue 855
Super@@ 855
³ 855
ạn 855
134 854
Bangladesh 854
Dain 854
LĨNH 854
Sato 854
Up 854
acid 854
burn 854
elli@@ 854
sk@@ 854
tuếch 854
vào. 854
xơi 854
Hê-@@ 853
bin@@ 853
nuông 853
oanh 853
ò@@ 853
Cũ 852
Zoe 852
nhòe 852
Bellamy 851
Bia 851
County 851
Whit@@ 851
dro@@ 851
most 851
nhỏm 851
1928 850
22-23 850
Blan@@ 850
Jerome 850
ania 850
ius 850
lman 850
cocktail 849
Côlôse 848
Dale 848
Toronto 848
Yuki 848
ele 848
night 848
rag@@ 848
ứ@@ 848
-Em 847
136 847
15-16 847
Agnes 847
ID 847
Janie 847
Jor@@ 847
Lin 847
Nguyền 847
Sophia 847
sei 847
Aurêlianô 846
Bé@@ 846
Cỗ 846
Domin@@ 846
Mc 846
chụm 846
cộp 846
yard 846
1500 845
Kiều 845
Valley 845
Ve@@ 845
fe 845
nge 845
■ 845
Hab@@ 844
Hav@@ 844
Nas@@ 844
Nuôi 844
Philippe 844
The@@ 844
bướu 844
gằn 844
kai 844
© 844
-Có 843
Bailey 843
GIAI 843
Thảm 843
je@@ 843
still 843
sọt 843
Bonnie 842
Chợ 842
Mi-@@ 842
Mô@@ 842
Zi@@ 842
ý@@ 842
ậy 842
CS 841
Cleveland 841
Tuỳ 841
Wood 841
khâ 841
7899 840
Ni-cô-đem 840
Review 840
Sam-sôn 840
White@@ 840
chau 840
tắn 840
vis 840
òi 840
Darcy 839
Dominique 839
Geor@@ 839
chịt 839
mận 839
nhăng 839
quệt 839
ạo 839
Albania 838
Bates 838
Sandy 838
Titus 838
nhoẻn 838
18-19 837
Oz 837
Prot@@ 837
last 837
nhũn 837
Đinh 837
1910 836
D.C. 836
Dr 836
cl@@ 836
kawa 836
động. 836
122 835
Gilbert 835
Hardy 835
Il 835
Perenelle 835
Todd 835
Vas@@ 835
Veek 835
mas 835
nấn 835
our@@ 835
sô-cô-la 835
thùy 835
xoảng 835
Boo@@ 834
Creek 834
chãi 834
ello 834
ics 834
17-@@ 833
Kreacher 833
mà. 833
ngâ 833
ns@@ 833
xốt 833
Cla@@ 832
Iris 832
Mitchell 832
NIV 832
bridge 832
ch. 832
gỏng 832
stress 832
Êlisê 832
QCVN 831
Scripture 831
moóc 831
ác@@ 831
ọ@@ 831
131 830
Bot@@ 830
F.@@ 830
Patterson 830
Powell 830
ati 830
cos@@ 830
should 830
Ham 829
Libya 829
Micôbơ 829
NATO 829
comp@@ 829
inter@@ 829
pas@@ 829
156 828
9-11 828
Lang@@ 828
dt 828
khế 828
nhọ 828
Ê-xơ-tê 828
BNN 827
Pratt 827
Rand 827
chài 827
nhem 827
those 827
Ahmad 826
Hur@@ 826
Swann 826
aker 826
ida 826
2. 825
HIỆU 825
sal@@ 825
young 825
õ 825
Atréju 824
CL 824
CÁ 824
Duke 824
Miu 824
Sherman 824
bỡn 824
t.@@ 824
à-@@ 824
Cindy 823
HU@@ 823
Lance 823
Munich 823
Nevada 823
Pep@@ 823
cười. 823
things 823
vía 823
о@@ 823
Ever@@ 822
G.@@ 822
HỎI 822
Katniss 822
Tộc 822
hòi 822
mĩ 822
nguời 822
ỏ@@ 822
Bec@@ 821
Christine 821
I.@@ 821
Xà 821
trĩ 821
Darrow 820
Jacqueline 820
Boy 819
Brien 819
Coun@@ 819
Kru@@ 819
Roque 819
Rô@@ 819
Sê-@@ 819
Uriah 819
Xergei 819
Fair@@ 818
Ghana 818
McMurphy 818
Nat@@ 818
VSD 818
ĐÚNG 818
ỉ@@ 818
Dài 817
Jehovah 817
Mah@@ 817
Mảnh 817
Ngoan 817
O. 817
Papa 817
Tháo 817
an-@@ 817
cro@@ 817
gon 817
21-@@ 816
Bac@@ 816
Hindu 816
QH12 816
ating 816
ity 816
è 816
éc 816
ạch 816
Chợt 815
Gà 815
Portland 815
Randy 815
dúi 815
ent@@ 815
7913 814
Giê-@@ 814
proton 814
ĐT 814
Gomez 813
Palm 813
nhờn 813
Byzantine 812
Gold 812
La-Mã 812
Nguyệt 812
Timothy 812
Watch 812
bím 812
sủi 812
Austin 811
Garcia 811
Misen 811
On@@ 811
Reynolds 811
SAU 811
Săn 811
dar@@ 811
hen@@ 811
leng 811
nhằng 811
Dam@@ 810
Minnesota 810
ader 810
eth@@ 810
lởn 810
ém 810
Peggy 809
never 809
yan 809
ướng 809
cá@@ 808
giời 808
hử 808
made 808
slide 808
sôcôla 808
ài 808
Louisiana 807
Miến 807
Ray@@ 807
17-18 806
Chă 806
Corporation 806
Duyên 806
Jenner 806
Jules 806
LU@@ 806
River 806
Tiện 806
ghìm 806
soa 806
tian 806
70@@ 805
Carthage 805
Jaime 805
Khổ 805
Maxim 805
Saudi 805
ngọ 805
win@@ 805
xy 805
Nho 804
Nombeko 804
Price 804
Rep@@ 804
Wyatt 804
ska 804
133 803
AL 803
Forbes 803
Sói 803
Underwood 803
Yoshi@@ 803
gg 803
mãng 803
quýt 803
ồm 803
7907 802
Jon@@ 802
Nhóc 802
Puerto 802
Saul 802
mậu 802
nớt 802
quặt 802
sul@@ 802
tory 802
Coca 801
Magnus 801
NGHỀ 801
Pa 801
Real 801
Violet 801
Women 801
Xúc 801
berry 801
ichi 801
take 801
àng 801
Đa-mách 801
ọt 801
8-10 800
Brand@@ 800
Fau@@ 800
Kenneth 800
aco@@ 800
không@@ 800
ng- 800
sha 800
Đĩa 800
ươi 800
Ảo 800
ục 800
Malta 799
Pad@@ 799
ghe 799
quắp 799
vại 799
× 799
20-21 798
Cook 798
Croatia 798
English 798
Plaza 798
Sak@@ 798
TẮC 798
khoắn 798
zon 798
Đùa 798
--@@ 797
Cân 797
Francesca 797
Indiana 797
Today 797
bà. 797
rỏi 797
tton 797
ã@@ 797
ử 797
Bran@@ 796
NY 796
Vuốt 796
aco 796
cùm 796
iPod 796
loét 796
lảnh 796
lẽn 796
а@@ 796
124 795
Awards 795
Claudia 795
Neu@@ 795
chẻ 795
enti@@ 795
nàng. 795
sam 795
toilet 795
Ích 795
11,@@ 794
Erudite 794
Sandra 794
kimono 794
loẹt 794
ship 794
Dinh 793
Raphael 793
Tanner 793
before 793
gov 793
kar@@ 793
l-@@ 793
sts 793
thảng 793
Cohen 792
HD 792
Land 792
Ngợi 792
Omar 792
iner 792
vởn 792
Chủng 791
Loren 791
bẽn 791
lene 791
ved 791
ậ@@ 791
ận 791
Clar@@ 790
Khúc 790
Stevens 790
Vanger 790
dos 790
fort 790
gy 790
hù 790
int 790
thật. 790
ẬN 790
Gas@@ 789
Lav@@ 789
Vis@@ 789
lốm 789
tong 789
1926 788
7911 788
France 788
Franz 788
Isak 788
Roberts 788
Rogers 788
Sei@@ 788
Yo 788
con. 788
sun@@ 788
Copenhagen 787
DỤC 787
Hổ 787
Istanbul 787
Lester 787
Mêsi 787
Owen 787
PHẠT 787
TB 787
ple 787
quắt 787
sạc 787
truân 787
ves@@ 787
Cẩm 786
Murphy 786
Mãn 786
RNA 786
Turi 786
pho@@ 786
àm 786
1890 785
BỆNH 785
Eas@@ 785
Harding 785
ales 785
ality 785
mợ 785
1921 784
Gav@@ 784
Gốc 784
Lộ 784
ack@@ 784
much 784
nêm 784
ưỡn 784
CAO 783
CHỌN 783
EP 783
Gab@@ 783
Râu 783
TS@@ 783
cafe 783
dõng 783
hit 783
lỉnh 783
ml 783
Cornelia 782
Fac@@ 782
Fun@@ 782
Myanmar 782
Phi-lê-môn 782
Phoenix 782
between 782
giấm 782
rick 782
152 781
BỐ 781
Lane 781
Saddam 781
lô@@ 781
trọng. 781
tuy@@ 781
ần 781
ở@@ 781
Alzheimer 780
Ba-tư 780
Bàng 780
Báp-têm 780
Dâng 780
Mơ 780
Pau@@ 780
Trọn 780
akh 780
guồng 780
hóng 780
qua. 780
Kane 779
Kirk 779
Krystal 779
Orik 779
Quế 779
Rico 779
Tin@@ 779
Truyện 779
hựu 779
sá 779
Gwydion 778
TV@@ 778
kV 778
nis 778
nong 778
osa 778
sạt 778
tuýp 778
Đập 778
Ạ@@ 778
‒ 778
Ba-anh 777
aku 777
bach 777
code 777
hắn. 777
mes@@ 777
A-men 776
Email 776
Gô 776
Khôn 776
Meg@@ 776
Pharaôn 776
Sol 776
Va@@ 776
clo@@ 776
nhộng 776
3cHFF1000 775
Holger 775
Japan 775
Mario 775
ax 775
studio 775
ơm 775
Giê-ri-cô 774
Shannon 774
great 774
lênh 774
Andrea 773
Donnell 773
Evan 773
Garden 773
Hara 773
Marian 773
Sa-ra 773
Why 773
Yemen 773
sòm 773
45@@ 772
Bonacieux 772
Hopkins 772
Let 772
SAO 772
ra-bi 772
Miriam 771
Tat@@ 771
displaystyle 771
3-5 770
Cage 770
Doyle 770
Mowgli 770
Romano 770
Tara 770
ster@@ 770
Boyd 769
Cupid 769
Imp@@ 769
Joy 769
MW 769
Nóng 769
boa 769
chặp 769
cún 769
dom 769
dorf 769
ils 769
nỡ 769
ð@@ 769
1912 768
A-háp 768
Na-@@ 768
PS@@ 768
People 768
Sierra 768
iss@@ 768
Bag@@ 767
Knight 767
Liban 767
gằm 767
xạc 767
zac 767
Đổ 767
1923 766
1927 766
CUỘC 766
Heights 766
ear@@ 766
ete 766
rạ 766
sta@@ 766
vỉ 766
1905 765
7891 765
Hurstwood 765
Jeremiah 765
Lim@@ 765
Pécgôti 765
Tol@@ 765
cht 765
cưu 765
Adri@@ 764
CR@@ 764
Niệm 764
Tiê 764
TỈNH 764
chôm 764
end@@ 764
phone 764
ìn 764
Chán 763
Gia-@@ 763
Khu@@ 763
NS 763
Sê-sa 763
Walsh 763
flo@@ 763
wer 763
ọ 763
Chữa 762
Ferdinand 762
Steele 762
copy 762
lor 762
thớ 762
20.000 761
emp@@ 761
lổ 761
oun@@ 761
672 760
CC@@ 760
Elinor 760
every 760
siếc 760
ộ@@ 760
Ani@@ 759
Bour@@ 759
Mũ 759
Rec@@ 759
Taliban 759
aton 759
ator 759
hửng 759
ral 759
shi 759
BTNMT 758
La-tinh 758
Mic@@ 758
Min 758
PT 758
amin 758
bel 758
byte 758
díu 758
op 758
Ðến 758
Ống 758
1-14 757
Lilly 757
MẸ 757
múi 757
sar@@ 757
Ôn 757
ốn 757
Word 756
ager 756
fu 756
years 756
điếng 756
Abnegation 755
Dục 755
Earl 755
Ishigami 755
Kịch 755
MẶT 755
TED@@ 755
cur@@ 755
cô@@ 755
phới 755
100@@ 754
Auto@@ 754
Dàn 754
Fro@@ 754
Giô-@@ 754
Temple 754
Thi@@ 754
Treville 754
huh 754
417 753
Bê@@ 753
HOÁ 753
Lí 753
Madonna 753
Model 753
Two 753
Ves@@ 753
Josephine 752
ative 752
gan@@ 752
mun 752
ppo 752
tem@@ 752
ÊM 752
Làng 751
run@@ 751
use 751
Bù 750
Cain 750
Poly@@ 750
Sunny 750
USA 750
Y-@@ 750
illy 750
Bê-@@ 749
Fflewddur 749
Friedrich 749
Malachi 749
Yukiho 749
phò 749
rần 749
sur@@ 749
tle 749
wel@@ 749
Áp-sa-lôm 749
Ơ@@ 749
Atsuko 748
Colum 748
Cướp 748
Gos@@ 748
Spirit 748
ngen 748
tay. 748
thing 748
und 748
ỡ 748
Belle 747
Bl@@ 747
Cher@@ 747
Rem@@ 747
ap 747
fre@@ 747
hop 747
nell 747
Adonis 746
Clement 746
Ma-xê-đoan 746
Maneck 746
Voldermort 746
ab 746
edi@@ 746
rio 746
same 746
àn 746
175 745
1924 745
Ami@@ 745
Mươi 745
Yoko 745
bủa 745
ner@@ 745
ola 745
thau 745
vv 745
Hit@@ 744
Luyện 744
Nôê 744
Võ 744
giờ. 744
soda 744
30-@@ 743
Bangkok 743
Jin@@ 743
Mé@@ 743
church 743
cửa. 743
dae 743
tiều 743
Ám 743
15-@@ 742
Dill 742
ES 742
Gấu 742
Ngộ 742
Nicolas 742
XVI 742
beng 742
eland 742
ĐỒ 742
Coliseum 741
Ellis 741
Kazue 741
Monroe 741
Phileas 741
cri@@ 741
èn 741
Laurel 740
Nhẹ 740
Nile 740
Run@@ 740
gate 740
làm. 740
240 739
38@@ 739
CNN 739
Chan@@ 739
Holy 739
Reel 739
lou@@ 739
ười 739
1870 738
Bích 738
Francesco 738
From 738
MB 738
NGÀNH 738
ble@@ 738
dam@@ 738
tag@@ 738
tina 738
want 738
ma-@@ 737
vic 737
Bổn 736
Capricorn 736
Denise 736
Kentucky 736
Qui 736
san@@ 736
Fou@@ 735
Hebrews 735
MẠI 735
N.@@ 735
Ooh 735
aa 735
dem@@ 735
loảng 735
phụt 735
-Vâng 734
000@@ 734
Anders 734
Angel 734
Bả 734
Come 734
Exo 734
Fernando 734
Lon@@ 734
NGUỒN 734
Nov@@ 734
rim 734
GMP 733
Hè 733
Mak 733
Muôn 733
Mây 733
Renesmee 733
clip 733
ngoác 733
nor 733
ót 733
Asyri 732
Fax 732
Ivanovich 732
again 732
nghĩ. 732
rover 732
ws 732
xòa 732
Toohey 731
Wagner 731
Wars 731
poly@@ 731
whoa 731
ĐẠO 731
ẮC 731
GA 730
VIETTEL 730
Webster 730
Wu 730
body 730
ier 730
Chuỗi 729
Hand@@ 729
Intel 729
Kim@@ 729
Noda 729
Raina 729
Sem@@ 729
Sub@@ 729
agi 729
gam@@ 729
ob@@ 729
ỏng 729
ội 729
Bolivia 728
Hiếm 728
Liza 728
ball 728
ek@@ 728
không-@@ 728
nis@@ 728
onia 728
GA@@ 727
Maine 727
Mali@@ 727
ul 727
10.@@ 726
20-@@ 726
Flash 726
Giô@@ 726
Hai@@ 726
Hot 726
Lucius 726
Na-ô-mi 726
Ou@@ 726
Thề 726
Tina 726
Xtepan 726
going 726
nik 726
rel@@ 726
sì 726
tào 726
Í@@ 726
ý. 726
1,2 725
Aah 725
Emerson 725
Ernest 725
Gail 724
Gali@@ 724
Macedonia 724
Manila 724
Xtrôgôp 724
kos 724
phòng. 724
work 724
ẽ 724
ử@@ 724
Bil@@ 723
Guatemala 723
Khẩn 723
Rắn 723
Sas@@ 723
Xảy 723
blo@@ 723
lảm 723
CẦN 722
Dic@@ 722
Fla@@ 722
Lisbeth 722
cấn 722
gro@@ 722
mươ 722
sạo 722
ving 722
Ávila 722
Amber 721
Baek 721
Bristol 721
Bụng 721
Dám 721
Lôi 721
LƯU 721
Lụt 721
Nhung 721
Ox@@ 721
Ple@@ 721
Pollyanna 721
Tống 721
bee 721
sarin 721
tróc 721
ẳng 721
1913 720
Bradley 720
Millennium 720
Rab@@ 720
Spar@@ 720
Tesla 720
Up@@ 720
enberg 720
hác 720
je 720
mark 720
port 720
Grove 719
HỮU 719
Zion 719
al-@@ 719
cles 719
ith 719
mô@@ 719
wa@@ 719
Khói 718
Nadia 718
tas 718
ĐT@@ 718
Blair 717
Hume 717
Nell 717
ced 717
ghẻ 717
Apo@@ 716
Borgia 716
Story 716
Thẳng 716
Xấu 716
cle 716
een 716
huênh 716
Đỡ 716
Beatrice 715
Hang 715
Hei@@ 715
Hot@@ 715
Leonard 715
Out 715
mis@@ 715
2050 714
An-ne 714
Beaufort 714
Eri@@ 714
Kaw@@ 714
Pan 714
Séc 714
jeans 714
ặc 714
Arcaditr 713
Liz 713
Mae 713
Maxwell 713
Shawn 713
bac@@ 713
live 713
như@@ 713
1915 712
HỖ 712
Sóng 712
Truman 712
eus 712
ƯƠNG 712
36@@ 711
Bing 711
Birmingham 711
Dọn 711
NÓI 711
Tech@@ 711
chon 711
ec 711
fire 711
húc 711
qu 711
sít 711
v.v. 711
Alexis 710
BIỂU 710
Cyrus 710
Doli 710
Dượng 710
EO 710
Keller 710
Thi-Thiên 710
Vor@@ 710
WHO 710
Xưng 710
kịt 710
nhiên. 710
ova 710
xoe 710
ơng 710
Bea 709
CLB 709
Curtis 709
Kutuzov 709
Montana 709
QUÁ 709
eni@@ 709
mp 709
rion 709
sao. 709
whiskey 709
Maura 708
PP 708
Sđd 708
Thea 708
box 708
ĐỌC 708
Dạng 707
Hayes 707
Kaylee 707
Les 707
Lynch 707
Mưu 707
Titan 707
Yoshino 707
bậu 707
hỉnh 707
khum 707
lands 707
ngát 707
point 707
147 706
Association 706
Mitch 706
Nương 706
Tơ 706
nus 706
phang 706
son@@ 706
ste@@ 706
Bus@@ 705
Eisenhower 705
NÀY 705
Quentin 705
RS 705
Xưởng 705
queo 705
sam@@ 705
sau. 705
tam@@ 705
1911 704
Côn 704
Fleur 704
Ishido 704
NGHIỆM 704
nhi@@ 704
nhải 704
ook 704
too 704
ANG 703
Carr 703
Sóc 703
dar 703
hùa 703
ãn 703
Chang 702
Cáo 702
Kle@@ 702
LOẠI 702
Nikki 702
Paprika 702
Toyota 702
ement 702
gue 702
hạc 702
Barnes 701
Bryan 701
CB@@ 701
Dublin 701
Newt 701
Sea 701
Sellitto 701
dỏm 701
hoác 701
rô@@ 701
Cosimo 700
Lêvi 700
O.@@ 700
Ski@@ 700
chẵn 700
cả@@ 700
ex 700
ngham 700
ric 700
tuyền 700
tuâ 700
wal@@ 700
Anh@@ 699
Carey 699
Kendall 699
Leg@@ 699
Like 699
Nab@@ 699
Nhỡ 699
Road 699
VO@@ 699
gơ 699
manga 699
ẮN 699
Carmen 698
Essex 698
FA@@ 698
Foster 698
IS 698
NHẤT 698
Paulo 698
Vera 698
Woody 698
dé@@ 698
gal@@ 698
hoen 698
law 698
ề 698
165 697
Are 697
Billboard 697
ND@@ 697
Op@@ 697
THƯỜNG 697
Wat@@ 697
lee 697
rey 697
ản 697
Connie 696
Leah 696
MUA 696
Say@@ 696
Túi 696
đọ 696
Corky 695
Gene 695
Mafia 695
photon 695
tas@@ 695
Becky 694
Lyn@@ 694
gồng 694
nar@@ 694
Dictionary 693
dio 693
ghẽ 693
ky@@ 693
tes@@ 693
xệ 693
Alicia 692
Bên-gia-min 692
Giày 692
Hab 692
Pilar 692
Rwanda 692
Sparta 692
Tas@@ 692
USS 692
centimet 692
dg@@ 692
logi@@ 692
thãi 692
André 691
BV@@ 691
Cour@@ 691
Fil@@ 691
Get@@ 691
Martín 691
Rev@@ 691
Rắc 691
XE 691
học. 691
muông 691
pra@@ 691
rah 691
sống. 691
word 691
ÀNG 691
ợ 691
Amaranta 690
Bio@@ 690
Vẽ 690
huých 690
ili 690
mia 690
ngạn 690
phy@@ 690
tual 690
35-@@ 689
Adrian 689
Anita 689
BLĐTBXH 689
Lena 689
Naz@@ 689
Research 689
alu@@ 689
emi@@ 689
own 689
pres@@ 689
tòan 689
var 689
ên-@@ 689
óp 689
11.@@ 688
Gerald 688
Jorge 688
Kohl 688
Norfolk 688
TRỌNG 688
alia 688
iPad 688
ưỡng 688
Ear@@ 687
Hughes 687
Ki-tô 687
Leamas 687
Lều 687
QLDA 687
chin 687
marathon 687
sáng. 687
vông 687
ượng 687
ện 687
Rica 686
Rock@@ 686
UR@@ 686
Uhm 686
Zeus 686
dỏng 686
ef@@ 686
việc. 686
System 685
Xi@@ 685
ays 685
polis 685
vuột 685
Điền 685
.000 684
BU@@ 684
Esther 684
His@@ 684
Thom 684
neh 684
ways 684
0.@@ 683
142 683
BDM 683
Kingsley 683
Lui 683
NHƯ 683
Rossi 683
Silas 683
VẤN 683
prot@@ 683
ton@@ 683
view 683
Digger 682
Macgơrit 682
Mecca 682
Sat@@ 682
came 682
huyễn 682
km2 682
pol@@ 682
ríu 682
ụp 682
13,@@ 681
137 681
Chen 681
Dewey 681
Giây 681
Pam 681
heart 681
húng 681
khanh 681
§ 681
èo 681
25-@@ 680
Chiếu 680
Dũng 680
Vọng 680
ew 680
gun 680
lac@@ 680
lau@@ 680
nhành 680
Bird 679
Buddy 679
LL@@ 679
Len 679
Shirley 679
THIÊN 679
hẵng 679
ure 679
12-14 678
Burton 678
SẼ 678
Then 678
Yasuko 678
pus 678
s-@@ 678
129 677
7869 677
Jer@@ 677
Monterey 677
XXI 677
bal 677
khạo 677
ảng 677
15-17 676
End 676
Gros@@ 676
Hal 676
Hazel 676
Lò 676
Mệt 676
TIÊN 676
XVIII 676
gy@@ 676
lải 676
ngton 676
àh 676
ùi 676
CHUNG 675
Colo@@ 675
Nap@@ 675
Play@@ 675
Reese 675
Thịnh 675
W.@@ 675
Zimbabwe 675
khẩy 675
nor@@ 675
ø@@ 675
Fra@@ 674
Olga 674
being 674
cou@@ 674
dman 674
nó@@ 674
242 673
Age 673
Ares 673
Bày 673
Empire 673
Hannibal 673
India 673
Judith 673
MỚI 673
Neanderthal 673
Nêhêmi 673
Oa 673
Scot@@ 673
Trào 673
bb 673
hùm 673
mĩm 673
nho@@ 673
ày 673
3. 672
Buckingham 672
FL 672
Khoanh 672
L.@@ 672
gn 672
ôn@@ 672
ā@@ 672
143 671
Butler 671
Cris@@ 671
DJ 671
Junior 671
Sỹ 671
Teabing 671
chạc 671
col@@ 671
khục 671
mir 671
nạng 671
ork 671
148 670
Burnham 670
Free 670
Hag@@ 670
MS@@ 670
Nav@@ 670
Series 670
kel 670
lúp 670
nam@@ 670
tura 670
tễnh 670
190 669
212 669
Burke 669
Kurt 669
Mobile 669
Sa-đu-sê 669
Sig@@ 669
an. 669
bat@@ 669
mos@@ 669
wich 669
Dav@@ 668
Mi-chê 668
Nếp 668
Space 668
Trục 668
Webb 668
gin@@ 668
háu 668
three 668
144.000 667
Haz@@ 667
ait 667
miếu 667
Ave 666
Ca-bê-na-um 666
Enterprise 666
Studios 666
Tâu 666
TƯỢNG 666
rư 666
tới. 666
ờ@@ 666
-Ông 665
Bonaparte 665
GS@@ 665
MAR@@ 665
Mira@@ 665
Pax 665
You@@ 665
mèm 665
off@@ 665
à. 665
Ấu 665
146 664
Asia 664
Bạo 664
Fron@@ 664
Hoshino 664
Joon 664
Swift 664
gièm 664
home 664
tối. 664
Ðừng 664
Ú@@ 664
138 663
Azkaban 663
Greenland 663
Map@@ 663
Ty-rơ 663
ads 663
chíp 663
play 663
rap 663
² 663
Arkansas 662
Bad@@ 662
húp 662
mạp 662
thuyê 662
tửu 662
Đạn 662
ừng 662
Bacon 661
Europe 661
Flynn 661
Jose 661
Miy@@ 661
TE 661
gor@@ 661
teri@@ 661
ĐỐC 661
đật 661
ướ@@ 661
ều 661
An-@@ 660
Din@@ 660
Gerry 660
Hills 660
SS@@ 660
Tucker 660
ld 660
lis@@ 660
ti-vi 660
tree 660
Êxêchiên 660
Bellatrix 659
Hector 659
Martinez 659
Ngực 659
iệ@@ 659
ẾT 659
18-20 658
Aicập 658
Baghdad 658
Cau@@ 658
Draco 658
Halloween 658
LUẬN 658
Tamaru 658
Tanya 658
Tách 658
U.S. 658
abi 658
eira 658
ngáng 658
single 658
sảy 658
1-16 657
Abe 657
Cilke 657
Cọt-nây 657
Cốc 657
cos 657
dell 657
logical 657
thỏm 657
ū@@ 657
ằn 657
5-7 656
Charleston 656
Cin@@ 656
GIỜ 656
Ma-na-se 656
Nau@@ 656
tót 656
154 655
Cliff 655
Foundation 655
Geo@@ 655
Marjorie 655
Meyer 655
Ther@@ 655
Wilhelm 655
Yuriko 655
Zhivago 655
bli@@ 655
dec@@ 655
Đô@@ 655
230 654
Barrett 654
Encyclopedia 654
Gloria 654
KBNN 654
Lizzie 654
Mameha 654
Oklahoma 654
Pé@@ 654
Sê-sa-rê 654
baby 654
ech 654
edy 654
hủi 654
Beverly 653
Boling 653
Domi@@ 653
Hanna 653
Lorenzo 653
Nhiếp 653
Online 653
Stefan 653
bb@@ 653
ens@@ 653
tation 653
vờn 653
1- 652
149 652
2-4 652
4.000 652
KHOẢN 652
Proust 652
Starbucks 652
alis 652
ero@@ 652
sám 652
ĐỜI 652
đời. 652
CK 651
Court 651
DE 651
Hebrew 651
Izzy 651
Our 651
QUA 651
Ricardo 651
bệt 651
dậm 651
phan 651
Arixa 650
JC 650
Nadine 650
Ric@@ 650
Run 650
Theological 650
chớm 650
fy 650
ghton 650
giêng 650
ib@@ 650
lịa 650
nước. 650
Aro 649
Champ@@ 649
FO@@ 649
Mama 649
Pros@@ 649
bấn 649
gg@@ 649
khóm 649
lôm 649
nett 649
ruy 649
xịn 649
Đuổi 649
ườn 649
ị@@ 649
-Chúng 648
CV 648
Dow 648
Mattia 648
land@@ 648
lỵ 648
vy 648
Gắn 647
Luồng 647
NGOẠI 647
agan 647
beta 647
shilling 647
trót 647
ĐÓ 647
HMS 646
Josephus 646
Ot@@ 646
cti@@ 646
iv 646
nhiều. 646
nhão 646
niu 646
AS 645
Cleopatra 645
Gris@@ 645
Kramer 645
Lab@@ 645
Sanchez 645
Turing 645
quách 645
vie 645
yê 645
Ớ 645
144 644
Carnegie 644
Glen 644
Golden 644
Kuwait 644
TN@@ 644
anger 644
fac@@ 644
gừng 644
lỏm 644
đom 644
ẢO 644
1907 643
Cullen 643
Cô-@@ 643
Frankie 643
Law 643
Madagascar 643
Marcel 643
Memorial 643
Monte 643
NGH@@ 643
UK 643
cla@@ 643
kers 643
nhỏ. 643
zero 643
ÁNH 643
Human 642
Mozart 642
Nin@@ 642
Open 642
Somalia 642
UBTV@@ 642
any@@ 642
core 642
dge 642
mao 642
plasma 642
Alecxandrovna 641
Giô-si-a 641
Gỗ 641
Judah 641
Strat@@ 641
Vere 641
ams 641
háng 641
thường. 641
tman 641
vỏn 641
е@@ 641
23-@@ 640
AA 640
DS@@ 640
Ima@@ 640
It@@ 640
MV 640
See 640
Wisconsin 640
aro 640
nà 640
v. 640
¶ 640
ề@@ 640
Addison 639
DT 639
EA 639
Eerdmans 639
Giôsuê 639
Gold@@ 639
Line 639
Robot 639
Tonks 639
ison 639
pal@@ 639
tiếng. 639
ỀN 639
178 638
4000 638
Brody 638
Bơ 638
Dani@@ 638
Ecuador 638
Goldman 638
Meri@@ 638
chuôi 638
enzyme 638
isa 638
kk@@ 638
lụng 638
nen 638
nhuệ 638
237 637
Alps 637
Gatsby 637
Grayson 637
Hi-lạp 637
Kathryn 637
KỸ 637
Pauline 637
Pul@@ 637
Wellington 637
ots 637
pie 637
Anto@@ 636
Brom 636
Kolia 636
Mồ 636
Scathach 636
esh 636
lừ 636
thơi 636
ình 636
14-16 635
Fa@@ 635
PD 635
Royce 635
Saunders 635
Se 635
Sullivan 635
São 635
Tugumi 635
cọt 635
André-Louis 634
Chinh 634
Convention 634
Kha 634
Khoảnh 634
Lag@@ 634
Okinawa 634
ado 634
mặt. 634
sơ-mi 634
sứa 634
thượt 634
ão 634
Đốt 634
BIỂN 633
Gren@@ 633
Oli@@ 633
Premier 633
Rover 633
Vir@@ 633
geisha 633
tab@@ 633
ăn. 633
ọp 633
1-18 632
Girl 632
Kris@@ 632
Prim 632
Say 632
TRƯỚC 632
Tel 632
dor@@ 632
lã 632
nal 632
od@@ 632
thút 632
under 632
ï@@ 632
ĐẶC 632
Carax 631
Mona 631
Sethe 631
Starr 631
Tiger 631
elo@@ 631
đường. 631
ơ-@@ 631
....... 630
Africa 630
Cros@@ 630
Finn 630
Gino 630
Haven 630
Ngu 630
Trứng 630
Tàn 630
Tảng 630
Vancouver 630
dance 630
sẩy 630
thus 630
vet 630
Đâ 630
7885 629
Honey 629
North@@ 629
Pierce 629
Tessa 629
Westcliff 629
gổ 629
hóm 629
mót 629
rê@@ 629
stu@@ 629
tana 629
xton 629
ÊN 629
ÔI 629
ât 629
Basta 628
Beatles 628
Ep@@ 628
Mm 628
NN@@ 628
Roberto 628
Tele@@ 628
Trốn 628
iếc 628
toanh 628
ươn 628
ết 628
1-17 627
7-9 627
BIẾT 627
Dexter 627
Oslo 627
Quạ 627
Ranh 627
ret 627
15,@@ 626
Bud 626
GT@@ 626
Khen 626
Liesel 626
Quỳ 626
Three 626
Ty 626
bit@@ 626
emon 626
gột 626
pr@@ 626
Ấ@@ 626
ủ@@ 626
Chip 625
Edith 625
Gô@@ 625
Kang 625
NÔNG 625
aria 625
cation 625
kan@@ 625
vểnh 625
Basel 624
Dáng 624
NXB 624
Reg@@ 624
calo 624
chẽn 624
ium 624
tell 624
yểu 624
1916 623
Bennet 623
Hastings 623
Lettie 623
Lorraine 623
Quà 623
Team 623
Xê-@@ 623
oằn 623
tner 623
Barr 622
Was@@ 622
a.@@ 622
ms@@ 622
ồ@@ 622
21-22 621
Cisco 621
Digital 621
Freddie 621
Horace 621
LS 621
Rue 621
Victra 621
guộc 621
kingdom 621
lio 621
thẫn 621
ẤN 621
ật 621
155 620
1908 620
26-27 620
Bronx 620
Dro@@ 620
Gotanda 620
Homer 620
Labs 620
MC 620
Natasha 620
Omi 620
Pry@@ 620
Sô-đôm 620
Thérèse 620
hoắt 620
lation 620
zy 620
ƯỚC 620
Bin 619
Tus@@ 619
coronavirus 619
eve 619
mine 619
mích 619
Chun 618
Settembrini 618
ather 618
cam@@ 618
cọp 618
iê 618
lặng. 618
ngút 618
sel 618
ẩy 618
ẹo 618
Ồ@@ 618
CHUYÊN 617
Coke 617
Just 617
Peters 617
Toni 617
Zero 617
api@@ 617
dộng 617
med 617
EL 616
Pittsburgh 616
Thô-ma 616
Western 616
bẳn 616
deen 616
dian 616
each 616
star 616
thể. 616
10-12 615
Armstrong 615
Cola 615
Grusenka 615
Jean-@@ 615
Jeep 615
Móng 615
Sal 615
Salvador 615
cầy 615
pes 615
pin@@ 615
wen@@ 615
1-21 614
14,@@ 614
Amb@@ 614
Amma 614
Let@@ 614
Sus@@ 614
earth 614
found 614
gins 614
need 614
wski 614
zed 614
Đậu 614
đẫy 614
Giê-rô-bô-am 613
Light 613
Ramsay 613
axít 613
far 613
gn@@ 613
hal@@ 613
ide 613
list 613
scan 613
đất. 613
Casey 612
Drive 612
KHOA 612
Kau@@ 612
S.C 612
iêu 612
ngoi 612
set@@ 612
19-@@ 611
90@@ 611
A-na-nia 611
Dư 611
Hood 611
KỲ 611
Louvre 611
Omaha 611
bru@@ 611
cul@@ 611
das 611
ppy 611
vạng 611
-Cô 610
23-24 610
April 610
Dark 610
Hak@@ 610
Hampshire 610
Komatsu 610
MRI 610
TRỞ 610
TƯỚNG 610
Valdespino 610
amoto 610
chat 610
over@@ 610
solo 610
về. 610
Đếm 610
CB 609
Commentary 609
Gil 609
JO@@ 609
Maryellen 609
Pac@@ 609
Que@@ 609
Virgil 609
Wis@@ 609
Yor@@ 609
bùm 609
nd 609
151 608
6.000 608
Aslan 608
CM 608
CÁI 608
Cương 608
Drouet 608
Dựng 608
Glaedr 608
Luxembourg 608
Nita 608
Over@@ 608
Sanh 608
Service 608
TCTD 608
oto@@ 608
ui 608
141 607
1880 607
211 607
Brooks 607
Cromwell 607
Edgar 607
Lỡ 607
Peregrine 607
ario 607
ents 607
mie 607
nin 607
oka 607
ony 607
thênh 607
tica 607
ñ@@ 607
Boh@@ 606
Dứt 606
FTA 606
Rat@@ 606
THAM 606
THAY 606
Trạch 606
Whittaker 606
bes 606
ez@@ 606
gàn 606
phũ 606
pt 606
ướm 606
7855 605
Clemenza 605
Coleman 605
Phil@@ 605
Vax@@ 605
avia 605
bâng 605
lei@@ 605
nos@@ 605
rận 605
ằng 605
Assad 604
Broad@@ 604
Cav@@ 604
Frida 604
SUV 604
Savage 604
Wendy 604
eville 604
giòng 604
gli@@ 604
nhân. 604
theta 604
xẹp 604
õ@@ 604
4. 603
Antoine 603
CU@@ 603
DD 603
Gwendolen 603
Heo 603
HÁT 603
Squ@@ 603
Tanzania 603
USB 603
Venkat 603
WI@@ 603
court 603
history 603
iế@@ 603
sch 603
thuồng 603
thốc 603
Ápram 603
Ôm 603
đã@@ 603
153 602
Philitin 602
gal 602
gắm 602
ngă 602
ool 602
sun 602
tch 602
13.@@ 601
1860 601
Ackađich 601
Frost 601
Robertson 601
Tủ 601
Zondervan 601
èm 601
ủa 601
Ailen 600
Gimli 600
Hy-bá-lai 600
Kissinger 600
Ti-@@ 600
VAY 600
Xerox 600
Xmerdiakov 600
woo 600
û@@ 600
ự 600
BNNPTNT 599
Bong 599
Dao 599
Gotham 599
Leonor 599
Mei@@ 599
Millard 599
Rap@@ 599
Stella 599
ct@@ 599
fa@@ 599
rest 599
toại 599
vói 599
Gói 598
Kathy 598
Si-la 598
Son 598
Wer@@ 598
act 598
ain@@ 598
chin@@ 598
d-@@ 598
fal@@ 598
hn 598
nghén 598
rap@@ 598
rả 598
-L@@ 597
187 597
Chút 597
Elliott 597
Georges 597
KDE 597
Kolya 597
Marketing 597
Ngàn 597
Ngục 597
Nối 597
SUẤT 597
Viê 597
Zach 597
gao 597
hõm 597
lor@@ 597
nằng 597
soạng 597
tiếp. 597
véo 597
yama 597
Alvin 596
Br@@ 596
DP 596
Ma-thê 596
Mill 596
Mountain 596
Pê@@ 596
Shh 596
Website 596
eur 596
gre@@ 596
mat 596
mành 596
nguậy 596
nhớt 596
ỪNG 596
320 595
Braun 595
Chad 595
Cớ 595
Dolores 595
Palermo 595
Spartacus 595
Tate 595
anne 595
chếch 595
ghan 595
phàng 595
sất 595
vs 595
Điệu 595
ền 595
Bah@@ 594
Bấc 594
Họa 594
Izzie 594
Melissa 594
NHÓM 594
Platon 594
Suze 594
Zalachenko 594
nghệch 594
ngoáy 594
thảnh 594
Cạn 593
Huệ 593
Koran 593
Lei@@ 593
Octavia 593
PT@@ 593
Patrik 593
Richie 593
Silva 593
Trống 593
eds 593
Bar 592
Death 592
Fix 592
Hester 592
Hoffman 592
Lit@@ 592
Nhện 592
QUỸ 592
etti 592
ảy 592
Cot@@ 591
Ey@@ 591
NBC 591
Nis@@ 591
Rex 591
cH@@ 591
huơ 591
khứu 591
nghĩnh 591
phiệt 591
really 591
vius 591
A-bên 590
Alek@@ 590
Banaba 590
CE@@ 590
Corse 590
Del 590
Geralt 590
Riơ 590
Sky 590
Thorn 590
Thăm 590
X-quang 590
chạng 590
cõng 590
hara 590
lử 590
nay. 590
nez 590
rươ 590
ÁC 590
ặng 590
DM 589
Friedman 589
Khoáng 589
Mikh@@ 589
More 589
Nổ 589
Side 589
Springs 589
ann 589
enni@@ 589
erson 589
pic@@ 589
put 589
toác 589
year 589
ắm 589
27-@@ 588
Andro@@ 588
Data 588
Tyson 588
alism 588
vel@@ 588
A-ram 587
Abby 587
Carmel 587
Cốt 587
Ghép 587
Inger 587
Jet 587
Project 587
Skulduggery 587
Thúc 587
ange 587
chan@@ 587
eas@@ 587
gri@@ 587
han@@ 587
sley 587
wen 587
47@@ 586
Cruz 586
Fraser 586
GH@@ 586
Petunia 586
Singh 586
dẹt 586
phia 586
quin 586
sed 586
zar@@ 586
Úrsula 586
Bentham 585
Budapest 585
Channel 585
Lockhart 585
Macintosh 585
Sê@@ 585
TÂM 585
Under@@ 585
az 585
cộm 585
diếm 585
glo@@ 585
gon@@ 585
mới. 585
sburg 585
thoai 585
ー@@ 585
Barth 584
Chapman 584
DF 584
Ton@@ 584
ba-@@ 584
insulin 584
lon@@ 584
trãi 584
1904 583
BB@@ 583
Origen 583
bra 583
còm 583
iên 583
ono@@ 583
photocopy 583
ẠC 583
Ỷ 583
1850 582
Cecil 582
Dracula 582
Dẹp 582
Feeney 582
Gore 582
Harald 582
IC 582
Kirihara 582
Kiệt 582
Petr@@ 582
TRUYỀN 582
Thénardier 582
Zim@@ 582
aff@@ 582
flu@@ 582
ily 582
khăm 582
òm 582
đựơc 582
‖ 582
18,@@ 581
Kazakhstan 581
Melbourne 581
Ngh@@ 581
Schwar@@ 581
Sinai 581
Slo@@ 581
Yasu@@ 581
a-l@@ 581
bĩu 581
ffer 581
lủi 581
ngày. 581
tốt. 581
yi 581
46@@ 580
Explorer 580
Fab@@ 580
Guil@@ 580
Nhị 580
NỘP 580
Pilon 580
Rupert 580
bbs 580
1830 579
500@@ 579
CPU 579
Ghết-sê-ma-nê 579
QL@@ 579
Vành 579
thoăn 579
túa 579
war 579
Emilia 578
Fuller 578
Lebanon 578
Rai@@ 578
TU@@ 578
dine 578
Đaxa 578
Aimee 577
Hart@@ 577
Marta 577
Osborne 577
nhẩy 577
part 577
sụ 577
thố 577
tsu@@ 577
Đo@@ 577
đo@@ 577
ầ@@ 577
-Con 576
550 576
Electric 576
Euro 576
Maxi@@ 576
Mềm 576
NET 576
Porter 576
Vực 576
another 576
có@@ 576
gar 576
na-@@ 576
nn 576
¿ 576
Í 576
HCM 575
Hussein 575
Kohler 575
Ow 575
SU@@ 575
TRẢ 575
bon@@ 575
ch-@@ 575
chông 575
hòan 575
liếng 575
panh 575
rày 575
tră 575
đác 575
đẵng 575
Giô-áp 574
Hiền 574
Studio 574
Way 574
amo 574
dợm 574
give 574
lơi 574
nhụi 574
Agape 573
Brenda 573
Fache 573
Hodge 573
Kö@@ 573
LÃNH 573
Mich@@ 573
Ngụy 573
Rumani 573
TO 573
bou@@ 573
dôi 573
thấy. 573
Biblical 572
Cuộn 572
Drake 572
ED 572
Gion 572
Jeffrey 572
Manuel 572
Palace 572
Pes@@ 572
QG 572
TÊN 572
azar 572
nan@@ 572
Bê-tên 571
Capital 571
Charley 571
Dilsey 571
Giác 571
Mallory 571
Plu@@ 571
RO 571
Rhine 571
Willie 571
bank 571
muốt 571
pos 571
vil 571
đu@@ 571
ỷ 571
Alba 570
BIỆN 570
C-@@ 570
CHỐNG 570
Clifton 570
Gai 570
Miếng 570
Not@@ 570
Sasagaki 570
Stan@@ 570
around 570
bá@@ 570
la-@@ 570
onic 570
xoài 570
ộng 570
Queens 569
TTG 569
chuâ 569
iri 569
yl@@ 569
1-15 568
30.000 568
French 568
GIAN 568
Gestapo 568
Harmony 568
IN 568
Koch 568
Max@@ 568
Mess@@ 568
Romania 568
Sonja 568
XVII 568
acker 568
arian 568
rot@@ 568
tễ 568
31-@@ 567
Abi@@ 567
Andre@@ 567
Kabul 567
Lăng 567
Lưng 567
Yar@@ 567
etto 567
ks@@ 567
lới 567
ths 567
1906 566
BMW 566
Bin@@ 566
Jong 566
Mê@@ 566
Newman 566
Rockefeller 566
Viking 566
chứ. 566
esia 566
far@@ 566
gonna 566
hormone 566
mất. 566
ược 566
13-15 565
Anton 565
DIỆN 565
Hư 565
Ingrid 565
Leigh 565
Slim 565
Tiffany 565
fon@@ 565
ngoài. 565
saw 565
Clu@@ 564
CỔ 564
GD@@ 564
Giovanni 564
Gul@@ 564
Heinrich 564
Lex@@ 564
Network 564
TỬ 564
app 564
chỏm 564
ect 564
nẹp 564
pon@@ 564
1-20 563
Cara 563
Cr@@ 563
DN 563
Dải 563
Hyde 563
Ltd 563
Mercury 563
aceae 563
ady 563
kon 563
lươn 563
thè 563
tuỵ 563
À@@ 563
Adolf 562
Aglaia 562
Chuyê 562
Crouch 562
Denmiris 562
Gat@@ 562
Kepler 562
Klaus 562
Randall 562
Sherry 562
Si-nai 562
aud 562
kếch 562
mot@@ 562
rez 562
tius 562
tly 562
đụn 562
7903 561
BIẾN 561
Buffalo 561
By 561
Che 561
Fas@@ 561
GO@@ 561
HỌ 561
Juli@@ 561
Krum 561
Kumiko 561
Muộn 561
Rodrigues 561
Tắc 561
VINALINES 561
aks 561
girl 561
người-@@ 561
nier 561
Dakota 560
Eden 560
Esme 560
IL 560
Norton 560
Peik 560
Play 560
aid 560
ful@@ 560
phiê 560
thoang 560
tion@@ 560
át@@ 560
đớp 560
1903 559
Fitzgerald 559
Francois 559
Johann 559
Marietta 559
Wolfe 559
Xơ 559
agon 559
evna 559
isi@@ 559
leton 559
lạng 559
mắt. 559
sapiens 559
trans@@ 559
ớp 559
Brandon 558
Challenger 558
Củng 558
Down 558
Enoch 558
Festival 558
Heather 558
Motors 558
Off@@ 558
Orlando 558
Phiền 558
Rach@@ 558
Val 558
Voltaire 558
Xachari 558
chen@@ 558
does 558
rine 558
rệp 558
Út 558
24-@@ 557
CẤU 557
Hed@@ 557
Joyce 557
Kap@@ 557
Ner@@ 557
Nolan 557
Phlôrêntinô 557
Pop 557
Produ@@ 557
Year 557
ensis 557
phèo 557
sau@@ 557
sw@@ 557
tạnh 557
vor@@ 557
án. 557
ĐÃI 557
Clive 556
Epson 556
Four 556
Gondor 556
Nino 556
PHI-E-RƠ 556
Sultan 556
Whe@@ 556
có. 556
heroin 556
hh 556
kind 556
loát 556
nà@@ 556
40-@@ 555
A-sy-ri 555
Beethoven 555
Cháy 555
Jacobs 555
Lat@@ 555
MU@@ 555
Memphis 555
Minho 555
NC 555
Nghiệm 555
Steiner 555
nải 555
p.@@ 555
róc 555
uya 555
ĐÀO 555
Đói 555
1909 554
Airways 554
Andrei 554
CI 554
Ellsworth 554
Magic 554
MÁY 554
Namibia 554
Plutarch 554
ald 554
cồm 554
diesel 554
hot 554
kình 554
zy@@ 554
ớ@@ 554
Ess@@ 553
Euro@@ 553
Feynman 553
Filch 553
Fire 553
Jensen 553
Lap@@ 553
Trầm 553
bòng 553
click 553
kat@@ 553
xit 553
26-@@ 552
5-8 552
Bye 552
Chớp 552
DL 552
Scho@@ 552
Tụ 552
suô 552
độ@@ 552
Calcifer 551
Coca-Cola 551
Dothái 551
Kol@@ 551
LỢI 551
Sis@@ 551
XV 551
test 551
-Sao 550
7915 550
Arrow 550
CK@@ 550
Calpurnia 550
Civic 550
GR@@ 550
Open@@ 550
Qatar 550
Schultz 550
Sấm 550
THÁC 550
oc 550
pec@@ 550
rington 550
ÍCH 550
Đáy 550
ợ@@ 550
-san 549
Allison 549
CITES 549
Công-vụ 549
Cường 549
Dunbar 549
Fol@@ 549
Loo@@ 549
LỤC 549
Maisie 549
Not 549
Nova 549
ice 549
mind 549
music 549
strom 549
Antiochus 548
Bak@@ 548
Ferguson 548
I-@@ 548
Lộc 548
Maycomb 548
Naoko 548
Place 548
Trevor 548
Utah 548
hab@@ 548
nhọt 548
nic 548
soóc 548
turn 548
xoong 548
Đê@@ 548
ỳ 548
Baba 547
Bự 547
Eliza 547
Estonia 547
Flint 547
Gồm 547
Ky 547
Mormon 547
Myers 547
Square 547
Temp@@ 547
Xo@@ 547
moto 547
nian 547
plan@@ 547
thought 547
trằn 547
vánh 547
éc@@ 547
ổ@@ 547
At 546
Cơ-Đốc 546
Gibraltar 546
Gái 546
Hamburg 546
Hê@@ 546
ING 546
PCPNN 546
eld 546
ical 546
lỗi. 546
ụt 546
16,@@ 545
16-18 545
Al-@@ 545
Dyn@@ 545
Frankfurt 545
Heart 545
Qaeda 545
Sad@@ 545
Xóa 545
ein 545
tuộc 545
tọc 545
ộc 545
Dai@@ 544
Field 544
Geoffrey 544
Javert 544
Oc@@ 544
Vigor 544
biêt 544
ers@@ 544
find 544
power 544
room 544
Anh-rê 543
Dead 543
Dim@@ 543
Easy 543
Fletcher 543
Hul@@ 543
Je 543
Merlin 543
Millie 543
MÌNH 543
Nirad 543
Report 543
UEFA 543
lum@@ 543
nel 543
nhao 543
ree 543
soài 543
xém 543
ür@@ 543
ắn 543
Arcadio 542
Caribe 542
Hãn 542
Rosemary 542
Version 542
iêng 542
lm 542
tuế 542
tủm 542
đễnh 542
2- 541
BE@@ 541
Byron 541
Erin 541
Last 541
Lừa 541
Strauss 541
Villa 541
ora 541
peri@@ 541
ppa 541
shot 541
sor@@ 541
tỉm 541
Đống 541
н@@ 541
--- 540
........ 540
260 540
Aqu@@ 540
Century 540
Charity 540
Dong 540
FF@@ 540
Pro 540
Sữa 540
bot 540
violin 540
đó@@ 540
158 539
Arsenal 539
Barker 539
Briony 539
CUNG 539
Cerdic 539
Jac@@ 539
LINH 539
Severus 539
etz 539
gne 539
mề 539
rien 539
Arab 538
Award 538
Bom 538
Bowerman 538
Bă 538
Master 538
Mellis 538
T-@@ 538
THƯ 538
TON 538
cket 538
ester@@ 538
loà 538
tiếu 538
tí@@ 538
1,5 537
Bree 537
Giô-na-than 537
Janice 537
NK@@ 537
Nev@@ 537
X. 537
ngh 537
salad 537
words 537
17,@@ 536
Albus 536
Burrows 536
Galaxy 536
Gô-gô-tha 536
Health 536
KHÁCH 536
Si-ru 536
Win 536
even@@ 536
late 536
ov@@ 536
sẳn 536
thiến 536
Gin@@ 535
TI 535
UNESCO 535
Wh@@ 535
bor 535
cis@@ 535
different 535
giậu 535
iếu 535
khản 535
nas@@ 535
neutron 535
sua 535
ễu 535
120@@ 534
249 534
270 534
Bad 534
Crystal 534
Fats 534
Gen 534
HT@@ 534
Michel@@ 534
Rẽ 534
SD 534
Wardle 534
Zan@@ 534
chem 534
khu@@ 534
liến 534
nhuyễn 534
omi@@ 534
ort 534
pha@@ 534
says 534
xe. 534
zzi 534
BN 533
BẮT 533
Ish@@ 533
Kab@@ 533
THỦY 533
Têsalônica 533
khoé 533
nap@@ 533
phấp 533
uk 533
uô 533
¡ 533
ÁI 533
Basil 532
Diệm 532
Dragon 532
Kay@@ 532
Keiko 532
Lucky 532
Mạc-đô-chê 532
Niêm 532
Odette 532
Rutherford 532
Rửa 532
Sabát 532
TTĐB 532
Thorp 532
abe 532
card 532
ril@@ 532
rit 532
something 532
1200 531
Carson 531
FS 531
Ghi@@ 531
Giận 531
Illuminati 531
Manny 531
Tiềm 531
ai. 531
always 531
eyes 531
low@@ 531
muồi 531
rọt 531
tréo 531
west 531
201@@ 530
Baltic 530
Chat@@ 530
Coast 530
KHOÁN 530
Sug@@ 530
XÉT 530
ades 530
béng 530
mans 530
ou 530
quờ 530
viển 530
đét 530
AB 529
Axel 529
Box 529
Gui@@ 529
Honda 529
Mikhail 529
Muối 529
Nham 529
Norris 529
Phỏng 529
Rubin 529
TĂNG 529
cott 529
mal 529
ssa 529
Ði 529
ích. 529
ôi. 529
ẦM 529
ữ@@ 529
280 528
650 528
Alex@@ 528
BÌNH 528
Diệp 528
Girls 528
Ha-man 528
Joh@@ 528
LĐ 528
Mini 528
Plat@@ 528
Sammy 528
Scout 528
Shin 528
Swe@@ 528
Tankado 528
Tomohiko 528
borg 528
phắc 528
sir 528
tland 528
189 527
24-25 527
Ainz 527
Bosnia 527
Flora 527
Glenn 527
Glover 527
Guide 527
Jae 527
Lenny 527
Petro@@ 527
Viola 527
Vỏ 527
Yorkshire 527
amura 527
anga 527
chuô 527
gel 527
mil@@ 527
ĐẤNG 527
đên 527
Diamond 526
Fur@@ 526
Giô-ên 526
Legolas 526
Milli@@ 526
Trưng 526
Wheeler 526
Witnesses 526
Xela 526
nhặng 526
váo 526
xi-@@ 526
Ù 526
ên. 526
ìm 526
ộp 526
Idaho 525
LED 525
Mani@@ 525
THẦN 525
Tab@@ 525
Y. 525
acks 525
hamburger 525
ing@@ 525
khất 525
race 525
ri-@@ 525
sần 525
Ép-ra-im 525
FDA 524
Himmler 524
Key 524
Saeed 524
Schaeffer 524
Thùng 524
arry 524
dượt 524
kon@@ 524
sém 524
trâm 524
ặ@@ 524
Asad 523
Bùa 523
Cres@@ 523
CỘNG 523
Here 523
Mack@@ 523
Second 523
Tan 523
ace@@ 523
bot@@ 523
chong 523
dre@@ 523
lli@@ 523
năm. 523
rạo 523
trồ 523
works 523
A-bi-@@ 522
CẢ 522
Franco 522
Gu 522
Syn@@ 522
aj@@ 522
ghts 522
ngấn 522
rông 522
shin 522
sive 522
Arti@@ 521
Blvd 521
CHA 521
Dickon 521
IMF 521
Kiev 521
Mitsuyo 521
Montag 521
Ngư 521
PHỐ 521
PV 521
Sang@@ 521
Saruman 521
Terri 521
Th 521
Thorin 521
dium 521
thụng 521
ây@@ 521
ĐÌNH 521
ạng 521
185 520
1901 520
Bengal 520
Bern@@ 520
Fitz 520
Narnia 520
Nico@@ 520
Phụng 520
Quar@@ 520
RS@@ 520
TK@@ 520
Ucsula 520
Wade 520
against 520
child 520
coming 520
cữ 520
ister 520
nhu@@ 520
nick 520
times 520
Đàm 520
Giu@@ 519
Goo@@ 519
Gy@@ 519
Otoko 519
Susie 519
Thoả 519
Tos@@ 519
Xoay 519
clu@@ 519
ever@@ 519
might 519
nhâm 519
típ 519
ệ@@ 519
ụng 519
Bes@@ 518
Crete 518
Gan@@ 518
Ginia 518
His 518
KK@@ 518
Maxlova 518
Paula 518
Tặng 518
Tỏ 518
UN@@ 518
acy 518
ages 518
dế 518
khó@@ 518
ngoai 518
prin@@ 518
quánh 518
Đôly 518
đơ@@ 518
ệt 518
ỏ 518
1A 517
Alfonso 517
Ches@@ 517
Crowley 517
IT 517
Slade 517
Waterloo 517
karaoke 517
roll 517
sman 517
1-22 516
163 516
1902 516
Anh-điêng 516
Die 516
Dow@@ 516
Force 516
Foreman 516
Nastasia 516
Opera 516
Out@@ 516
PE 516
Rochester 516
Tul@@ 516
Yabril 516
not@@ 516
oi@@ 516
tori@@ 516
● 516
11-13 515
AIFL-@@ 515
Marilyn 515
TM@@ 515
dái 515
essi@@ 515
khiu 515
n- 515
Ấm 515
† 515
000.000 514
Alby 514
BIÊN 514
Chúa. 514
Cran@@ 514
Guido 514
Lắp 514
Michelangelo 514
Phate 514
Woods 514
amb@@ 514
asu@@ 514
chìu 514
chới 514
dou@@ 514
li-@@ 514
ngủ. 514
nhốn 514
ròi 514
Đôra 514
Andes 513
Andrews 513
Clyde 513
Fleming 513
Kincaid 513
Mandy 513
Matsu@@ 513
Narumi 513
Nou@@ 513
Tertullian 513
Thes@@ 513
ences 513
ghềnh 513
mouth 513
phễu 513
wer@@ 513
Buck 512
Chấn 512
GE@@ 512
Glen@@ 512
Major 512
NGHIÊN 512
Sansom 512
Sla@@ 512
Sn@@ 512
TNHH 512
Tactus 512
Vơ 512
cher@@ 512
iêm 512
k-@@ 512
lêu 512
quẫy 512
she@@ 512
28-29 511
Béo 511
Gospel 511
Hear@@ 511
Law@@ 511
McLoughlin 511
Merete 511
author 511
sạm 511
đâ@@ 511
36-@@ 510
Att@@ 510
Bhutan 510
Boys 510
Báptít 510
DNCX 510
Ha-ba-cúc 510
Hatsumono 510
IP@@ 510
Ludwig 510
Lưỡng 510
Orange 510
PL@@ 510
Prometheus 510
TG 510
Thọ 510
Tunisia 510
Vince 510
cùn 510
eng 510
ges@@ 510
isto@@ 510
núc 510
nập 510
tta 510
tweet 510
Ðể 510
ớc 510
48@@ 509
7847 509
BIỆT 509
Baxter 509
E-@@ 509
Nữu 509
Penelope 509
Sikh 509
States 509
Wanda 509
lỳ 509
tler 509
Eur@@ 508
Jeff@@ 508
Kiyoshi 508
Lowell 508
Marsha 508
Marvel 508
Nagasaki 508
THẬT 508
Xích 508
car 508
dad 508
dát 508
hô@@ 508
mag@@ 508
nitơ 508
sushi 508
tr.@@ 508
xâ 508
Balkan 507
Baptist 507
Descartes 507
Gợi 507
Harlem 507
Mên-chi-xê-đéc 507
Sasha 507
Stein@@ 507
Vogel 507
thy 507
tmann 507
urani 507
vna 507
Azerbaijan 506
Bear 506
Gr@@ 506
LL 506
Lạng 506
MINH 506
Morse 506
PHI@@ 506
South@@ 506
fri@@ 506
kít 506
mé@@ 506
sou@@ 506
xỉnh 506
yes 506
Ðại 506
Ôsê 506
ặn 506
ỖI 506
Bron@@ 505
CỬA 505
Erika 505
Mộ 505
Nghịch 505
Richards 505
STE@@ 505
TRANH 505
VÌ 505
Vé 505
gờm 505
lers 505
som 505
ste 505
type 505
vùa 505
Ừ@@ 505
233 504
Bach 504
BÊN 504
DV@@ 504
FF 504
Fritz 504
Ghê-đê-ôn 504
Larkin 504
Minerva 504
Montreal 504
ONG 504
Pepsi 504
Phi@@ 504
Sốt 504
help 504
nộm 504
oa 504
shaw 504
tin. 504
ím 504
Ụ 504
IA 503
Khía 503
Olesen 503
Rodriguez 503
Stein 503
Tuấn 503
WTO 503
Wharton 503
dead 503
gì@@ 503
ja@@ 503
lắt 503
oshi 503
vol@@ 503
đúng. 503
Bernarda 502
Cinna 502
Hòm 502
Kali@@ 502
Kot@@ 502
Mussolini 502
Payne 502
Rah@@ 502
Ram 502
Sac@@ 502
Valen@@ 502
Veronica 502
chét 502
chửa 502
ita 502
kel@@ 502
rảy 502
tấy 502
tủa 502
19-21 501
28-@@ 501
CẢM 501
Kang@@ 501
Pitt 501
PlayStation 501
gamma 501
hol@@ 501
lab@@ 501
ngòai 501
ome 501
pan 501
quá. 501
read 501
real 501
rigan 501
rọc 501
thy@@ 501
Ẻ 501
ỵ 501
Buôn 500
Chiếm 500
Cứt 500
Deborah 500
Ghê-@@ 500
Hon 500
Janeiro 500
NHÌN 500
Noble 500
Titanic 500
bêu 500
days 500
gảy 500
hr 500
ls@@ 500
Ương 500
ến 500
Buck@@ 499
BẤT 499
Lenin 499
Magazine 499
Margot 499
Peterson 499
Rhodes 499
Rin@@ 499
bass 499
bõ 499
ces@@ 499
cói 499
cạy 499
ern@@ 499
hydro@@ 499
mủi 499
tino 499
zan 499
ác. 499
4,5 498
5. 498
Căng 498
CỤ 498
Freddy 498
Grande 498
Jevy 498
Kara 498
Mu 498
Ngo@@ 498
Phan 498
TỐ 498
VC 498
aldo 498
anism 498
isi 498
micro@@ 498
mmm 498
trịa 498
ƯỜNG 498
Accađiô 497
BASIC 497
BTM 497
Barbar@@ 497
CHỈNH 497
Denis 497
Liber@@ 497
Mousqueton 497
Thiệu 497
bính 497
cảu 497
esa 497
hand 497
tH@@ 497
tran@@ 497
vót 497
15.@@ 496
164 496
201 496
Goyle 496
Khuynh 496
Kiện 496
Maureen 496
Momonga 496
Richmond 496
Saxon 496
Set@@ 496
Trátđơn 496
Yugawa 496
high 496
xửa 496
Bow@@ 495
Chin@@ 495
Cơ@@ 495
Glasgow 495
Gonzaga 495
Kri@@ 495
LNG 495
Umbrella 495
fic@@ 495
kô 495
linger 495
điêng 495
ẫ@@ 495
Aquinas 494
CR 494
Christmas 494
Châ@@ 494
Culli 494
Elvis 494
Hu 494
Lãng 494
Nãy 494
Rỗi 494
Sunday 494
Thăng 494
VIP 494
Xbox 494
a- 494
care 494
chus 494
chàng. 494
giắt 494
hm 494
tons 494
trác 494
trờ 494
ún 494
157 493
Alecxandrovich 493
FM 493
Ghế 493
Ig@@ 493
Khóc 493
Mariana 493
Marti@@ 493
Mm-hmm 493
Rao 493
VÙNG 493
Youtube 493
chiểu 493
fun@@ 493
oxit 493
ẮNG 493
ể 493
ỗng 493
European 492
Scofield 492
Shelley 492
SÁNG 492
Tem@@ 492
Tit@@ 492
Vở 492
ater 492
bird 492
ching 492
gis 492
oot 492
rose 492
went 492
001 491
1600 491
Ishi@@ 491
Ji 491
Maz@@ 491
Raz@@ 491
Rocky 491
SAI 491
Spock 491
Spurgeon 491
Tract 491
Trắc 491
Vietnam 491
Xì 491
berger 491
entropy 491
otto 491
phúng 491
phộng 491
sol 491
tain 491
uri 491
uss 491
ô-tô 491
α@@ 491
ịa 491
ỗi 491
ứt 491
Abdullah 490
Cheng 490
Copơphin 490
Gaul 490
Heli@@ 490
HỒI 490
HỘ 490
Nhược 490
Rain@@ 490
Soo 490
Tiệp 490
Venus 490
bis@@ 490
elec@@ 490
glucose 490
ngẩm 490
oo 490
thều 490
xon 490
After 489
CÔ 489
Happy 489
Holiday 489
Malkin 489
Nghê 489
Pictures 489
Templeton 489
cùng. 489
faith 489
four 489
lồm 489
mit@@ 489
nghễ 489
nhé. 489
rỏ 489
xị 489
yon 489
-Nhưng 488
33-@@ 488
34@@ 488
Academy 488
Belle@@ 488
Hút 488
Institute 488
Jack@@ 488
Kosovo 488
Ma-la-chi 488
Mauri@@ 488
Metro 488
Nos@@ 488
NÓ 488
Salvatore 488
Third 488
TÌM 488
Warsaw 488
cking 488
gạn 488
iết 488
khoải 488
rea 488
rel 488
ríp 488
theo. 488
Đòi 488
định. 488
1812 487
DOS 487
Kid 487
Medici 487
Short 487
THPT 487
Tau@@ 487
TẠM 487
Yankee 487
b-@@ 487
bian 487
eb 487
giới. 487
hor@@ 487
ine@@ 487
ple@@ 487
ráy 487
ặt 487
7919 486
Chậc 486
Game@@ 486
Polynesia 486
Rutơ 486
Scotch 486
Singer 486
THO@@ 486
cola 486
fied 486
jacket 486
lộp 486
whole 486
ĂNG 486
ượ@@ 486
192 485
Alo 485
Cỡ 485
Ernie 485
LỊCH 485
Mễ 485
Phy@@ 485
Phúc-Âm 485
Pixar 485
Sev@@ 485
Shah 485
Syri 485
Sé@@ 485
Sọ 485
Wally 485
ọi 485
→ 485
Am-môn 484
Banda 484
Ce@@ 484
Dolly 484
Giê-Hô-Va 484
Gur@@ 484
Nhím 484
Pr@@ 484
Tân-ước 484
Wozniak 484
all@@ 484
cữu 484
dus 484
tỏng 484
ễ 484
ọng 484
Angelo 483
CE 483
Daria 483
Dell 483
Erasmus 483
Guadalcanal 483
Kre@@ 483
Mab 483
Marvin 483
Moh@@ 483
PAR@@ 483
Tex@@ 483
Trì 483
Vega 483
khướt 483
trảng 483
ỡn 483
ữ 483
176 482
Barrington 482
Corn@@ 482
Day@@ 482
Eun 482
Giàu 482
Leeds 482
Luci@@ 482
Mordaunt 482
Morrison 482
Mumbai 482
Radar 482
Rot@@ 482
aun@@ 482
dog 482
hiro 482
hích 482
nhụt 482
seen 482
số@@ 482
true 482
205 481
330 481
Bombay 481
Darius 481
Floyd 481
Hercules 481
Jess 481
Mập 481
PG 481
Phẫu 481
Sanders 481
Volvo 481
bộp 481
khang 481
lex 481
1a 480
Gánh 480
KẺ 480
Main 480
Ocean 480
Ris@@ 480
Silver 480
Stanton 480
TIẾN 480
Yak@@ 480
khoả 480
oxi 480
thía 480
ÁT 480
168 479
Algeria 479
CHẤP 479
Cornwall 479
Faith 479
Hermes 479
Loạt 479
Modern 479
Nature 479
Parkinson 479
Sloan 479
Spanish 479
Sumer 479
Tiệm 479
TÀU 479
Yahweh 479
such 479
thin 479
yen 479
181 478
2,5 478
2a 478
Copernicus 478
Deep 478
Est@@ 478
Góp 478
Holland 478
Jen@@ 478
Kiki 478
MG 478
Pliny 478
Tra@@ 478
ede 478
gư 478
hold 478
lain 478
mb 478
mili@@ 478
sure 478
vùn 478
Áp-ram 478
ái. 478
Agliè 477
Alto 477
Dresden 477
François 477
Giường 477
O2 477
Patri@@ 477
Universal 477
Virus 477
board 477
cat 477
eller 477
hên 477
looked 477
sởn 477
trành 477
5m 476
AP 476
Brutal 476
Chú@@ 476
Donna 476
Esp@@ 476
Goethe 476
Kerry 476
Packard 476
Paulie 476
dài. 476
tuồn 476
yle 476
ật. 476
ịu 476
0.000 475
Apol@@ 475
BP 475
Daw@@ 475
Izumi 475
Mali 475
Movie 475
Rho@@ 475
Yves 475
Zar@@ 475
dir 475
stood 475
while 475
300@@ 474
AK@@ 474
CBS 474
Castro 474
Children 474
Coulson 474
Crabbe 474
GB 474
Lacey 474
Mina 474
Rahel 474
Seine 474
Seli@@ 474
THÍCH 474
Talk 474
Village 474
blood 474
ffe 474
lette 474
tou@@ 474
upon 474
Êsau 474
ương. 474
ẠCH 474
Atlas 473
Borneo 473
Bras@@ 473
Cuddy 473
Gaza 473
ix 473
order 473
round 473
ta-@@ 473
tov 473
ễn 473
AT@@ 472
Alistair 472
Bit@@ 472
Cael 472
Cawley 472
Fai@@ 472
Hendri@@ 472
Kai 472
Levi@@ 472
Ling 472
Lisle 472
MÔ 472
Phecmina 472
Rice 472
coun@@ 472
dal@@ 472
dới 472
pot@@ 472
tn@@ 472
ỐNG 472
Arôn 471
BHTN 471
EO@@ 471
Et 471
Fiji 471
GNU 471
Herald 471
KHÍ 471
Kis@@ 471
Pink 471
Schmidt 471
Seminary 471
Tarahumara 471
ako 471
cey 471
lé@@ 471
lạ@@ 471
mafia 471
ound 471
39@@ 470
Denixov 470
Development 470
Forest 470
Gót 470
Kathleen 470
Kitami 470
Lũng 470
Mills 470
Official 470
Oshima 470
QH14 470
Reuben 470
Thithiên 470
Tour@@ 470
aurus 470
avy 470
choai 470
dies 470
hard 470
niê 470
ya@@ 470
Brent 469
Chambers 469
Dallben 469
Fuk@@ 469
Grisha 469
Gunther 469
IR@@ 469
Jin 469
LE 469
Lam 469
SGDCK 469
Sk@@ 469
Thưởng 469
YẾU 469
aye 469
brandy 469
ngủn 469
toẹt 469
å@@ 469
ìa 469
đia 469
ệch 469
199@@ 468
200.000 468
365 468
Aviv 468
Bjurman 468
BÀ 468
Case 468
Caspian 468
Cha@@ 468
Cơ-đốc-nhân 468
DeBlass 468
Fi 468
Gruzia 468
Hiro 468
Landry 468
Race 468
Schopenhauer 468
Torah 468
TẢI 468
cle@@ 468
gian. 468
ênh 468
đỉa 468
161 467
32-@@ 467
Comb@@ 467
Felton 467
GO 467
Justine 467
María 467
Net 467
Nữa 467
Seg@@ 467
Tag@@ 467
dit 467
etz@@ 467
state 467
thro@@ 467
trám 467
át. 467
ỦY 467
......... 466
........@@ 466
AB@@ 466
Antonia 466
Crash 466
Fedor 466
Film 466
Graciela 466
Lồng 466
NE 466
Noyce 466
Parvaneh 466
Tae 466
bun 466
oor 466
ounce 466
quạng 466
trôn 466
ất-@@ 466
-Được 465
1-31 465
AR 465
Back 465
Belarus 465
Bloom 465
Cloud 465
Khe 465
MBA 465
Mandela 465
Pasha 465
Patty 465
Sed@@ 465
Vivian 465
ground 465
gườm 465
ked 465
rói 465
spec@@ 465
xy@@ 465
xẹt 465
ÀI 465
Ích-ma-ên 465
Đeo 465
đoản 465
Cairns 464
Chỉnh 464
Cir@@ 464
Fumero 464
Get 464
Göring 464
Kingdom 464
Kno@@ 464
Kuz@@ 464
Nobu 464
Pag@@ 464
Sapiens 464
Trưa 464
UBCKNN 464
Viktor 464
hun@@ 464
ngoằng 464
nhởn 464
ĐANG 464
Beetee 463
Chrysler 463
Croce 463
Kei@@ 463
Tang 463
Tribune 463
Yahoo 463
action 463
atic 463
children 463
chái 463
cing 463
ente 463
erin 463
fication 463
fle@@ 463
gắp 463
hel@@ 463
iền 463
rai 463
rắp 463
ăng. 463
Band@@ 462
Brutus 462
DH@@ 462
Engel 462
Lợn 462
Mav@@ 462
Mr 462
Week 462
ass 462
beck 462
oli 462
tures 462
Avatar 461
CFS 461
Cứng 461
Damon 461
ICI 461
Muller 461
Nora 461
Poppy 461
TER 461
Willy 461
Zeke 461
aba 461
both 461
chột 461
cô-@@ 461
ego 461
fra@@ 461
ruổi 461
up@@ 461
vươ 461
woman 461
-1 460
Antony 460
Associ@@ 460
Bahrain 460
Fall 460
Jeanne 460
MB@@ 460
McCarthy 460
QL 460
Trươ 460
Vaxili 460
burger 460
group 460
ooh 460
rou@@ 460
vid@@ 460
Ạ 460
Ủa 460
37@@ 459
AG 459
Dom 459
Elton 459
Gant 459
Gutfreund 459
Peabody 459
SK 459
Sem 459
Social 459
TNCN 459
TÁI 459
bốp 459
cad@@ 459
cip@@ 459
ctions 459
dim 459
dạc 459
khụt 459
nhép 459
ole@@ 459
pat@@ 459
y.@@ 459
đười 459
đị@@ 459
ƯỢNG 459
13-16 458
1895 458
Sep@@ 458
Spri@@ 458
Springfield 458
Tyersall 458
bủn 458
called 458
himself 458
lê-@@ 458
poster 458
tw@@ 458
Ô-nê-sim 458
êu 458
ộ 458
-Xin 457
1865 457
Adele 457
Diêm 457
Ebola 457
Elec@@ 457
Ev@@ 457
Guardian 457
Habacúc 457
Hôsê 457
OR 457
Phineas 457
Ronnie 457
Talmud 457
VT 457
Vu 457
Wes 457
Yates 457
borough 457
done 457
eno 457
ngay. 457
quô 457
Ứ 457
297 456
Bowman 456
Charlemagne 456
Dị 456
GDĐT 456
Goldmund 456
Jenkins 456
Laing 456
Mount 456
Rohan 456
Sylvia 456
TRÍ 456
city 456
ging 456
i-- 456
mother 456
sỏ 456
sự. 456
August 455
Buendía 455
CHÍ 455
Cass 455
Cuô 455
Europa 455
Everest 455
MỞ 455
Pavlovich 455
Pis@@ 455
Publishing 455
Rodney 455
Thác 455
UB@@ 455
bble 455
beautiful 455
cocaine 455
course 455
hẫng 455
kinson 455
model 455
nôm 455
rich 455
rộp 455
used 455
ẠI 455
ận. 455
ết@@ 455
Ayane 454
BH@@ 454
Bam@@ 454
Christo@@ 454
Eis@@ 454
Hedwig 454
Jilly 454
Marie-Laure 454
Paraguay 454
Works 454
brook 454
chuy@@ 454
hàu 454
khong 454
max 454
ox@@ 454
rịt 454
3- 453
Cadillac 453
Fili@@ 453
Haley 453
Lon 453
Mariuytx 453
Oromis 453
Pom@@ 453
Suối 453
UNI@@ 453
aire 453
best 453
biế@@ 453
elia 453
húi 453
mis 453
mou@@ 453
một-@@ 453
né@@ 453
quy@@ 453
át-@@ 453
ờ. 453
0x 452
ATP 452
Bếp 452
CHẾT 452
HƠN 452
Hấp 452
Machine 452
Scor@@ 452
aa@@ 452
aul@@ 452
cum 452
lòng. 452
About 451
Angelina 451
B-@@ 451
Cameroon 451
Captain 451
Christianity 451
Hermann 451
KA@@ 451
Lead@@ 451
LỖI 451
McNamara 451
Nicaragua 451
Ninive 451
Og@@ 451
Russ 451
Soc@@ 451
Stor@@ 451
TRẺ 451
Wur@@ 451
coca 451
lyn 451
nheim 451
second 451
tiễu 451
tuất 451
uranium 451
Ácnét 451
Â@@ 451
Ðúng 451
ũ 451
21,@@ 450
Bauer 450
Bitcoin 450
Ekstrom 450
Fos@@ 450
HOÀN 450
Isis 450
Kai@@ 450
Muriel 450
Nemo 450
Nokia 450
Pope 450
SOÁT 450
Sali@@ 450
Uruguay 450
Vứt 450
dee 450
illing 450
leigh 450
sịt 450
Ù@@ 450
áp-@@ 450
ăc 450
Đặng 450
166 449
Arch@@ 449
Chênh 449
Drew 449
Locke 449
March 449
Owens 449
SP@@ 449
Sicilia 449
Vanessa 449
Wig@@ 449
aspirin 449
ché 449
ni-@@ 449
stri@@ 449
tional 449
xuýt 449
ỒNG 449
← 449
99@@ 448
Babbage 448
BẢNG 448
Hê-nóc 448
Hẻm 448
Jol@@ 448
Kemal 448
Knox 448
Korea 448
Lars 448
Neumann 448
Nigel 448
Rune 448
TD 448
THUÊ 448
Weston 448
Zam@@ 448
amen 448
asi 448
better 448
cover 448
gút 448
hấu 448
sm 448
thers 448
under@@ 448
vely 448
vố 448
14.@@ 447
209 447
Caine 447
Eph@@ 447
Mouse 447
Nhục 447
Polo 447
THE 447
Trịnh 447
Versailles 447
Whoo 447
Xu@@ 447
al-Qa 447
green 447
lâu. 447
mũm 447
photo 447
1896 446
400@@ 446
Beli@@ 446
EX@@ 446
Faramir 446
Indi@@ 446
LÊN 446
Nê-@@ 446
Ptolemy 446
Ricky 446
Sound 446
dora 446
erie 446
fall 446
mard 446
ror 446
rờn 446
sters 446
yet 446
đêm. 446
ẹ@@ 446
ẽ@@ 446
177 445
Bean 445
Benedict 445
Brussels 445
Cody 445
Diotallevi 445
KB 445
KGB 445
Kawashima 445
Look 445
Regina 445
Shan@@ 445
Yu 445
abel 445
air@@ 445
chum 445
eline 445
giạt 445
penny 445
ãng 445
7-10 444
747 444
Brooke 444
Bẩm 444
Chai 444
D.C 444
Evgeni 444
Harley 444
Lao-đi-xê 444
Lebedev 444
Lê@@ 444
Stri@@ 444
XDCB 444
fly 444
lườm 444
mm@@ 444
nạm 444
ud 444
6-9 443
Bordeaux 443
Clau@@ 443
Fir@@ 443
Peterburg 443
Trelawney 443
ation@@ 443
chỉn 443
công. 443
dứa 443
number 443
ones 443
õi 443
Ă@@ 443
1898 442
Aztec 442
Caitlin 442
Estha 442
Gibson 442
John-Paul 442
L.A 442
Meredith 442
Pickering 442
Samsôn 442
Spiri@@ 442
Won 442
blah 442
chun 442
chy 442
hiềm 442
iTunes 442
khúm 442
kiko 442
kle 442
nos 442
pu 442
table 442
tâm. 442
zer@@ 442
л@@ 442
162 441
17-19 441
Aki@@ 441
IM@@ 441
Rama 441
Regi@@ 441
Saddleback 441
Seamus 441
Wang 441
Weather 441
ango 441
br@@ 441
trời. 441
Ú 441
Đợt 441
1-19 440
18.@@ 440
1840 440
Davi@@ 440
GIẢ 440
Indian 440
Kyohei 440
Rolling 440
Secret 440
arin 440
chio 440
dock 440
ean 440
god 440
lat 440
poli@@ 440
sụn 440
tăn 440
ởi 440
1815 439
CỐ 439
Ranieri 439
Sports 439
Torres 439
TỐI 439
Where 439
nhẹp 439
veo 439
ẲNG 439
Ợ 439
1868 438
Bridge 438
Chan 438
Dellray 438
Diệu 438
DẦU 438
Free@@ 438
Hê-li 438
Kamp@@ 438
Mission 438
Sco@@ 438
Síp 438
Tang@@ 438
Vol 438
cross 438
hục 438
toria 438
tric@@ 438
tời 438
véc 438
Ách 438
ẹt-@@ 438
1899 437
2,3 437
Ammu 437
BL@@ 437
Brand 437
CHÚ 437
GIÊ 437
Hig@@ 437
Kaoru 437
Khích 437
Lennon 437
Lizaveta 437
Niết 437
Trùng 437
TỐT 437
WE@@ 437
anti 437
gman 437
jay 437
lý. 437
lần. 437
thoắng 437
thóp 437
trẫm 437
AD 436
Control 436
Gap 436
Jeanine 436
Lexington 436
Neill 436
THU@@ 436
URL 436
af 436
nghịt 436
pla@@ 436
rườm 436
ềnh 436
Filippovna 435
Financial 435
Gothic 435
NU@@ 435
Shi-shmi 435
aus 435
ling@@ 435
mê@@ 435
sil@@ 435
wald 435
ụ. 435
-Thế 434
25-26 434
Angola 434
Beta 434
Clayton 434
Gaulle 434
Giê-Xu 434
Montaigne 434
Percey 434
Phelps 434
Psy@@ 434
Vander@@ 434
Winky 434
aman 434
ames 434
fan@@ 434
kw@@ 434
sta 434
tain@@ 434
tằm 434
17.@@ 433
CÙNG 433
Garza 433
Griffin 433
Mang@@ 433
Ontario 433
agape 433
quite 433
Ó@@ 433
1897 432
430 432
55@@ 432
Arafat 432
Avari 432
Bismarck 432
Brennan 432
CƯ 432
DB 432
Dil@@ 432
GIỮA 432
Iron 432
Liếc 432
Liễu 432
Masako 432
Newcastle 432
RT 432
Sche@@ 432
THI@@ 432
Tắm 432
ante 432
bõm 432
chàm 432
lton 432
roy 432
1848 431
ATTP 431
Apache 431
Bronwyn 431
Chốc 431
Clas@@ 431
Head 431
Hầm 431
Koto 431
Musk 431
Nô@@ 431
THẦU 431
Vải 431
chocolate 431
combe 431
hip 431
nguô 431
ppe 431
ress 431
vốc 431
0,000 430
1.500 430
215 430
87@@ 430
AA@@ 430
Aja 430
Bertie 430
Blackwell 430
Chal@@ 430
Elias 430
Family 430
Gờ-réc 430
LÒNG 430
Midori 430
Patsy 430
Rav@@ 430
Trust 430
Uy@@ 430
Water@@ 430
XD 430
Zap@@ 430
ando 430
film 430
hừm 430
láy 430
quark 430
sat 430
tter 430
ue 430
ı@@ 430
ʹ@@ 430
ẮP 430
1-24 429
All@@ 429
Coffey 429
Cài 429
Genève 429
King@@ 429
LGBT 429
Okada 429
Over 429
Take 429
aline 429
boat 429
dal 429
eter@@ 429
gióng 429
media 429
mur 429
nhám 429
vision 429
àng. 429
22,@@ 428
7921 428
Agustin 428
Bli@@ 428
Bravo 428
Cơm 428
Det@@ 428
Eth@@ 428
Falls 428
Fris@@ 428
GIÚP 428
Giê-hu 428
Greek 428
Hoả 428
Management 428
Metro@@ 428
Paolo 428
Peace 428
Store 428
Tánh 428
dềnh 428
gle 428
graphy 428
hr@@ 428
indi@@ 428
kra@@ 428
ng-- 428
oney 428
tiế@@ 428
tress 428
trẽn 428
AP@@ 427
EPC 427
PIXMA 427
Rhys 427
TRỰC 427
Takumi 427
abo@@ 427
bye 427
cate 427
fo 427
iểm 427
nghẽo 427
ngoạm 427
que@@ 427
rù 427
ÓNG 427
Điệp 427
ĐÔ 427
đúp 427
1-25 426
1889 426
259 426
Alam@@ 426
Danube 426
Delaney 426
Ga-@@ 426
Kath@@ 426
Muội 426
Si-na-i 426
Southern 426
Voi 426
Yokohama 426
dẩn 426
iếm 426
láp 426
mà@@ 426
nylon 426
rus 426
soo 426
vac@@ 426
xầm 426
т@@ 426
Angelis 425
Brockbank 425
Ingram 425
KIẾN 425
Lolita 425
MO 425
Matthews 425
Moretti 425
Petrovich 425
Rasheed 425
Trinity 425
VE 425
Vic 425
Wind 425
Xăng 425
ational 425
bino 425
bôn 425
pao 425
theo@@ 425
visa 425
ÊU 425
к@@ 425
� 425
195 424
Dah@@ 424
Dixon 424
Helsing 424
Nad@@ 424
Nakajima 424
Stil@@ 424
Syl@@ 424
TIẾNG 424
Tồn 424
algorithm 424
atus 424
enko 424
eva 424
phos@@ 424
revelation 424
soon 424
tuổi. 424
vity 424
Bertram 423
Brad@@ 423
Ent 423
Eusebius 423
Evangeli@@ 423
Final 423
Gram@@ 423
Jed 423
Koh 423
Pirate 423
Rac@@ 423
Rối 423
Woo 423
anov 423
dington 423
dúm 423
gly@@ 423
iếng 423
mắm 423
mẹ. 423
stead 423
159 422
Bull 422
Cato 422
Kafka 422
KÊ 422
Lans@@ 422
NT@@ 422
Picasso 422
Sin 422
Tasmania 422
V.@@ 422
Vầng 422
bad 422
baum 422
cùa 422
mam@@ 422
poker 422
species 422
ti-@@ 422
Ì 422
š@@ 422
р@@ 422
ẦY 422
167 421
188 421
202 421
Aoyama 421
Petra 421
Raf@@ 421
SI 421
Simmons 421
abri@@ 421
big 421
bos 421
horn 421
ip@@ 421
isha 421
mers 421
nả 421
shed 421
sted 421
thụi 421
trum 421
xa-@@ 421
ôi-@@ 421
ýt 421
ا@@ 421
ộn 421
A-ghê 420
Bingley 420
Citi@@ 420
Cựu-ước 420
Donnie 420
German 420
Levi 420
Na-than 420
Nicolai 420
Stencils 420
Welch 420
ara@@ 420
ayan 420
cookie 420
eBay 420
lard 420
samurai 420
ĐÂY 420
ở. 420
1863 419
7-11 419
8-11 419
Aldaya 419
Birgitta 419
DR 419
Divergent 419
Hansen 419
Imaeda 419
Ivan@@ 419
Kiêu 419
Study 419
Thatcher 419
Waters 419
Watney 419
bowling 419
cc 419
glu@@ 419
gos 419
hoo 419
then@@ 419
đi-văng 419
ē@@ 419
174 418
1885 418
21-23 418
Aram 418
BTTTT 418
Bren@@ 418
Cong@@ 418
Dau@@ 418
Eastern 418
Effie 418
Gào 418
Hanson 418
Jofre 418
Library 418
andy 418
ants 418
ature 418
cru@@ 418
dậy. 418
hoắc 418
kali 418
lõ 418
nhẹt 418
ridge 418
super@@ 418
ware 418
ẮT 418
183 417
197 417
Ain@@ 417
Brah@@ 417
Demerest 417
Flu@@ 417
Giáp 417
Hạch 417
Họp 417
KCN 417
Kirby 417
Rogojin 417
Sham@@ 417
Thỏ 417
VP 417
arch@@ 417
atsu@@ 417
chiện 417
chuyện. 417
flash 417
kếp 417
lằng 417
sea 417
sụa 417
watch 417
zia 417
áo. 417
ừa 417
40.000 416
Arc@@ 416
Cop@@ 416
Edition 416
Fairfax 416
Faw@@ 416
Francon 416
Guy@@ 416
Hotel 416
NHNN@@ 416
Natalia 416
Ngãi 416
NƠI 416
Tạt-sơ 416
Tải 416
oti@@ 416
sán 416
sướt 416
ta-lâng 416
yah 416
ạt-@@ 416
ự@@ 416
7883 415
Assembly 415
Bublanski 415
Gấp 415
LB 415
Piggy 415
Richelieu 415
Scrimgeour 415
bươm 415
giập 415
gông 415
phải. 415
stream 415
wyn 415
ĂM 415
34-@@ 414
Aprile 414
Boromir 414
Hamlet 414
Micha@@ 414
Myrtle 414
NK 414
Nim@@ 414
PHIẾU 414
Palo 414
Public 414
Rel@@ 414
Right 414
Schi@@ 414
TỘI 414
Valencia 414
Vasquez 414
chề 414
ddy 414
eson 414
gallon 414
ites 414
jam@@ 414
khoằm 414
lav 414
nghe. 414
nut 414
par 414
uyê 414
с@@ 414
ẠT 414
-Thưa 413
Aháp 413
Amar@@ 413
Avenue 413
Bertrand 413
Carolyn 413
Championship 413
DoThái 413
Frankenstein 413
Hawking 413
Inca 413
Jabba 413
Jazz 413
Luc@@ 413
Moss 413
NÊN 413
Olivier 413
Pru@@ 413
Serena 413
Sterling 413
Studies 413
Winthrop 413
Wolf@@ 413
bi-a 413
cep@@ 413
eir 413
eli 413
eron 413
giầu 413
hong 413
kilôgam 413
lane 413
let@@ 413
lier 413
log 413
medi@@ 413
mental 413
thêm. 413
uro 413
đơm 413
ẩ@@ 413
ậu 413
Ble@@ 412
Hỗn 412
Jakarta 412
Laden 412
Lé@@ 412
MT@@ 412
RI 412
Rh@@ 412
Rousseau 412
Trơ 412
cci 412
cholesterol 412
free 412
jer@@ 412
mov 412
nhông 412
pit@@ 412
silicon 412
thết 412
đẹp. 412
ẠNH 412
Cornelius 411
Elaine 411
Galilê 411
Gottfried 411
Konakawa 411
Laxarơ 411
Lưới 411
Mann 411
Morning 411
Nanon 411
Quê 411
TJ 411
TX 411
Xinh 411
bie 411
cậu. 411
death 411
father 411
matic 411
on-@@ 411
171 410
Ala@@ 410
Anti 410
Barbicane 410
Brain 410
Course 410
Darren 410
Gauss 410
Laz@@ 410
Philippine 410
Sarawak 410
Scriptures 410
Soci@@ 410
ched 410
eux 410
metal 410
mol 410
shu@@ 410
suyễn 410
tom 410
vè 410
ăng-@@ 410
ất. 410
ững 410
1892 409
66@@ 409
Beirut 409
Bliss 409
CBA 409
Chipenden 409
Cynthia 409
DEA 409
Dialogue 409
Khao 409
Kli@@ 409
Lê-@@ 409
Mackenzie 409
Nashville 409
Pho 409
Quãng 409
Sci@@ 409
Shor@@ 409
Sôi 409
Tahiti 409
Tom@@ 409
Tồi 409
fact 409
ket 409
lag@@ 409
mbo 409
nov 409
rôi 409
sor 409
vức 409
ôt 409
ặm 409
ết-@@ 409
11-14 408
3a 408
Christians 408
Cọp 408
Dag@@ 408
Dep@@ 408
Gate 408
Iberia 408
Jenna 408
Kit 408
Koster 408
Lannister 408
Mags 408
PHI 408
Quebec 408
Ra-chên 408
Sofia 408
Stru@@ 408
Winters 408
ave 408
beau 408
bl@@ 408
bé. 408
cụng 408
eff@@ 408
yu 408
ÂU 408
Đi-@@ 408
Ũ 408
ẬP 408
-Vậy 407
219 407
325 407
Child 407
Hamish 407
Katerina 407
Kro@@ 407
LHQ 407
Savi@@ 407
Six 407
Slav 407
Timor 407
Winchester 407
Xê@@ 407
bet 407
computer 407
ngỗ 407
ond 407
oran 407
oss 407
otte 407
а 407
A-lô 406
Ba-la-am 406
CHUYỆN 406
Cad@@ 406
Centre 406
Fried@@ 406
Lima 406
MD 406
Minnie 406
Mith@@ 406
Ra-@@ 406
Razumikhin 406
Saint-Germain 406
Uzbekistan 406
chêm 406
eci@@ 406
hếch 406
iển 406
spin@@ 406
thỉ 406
tun 406
vọng. 406
zie 406
½ 406
ông@@ 406
õng 406
A-bô-lô 405
Bô@@ 405
Dream 405
Fam@@ 405
Fontaine 405
Gogh 405
Ida 405
Kirwill 405
Miquel 405
Phút 405
ama@@ 405
cop@@ 405
della 405
ườ@@ 405
15.000 404
4-7 404
49@@ 404
6000 404
A-si 404
Acxinhia 404
Arius 404
Bellona 404
Carlson 404
Greenwich 404
Row 404
SM 404
Shelly 404
Volturi 404
com-lê 404
hàng. 404
kor@@ 404
lit 404
nhảu 404
rỗ 404
wit@@ 404
xoi 404
được@@ 404
ẢNH 404
29-@@ 403
331 403
Afri@@ 403
Butter@@ 403
Cand@@ 403
Chart 403
Christi@@ 403
Clarence 403
Doris 403
Langley 403
List 403
Marena 403
NGÀI 403
Nom 403
Nêvađa 403
SE 403
Sex 403
SỨC 403
Tes@@ 403
adrenaline 403
bé@@ 403
large 403
lt 403
m.@@ 403
mẩy 403
ngộp 403
phệ 403
post 403
xus 403
Back@@ 402
Bội 402
Caddy 402
Chang@@ 402
Chặn 402
DÙNG 402
Ella 402
Fitz@@ 402
Market 402
Mozambique 402
Mă 402
Nh 402
Ober@@ 402
Sicilian 402
Sô@@ 402
Yas@@ 402
chard 402
hớ 402
lựng 402
n-- 402
ngoắc 402
ow@@ 402
pH 402
sbury 402
Đê-@@ 402
1871 401
50-@@ 401
Amốt 401
Astr@@ 401
Bon 401
CHRIST 401
Costello 401
Gö@@ 401
Hack@@ 401
Heidi 401
Leone 401
Meh@@ 401
Planet 401
Si-mê-ôn 401
Su-@@ 401
TF 401
TQ 401
Wen@@ 401
Who@@ 401
bua 401
dson 401
hẩm 401
main 401
nikov 401
nệ 401
site 401
thể@@ 401
の@@ 401
Angie 400
Arabella 400
Avi@@ 400
Cohn 400
Dolokhov 400
Doña 400
Ec@@ 400
Freedom 400
Hes@@ 400
Lâ 400
Rhode 400
XNK 400
alpha 400
comes 400
hanh 400
mac@@ 400
nati@@ 400
neu@@ 400
quít 400
sợ. 400
Đỗ 400
ĩ@@ 400
ỒN 400
.- 399
6. 399
Bai@@ 399
CNTT 399
H2@@ 399
Hiromi 399
Lau 399
MIỄN 399
Oblonxki 399
U-@@ 399
Vú 399
Wii 399
roc 399
star@@ 399
sá@@ 399
thal 399
walk 399
Đa-@@ 399
1886 398
222 398
Dwight 398
HA@@ 398
Hoảng 398
Malawi 398
Salem 398
gger 398
rupi 398
tles 398
uốt 398
ẬY 398
16.@@ 397
20,@@ 397
Arabia 397
Bert 397
Cơ-@@ 397
Fitchner 397
Isa@@ 397
KK 397
Matthieu 397
Mick 397
Mỏ 397
Nêbucátnếtsa 397
Pazzi 397
Phelan 397
Soạn 397
Ster@@ 397
Tariq 397
Thận 397
bấc 397
bửu 397
clear 397
jeep 397
master 397
mile 397
obi 397
pper@@ 397
tằn 397
vựa 397
Ðông 397
41-@@ 396
Bagman 396
Dawn 396
Deli@@ 396
Hori@@ 396
Keynes 396
Kẹo 396
Motorola 396
MÀ 396
Sah@@ 396
Slovakia 396
THỬ 396
Taxi 396
Trav@@ 396
deli@@ 396
en-@@ 396
limousine 396
ly-@@ 396
mel 396
sons 396
tơ@@ 396
169 395
196 395
275 395
Asahara 395
Cassandra 395
Computer 395
Davenport 395
Gaia 395
Gel@@ 395
Guam 395
Holocaust 395
Hào 395
La-@@ 395
Liberia 395
Meli@@ 395
Mô-@@ 395
Special 395
Systems 395
Tổn 395
Woman 395
lini 395
lạ. 395
mid@@ 395
natri 395
pes@@ 395
sho 395
za@@ 395
ươ@@ 395
7.000 394
Chil@@ 394
Jonah 394
Juliana 394
MVP 394
Minneapolis 394
Peri@@ 394
Roslin 394
Snitch 394
St.@@ 394
Storm 394
Thiếp 394
Weekly 394
Xtiếcphoóc 394
ander@@ 394
ay. 394
cas 394
door 394
phố. 394
sian 394
sắn 394
text 394
đạ@@ 394
ẤY 394
ợc 394
.org 393
12-15 393
Buênđya 393
Bực 393
CHỮA 393
Crown 393
Klein 393
Rịa 393
SX@@ 393
Shane 393
TCVM 393
Tròn 393
Trùn 393
bau@@ 393
háy 393
ird 393
khô@@ 393
lian 393
pton 393
sius 393
story 393
vec@@ 393
xập 393
213 392
25,@@ 392
3,4 392
Agri@@ 392
Alexandre 392
Anselm 392
Borg 392
Cit@@ 392
Geller 392
Gronevelt 392
Mắc 392
Nebraska 392
Ridge 392
Talbot 392
ard@@ 392
bos@@ 392
chú@@ 392
elin 392
energy 392
francs 392
guil@@ 392
kẽo 392
page 392
phon 392
shall 392
ÂM 392
Đệch 392
ấc 392
-Chào 391
Abdul 391
Bali 391
Battista 391
Caribbean 391
Clutter 391
Fuji@@ 391
GP@@ 391
Glenarvan 391
Jus@@ 391
Lennie 391
Litva 391
Lizzy 391
Phì 391
Portugal 391
Xéo 391
hoắm 391
illian 391
kowski 391
next 391
rith 391
si-@@ 391
thồ 391
thững 391
tạ@@ 391
yeon 391
ẫm 391
1-23 390
110@@ 390
194 390
221 390
235 390
Alli@@ 390
Anime 390
Bergen 390
BĐ@@ 390
Johannesburg 390
Living 390
Monte@@ 390
Mực 390
Nồng 390
Phiến 390
Pyle 390
Rê@@ 390
Si-chem 390
Stock@@ 390
Tuck 390
ag 390
enz@@ 390
giả@@ 390
iler 390
khi@@ 390
ngừi 390
ounds 390
picnic 390
rique 390
witz 390
wn@@ 390
Đêvit 390
1888 389
193 389
BKH 389
Bayern 389
Frances 389
Hawkins 389
Hi-@@ 389
Iw@@ 389
Kelsey 389
Khiêm 389
Logos 389
MỌI 389
Porsche 389
Scandinavia 389
Sok@@ 389
Sừng 389
Thebes 389
Thur@@ 389
Tito 389
Xô@@ 389
cole 389
cỏn 389
ffy 389
l. 389
left 389
lington 389
mi-@@ 389
nghèn 389
oắt 389
đuô 389
ầm. 389
ẫy 389
Bris@@ 388
Cordell 388
EE@@ 388
Economic 388
Hoài 388
Nạp 388
OH 388
Osanai 388
Papua 388
Savannah 388
Scatty 388
akes 388
iếp 388
kar 388
oe 388
Ê-li-@@ 388
ỉm 388
Ố@@ 388
1700 387
1893 387
380 387
AF 387
Albright 387
Boyle 387
CERN 387
Cath@@ 387
Damascus 387
Hubble 387
Ichi@@ 387
Kendrick 387
Kun@@ 387
Kung 387
Naomi 387
PI 387
TIỆN 387
Thắc 387
Toa 387
Tôm 387
bạ@@ 387
eon 387
hall 387
hì 387
illo 387
k. 387
nhom 387
ọe 387
ợn 387
11-15 386
186 386
46-@@ 386
850 386
Alekx@@ 386
Days 386
Duarte 386
Fields 386
Four@@ 386
HOẶC 386
Ili@@ 386
Jim@@ 386
Money 386
Olenska 386
Pyth@@ 386
Unix 386
Xi 386
canxi 386
dic 386
eh@@ 386
enin 386
fish 386
hiện. 386
trường. 386
uố@@ 386
va-li 386
ĐẤU 386
đi-@@ 386
ẤU 386
ẾN 386
14-17 385
198@@ 385
Dio@@ 385
Dutch 385
GU@@ 385
Gardner 385
Jennings 385
Kano 385
Khuyên 385
Light@@ 385
Metho@@ 385
Shinjuku 385
Thấp 385
UNG 385
amine 385
cker@@ 385
enzym 385
evich 385
lb 385
lix 385
nành 385
pot 385
sig@@ 385
trac@@ 385
vợi 385
Ó 385
ác-@@ 385
45-@@ 384
AK 384
Boni@@ 384
Bowl 384
Ca-@@ 384
Candy 384
CẢNG 384
Dri@@ 384
Ekaterina 384
Fouquet 384
Gerard 384
Giô-ách 384
Hand 384
Hé@@ 384
ICO 384
Merrill 384
Ngắm 384
Seneca 384
Tán 384
agawa 384
avan 384
bim 384
natural 384
ngửng 384
pion 384
rôm 384
thương. 384
tx@@ 384
đê@@ 384
ợt 384
19,@@ 383
Armansky 383
Ball 383
CDO 383
Honduras 383
Hy-Lạp 383
Lestrade 383
Lisbon 383
Los@@ 383
Mordor 383
Nes@@ 383
Party 383
Richter 383
Thép 383
Tudor 383
apa 383
band 383
bẹt 383
case 383
chỉa 383
dopamine 383
jar@@ 383
lip 383
med@@ 383
nhú 383
nê-@@ 383
ovich 383
rates 383
sình 383
thia 383
wat@@ 383
Ò 383
òn 383
đỏm 383
Ừa 383
Fli@@ 382
Greene 382
Hoover 382
Jang 382
Julio 382
Per 382
Phar@@ 382
Queensland 382
Thank 382
Water 382
Willi@@ 382
bô@@ 382
cky 382
edo 382
giươ 382
hou@@ 382
lete 382
mani 382
một@@ 382
rance 382
ration 382
sạp 382
úm 382
Ảrập 382
ắt. 382
204 381
Alison 381
Battle 381
BỎ 381
Cincinnati 381
Jax 381
Lặp 381
Munro 381
NUÔI 381
Onitsuka 381
Pharaoh 381
Raw@@ 381
Tyndale 381
Wong 381
aw 381
chổng 381
covenant 381
future 381
217 380
Bavaria 380
Boy@@ 380
Báp-tem 380
Fern 380
Fischer 380
Lois 380
Lost 380
Nhấc 380
RC 380
Tehran 380
Tiêm 380
Tokita 380
bùi 380
cóp 380
ners 380
rov 380
terson 380
vit@@ 380
ƠN 380
ịn 380
8. 379
Alf 379
Cunningham 379
Dora 379
Ferrari 379
Newport 379
Ngai 379
Nice 379
Petya 379
Rip 379
Sayuri 379
Sollozzo 379
Tùng 379
Vay 379
Wah@@ 379
nat@@ 379
once 379
rik 379
rơ@@ 379
zzo 379
ắn. 379
10-13 378
Buồng 378
Cox 378
Enron 378
Giô-sa-phát 378
Hus@@ 378
Parthia 378
Théoden 378
Wil 378
Zuckerman 378
aten 378
choang 378
chũi 378
chểnh 378
lất 378
meg@@ 378
pping 378
-Cái 377
172 377
1820 377
Bastille 377
Evie 377
Khăn 377
LƯỢC 377
atsu 377
cast 377
example 377
ggs 377
lôgic 377
nơ-ron 377
vặc 377
ạp 377
ỐC 377
182 376
196@@ 376
Andre 376
Atlantis 376
Buntaro 376
Hero@@ 376
Hiroshima 376
Nikol@@ 376
Ribbon 376
Rufus 376
Schwartz 376
Smo@@ 376
Stur@@ 376
Thoải 376
Yoon 376
abo 376
eck@@ 376
eong@@ 376
html 376
joy 376
nguỵ 376
phốt 376
pur 376
óa 376
10,000 375
1867 375
Abbott 375
BI 375
Canyon 375
Himalaya 375
Marcia 375
Nhộng 375
Sharp 375
TL@@ 375
Watchtower 375
chảng 375
gard 375
grad 375
pet@@ 375
trét 375
ün@@ 375
ĐÁP 375
д@@ 375
ẹn 375
ịt 375
AU 374
Adelaide 374
Annette 374
Brigham 374
Chaplin 374
Corp 374
EC 374
Fidel 374
Gay@@ 374
Henrietta 374
HẠ 374
Kiku@@ 374
Kni@@ 374
Liberty 374
Lot@@ 374
Makoto 374
N1 374
SL@@ 374
Scan@@ 374
Vermont 374
Vidal 374
Zambia 374
bèo 374
cotton 374
dn 374
eries 374
ga-ra 374
ig 374
rs 374
sake 374
than@@ 374
thích. 374
wow 374
zation 374
Đầm 374
ần-@@ 374
Ếch 374
ỗ@@ 374
-Nó 373
199 373
Aurora 373
Barack 373
Bazin 373
Dos@@ 373
Ges@@ 373
LỆNH 373
LỰA 373
Nathaniel 373
QT 373
Sê-đê-kia 373
VH@@ 373
ahara 373
biệt. 373
bà@@ 373
iềm 373
má@@ 373
nothing 373
xồm 373
Êđôm 373
ér@@ 373
1b 372
480 372
7. 372
API 372
Annika 372
BAY 372
Gertrude 372
Giê-sa-bên 372
Herman 372
Ippolit 372
Klamm 372
Language 372
Liền 372
Pass@@ 372
Randolph 372
Sergei 372
Sing 372
Sinskey 372
Thính 372
View 372
Zhang 372
acon 372
cở 372
full 372
hùn 372
kas@@ 372
lap@@ 372
mani@@ 372
mếch 372
nghêu 372
risti@@ 372
rius 372
server 372
tage 372
til@@ 372
ÂY 372
ña 372
óm 372
ôliu 372
................@@ 371
401 371
Auschwitz 371
Call 371
Chư 371
Kellogg 371
Kem 371
Merlyn 371
Mitsuru 371
NỢ 371
Rudolf 371
akh@@ 371
bers 371
ind@@ 371
lows 371
vey 371
ÓC 371
22-24 370
Ach@@ 370
Analy@@ 370
BGDĐT 370
Bourbon 370
Bận 370
Codex 370
Graff 370
Hella 370
Hung@@ 370
Limited 370
Mind 370
MẠNG 370
Nairobi 370
Phê-lít 370
Pier@@ 370
Popu@@ 370
Ru-bên 370
Turgut 370
Wycliffe 370
ake@@ 370
lone 370
ngố 370
nhột 370
wan@@ 370
ĐTM 370
1879 369
Act 369
Country 369
Feder@@ 369
Fus@@ 369
Gania 369
Hoo@@ 369
HÔ 369
Hảo 369
ISA 369
Jé@@ 369
Kobe 369
Latvia 369
Lơ 369
Nấm 369
Ré@@ 369
Sty@@ 369
Sugar 369
Thạc 369
Varenca 369
anic 369
ava@@ 369
ethical 369
everything 369
genes 369
lườn 369
plu@@ 369
respon@@ 369
wy 369
в@@ 369
ẽ. 369
ị. 369
Ỗ 369
ựu 369
-Cậu 368
179 368
1894 368
25.000 368
Ahh 368
Armand 368
Austr@@ 368
Camera 368
Claudius 368
Fis@@ 368
Gaga 368
IF@@ 368
Kazuko 368
Lockwood 368
MURAKAMI 368
Pier 368
Rodrigo 368
Sellito 368
Sen 368
Small 368
Spring 368
Sven 368
SƯ 368
These 368
Trúng 368
cr@@ 368
garage 368
mba 368
nar 368
zing 368
áp@@ 368
ẹc 368
29-30 367
Ames 367
Antichrist 367
Bain 367
Cap 367
Cathcart 367
Et@@ 367
FO 367
GIỮ 367
Hillary 367
Islam 367
Jody 367
Mâu 367
Oakland 367
Phô 367
Sheri@@ 367
TU 367
Zen@@ 367
ather@@ 367
color 367
derman 367
dra 367
eti 367
oà 367
reg@@ 367
sem@@ 367
sis@@ 367
ôp 367
Đón 367
ạy 367
.......... 366
9-12 366
Apple@@ 366
Burns 366
BÌA 366
Caballo 366
Calcutta 366
Cedar 366
Choi 366
Fredri@@ 366
Gad@@ 366
Kami@@ 366
Libby 366
Phê@@ 366
Robby 366
Singo 366
THẤY 366
Thoáng 366
Thổi 366
Vây 366
Yoo 366
deo 366
gus 366
gấm 366
nhíp 366
sic 366
version 366
yton 366
ères 366
ũng 366
ι@@ 366
25-27 365
2500 365
Amal@@ 365
Antiốt 365
BAO 365
Beau 365
Constantin 365
Cornell 365
Hối 365
Leningrad 365
Lissy 365
McCullough 365
Mei 365
Nâu 365
Pay@@ 365
RAM 365
Rosalind 365
Rosamund 365
Shimamura 365
Tech 365
VSATTP 365
XEM 365
balô 365
chút. 365
feel 365
knew 365
nard 365
ngải 365
ques 365
rant 365
tag 365
tria 365
visi@@ 365
Â 365
ẦN 365
........................@@ 364
1861 364
3-6 364
Barton 364
Bhu@@ 364
Carla 364
Fish 364
Five 364
Irenaeus 364
Luster 364
Normandy 364
Nút 364
Oper@@ 364
Shauna 364
Taj 364
Voyager 364
bĩnh 364
dẽ 364
este 364
ngợ 364
oku 364
sa-@@ 364
sand@@ 364
wind 364
xa. 364
yan@@ 364
Á-u 364
197@@ 363
206 363
Bati@@ 363
Buzz 363
Chiba 363
Chron@@ 363
Fé@@ 363
GP 363
Germain 363
HA 363
Kurd 363
Liều 363
Macri 363
Mug@@ 363
Nã 363
Nê-mô 363
Osiris 363
Rothschild 363
Stro@@ 363
Tú 363
Wiki@@ 363
beli@@ 363
dh@@ 363
emb@@ 363
hiko 363
le-@@ 363
person 363
quĩ 363
river 363
though 363
together 363
understand 363
yp@@ 363
ơi. 363
ắc-@@ 363
AF@@ 362
Alberto 362
BER@@ 362
Fannie 362
Fat@@ 362
Gươm 362
Hố 362
Irving 362
Kahn 362
Khôi 362
Kristen 362
Map 362
Mikael 362
Parks 362
Sadako 362
Sain@@ 362
Sakh-el-Bahr 362
TL 362
UN 362
beca 362
cườm 362
ica 362
mina 362
talk 362
tiền. 362
told 362
watt 362
ĐI@@ 362
Amar 361
Andolini 361
Anti-christ 361
Buntruc 361
Bên-@@ 361
COM 361
Job 361
Kaiser 361
Kellan 361
MacArthur 361
Magellan 361
Mellery 361
Segundo 361
TCT 361
Turin 361
Vau@@ 361
date 361
fur 361
known 361
tore 361
zen@@ 361
zin 361
để@@ 361
ểm 361
27-28 360
Bass 360
Bres@@ 360
BÀN 360
F.C. 360
Future 360
Ivo 360
Jun 360
Mortimer 360
PC@@ 360
Ra-háp 360
Spo@@ 360
Weber 360
Willard 360
Yang 360
alone 360
bol@@ 360
chner 360
của@@ 360
eles 360
gran@@ 360
hon@@ 360
means 360
muốn. 360
ols 360
ÁNG 360
éc-@@ 360
Đơ 360
ịch 360
1891 359
Assyria 359
Band 359
Concer@@ 359
Deb 359
GHI 359
Gò 359
Hell 359
Hess 359
ISBN 359
Murat 359
NBA 359
Quất 359
Republic 359
SEC 359
SM@@ 359
Sid 359
TRANSLTR 359
Thô 359
VN@@ 359
agi@@ 359
geo@@ 359
ico 359
mah 359
pô 359
wers 359
Ðáng 359
Đắk 359
ổ. 359
75@@ 358
Anato@@ 358
Edwin 358
Ein@@ 358
Henderson 358
HĐBT 358
Morwena 358
Moun@@ 358
Po 358
Ravenclaw 358
Vac@@ 358
ahl 358
aster 358
cut 358
ecker 358
enka 358
eves 358
gạ 358
hiểu. 358
mean 358
nica 358
vara 358
vel 358
ο@@ 358
1789 357
1814 357
198 357
Chau@@ 357
Der 357
GCNKNCM 357
HOA 357
Hô@@ 357
Lana 357
Mù 357
Nanh 357
Omega 357
Salt 357
Stevenson 357
Tiberius 357
Wool@@ 357
aan 357
bô-@@ 357
emin@@ 357
ont 357
ory 357
1884 356
Ahmed 356
Baldwin 356
BƯỚC 356
Emmanuel 356
Kev 356
La-ban 356
Lặng 356
Masters 356
Oo@@ 356
Phạn 356
Rú 356
Sheila 356
Urgal 356
bi-@@ 356
dấm 356
ech@@ 356
giòi 356
laze 356
logistics 356
sur 356
tiên. 356
tke 356
u.@@ 356
vă 356
ë@@ 356
ắc. 356
1m 355
BTO 355
Cove 355
Cron@@ 355
FE@@ 355
Lev 355
Link 355
MAV 355
Nhánh 355
Opal 355
Piper 355
S.H.I.E.L.D. 355
cau@@ 355
data 355
fil@@ 355
hecta 355
kilomet 355
méc 355
nhản 355
nhẫy 355
ral@@ 355
ràn 355
rồ@@ 355
sởi 355
tile 355
viêc 355
,000 354
Baz@@ 354
Bolshevik 354
Clemen@@ 354
DWT 354
DẠY 354
Higgs 354
Khát 354
LP 354
Lind@@ 354
Macmillan 354
Mass 354
MÃ 354
Raisa 354
Seven 354
Spears 354
TP@@ 354
TW@@ 354
chõ 354
ee@@ 354
ffin 354
mur@@ 354
nổi. 354
pov 354
tố@@ 354
vas 354
wy@@ 354
éon 354
ùm 354
đổi. 354
Emil 353
Hm 353
Hz 353
Hếp 353
Lucania 353
Mỹ. 353
Pizza 353
Polycarp 353
Prague 353
Santo 353
Thelma 353
Wad@@ 353
apo@@ 353
bla@@ 353
chên 353
h30 353
mẩm 353
phóc 353
stan 353
stock 353
tr. 353
vas@@ 353
vation 353
Éomer 353
ỞI 353
-Phải 352
586 352
84@@ 352
Andreas 352
CDC 352
Elisabeth 352
Hưởng 352
Kikuji 352
Minas 352
Mát 352
Ngốc 352
Senba 352
black 352
bơ@@ 352
dow 352
eko 352
esi@@ 352
hừ 352
jet 352
nây 352
ssi@@ 352
stadt 352
tau@@ 352
wo 352
yang 352
Ế 352
1887 351
214 351
Aljaska 351
Benson 351
Christ. 351
Dog 351
Eli 351
Eunice 351
Genoa 351
HK 351
Hart 351
Lic@@ 351
Loa 351
Olivetti 351
Portella 351
Shockley 351
Skeeter 351
Skye 351
THÂN 351
Trip 351
Tro 351
Walmart 351
bis 351
bol 351
creation 351
esse 351
fully 351
gle@@ 351
stro@@ 351
thea 351
ỏa 351
Ốc 351
ỪA 351
1864 350
Adam@@ 350
Cartwright 350
Cay@@ 350
Delacroix 350
Glas@@ 350
K.@@ 350
Leipzig 350
Lyndon 350
Next 350
Od@@ 350
Oly@@ 350
Pomp@@ 350
Reuters 350
Rit@@ 350
Septuagint 350
Suez 350
Thuần 350
Winter@@ 350
abi@@ 350
akov 350
alli@@ 350
call 350
chester 350
chấy 350
chịu. 350
hằm 350
ican 350
ink 350
lins 350
out@@ 350
rina 350
science 350
sit 350
xê@@ 350
xĩnh 350
íc 350
đế@@ 350
ρ@@ 350
A-cha 349
AIS 349
Annu@@ 349
Bed@@ 349
Bê-tha-ni 349
CHU@@ 349
Cham 349
Every@@ 349
Ferris 349
Ghen 349
Ghê@@ 349
Jeeves 349
Kí 349
Lego 349
NGHĨ 349
Netflix 349
Rey 349
SON 349
Ya 349
achi 349
bòn 349
chình 349
giảo 349
hau 349
iss 349
khov 349
tial 349
Đâm 349
ại. 349
ỔI 349
1873 348
300.000 348
8.000 348
Block 348
Brunei 348
CAN 348
DUY 348
Delaware 348
Eân 348
Fargo 348
Giép 348
Giật 348
Ily@@ 348
KV 348
Koh@@ 348
McC@@ 348
Nhảm 348
Pren@@ 348
Quyến 348
Stylus 348
TCTCVM 348
Thâm 348
café 348
ght@@ 348
ilia 348
jec@@ 348
lê@@ 348
ngụp 348
wi 348
Ô-li-ve 348
ình@@ 348
31-32 347
59@@ 347
Baden 347
Berry 347
Bologna 347
Griphook 347
Jewish 347
PHỐI 347
Stars 347
TRI 347
TRÁI 347
ahu 347
ards 347
bic 347
eder@@ 347
ined 347
mt 347
sine 347
today 347
ìu 347
ếu 347
1862 346
Bolton 346
Bùm 346
Cheryl 346
DU 346
Etienne 346
Gauvain 346
HTX 346
Lab 346
Mall 346
Ni-@@ 346
Okonkwo 346
Oswald 346
Otsuka 346
Saturn 346
UTC 346
Watanabe 346
Wild 346
Xâm 346
aris 346
cao. 346
dea 346
dol@@ 346
dore 346
hậm 346
khui 346
leen 346
mên 346
news 346
quèn 346
rớm 346
tch@@ 346
Ðã 346
290 345
Chinese 345
Circle 345
Edo 345
FOR@@ 345
Kristoll 345
Lund@@ 345
Magdal@@ 345
MiG 345
Nắng 345
Petrus 345
SH 345
Wilder 345
b. 345
enburg 345
eph@@ 345
isse 345
kW 345
lìn 345
nou@@ 345
sat@@ 345
thor 345
tron@@ 345
tọt 345
Át 345
Ạc-ríp-ba 345
-Thật 344
19.@@ 344
333 344
Asian 344
Britain 344
Bơi 344
Clovis 344
Eiffel 344
Gustav 344
Hệt 344
Jaw@@ 344
Lucien 344
Mikhailovna 344
Museum 344
N-@@ 344
Neal 344
Niger 344
Niki 344
Noi 344
Setsuko 344
Tamil 344
Traynor 344
TÔ 344
aver@@ 344
dre 344
enna 344
hrer 344
hà@@ 344
hống 344
ket@@ 344
khỏ@@ 344
mand@@ 344
ony@@ 344
phy 344
spin 344
1881 343
20-22 343
24,@@ 343
Bagheera 343
Euph@@ 343
Hill@@ 343
Maudie 343
MƯỜI 343
Planck 343
Power@@ 343
Regu@@ 343
Sết 343
Zoom 343
asaki 343
kland 343
loy 343
phiu 343
sù 343
took 343
ushi@@ 343
Đính 343
đênh 343
τ@@ 343
Ị@@ 343
Arts 342
Beo@@ 342
Bút 342
Cele@@ 342
Ginger 342
Gover@@ 342
Hegel 342
Jab@@ 342
Jade 342
Joanna 342
Krishna 342
Lep@@ 342
Macao 342
Marathon 342
Matilda 342
Mister 342
SARS 342
Tả 342
Wri@@ 342
believe 342
boro 342
dot 342
gency 342
hl 342
ll@@ 342
lux 342
lốn 342
quanh. 342
thếch 342
áu 342
êng 342
12-17 341
1869 341
A-thên 341
Brendan 341
CG 341
DY 341
Evil 341
Experi@@ 341
Galapagos 341
Goodman 341
Hilton 341
IỆT 341
KING 341
Kingship 341
Klee 341
Kron@@ 341
Lak@@ 341
Levy 341
Lucifer 341
Rafael 341
SO 341
Sec@@ 341
acet@@ 341
chenko 341
dio@@ 341
ira 341
lềnh 341
lỏn 341
mini@@ 341
mô-@@ 341
ngót 341
nhạnh 341
nã@@ 341
pounds 341
thân. 341
zza 341
Đẳng 341
Ố 341
12-16 340
218 340
AY 340
Autriche 340
Bath 340
Dat@@ 340
Dowd 340
Eff@@ 340
Fair 340
Lidia 340
Moriarty 340
Nặng 340
Pendle 340
Software 340
Vu@@ 340
Zuckerberg 340
eric 340
quẩy 340
rt 340
verse 340
203 339
Ag 339
Allen@@ 339
Augus@@ 339
Barceló 339
Busan 339
Dolarhyde 339
Edna 339
Eriko 339
Gle@@ 339
Gyeong@@ 339
Ice 339
Lật 339
Nhu@@ 339
OF 339
Rakitin 339
Raven@@ 339
Rochefort 339
Search 339
Vangiăng 339
Warri@@ 339
arius 339
arti@@ 339
ds@@ 339
dă 339
eon@@ 339
gas@@ 339
hai. 339
phót 339
polo 339
ril 339
sli@@ 339
tery 339
une 339
ène 339
ì. 339
ĐOÀN 339
301 338
Beckett 338
Grimalkin 338
Guinness 338
HN 338
Jaguar 338
Joanne 338
Kowalski 338
Nicôđem 338
Philát 338
Qur 338
Rạp 338
Saunière 338
Sauron 338
ason 338
bes@@ 338
ebo 338
evin 338
final 338
hart 338
inia 338
kes@@ 338
khơ 338
réc 338
sical 338
track 338
tó@@ 338
tậu 338
ÀO 338
ÁM 338
ĐA 338
ƯỢ@@ 338
1400 337
361 337
85@@ 337
Amos 337
Are@@ 337
Báptêm 337
Champions 337
Chevy 337
Gou@@ 337
Hawksley 337
Mashiba 337
Moira 337
Mênchixêđéc 337
NHIỀU 337
Newfoundland 337
OECD 337
Ollie 337
Pa-lét-tin 337
Pet 337
ROM 337
Râ 337
SHI@@ 337
Semi@@ 337
Shan 337
Shel@@ 337
Susannah 337
VÔ 337
Yon@@ 337
Zer@@ 337
cac@@ 337
etic 337
gers 337
lic 337
nhễ 337
1882 336
32@@ 336
Aron@@ 336
Bahamas 336
Cauvignac 336
CŨNG 336
Diony@@ 336
Dơi 336
Ewell 336
Fox@@ 336
Gởi 336
Hae 336
Heinrici 336
Justice 336
Lagos 336
Ngưng 336
Petr 336
Phê-tu 336
RỪNG 336
ST@@ 336
Sumatra 336
TCPH 336
TƯƠNG 336
VND 336
Worth 336
aven@@ 336
clorua 336
craft 336
elman 336
kill 336
lich 336
luông 336
niệu 336
non@@ 336
rê-@@ 336
ß@@ 336
÷ 336
độp 336
ưở@@ 336
ẾU 336
ỗ 336
ỨC 336
-2 335
-Đúng 335
39-@@ 335
Bahr 335
Banner 335
Caer 335
Dus@@ 335
Eguchi 335
Falcon 335
Francis@@ 335
Giorgio 335
IỆM 335
Kenyon 335
LAUG@@ 335
Mara 335
McCartney 335
Nestlé 335
Oline 335
Pasteur 335
Thản 335
U. 335
Wal-Mart 335
Woodell 335
andra 335
bourne 335
dges 335
h-@@ 335
iệt 335
keep 335
morphine 335
nghỉm 335
ngài. 335
ninja 335
sense 335
thừ 335
tôi@@ 335
vể 335
witcher 335
zburg 335
đĩnh 335
ỵ@@ 335
Bic@@ 334
Bột 334
Crowe 334
Cản 334
Granger 334
Hawk 334
Lenz 334
Ma-đi-an 334
Misa 334
NHK 334
Ramon 334
Religion 334
Slovenia 334
Swan 334
Sải 334
beth 334
bàn. 334
dley 334
hội. 334
iti 334
mode 334
ngoét 334
pect 334
sơmi 334
và-@@ 334
âng 334
ĐỦ 334
ĩa 334
Adel@@ 333
Anglo 333
Aspanu 333
Cicero 333
Dê 333
Kazunari 333
Lem@@ 333
McMurdo 333
Nghèo 333
Sméagol 333
Vista 333
Woolf 333
Xa-chê 333
YH@@ 333
aly 333
ches@@ 333
es. 333
fen@@ 333
la. 333
nhau@@ 333
phui 333
plus 333
xuể 333
yeong 333
yne 333
ÚT 333
24-27 332
256 332
4a 332
Aw 332
Bái 332
Calab@@ 332
Chechnya 332
Edi@@ 332
Fenoglio 332
Gorbachev 332
Ket@@ 332
MAN 332
MÔN 332
Oracle 332
Robbins 332
Sama 332
Sweet 332
Technology 332
Thames 332
Trish 332
Tw@@ 332
TÍCH 332
VIỆN 332
Weiss 332
atu@@ 332
có-@@ 332
fin 332
hình. 332
hể 332
ln 332
luộm 332
mate 332
nhận. 332
nhụa 332
phen@@ 332
thuộm 332
thùa 332
tư@@ 332
ush 332
ux 332
why 332
xel 332
ùng. 332
α 332
Ắt 332
ỹ 332
Alia 331
Brandt 331
Collie 331
Daryl 331
Hey@@ 331
Hokkaido 331
HÒA 331
Jeo@@ 331
Mavis 331
Merri@@ 331
MẠNH 331
Mầy 331
Northern 331
Part 331
Rach 331
Row@@ 331
Shasta 331
Some@@ 331
Valerie 331
Wennerstrom 331
Xvyajxki 331
active 331
akura 331
bright 331
cin 331
col 331
exp@@ 331
heli 331
mara 331
ngườ@@ 331
suỵt 331
toni@@ 331
zan@@ 331
đư@@ 331
đầ@@ 331
ả. 331
ỀU 331
Ỡ 331
Ụ@@ 331
-Bà 330
191 330
APA 330
Albany 330
Barclay 330
Giê-hô-gia-@@ 330
Greyback 330
Gáp-ri-ên 330
Hancock 330
Ignatius 330
Karamazov 330
Laurie 330
Oppenheimer 330
Ord@@ 330
PTNT 330
Ráng 330
Sach@@ 330
Siegel 330
TTr 330
Viêm 330
Watts 330
ardo 330
bone 330
dả 330
esus 330
gic 330
important 330
iề@@ 330
kings 330
lữa 330
mund 330
quành 330
sụm 330
tres 330
ÚC 330
ör@@ 330
Ủng 330
ựng 330
216 329
3,5 329
69@@ 329
BAR 329
BG 329
Basque 329
Belli@@ 329
Boo 329
CNG 329
Catholic 329
Devon 329
Douglass 329
Eri 329
Hotch 329
Introduction 329
Leong 329
Lược 329
Mail 329
Miyashita 329
Morocco 329
Munger 329
Ngà 329
RY 329
Re 329
Reggie 329
Saw@@ 329
Takahashi 329
Trộm 329
Valentina 329
aph@@ 329
enough 329
kai@@ 329
kaki 329
later 329
mạ@@ 329
rid 329
xè 329
Êxêchia 329
ł@@ 329
-Ừ 328
1m@@ 328
2x 328
Aer@@ 328
Aryan 328
Billi@@ 328
Chạm 328
Damien 328
Giuseppe 328
Kochamma 328
Leyte 328
Lutheran 328
LỚN 328
Ramée 328
Tori 328
Type 328
Zack 328
demo 328
kura 328
loy@@ 328
pur@@ 328
rou 328
thor@@ 328
tuýt 328
ét@@ 328
ính 328
ĐÍCH 328
đùn 328
đủi 328
ừng. 328
00-@@ 327
173 327
312 327
Baron 327
Bart 327
Bát-sê-ba 327
Capulet 327
Gamble 327
Georgetown 327
Gina 327
Goebbels 327
Gould 327
Gô-@@ 327
Herodotus 327
Johanssen 327
Lancaster 327
Lansky 327
Montenegro 327
ROMEO 327
Radley 327
Sli@@ 327
Thai 327
Thạnh 327
Tully 327
aling 327
aver 327
dwell 327
eley 327
etsu 327
nature 327
nhắt 327
present 327
sượng 327
thúi 327
tược 327
± 327
ãnh 327
ン@@ 327
1-26 326
500.000 326
54@@ 326
Abigail 326
Bọ 326
Clifford 326
Flam@@ 326
Frei@@ 326
Havard 326
Ibn 326
Interpol 326
NO 326
Naxarét 326
Nađia 326
President 326
S.T.A.@@ 326
Tench 326
Thá@@ 326
bara 326
cini 326
cơ@@ 326
fell 326
fred 326
kt 326
nel@@ 326
ood@@ 326
ppo@@ 326
thá@@ 326
thúng 326
usa 326
vẻo 326
ÀN 326
á-@@ 326
30-31 325
Albuquerque 325
Araminta 325
Bush@@ 325
Chantal 325
Euler 325
Fortu@@ 325
HBS 325
Lati@@ 325
Linnet 325
Masa 325
Măng 325
Pasadena 325
Rhe@@ 325
Simôn 325
Tammy 325
dion 325
diếp 325
ema 325
given 325
nỏ 325
on. 325
thành. 325
toàn. 325
Âu-Á 325
Ì@@ 325
Ứ@@ 325
................................................................@@ 324
Alliance 324
Ash 324
Carver 324
Constantinopolis 324
Discovery 324
Glock 324
Industries 324
Logic 324
Marina 324
Mex@@ 324
Myriam 324
Napoli 324
Pai@@ 324
Photo 324
Professor 324
SK@@ 324
Samoa 324
Stern 324
Svensson 324
Sâm 324
Trễ 324
Ugh 324
Yorker 324
aqu@@ 324
esis 324
sa-bát 324
sions 324
space 324
standing 324
sã 324
só@@ 324
tiếm 324
Áng 324
Ðan 324
ẬT 324
ờng 324
ục. 324
ửa 324
1875 323
253 323
44-@@ 323
Bermuda 323
Dartmouth 323
Gallagher 323
Gaz@@ 323
God@@ 323
Michê 323
Morton 323
Mích 323
Nhiễm 323
QH@@ 323
Trán 323
TẦNG 323
ayama 323
bả@@ 323
dai@@ 323
lạn 323
mor 323
phine 323
phét 323
tak@@ 323
tte 323
viet@@ 323
wh@@ 323
zombie 323
Êđen 323
ò. 323
Đam 323
Đe 323
ạt. 323
Aff@@ 322
Aron 322
Blon@@ 322
Chép 322
Côdét 322
Direc@@ 322
Eustace 322
Exp@@ 322
Franck 322
Fuku@@ 322
Giấu 322
HIỆP 322
Her 322
Lodge 322
Taru 322
Woo@@ 322
ago@@ 322
blue 322
cc@@ 322
chuy 322
ip 322
kiết 322
lèn 322
nak 322
ngựa. 322
nhẹm 322
rỉa 322
sar 322
scher 322
turned 322
1883 321
5-11 321
56@@ 321
Berengar 321
Cưỡng 321
Dalton 321
Dollar 321
Gang@@ 321
Giôên 321
Hy-@@ 321
Jodie 321
Konrad 321
Mẩu 321
NHTM 321
Quỉ 321
Roffe 321
Sforza 321
Sukhvinder 321
Swindoll 321
Tục 321
ahn 321
contr@@ 321
hẵn 321
may@@ 321
posi@@ 321
rol 321
start 321
stic 321
ton. 321
written 321
đồ@@ 321
ơn. 321
ất@@ 321
520 320
ATA 320
Ba-bên 320
Chắn 320
Mê-đi 320
Nellie 320
Only 320
Roche 320
Seymour 320
Shanker 320
Taiko 320
Twain 320
VR 320
Vâng. 320
Yoga 320
cello 320
chúng@@ 320
chạn 320
cẫng 320
essler 320
ha-@@ 320
hỏ@@ 320
is-@@ 320
lô-@@ 320
mặ@@ 320
nơ@@ 320
self 320
vắc-xin 320
yêu. 320
ş@@ 320
1776 319
18-21 319
2.500 319
Algérie 319
Chiêu 319
Cortez 319
EVA 319
Gener@@ 319
Hull 319
Hề 319
KHIẾU 319
Karlsson 319
Lolly 319
Lopez 319
Main@@ 319
Midge 319
Raphaël 319
Rác 319
Scotty 319
acher 319
ao-@@ 319
brother 319
corn 319
gái. 319
iến 319
kit@@ 319
mato@@ 319
nee 319
ây-@@ 319
ð 319
ĐÓNG 319
ƯỢC 319
ập. 319
ẻ@@ 319
ỐT 319
238 318
Anselmo 318
Blanchard 318
Britannica 318
Dominic 318
Fe 318
Giu-@@ 318
Grammy 318
Horst 318
Lô@@ 318
Mary@@ 318
Mâ 318
Never 318
Non 318
Orrin 318
Súc 318
Translation 318
Trấn 318
ahan 318
aylor 318
front 318
ild 318
khấp 318
um@@ 318
uyền 318
vừng 318
white 318
zh@@ 318
ít-@@ 318
č@@ 318
đúa 318
ẶNG 318
2-5 317
5-9 317
Bee 317
Chưởng 317
Eisman 317
HAY 317
Histo@@ 317
KHO@@ 317
Monaco 317
Mấu 317
Oprah 317
P-@@ 317
Rochelle 317
Shelton 317
Thao 317
VE@@ 317
WO@@ 317
Walden 317
Yoshio 317
ask 317
ester 317
hơ@@ 317
ila 317
lo-@@ 317
lord 317
nag@@ 317
nă@@ 317
steroid 317
ịnh 317
ỢI 317
58@@ 316
Anatol 316
Asc@@ 316
Boggs 316
Bright 316
Báp@@ 316
Carlyle 316
Charisse 316
Das@@ 316
Database 316
Escobar 316
Hopper 316
Hoth 316
JE@@ 316
MUỐN 316
Ming 316
NFL 316
PRI@@ 316
Rabbit 316
Rhun 316
Seo 316
Tem 316
TẦM 316
Valls 316
XIN 316
annes 316
cis 316
few 316
jor@@ 316
knowledge 316
mph@@ 316
nhựt 316
pac@@ 316
quác 316
rợp 316
soul 316
system 316
vio 316
É 316
-Đó 315
Bohemia 315
Camila 315
Chrestomanci 315
Council 315
Demosthenes 315
DƯỠNG 315
Havana 315
Hèn 315
JA@@ 315
Jour@@ 315
Kiri@@ 315
Krit 315
Li-@@ 315
Mansfield 315
NHAU 315
Northu@@ 315
NẾU 315
Ri 315
Sculley 315
Smi@@ 315
Soviet 315
Spinoza 315
Web@@ 315
ague 315
aki@@ 315
atar 315
edle 315
mun@@ 315
nah 315
phanes 315
trấu 315
xem. 315
ũ@@ 315
ốt. 315
310 314
311 314
CRU 314
Carbone 314
Chernobyl 314
Cis@@ 314
Fang 314
Gem@@ 314
Heikichi 314
Institu@@ 314
Jennie 314
Ka 314
Lay@@ 314
Lia 314
Naga 314
Nhặt 314
Pris@@ 314
Some 314
Trăm 314
Verde 314
cời 314
iể@@ 314
lip@@ 314
mạnh. 314
nê@@ 314
pard 314
peso 314
rica 314
á. 314
ẳm 314
Ế@@ 314
2b 313
5,6 313
Ambrose 313
Ander@@ 313
Argen@@ 313
BO 313
Burt 313
Candor 313
DAR@@ 313
Euclid 313
Grand@@ 313
Guerrero 313
Jas@@ 313
Krebs 313
Make 313
Mundungus 313
NGAY 313
Nín 313
Ollivander 313
Prokofievna 313
Robespierre 313
SCN 313
Si-đôn 313
Stal@@ 313
Trinidad 313
Táo 313
cian 313
lào 313
lụn 313
menu 313
modern 313
nữ@@ 313
oid 313
pharaon 313
rison 313
scape 313
tút 313
xịch 313
ĐỪNG 313
15-20 312
1876 312
19-22 312
26,@@ 312
340 312
Ark 312
CỤC 312
Doctor 312
Dunia 312
Fell 312
Gay 312
Gít 312
HTML 312
LT 312
Lavender 312
Lân 312
Mila 312
Nagoya 312
Nichols 312
PH 312
Pepper 312
Pi 312
Suc@@ 312
Sạch 312
Uh-huh 312
ection 312
eger 312
emia 312
hat 312
hiểm. 312
lius 312
lú 312
open 312
quạu 312
rage 312
ró 312
tõm 312
xìu 312
Ðược 312
ε@@ 312
Cưới 311
Eleseus 311
Estr@@ 311
Everett 311
Fit@@ 311
GI 311
Gạch 311
Inv@@ 311
Kettering 311
Khoang 311
LES 311
NGUY 311
PLA@@ 311
Rober@@ 311
Saud 311
Script 311
Skyler 311
SĨ 311
Viet@@ 311
Webber 311
Wir@@ 311
azaki 311
base 311
c- 311
common 311
corona 311
didn 311
eme 311
eok 311
ga-@@ 311
ilo 311
kley 311
mana 311
sins 311
sổ. 311
vera 311
Êtiên 311
Ðộ 311
đệt 311
ội. 311
ỨA 311
3-8 310
Addy 310
Aouda 310
Athanasius 310
Brun@@ 310
Cherokee 310
Chẩn 310
Command 310
Elrond 310
Have 310
Holt 310
Indus@@ 310
Japanese 310
KHÁM 310
Montr@@ 310
Oki 310
Penélope 310
Plymouth 310
QUẢNG 310
Skype 310
Sunni 310
Sylar 310
Thuở 310
Thấu 310
Whis@@ 310
cậ@@ 310
hot@@ 310
ition 310
nghển 310
nguyê 310
ost 310
rome 310
sev 310
toé 310
1-28 309
13-17 309
15-18 309
A1 309
Ai-@@ 309
Ai-len 309
BỒI 309
Cai-phe 309
Celt 309
Code 309
CẤM 309
Docu@@ 309
Heath 309
Hiê 309
Isengard 309
Jestine 309
Knu@@ 309
Lac@@ 309
Mar 309
Meer@@ 309
Odin 309
Order 309
Orion 309
Phnom 309
Phyllis 309
Reno 309
René 309
Rộng 309
Sey@@ 309
Speci@@ 309
Tanaka 309
TƯỞNG 309
TỊCH 309
UCLA 309
Xer@@ 309
alist 309
aris@@ 309
boo@@ 309
bê@@ 309
chạ 309
dot@@ 309
fol@@ 309
garden 309
har 309
has@@ 309
hụ 309
iser 309
kara 309
kiềng 309
lina 309
new@@ 309
tations 309
tày 309
xụp 309
ôc 309
Ō@@ 309
ểu 309
241 308
A-ga 308
Audi 308
Ghost 308
Goldstein 308
Mildred 308
Mura@@ 308
Nana 308
NẠN 308
Peeves 308
Putin 308
Pyo 308
SW 308
Stacy 308
Ucbinô 308
back@@ 308
bet@@ 308
bili@@ 308
bing 308
cet 308
cricket 308
cyclo@@ 308
ddin 308
dz@@ 308
ental 308
ership 308
gram@@ 308
lac 308
rod 308
sac@@ 308
supp@@ 308
sấn 308
to. 308
xếch 308
¥ 308
Độn 308
184 307
950 307
Aziz 307
Body 307
Cash 307
Emmy 307
Hufflepuff 307
NẠI 307
Peg@@ 307
SUY 307
Sha@@ 307
Smithsonian 307
Thượng-Đế 307
Tuy@@ 307
cham 307
diệp 307
donia 307
ew@@ 307
gor 307
huỵch 307
ishi 307
lives 307
mem@@ 307
nap 307
nhoẹt 307
phor@@ 307
pyjama 307
quặp 307
sim 307
speak 307
sq 307
xía 307
ẳ@@ 307
1872 306
20.@@ 306
208 306
27,@@ 306
4-8 306
Abel 306
Alvito 306
Amen@@ 306
Avo@@ 306
Cavalli 306
Ceres 306
Coch@@ 306
Enigma 306
Fitzpatrick 306
Gag@@ 306
ID@@ 306
Ibid 306
Janine 306
Khali@@ 306
Macx 306
Na-a-man 306
Pec@@ 306
True 306
bson 306
chỏng 306
các@@ 306
ini@@ 306
moni@@ 306
noãn 306
phere 306
pt@@ 306
qs 306
trong@@ 306
tty 306
tú@@ 306
wis@@ 306
ưới 306
ốc. 306
ởm 306
13-18 305
1858 305
Anden 305
BEACH 305
Box@@ 305
Burger 305
Dae@@ 305
Early 305
Ghét 305
Inui 305
Johns 305
Jude 305
Kijima 305
Lawson 305
Mili@@ 305
Miêu 305
NV 305
Odyssey 305
Praha 305
Russia 305
Songs 305
Spain 305
Spor@@ 305
Stand@@ 305
chapter 305
cụi 305
deal 305
eks 305
ently 305
giằm 305
iOS 305
lab 305
mei 305
nau@@ 305
reli@@ 305
teau 305
ust 305
ô-liu 305
ĐH 305
Đu@@ 305
34-35 304
Benedi@@ 304
CAR@@ 304
Darrell 304
Dối 304
Hiếu 304
Iegoruska 304
Information 304
Ivy 304
Lenet 304
Liga 304
Mother 304
NHẬT 304
Noriko 304
Plus 304
Roo@@ 304
Shak@@ 304
Thoại 304
Thím 304
Thụ 304
Trừng 304
Tịnh 304
agger 304
dóc 304
hear 304
ims 304
lô-gic 304
lạt 304
machi 304
often 304
produ@@ 304
án@@ 304
ć 304
ẠN 304
ạt@@ 304
ỀM 304
ức. 304
2m 303
9,10 303
Agatha 303
Aus@@ 303
BD 303
CHIA 303
Chotas 303
Davies 303
Fear 303
Heskow 303
Hoạch 303
Hydra 303
Kou@@ 303
LY 303
Leopold 303
LÂM 303
MER@@ 303
Marfa 303
Most 303
Nassau 303
Pico 303
Pou@@ 303
Sap@@ 303
Townsend 303
Twe@@ 303
Vội 303
aldi 303
amp 303
blogger 303
cà@@ 303
det@@ 303
living 303
nging 303
niken 303
seri 303
sten 303
witt 303
wrote 303
xong. 303
Ô-xia 303
đề@@ 303
ỮA 303
1813 302
9-13 302
Bertha 302
Castel@@ 302
Climpt 302
Còi 302
Geographic 302
Hử 302
Khiêu 302
Krendler 302
NY@@ 302
Nakamura 302
Nath@@ 302
O-@@ 302
Pomfrey 302
SIM 302
Scha@@ 302
Shia 302
Spec@@ 302
Tactar 302
Voice 302
Wan@@ 302
Xiêm 302
Zwingli 302
bov 302
champagne 302
càm 302
dini 302
dition 302
dua 302
felt 302
heim 302
multi@@ 302
mớm 302
nhe@@ 302
rac 302
sexy 302
tèo 302
tếu 302
vàng. 302
yoko 302
zai 302
Ö@@ 302
ân. 302
đen. 302
1874 301
6,7 301
64@@ 301
Augusta 301
Azu@@ 301
BLTTDS 301
Blu 301
CHUCKLES 301
Canterbury 301
Culture 301
Danvers 301
Exơra 301
Federal 301
Glass 301
Hailey 301
Hem@@ 301
IEC 301
Johnston 301
Kag@@ 301
Lạm 301
Mỉa 301
Nation 301
Ngắn 301
Om@@ 301
PHÁ 301
Phức 301
Rak@@ 301
Rory 301
Shima 301
Spin@@ 301
Til@@ 301
Tric@@ 301
Trudy 301
Wed@@ 301
Yeltsin 301
authority 301
bưởi 301
dum 301
fli@@ 301
lass 301
ngưòi 301
organ 301
ource 301
rera 301
squ@@ 301
tợ 301
ushima 301
vector 301
weather 301
ó. 301
Đi@@ 301
Ẹ@@ 301
Ớ@@ 301
Binet 300
Bundes@@ 300
CUỐI 300
Creta 300
Digory 300
Fernanda 300
HỌ@@ 300
Jur@@ 300
LM 300
Nikita 300
Portsmouth 300
Romero 300
Sivert 300
Spot 300
SỨ 300
Tò 300
Vish@@ 300
aoka 300
aul 300
cắc 300
fie 300
grave 300
ngle 300
phôn 300
pole 300
py 300
pê@@ 300
tary 300
vos@@ 300
-Tại 299
232 299
Elissande 299
Fah@@ 299
Felipe 299
Giulia 299
Joni 299
Kiêng 299
Kyo@@ 299
Kê-@@ 299
Laban 299
Metropolitan 299
Neo@@ 299
Olsen 299
Pl@@ 299
RV 299
SR 299
SWAT 299
Sle@@ 299
Sulamít 299
TAI 299
TCHQ 299
Trek 299
Vinny 299
Whole 299
Wolfgang 299
agen 299
chỉ@@ 299
cn 299
ctive 299
cup 299
dge@@ 299
do. 299
dũa 299
evo 299
ladi@@ 299
ld@@ 299
lesson 299
long@@ 299
mond 299
money 299
mộ@@ 299
tẩn 299
urs 299
vái 299
without 299
º 299
ân-@@ 299
ĐỘC 299
Ỏ 299
ốt-@@ 299
1300 298
245 298
3m 298
607 298
Aang 298
Alle@@ 298
Chen@@ 298
GC 298
GỬI 298
July 298
Khiếp 298
Lea 298
NHIÊN 298
Ngự 298
STO@@ 298
Thé@@ 298
Tren@@ 298
Wren 298
Zanoni 298
ape 298
believers 298
edu@@ 298
khoen 298
pei 298
phu@@ 298
phẩu 298
pil@@ 298
spaghetti 298
sâ 298
ÊNG 298
Đắc 298
ằ@@ 298
20-23 297
42-@@ 297
68@@ 297
Avignon 297
Bern 297
Drag@@ 297
Ek@@ 297
Finney 297
Jelks 297
Kịp 297
LO 297
Marzak 297
Mauritius 297
Micheal 297
OC 297
Pre 297
Quil 297
Sioux 297
Telegraph 297
Yel@@ 297
adi 297
aves 297
azi 297
bic@@ 297
bắ@@ 297
eg 297
esha 297
ests 297
khách. 297
lake 297
nhúa 297
oper@@ 297
others 297
rật 297
spe@@ 297
tera 297
x-@@ 297
Ã@@ 297
Ỏ@@ 297
12.000 296
1877 296
207 296
Baanh 296
Bồn 296
CHƯA 296
Cassian 296
Condé 296
Cus@@ 296
Disneyland 296
Grimm 296
Lama 296
Manson 296
Manu@@ 296
Qumran 296
Salim 296
Sergio 296
Speed 296
Sô-phô-ni 296
VA@@ 296
Vãi 296
Willis 296
chịch 296
cine 296
emann 296
ethanol 296
heaven 296
inches 296
pul@@ 296
short 296
sos 296
sết 296
ute 296
xie 296
Úi 296
és 296
ĐCT 296
ươc 296
ủn 296
1-27 295
1878 295
A4 295
Adel 295
Bryce 295
Crow 295
Eileen 295
Fantasy 295
Gli@@ 295
Honolulu 295
Leroy 295
Malaya 295
Marla 295
Parsons 295
Plas@@ 295
Quen 295
Saab 295
Samsa 295
Ses@@ 295
Tell 295
Watt 295
ao. 295
eton 295
hồ. 295
ne. 295
nựng 295
pod 295
rate 295
sight 295
syn 295
tép 295
uc@@ 295
wins 295
ẩn. 295
10000 294
1866 294
23,@@ 294
AV 294
Ayumi 294
Cac@@ 294
Celtic 294
Design 294
Electronic 294
Esc@@ 294
Fisk 294
Gô-mô-rơ 294
Hayashi 294
Hemingway 294
Herac@@ 294
Hếp-rôn 294
Inno@@ 294
KT@@ 294
Maroc 294
Motor 294
Na-hum 294
Overby 294
Paul@@ 294
Pyotr 294
Ramsey 294
Somerset 294
Tun@@ 294
U.@@ 294
Whitcomb 294
Yvonne 294
ability 294
coe 294
cặm 294
fel@@ 294
flower 294
graffiti 294
kare 294
lủn 294
nette 294
oo-@@ 294
origami 294
otta 294
phan@@ 294
trê 294
xov 294
đố@@ 294
ẢNG 294
9. 293
Arriane 293
Bradshaw 293
Duyệt 293
Este@@ 293
Flitwick 293
Găng 293
Inte@@ 293
Lili@@ 293
Marlene 293
NIÊN 293
Nhầm 293
Oil 293
Preston 293
Reich@@ 293
România 293
Sakh 293
Ultra 293
Vạc 293
Walton 293
Wei 293
Windsor 293
atin 293
cH00FFFF 293
máy. 293
nandez 293
neon 293
pine 293
position 293
thế@@ 293
ugh 293
vằng 293
È@@ 293
ã. 293
đá. 293
ước. 293
ẨN 293
ẰNG 293
Ẽ 293
195@@ 292
57@@ 292
Bach@@ 292
Booth 292
Brisbane 292
Bấm 292
Chacko 292
Chev@@ 292
Daimyo 292
Doro@@ 292
Eni@@ 292
FT 292
Forks 292
Freeman 292
Fru@@ 292
Garamond 292
Giônơx 292
Hampton 292
Hêli 292
Javier 292
Katsu@@ 292
Kinh-thánh 292
Lipp@@ 292
Lắc 292
Maddox 292
Mitsu@@ 292
Mun 292
NGUYỆN 292
Newark 292
Ng 292
Pher@@ 292
Pin 292
Saladin 292
Shell 292
Trúc 292
TẤT 292
XP 292
XT 292
Zulu 292
abad 292
ael 292
ai-@@ 292
ballad 292
cuỗm 292
ffer@@ 292
hay@@ 292
oster 292
ough 292
pas 292
pher 292
raham 292
ruỗng 292
thuy@@ 292
tings 292
zab@@ 292
ình-@@ 292
ỂU 292
ửu 292
-Nếu 291
0000@@ 291
440 291
Bog@@ 291
Bonzo 291
Ca-lép 291
Chamberlain 291
Dame 291
Ef@@ 291
Geissler 291
Hiểm 291
Instagram 291
Kline 291
Lec@@ 291
Mathê 291
Melan@@ 291
Naphta 291
Nations 291
Ngụ 291
Oskar 291
Ramesses 291
Ritz 291
Rodin 291
Rozzoli 291
Stoddard 291
Stop 291
Suzuki 291
THÁI 291
THƯỞNG 291
Theory 291
Tokugawa 291
break 291
chel@@ 291
chệ 291
ento 291
general 291
hin 291
hoóc 291
hèm 291
ished 291
manuel 291
nhố 291
oxytocin 291
s.@@ 291
xờm 291
Ăng@@ 291
м@@ 291
ẻ. 291
Barbie 290
Bẫy 290
Elbe 290
Guin@@ 290
Gô-li-át 290
Hái 290
Innocent 290
Judas 290
KS 290
Livingston 290
Lorn 290
Prime 290
Publi@@ 290
Rug@@ 290
SB 290
TNCT 290
Tre 290
Wonder 290
asis 290
bul@@ 290
croft 290
doc 290
evsky 290
huê 290
iệt. 290
nghiễm 290
olly 290
oso 290
tone 290
tê@@ 290
vic@@ 290
ây. 290
ë 290
Đarya 290
................................@@ 289
1859 289
77@@ 289
Aberforth 289
Action 289
Ato@@ 289
Dickens 289
Farber 289
Farid 289
Kav@@ 289
Khoai 289
Medina 289
Niedermann 289
Nép 289
Sacramento 289
Schumann 289
Sidney 289
Soul 289
Us 289
arts 289
cry@@ 289
dez 289
eber 289
gat@@ 289
idea 289
looking 289
mùn 289
nâ 289
nạnh 289
pped 289
rig@@ 289
rr@@ 289
sak@@ 289
sher 289
tac@@ 289
tec@@ 289
xtơ 289
Ê-li-sa-bét 289
Ọ@@ 289
1790 288
1851 288
Abu@@ 288
Bathilda 288
Briggs 288
Caes@@ 288
Camelot 288
Hun 288
I-xơ-ra-ên 288
Janey 288
Lorenza 288
Lúa 288
Mammy 288
Markus 288
Merton 288
NL 288
Neo 288
Nicaea 288
Tron@@ 288
U.S 288
VIỄN 288
Xô-rô-ba-bên 288
chẹt 288
dier 288
epi@@ 288
fro@@ 288
graph@@ 288
lett 288
ma-na 288
mai@@ 288
move 288
ross 288
rặt 288
seven 288
sport 288
trg 288
trong. 288
tráp 288
từ@@ 288
wall 288
ÓI 288
ạnh 288
ẳn 288
23-25 287
ALL 287
Ayu@@ 287
Berg 287
Bethany 287
Celia 287
Concor@@ 287
Diệt 287
Eagle 287
Eliot 287
HẬU 287
Khẳng 287
Lọ 287
Mare 287
Mk 287
Montague 287
Mossad 287
Mơcxtôn 287
Rosen@@ 287
Sheldon 287
Shizuko 287
TỆ 287
Vexlovxki 287
Yamamoto 287
bê-@@ 287
dah 287
dgers 287
doro@@ 287
eous 287
illes 287
khoắt 287
lead 287
mmy 287
mõ 287
rei@@ 287
tribu@@ 287
una 287
ép@@ 287
BB 286
Bungari 286
Bá@@ 286
Bốc 286
Elle 286
Every 286
Food 286
Gan 286
Hayek 286
Helsinki 286
Igor 286
Janelle 286
Liter@@ 286
Maranzano 286
Melinda 286
Pok@@ 286
Pryor 286
SETI 286
Sic@@ 286
Syd 286
Talleyrand 286
Toshi@@ 286
World@@ 286
Years 286
bat 286
chiế@@ 286
dence 286
gụ 286
khắng 286
kiễng 286
lander 286
oy 286
oái 286
rịn 286
tock 286
uốc 286
váp 286
Áp-ne 286
ăm. 286
đừ 286
ễnh 286
Ỉ 286
ọn 286
11-9 285
720 285
999 285
Alexei 285
Alina 285
Amparo 285
Any@@ 285
BM 285
Chic@@ 285
Davidson 285
Demiris 285
Evolution 285
Fed@@ 285
Friends 285
Guan@@ 285
Gõ 285
Mauchly 285
Oman 285
Patric 285
Philips 285
Pike 285
Rivas 285
Stone@@ 285
Walgreens 285
biblical 285
chet 285
choa 285
chễm 285
dứ 285
granit 285
least 285
loã 285
mut 285
nab@@ 285
những@@ 285
stown 285
tenberg 285
trẻ. 285
uki 285
-A@@ 284
1832 284
43-@@ 284
8,9 284
Beyond 284
Brighton 284
CNC 284
Coin 284
Egypt 284
Feli@@ 284
Franky 284
Giannini 284
Kimberly 284
Kings 284
Lê-a 284
Marine 284
NHÁNH 284
Orr 284
Porfiri 284
Shap@@ 284
Single 284
Strickland 284
Ten 284
Things 284
Uber 284
Under 284
arita 284
auto@@ 284
ba. 284
cell 284
erra 284
giăm 284
lec@@ 284
lúi 284
nghi@@ 284
rõ. 284
ting@@ 284
vani 284
xô@@ 284
Đa-ri-út 284
у 284
у@@ 284
≥ 284
Belinda 283
Bát-@@ 283
Deutsche 283
Gieny 283
IPO 283
Ju 283
KHO 283
Kari 283
Know 283
Ma-đơ-len 283
Marseille 283
Notes 283
NỮ 283
Penh 283
RIS@@ 283
Rag@@ 283
Ramón 283
Rushworth 283
SU 283
Supp@@ 283
TINH 283
Tẩy 283
Vicky 283
Vlad 283
WW@@ 283
X-@@ 283
awn 283
choi 283
dil 283
ector 283
ether 283
family 283
grove 283
gs@@ 283
heard 283
kong 283
lors 283
making 283
sẵng 283
testosterone 283
thức. 283
ãm 283
ắng. 283
ực. 283
28-30 282
Belize 282
Education 282
Evangelical 282
Fredrik 282
Galt 282
Hare 282
Hathaway 282
Hekate 282
Katy 282
Khô 282
Kĩ 282
Petro 282
Raven 282
Ruồi 282
Suzanne 282
Sz@@ 282
THUẬN 282
Tot@@ 282
Uffe 282
Utsumi 282
Vulgate 282
Wak@@ 282
Zobrist 282
asons 282
chiro 282
dìa 282
ener 282
fen 282
itz 282
kiế@@ 282
lev 282
maine 282
mix 282
team 282
tok 282
tâ@@ 282
vi-rút 282
wara 282
ÒNG 282
óc@@ 282
đốp 282
μ@@ 282
ầng 282
ễ@@ 282
60.000 281
Acti@@ 281
Cống 281
District 281
Gavroche 281
Khoá 281
LẦN 281
Mira 281
Narcissa 281
Steel 281
Superman 281
Trớ 281
UV 281
Valenti@@ 281
Way@@ 281
Yehonala 281
Zig@@ 281
alina 281
anta 281
bber 281
cheo 281
dish 281
lúc. 281
mc@@ 281
mpi@@ 281
mson 281
net@@ 281
pros@@ 281
rapper 281
return 281
sili@@ 281
thủi 281
vik 281
ãy 281
Đũa 281
ỐN 281
ỘI 281
229 280
254 280
30,@@ 280
390 280
420 280
AFC 280
Achren 280
Archi@@ 280
Bu 280
Crassus 280
Crow@@ 280
Custer 280
Dodge 280
Doe 280
Falcone 280
Firenze 280
Ghi-@@ 280
HT 280
Hades 280
HÔ@@ 280
Jaff@@ 280
Lucinda 280
Luy@@ 280
Ló@@ 280
Lôtariô 280
Mikey 280
Nately 280
Ngẫu 280
Powers 280
Ruiz 280
Saeki 280
Safe@@ 280
Sami 280
Sears 280
Selma 280
Sô-@@ 280
Thi-thiên 280
Thor 280
TÔN 280
Té 280
TỚI 280
acey 280
blin 280
chỗi 280
ciples 280
eper 280
gea 280
iden@@ 280
ject 280
kol@@ 280
ller 280
mera 280
ngue 280
nguy@@ 280
rec@@ 280
sỗ 280
tab 280
virut 280
út-@@ 280
ạn. 280
ế. 280
ởn 280
1-40 279
1844 279
Ao 279
Barb 279
Beat@@ 279
Chê 279
Chôn 279
Dé@@ 279
Garner 279
HƯỞNG 279
Jr. 279
KHẢ 279
Kazan 279
Lip 279
McKen@@ 279
PHẢN 279
Prize 279
RM 279
Russian 279
Trans 279
add 279
ampa 279
atron 279
bép 279
eney 279
hee 279
inus 279
lệ. 279
mira@@ 279
mội 279
punk 279
rist 279
tọng 279
wang 279
ÀY 279
ằm 279
A-ma-léc 278
Army 278
Bolk 278
Cyril 278
Diên 278
Dream@@ 278
Genya 278
Godric 278
Gé@@ 278
Hen 278
Karkaroff 278
LD 278
Manh 278
NYPD 278
Oak 278
Princess 278
RAF 278
Shelby 278
Sonia 278
Stadium 278
TTLKCK 278
Thiếc 278
UNICEF 278
Vend@@ 278
Zab@@ 278
bas 278
chí@@ 278
coni 278
cord 278
dent 278
eis 278
fast 278
hộ@@ 278
ito 278
jihad 278
lẻm 278
moral 278
người@@ 278
special 278
wang@@ 278
ể@@ 278
ệt. 278
ỌNG 278
Aar@@ 277
Adama 277
Athen 277
Bê-rê 277
CU 277
Choáng 277
Cler@@ 277
Gian@@ 277
Gustave 277
Gỡ 277
Irwin 277
Its 277
Janssen 277
Lakes 277
Magi@@ 277
Mart 277
Micro@@ 277
NHƯNG 277
PK@@ 277
Rivi@@ 277
Sebas 277
Spy@@ 277
Station 277
Stott 277
Thùy 277
Tsagaglalal 277
Tsukahara 277
Ut@@ 277
Veri@@ 277
Winterfell 277
Work 277
Yermolov 277
alle@@ 277
cess 277
def@@ 277
during 277
ghiền 277
kit 277
ké 277
language 277
level 277
lờn 277
mono@@ 277
ngà@@ 277
onne 277
quez 277
rad 277
tế. 277
vaccine 277
within 277
zio 277
Ủi 277
≤ 277
223 276
303 276
Anh. 276
Bakers@@ 276
Corinna 276
Cáp 276
Dụ 276
Indianapolis 276
Ivanov 276
Kah@@ 276
Leicester 276
Luzon 276
Lượt 276
M-@@ 276
MM 276
MR@@ 276
Mariko-san 276
Na-tha-na-ên 276
Phô@@ 276
Root 276
Set 276
Shang 276
Sing@@ 276
Sôđôm 276
Turk 276
addy 276
among 276
atan 276
aur 276
bow 276
limo 276
mê-@@ 276
ngùn 276
nio 276
phi-@@ 276
rang@@ 276
sách. 276
xãy 276
yte 276
ÙNG 276
Ơ-phơ-rát 276
ượn 276
ế-@@ 276
-Đừng 275
1804 275
228 275
Bourne 275
Bram@@ 275
Card 275
Embry 275
Fad@@ 275
Fujiko 275
Giôsia 275
Gypsy 275
HLV 275
HẠI 275
Kudo 275
Lindsay 275
Loạn 275
MHz 275
Messiah 275
Mustang 275
Octa@@ 275
Radi@@ 275
Sne@@ 275
Trin@@ 275
VPCP 275
adan 275
andal 275
became 275
bourg 275
bull 275
bẹ 275
cit@@ 275
giường. 275
iều 275
jon 275
rọ 275
rừ 275
sinh. 275
sát. 275
tries 275
trâng 275
uối 275
xà-@@ 275
đô-@@ 275
Aghê 274
Alberta 274
Bùn 274
Camp 274
GIẢM 274
Grim@@ 274
Liêu 274
Lặn 274
Mab@@ 274
Midway 274
Mimi 274
Mộng 274
Quincy 274
Ring 274
Sergey 274
TTL@@ 274
Tessio 274
Thiêu 274
Trảng 274
VLNCN 274
Volkswagen 274
bro 274
chân. 274
esto@@ 274
ged 274
loo 274
miều 274
modem 274
nhợ 274
smith 274
tech@@ 274
vie@@ 274
xăng-@@ 274
Êrênhđira 274
î@@ 274
ỉ. 274
722 273
App 273
Bernad@@ 273
Eduard 273
F1 273
Fire@@ 273
Gigi 273
Giôđanh 273
Hafid 273
Hard 273
Kiyama 273
LB@@ 273
Macy 273
Moldova 273
Philo 273
Phổi 273
Player 273
Pompey 273
THUYẾT 273
Yến 273
akota 273
bran@@ 273
cino 273
https 273
mph 273
mòi 273
rae 273
tori 273
trav@@ 273
tục. 273
uu@@ 273
you@@ 273
ích-@@ 273
ĐẶT 273
đây@@ 273
Amador 272
Brow@@ 272
Cec@@ 272
Colombo 272
Danton 272
Elijah 272
Hogsmeade 272
Jing@@ 272
Joffrey 272
Julien 272
Khấu 272
Malacca 272
MỐI 272
Procter 272
Proctor 272
Redwood 272
Shankar 272
Vla@@ 272
Wai@@ 272
Whitby 272
YO@@ 272
aking 272
already 272
andr 272
control 272
dil@@ 272
evil 272
ffa 272
five 272
frey 272
hol 272
khênh 272
lines 272
mari@@ 272
mium 272
nữ. 272
phút. 272
quin@@ 272
roe 272
soft 272
sơ@@ 272
tằng 272
vana 272
ĐK@@ 272
1806 271
1849 271
250.000 271
Amity 271
Belfast 271
Brock 271
Hat 271
Huđơ 271
Lamp@@ 271
Lausanne 271
Quantico 271
Quest 271
Rê-@@ 271
San-chê-ríp 271
Space@@ 271
Tomás 271
Universi@@ 271
Verdurin 271
Verona 271
Wyoming 271
Yard 271
ang. 271
aos 271
fir@@ 271
ghi-ta 271
gol@@ 271
gone 271
hoo@@ 271
hênh 271
kilo@@ 271
lé 271
nghiệp. 271
rởm 271
ub@@ 271
vi-@@ 271
vits 271
xt@@ 271
Óc 271
Ộ 271
ụi 271
11201 270
370 270
7,8 270
Adobe 270
Alber@@ 270
Alon@@ 270
Chiaki 270
Cớm 270
Felten 270
Fonseca 270
Gardens 270
Gee 270
Grey@@ 270
HH@@ 270
Heller 270
Mão 270
Nil@@ 270
Rawls 270
Selia 270
Shibuya 270
TR 270
Thiêng 270
Thuấn 270
Um@@ 270
Vịt 270
Xan@@ 270
YE@@ 270
airs 270
asia 270
asser 270
bean 270
bươn 270
cassette 270
diên 270
diết 270
high@@ 270
illard 270
lyich 270
ngụt 270
nh.@@ 270
oặt 270
suit 270
trees 270
zaki 270
ấ 270
ẮM 270
ỉnh 270
1805 269
1853 269
1854 269
37-@@ 269
[...]
